{
  "##icket": 22355,
  "donald": 8582,
  "approxim": 1057,
  "wesley": 22853,
  "pine": 12394,
  "nomination": 13656,
  "louis": 4710,
  "significantly": 2387,
  "hollinger": 27249,
  "enforcement": 4445,
  "reactiv": 22014,
  "##icare": 14916,
  "bulk": 6571,
  "312": 9686,
  "biopharmaceutical": 9297,
  "charters": 10006,
  "unfavorable": 4895,
  "sma": 26072,
  "differently": 11597,
  "seeing": 24723,
  "204": 7384,
  "marqu": 21115,
  "##city": 16548,
  "restriction": 8102,
  "console": 17471,
  "jud": 6294,
  "determined": 1825,
  "magma": 16111,
  "starts": 14115,
  "357": 10583,
  "cogeneration": 12341,
  "concern": 4000,
  "opinions": 8381,
  "da": 11388,
  "gol": 16689,
  "##ted": 810,
  "dst": 19052,
  "marketability": 12593,
  "governments": 6092,
  "softwood": 28283,
  "teachers": 16682,
  "macro": 8975,
  "rox": 18989,
  "##burg": 6323,
  "##idi": 1147,
  "alls": 23725,
  "close": 3717,
  "patch": 14243,
  "opioid": 15900,
  "3d": 9538,
  "msas": 23789,
  "westr": 26973,
  "caval": 25722,
  "meanings": 20551,
  "chi": 15854,
  "veterinary": 13051,
  "metrology": 19350,
  "reintr": 29859,
  "christensen": 25159,
  "consumed": 10572,
  "gynec": 20383,
  "taxes": 1597,
  "lifted": 18531,
  "egg": 16495,
  "sector": 5085,
  "angeles": 7083,
  "##occupied": 29988,
  "albuquerque": 18410,
  "undesir": 16313,
  "velocity": 19676,
  "iran": 19769,
  "counterclaims": 10943,
  "brass": 17268,
  "barton": 16745,
  "padep": 29443,
  "reside": 15071,
  "logical": 25439,
  "euros": 10208,
  "prototyping": 21824,
  "unbund": 12643,
  "bags": 15230,
  "disqualifying": 23850,
  "harassment": 28720,
  "barges": 14415,
  "computershare": 24615,
  "deleted": 20830,
  "bmo": 21378,
  "##unte": 14396,
  "barc": 20402,
  "quiet": 28199,
  "##match": 15681,
  "##coin": 19703,
  "well": 1353,
  "men": 6291,
  "##uled": 3476,
  "walls": 19086,
  "forfeiture": 6840,
  "secret": 3932,
  "rockef": 26724,
  "riegle": 19718,
  "diem": 16460,
  "##far": 14005,
  "redemptions": 7232,
  "##ise": 1198,
  "refiners": 17416,
  "391": 11326,
  "recommends": 15664,
  "transcription": 20310,
  "quotas": 14595,
  "shurgard": 24503,
  "isolated": 15780,
  "beld": 22595,
  "su": 714,
  "pip": 3084,
  "holl": 11253,
  "gemc": 25489,
  "mmcfe": 23312,
  "fah": 21697,
  "enjoy": 10398,
  "quadr": 17724,
  "stands": 20933,
  "hp": 8750,
  "##members": 26892,
  "continue": 1729,
  "tacoma": 23429,
  "federal": 1420,
  "demographics": 11784,
  "##self": 14786,
  "microwave": 10630,
  "forecasted": 5607,
  "stimulation": 15545,
  "weaken": 16621,
  "prosec": 7468,
  "ceoc": 18362,
  "##evity": 21891,
  "unacceptable": 14607,
  "##flu": 24068,
  "##tle": 4274,
  "vulnerabilities": 18534,
  "diploma": 26545,
  "sourcing": 7963,
  "wfoe": 20268,
  "shares": 974,
  "fsi": 20315,
  "consign": 25003,
  "bang": 17160,
  "traumatic": 27660,
  "neff": 27050,
  "tmcc": 21770,
  "doubl": 24689,
  "nonvoting": 17924,
  "pel": 12604,
  "24th": 29402,
  "mixed": 8938,
  "ko": 10675,
  "matured": 9187,
  "\u2109": 334,
  "designates": 16612,
  "glaxo": 21295,
  "##grim": 21283,
  "regulators": 5069,
  "micha": 21731,
  "multid": 19727,
  "necessit": 11921,
  "163": 8058,
  "##aims": 8073,
  "106": 5882,
  "cou": 28807,
  "pharmacy": 7311,
  "doral": 15419,
  "rates": 1317,
  "conc": 2813,
  "\u00b2": 189,
  "##nes": 5308,
  "cng": 16909,
  "974": 13571,
  "ausp": 28461,
  "tds": 15020,
  "##aries": 1298,
  "wait": 20346,
  "steering": 15795,
  "##oulos": 19677,
  "infor": 25030,
  "##aldehyde": 27735,
  "alberta": 11561,
  "##oph": 4095,
  "03": 3728,
  "jl": 20988,
  "bcm": 19812,
  "scot": 9440,
  "unisys": 23970,
  "nonmonetary": 12695,
  "l": 154,
  "am": 765,
  "##icide": 23321,
  "coordinate": 12972,
  "montreal": 15111,
  "contamination": 5759,
  "various": 1700,
  "royale": 25845,
  "desires": 15367,
  "270": 7957,
  "\u03b5": 238,
  "clarke": 16886,
  "dmg": 28231,
  "682": 12747,
  "choice": 7200,
  "##film": 27755,
  "roch": 12505,
  "vig": 6116,
  "##leen": 18946,
  "##after": 3838,
  "repositioned": 28362,
  "##wich": 12842,
  "scm": 21440,
  "doctor": 12577,
  "determine": 2534,
  "##ething": 27352,
  "richmond": 12098,
  "downloaded": 25038,
  "taking": 5062,
  "nonbinding": 23309,
  "ulc": 18822,
  "french": 9942,
  "[unused4]": 5,
  "condensed": 4828,
  "cath": 8707,
  "##lies": 4232,
  "inhib": 6478,
  "##irm": 4622,
  "manip": 11943,
  "geos": 17214,
  "peril": 20528,
  "diverse": 6675,
  "\u0167": 215,
  "anatomy": 28581,
  "part": 883,
  "prudent": 7745,
  "michigan": 5732,
  "dry": 6528,
  "inventories": 3504,
  "knowingly": 12148,
  "yu": 15173,
  "##urna": 19376,
  "296": 10010,
  "arbitrators": 28337,
  "cnp": 24951,
  "beta": 11708,
  "apoptosis": 27150,
  "disasters": 7189,
  "coffeyville": 25616,
  "##itization": 16874,
  "hl": 14518,
  "alder": 29549,
  "prec": 3016,
  "dsu": 24584,
  "andrx": 21657,
  "i": 151,
  "wrc": 28255,
  "rp": 12829,
  "927": 13196,
  "proj": 2093,
  "coeur": 21358,
  "##iju": 14809,
  "site": 3031,
  "ericsson": 18712,
  "declared": 3963,
  "##rt": 16466,
  "claimants": 11440,
  "##ecks": 25788,
  "niger": 17503,
  "unitholder": 9644,
  "1981": 8194,
  "prescribed": 5632,
  "kir": 10488,
  "billions": 20215,
  "officers": 1738,
  "disproportionately": 15596,
  "ofac": 18686,
  "procter": 19940,
  "deactiv": 24111,
  "dozen": 25753,
  "cce": 18936,
  "##str": 1874,
  "rein": 4061,
  "accoun": 871,
  "pcb": 15252,
  "branch": 3822,
  "north": 2569,
  "2028": 11805,
  "refund": 4281,
  "suzhou": 24293,
  "city": 3483,
  "mediter": 28223,
  "##linical": 5633,
  "saskatchewan": 22181,
  "repatriation": 9605,
  "optical": 6929,
  "##ados": 15223,
  "##ibe": 24158,
  "ligg": 14896,
  "ehr": 17193,
  "drills": 19337,
  "##izing": 3608,
  "marble": 28150,
  "dix": 18617,
  "tomography": 26878,
  "appraisals": 7993,
  "##onetics": 25506,
  "tlgp": 25775,
  "boe": 7430,
  "workers": 4971,
  "mckinnon": 23675,
  "sport": 13208,
  "insured": 3650,
  "905": 12244,
  "arr": 1840,
  "##obank": 26556,
  "den": 2972,
  "fertili": 8922,
  "lamin": 19379,
  "acknowledgment": 24589,
  "776": 12587,
  "grocers": 25543,
  "##own": 1572,
  "gom": 26187,
  "borrowing": 3533,
  "##itted": 13719,
  "unrecognized": 3879,
  "##kw": 25785,
  "##lities": 12375,
  "miss": 5004,
  "comments": 6078,
  "park": 4452,
  "ssc": 28044,
  "cecil": 29931,
  "lomb": 19838,
  "##wards": 2929,
  "ace": 7407,
  "##40": 8615,
  "##eties": 18562,
  "next": 2991,
  "diarrhea": 22670,
  "##zation": 11811,
  "mercedes": 25199,
  "chung": 27833,
  "##stown": 16635,
  "freeman": 22210,
  "##\u00aa": 574,
  "medi": 11058,
  "##enc": 1004,
  "vos": 29683,
  "styl": 27971,
  "##ums": 15090,
  "irrevocable": 9625,
  "ascertain": 11414,
  "minimally": 15696,
  "666": 9012,
  "ounce": 13680,
  "venous": 25305,
  "##iasis": 18618,
  "31": 790,
  "[unused60]": 61,
  "##ourcing": 5311,
  "banner": 15751,
  "parenthesis": 28160,
  "exhibition": 13363,
  "daytona": 23714,
  "oncor": 13842,
  "pab": 22471,
  "sherwood": 25864,
  "fluorescent": 23622,
  "##\u2211": 526,
  "1979": 9514,
  "vail": 22601,
  "screened": 24631,
  "engineering": 3477,
  "verisign": 20001,
  "corporation": 1324,
  "227": 9423,
  "traits": 22739,
  "##now": 24088,
  "disadvant": 8499,
  "discontinu": 2993,
  "##ycles": 25161,
  "achiev": 9800,
  "proxies": 13305,
  "enable": 4201,
  "##ikes": 12076,
  "##acies": 17868,
  "cie": 23790,
  "knoxville": 21904,
  "beds": 11944,
  "inner": 17517,
  "tw": 1467,
  "dozens": 29163,
  "##thold": 13042,
  "##vas": 21051,
  "travelocity": 28267,
  "prominent": 14123,
  "closure": 5439,
  "##limited": 9203,
  "##ods": 28459,
  "followed": 7144,
  "repair": 3886,
  "hepatitis": 14412,
  "dosing": 11904,
  "antioxidant": 29530,
  "level": 1449,
  "barker": 27620,
  "pork": 17299,
  "supplements": 8981,
  "##tra": 12514,
  "sis": 23250,
  "raj": 26953,
  "kinase": 20401,
  "##dma": 29556,
  "predefined": 24392,
  "lbi": 25759,
  "nig": 19846,
  "merck": 9414,
  "phosphor": 21524,
  "lorain": 27839,
  "infringe": 7291,
  "antimicrobial": 26097,
  "rebalancing": 20775,
  "craw": 17331,
  "panama": 17048,
  "sfx": 24572,
  "scd": 27276,
  "##oo": 14496,
  "subcommitt": 21587,
  "interviews": 20481,
  "flexibility": 5323,
  "zebra": 21413,
  "##70": 17195,
  "veteran": 25805,
  "carlton": 21781,
  "124": 7267,
  "researchers": 13878,
  "nederland": 26500,
  "dedication": 18629,
  "nmtc": 28841,
  "deliverable": 9136,
  "##tation": 25178,
  "inventor": 15561,
  "lg": 8269,
  "indec": 22207,
  "bookings": 12661,
  "##05": 14853,
  "##vereign": 9817,
  "salaries": 4753,
  "transl": 8840,
  "##mented": 8673,
  "frisco": 28534,
  "noting": 25902,
  "mag": 5313,
  "sugarb": 24866,
  "outages": 9310,
  "closes": 18405,
  "228": 9265,
  "lab": 3831,
  "##activeness": 14799,
  "alag": 18240,
  "extinguished": 13625,
  "kyoto": 22587,
  "manager": 3244,
  "##hyth": 17101,
  "reissuance": 24629,
  "presently": 4896,
  "township": 16578,
  "##andong": 16588,
  "##bus": 7863,
  "float": 13546,
  "stellar": 27775,
  "checks": 8946,
  "##rain": 27649,
  "ameritrade": 28747,
  "lar": 14433,
  "##51": 17428,
  "component": 2984,
  "hosts": 21196,
  "##ration": 5442,
  "positioned": 8500,
  "##ais": 9509,
  "bulgar": 26540,
  "decre": 1323,
  "##aud": 3068,
  "##\u0644": 583,
  "##ntc": 16996,
  "trucking": 11270,
  "content": 3937,
  "vet": 26488,
  "ares": 16651,
  "##ten": 1661,
  "allegation": 21867,
  "wastes": 7570,
  "prioritization": 29941,
  "202": 2874,
  "colstrip": 24024,
  "vinyl": 14069,
  "converse": 9176,
  "425": 8819,
  "##tics": 2615,
  "danger": 15968,
  "closer": 15713,
  "93": 3873,
  "dalian": 19501,
  "##horse": 24401,
  "frac": 9595,
  "azim": 29980,
  "knee": 16707,
  "victory": 20505,
  "contacted": 17670,
  "influenza": 15413,
  "missiles": 29070,
  "planning": 4101,
  "shang": 9744,
  "975": 10930,
  "grady": 27561,
  "conrail": 24611,
  "corrective": 6272,
  "dissenting": 28046,
  "points": 3811,
  "ramsey": 24081,
  "subcontracts": 16557,
  "memphis": 14311,
  "nsps": 23506,
  "##ompass": 8666,
  "605": 7417,
  "alternative": 3222,
  "exist": 4142,
  "lapsed": 17495,
  "010": 11995,
  "elizabethtown": 24132,
  "expired": 5023,
  "noncumulative": 19450,
  "donaldson": 21751,
  "\u300b": 420,
  "paulson": 29535,
  "pawns": 26667,
  "binds": 25827,
  "##f": 453,
  "scul": 29368,
  "info": 21064,
  "##tg": 1615,
  "certiorari": 21619,
  "kravis": 28799,
  "posed": 17937,
  "peti": 5213,
  "teeth": 26467,
  "oid": 19446,
  "compensate": 8104,
  "whitman": 24564,
  "psp": 21228,
  "73": 3730,
  "jude": 22311,
  "consequence": 9285,
  "##89": 16248,
  "circumstance": 14620,
  "negligent": 13367,
  "competency": 21023,
  "mra": 28607,
  "ocon": 27976,
  "conj": 18998,
  "automating": 24387,
  "form": 1036,
  "repealed": 16198,
  "##ron": 3754,
  "##irs": 21024,
  "movements": 6422,
  "unplanned": 15106,
  "inserted": 20084,
  "ngl": 6394,
  "iti": 22661,
  "nrg": 9794,
  "##keye": 15717,
  "##iverse": 16132,
  "armored": 21162,
  "\u0f6b": 288,
  "melissa": 29024,
  "irving": 17528,
  "bears": 5754,
  "iod": 28934,
  "navy": 11507,
  "shortfalls": 11656,
  "urology": 21607,
  "ashford": 16013,
  "ure": 22678,
  "##oy": 6425,
  "joined": 4972,
  "inclement": 17702,
  "subpoen": 11392,
  "invented": 26164,
  "adult": 10036,
  "##amycin": 29061,
  "belg": 10261,
  "ecg": 25956,
  "carriers": 4633,
  "certior": 21616,
  "##ematics": 25298,
  "cultures": 18371,
  "wol": 14229,
  "deficiencies": 5450,
  "codm": 16961,
  "tarceva": 29744,
  "belgian": 21621,
  "1954": 22028,
  "perme": 20483,
  "unif": 27425,
  "numerator": 13643,
  "##alis": 23145,
  "##insic": 5615,
  "##bros": 29953,
  "341": 10910,
  "incorporating": 8833,
  "oconee": 28433,
  "accessing": 13990,
  "reliance": 5798,
  "kum": 27514,
  "groupings": 21055,
  "dai": 18412,
  "iw": 17710,
  "##bank": 4931,
  "##v": 481,
  "necessity": 12500,
  "mist": 13407,
  "[unused21]": 22,
  "##funds": 28148,
  "cyt": 12202,
  "thereof": 4411,
  "none": 2909,
  "practicing": 16228,
  "##xim": 996,
  "##ague": 12058,
  "9a": 5850,
  "cres": 13156,
  "weekend": 24786,
  "exceptional": 14284,
  "wherever": 17940,
  "dosed": 24423,
  "hanover": 14224,
  "671": 12888,
  "lawsuit": 4691,
  "enabled": 7949,
  "renders": 21172,
  "##timate": 13754,
  "altria": 20515,
  "candle": 24181,
  "cotton": 11946,
  "ski": 14210,
  "significant": 1114,
  "lafayette": 18354,
  "microdis": 27240,
  "vocational": 24559,
  "957": 13123,
  "emory": 25793,
  "radiological": 21084,
  "deerfield": 16309,
  "289": 10358,
  "takeovers": 22837,
  "bac": 11025,
  "trades": 6537,
  "cytok": 18170,
  "##poration": 29111,
  "inappropri": 26874,
  "sas": 14306,
  "worse": 19615,
  "##onomy": 9096,
  "sunbelt": 23638,
  "coinc": 11887,
  "##clp": 16661,
  "##ensive": 1947,
  "vice": 2160,
  "ecc": 18702,
  "\uffe1": 445,
  "reclam": 8402,
  "correct": 7180,
  "##odesk": 18684,
  "lamar": 16014,
  "capita": 15808,
  "cerberus": 23875,
  "##csc": 20510,
  "risky": 15401,
  "degradation": 17295,
  "accomplishments": 21718,
  "unwanted": 23465,
  "ptc": 17218,
  "emanating": 24049,
  "##made": 26035,
  "hydrocarbon": 12689,
  "##tt": 5151,
  "fil": 1116,
  "enrolling": 18137,
  "648": 12080,
  "holder": 3599,
  "ubti": 29726,
  "clarion": 29135,
  "noon": 24596,
  "absol": 6363,
  "biology": 13535,
  "bil": 15695,
  "reits": 7964,
  "lounge": 20949,
  "amounting": 9257,
  "dolby": 24944,
  "insurers": 5867,
  "lawrence": 10282,
  "discour": 7502,
  "hock": 18616,
  "assignment": 5630,
  "##rill": 7739,
  "##han": 7870,
  "737": 11055,
  "declines": 4653,
  "silk": 25251,
  "##velopment": 29143,
  "\u00a9": 181,
  "##ocor": 19181,
  "cair": 15733,
  "dealing": 9273,
  "steady": 12945,
  "umc": 21465,
  "##umption": 6559,
  "occupation": 15358,
  "##apan": 4343,
  "therefor": 16554,
  "weakened": 13591,
  "sioux": 22458,
  "yon": 29616,
  "25": 1532,
  "philosophies": 29436,
  "requisite": 6067,
  "gwh": 25525,
  "interact": 14504,
  "dispositive": 12110,
  "safeguard": 10441,
  "##preciation": 2149,
  "anten": 10956,
  "dissemination": 17291,
  "providers": 3190,
  "directing": 13821,
  "working": 2626,
  "response": 3621,
  "reus": 17785,
  "nfa": 15126,
  "aviv": 18651,
  "user": 4788,
  "judges": 26474,
  "158": 6517,
  "kathleen": 23132,
  "##vax": 14901,
  "oglethorpe": 15282,
  "hein": 15398,
  "captain": 28031,
  "dsc": 24492,
  "victoria": 16610,
  "##opy": 13795,
  "inpatient": 11244,
  "obsc": 23606,
  "houses": 10702,
  "pbfx": 24128,
  "laurence": 26684,
  "##losed": 13401,
  "solve": 18078,
  "kfc": 22957,
  "lj": 25971,
  "predicted": 7795,
  "203": 5063,
  "outdo": 8005,
  "schul": 21341,
  "publicity": 8098,
  "heloc": 24931,
  "240": 7323,
  "recombinant": 15150,
  "controllable": 25168,
  "vulnerable": 8574,
  "##oro": 13556,
  "doubletree": 25389,
  "##aged": 2797,
  "##illance": 9475,
  "780": 11012,
  "virus": 11375,
  "439": 11220,
  "disorders": 9891,
  "formation": 5571,
  "##\u00b8": 509,
  "prolifer": 14035,
  "overtime": 14814,
  "extracts": 22664,
  "##icom": 14013,
  "hennessy": 22996,
  "##enter": 12480,
  "arbitron": 19977,
  "homebuild": 8836,
  "bladder": 19552,
  "inad": 13550,
  "genetic": 9889,
  "981": 13771,
  "##ubs": 27795,
  "##brand": 13189,
  "[unused13]": 14,
  "huang": 22189,
  "correlated": 14199,
  "nti": 25435,
  "kodak": 15143,
  "##mic": 17667,
  "##parag": 22971,
  "sporting": 11825,
  "inorgan": 23933,
  "eri": 29453,
  "print": 6876,
  "voyager": 23117,
  "hewlett": 13432,
  "asset": 1482,
  "again": 1864,
  "psychology": 24926,
  "kw": 12995,
  "vcm": 26805,
  "steam": 7944,
  "diamondback": 29731,
  "##inating": 24161,
  "quot": 5877,
  "##author": 4936,
  "mts": 22002,
  "##sed": 2518,
  "aso": 28974,
  "refinanced": 8824,
  "audits": 2761,
  "protections": 9671,
  "evansville": 21713,
  "levi": 19708,
  "ham": 7527,
  "978": 13167,
  "biotechnology": 6360,
  "healthy": 9791,
  "168": 7882,
  "##ime": 9001,
  "geograp": 3303,
  "viskase": 25072,
  "geographic": 3767,
  "homesites": 23904,
  "##ideo": 24267,
  "grupo": 18679,
  "pend": 16654,
  "specialization": 25454,
  "total": 1150,
  "zell": 27446,
  "deteriorating": 14390,
  "mercantile": 13562,
  "meco": 26548,
  "pledges": 16288,
  "##burgh": 10026,
  "teamsters": 21951,
  "sanctions": 6563,
  "owes": 16057,
  "cybers": 12376,
  "carryback": 14173,
  "##aca": 12553,
  "##ml": 18670,
  "bec": 1322,
  "otcq": 13100,
  "unkn": 6954,
  "teng": 26317,
  "tabular": 10306,
  "crush": 15189,
  "abusive": 18836,
  "pagers": 27603,
  "##ste": 10777,
  "##ti": 609,
  "shipbuilding": 24427,
  "mga": 29374,
  "maj": 1956,
  "accelerated": 4838,
  "687": 12139,
  "bankruptcies": 14549,
  "lv": 15630,
  "wendy": 15037,
  "curric": 14805,
  "osb": 18985,
  "radioactive": 11645,
  "wage": 8252,
  "forgive": 27865,
  "undisbursed": 23278,
  "##fton": 19155,
  "terminal": 6217,
  "fairchild": 18450,
  "stre": 3413,
  "lamb": 20734,
  "aspire": 21047,
  "##yl": 3568,
  "judgment": 3183,
  "##boards": 14277,
  "usf": 15192,
  "1988": 4960,
  "deciding": 12379,
  "exacerbated": 16565,
  "clearly": 10512,
  "greater": 2420,
  "keybank": 14878,
  "##acted": 2564,
  "trusteed": 27957,
  "miniatur": 27353,
  "injunctive": 8612,
  "tdrs": 11236,
  "##logic": 13661,
  "shiver": 27253,
  "anywhere": 14362,
  "garage": 15301,
  "##ete": 5347,
  "centered": 16065,
  "oversees": 11711,
  "##ours": 17907,
  "explorer": 22574,
  "films": 7846,
  "joinder": 23421,
  "10k": 24023,
  "split": 4533,
  "restored": 15834,
  "##arsat": 28642,
  "respiratory": 11027,
  "\u0640": 281,
  "rej": 8081,
  "normally": 6701,
  "pipel": 3293,
  "##ayo": 27302,
  "renamed": 12742,
  "nippon": 24297,
  "salts": 29914,
  "theat": 9759,
  "095": 13399,
  "amortize": 8178,
  "concentration": 4803,
  "conoco": 25388,
  "spun": 17077,
  "##erver": 20008,
  "hail": 22299,
  "controller": 5537,
  "culture": 9405,
  "necess": 2112,
  "ukr": 17302,
  "presents": 3791,
  "minors": 27625,
  "tropical": 16498,
  "osh": 13015,
  "novo": 12225,
  "inclined": 26394,
  "mma": 19396,
  "negl": 26181,
  "resub": 14317,
  "assuring": 22530,
  "metroc": 23422,
  "shortcom": 22081,
  "arbitrage": 19557,
  "prone": 20538,
  "dtc": 13285,
  "contrast": 10666,
  "chey": 21255,
  "bris": 26055,
  "merger": 2403,
  "len": 14529,
  "bpi": 29318,
  "proposal": 6150,
  "pca": 7328,
  "##tives": 1798,
  "##veloped": 7170,
  "##oger": 21144,
  "harmonic": 24210,
  "kiant": 28318,
  "concierge": 27402,
  "marr": 20743,
  "supplies": 4151,
  "recommendation": 9085,
  "camelot": 29606,
  "##\u06d5": 565,
  "ally": 17613,
  "customarily": 14764,
  "portugal": 17121,
  "inconven": 22015,
  "shareholding": 29433,
  "bernardino": 23483,
  "father": 17920,
  "##la": 7842,
  "dependable": 19328,
  "chain": 4929,
  "la": 2751,
  "perim": 22631,
  "kick": 8675,
  "converti": 2318,
  "cus": 21687,
  "telev": 22294,
  "possessing": 19297,
  "appar": 5453,
  "##aska": 6928,
  "##esty": 16925,
  "develop": 1037,
  "##opharma": 28091,
  "##ami": 8687,
  "##aza": 6930,
  "##etcher": 21541,
  "forec": 3007,
  "biops": 18261,
  "isot": 22312,
  "debtor": 8550,
  "##ad": 824,
  "##ystic": 19244,
  "locomotive": 25813,
  "160": 5446,
  "akam": 25135,
  "veritas": 19131,
  "fruits": 20303,
  "##ang": 797,
  "violate": 9425,
  "##inski": 19015,
  "receivership": 15046,
  "resells": 25863,
  "avis": 22452,
  "accredited": 7615,
  "trem": 20206,
  "provident": 13472,
  "warranty": 4260,
  "avatar": 25709,
  "\u2074": 315,
  "refers": 7668,
  "loads": 15618,
  "intervals": 10434,
  "##ptin": 26912,
  "##oded": 27711,
  "susque": 15892,
  "##ending": 1832,
  "eip": 16233,
  "rfc": 22237,
  "##ulf": 4443,
  "denomination": 26196,
  "milan": 22588,
  "e": 147,
  "562": 11302,
  "pes": 9525,
  "##worthiness": 29466,
  "google": 12572,
  "atmel": 24411,
  "newer": 11968,
  "##terson": 14846,
  "galvanizing": 24378,
  "influencing": 16169,
  "cancerous": 25499,
  "ambac": 12435,
  "##land": 2684,
  "restating": 21319,
  "alice": 28763,
  "##oscopic": 21385,
  "rural": 8595,
  "\uff04": 431,
  "evergreen": 15288,
  "according": 2259,
  "hallwood": 20414,
  "videoc": 23162,
  "##msc": 6310,
  "advertisers": 7581,
  "avnet": 22619,
  "sulph": 18325,
  "cypr": 22082,
  "##odi": 26782,
  "devotes": 18006,
  "reinterpreted": 27424,
  "offtake": 29631,
  "pp": 6616,
  "forb": 8928,
  "collectively": 3971,
  "gastric": 25043,
  "tsa": 17385,
  "stratton": 25920,
  "##lock": 10384,
  "hiber": 29234,
  "mewb": 26017,
  "1974": 9697,
  "illustrate": 19476,
  "4200": 20960,
  "opportunity": 4051,
  "exclusivity": 7398,
  "exercise": 2101,
  "psa": 14582,
  "##ections": 2927,
  "##ired": 5122,
  "sul": 9283,
  "borrow": 1747,
  "those": 1409,
  "comprom": 8106,
  "entries": 14515,
  "writedown": 13049,
  "ret": 1390,
  "gears": 29027,
  "hager": 26761,
  "\u03c3": 247,
  "marm": 24333,
  "timing": 3024,
  "von": 15669,
  "redesigning": 29569,
  "hect": 19035,
  "undelivered": 9495,
  "fuels": 7166,
  "sier": 9318,
  "elimin": 3231,
  "heath": 25382,
  "iroqu": 23619,
  "tac": 9102,
  "roads": 14128,
  "##funded": 11846,
  "##eton": 11339,
  "examiners": 20595,
  "analgesics": 29042,
  "freeze": 13788,
  "ae": 7289,
  "elgin": 27667,
  "big": 7741,
  "leary": 29144,
  "274": 9871,
  "simon": 11793,
  "##llc": 16107,
  "barb": 10655,
  "goodman": 14655,
  "citadel": 16701,
  "cronin": 29602,
  "hyal": 25841,
  "antonio": 12949,
  "fermentation": 21855,
  "htt": 8420,
  "posit": 23562,
  "inc": 660,
  "hatch": 13892,
  "lessees": 7782,
  "cna": 12841,
  "ciba": 28585,
  "peat": 15286,
  "\u00ac": 184,
  "1968": 14133,
  "##onite": 28154,
  "##case": 18916,
  "flows": 1547,
  "future": 1073,
  "##arketing": 9063,
  "mined": 13460,
  "##it": 630,
  "deficiency": 6043,
  "edge": 8936,
  "distributions": 2533,
  "\uff0c": 436,
  "catastrop": 6430,
  "allied": 8832,
  "fo": 3193,
  "constipation": 27890,
  "stakeholder": 28491,
  "prac": 2424,
  "besp": 18017,
  "##ovich": 24588,
  "##iere": 12049,
  "sjg": 16047,
  "highlighted": 21959,
  "##master": 15477,
  "##lesex": 21484,
  "insulation": 15529,
  "piece": 15260,
  "reincorporation": 20438,
  "mec": 17822,
  "continuity": 10723,
  "##tina": 8676,
  "cunningham": 21945,
  "bap": 29666,
  "cayman": 9786,
  "household": 8013,
  "dcc": 25653,
  "##ovic": 27265,
  "invesco": 18218,
  "invo": 6322,
  "dece": 18599,
  "alternatively": 10319,
  "cycles": 6809,
  "annum": 3960,
  "##rel": 5223,
  "2034": 16056,
  "##ince": 8897,
  "nichols": 16596,
  "boa": 28434,
  "##cii": 20354,
  "##invest": 28196,
  "##avit": 26674,
  "##ayette": 14788,
  "biodegr": 24736,
  "cyberknife": 28916,
  "manitoba": 23888,
  "triage": 27884,
  "##otr": 14419,
  "lien": 5132,
  "structure": 3586,
  "edible": 26563,
  "carryovers": 13920,
  "##ass": 1177,
  "vegetation": 25445,
  "vermillion": 26606,
  "cause": 2425,
  "cobb": 25575,
  "bofa": 26902,
  "af": 4471,
  "##online": 27320,
  "pice": 24870,
  "husi": 28566,
  "bonds": 3394,
  "438": 10835,
  "##raft": 14935,
  "frontier": 7578,
  "informal": 13708,
  "painting": 20490,
  "vm": 14464,
  "retrospectively": 8365,
  "qualitatively": 25773,
  "pill": 20744,
  "543": 11980,
  "computational": 22652,
  "even": 3252,
  "countermeasures": 29719,
  "nullif": 22316,
  "bridges": 19115,
  "closeout": 25776,
  "bristow": 27239,
  "##lar": 19822,
  "d": 146,
  "evolve": 10737,
  "authorize": 8581,
  "boeing": 9219,
  "nonoper": 15526,
  "reestablish": 28779,
  "beazer": 26932,
  "budgetary": 14989,
  "spo": 15725,
  "arrow": 13379,
  "ten": 2234,
  "discounted": 3739,
  "opto": 19493,
  "maxxam": 28265,
  "upscale": 15010,
  "carroll": 15463,
  "##omon": 13558,
  "##oz": 6790,
  "greenville": 16139,
  "corp": 2887,
  "difficult": 3407,
  "carter": 13452,
  "dent": 27915,
  "##tinguished": 10855,
  "finco": 23491,
  "princess": 24948,
  "schwe": 25122,
  "le": 848,
  "##oxid": 21705,
  "##gy": 4454,
  "accepted": 2477,
  "haven": 16503,
  "##iston": 14383,
  "crucial": 19194,
  "heparin": 26263,
  "antibody": 9246,
  "only": 1983,
  "##omial": 15083,
  "seizure": 14798,
  "lender": 4153,
  "saudi": 16391,
  "ars": 9091,
  "average": 1580,
  "##\u00bc": 504,
  "hangar": 28550,
  "##wealth": 8317,
  "##side": 11476,
  "discrimination": 12986,
  "malonebailey": 25125,
  "gallagher": 17328,
  "##matched": 29987,
  "##ueller": 18866,
  "richman": 23007,
  "maa": 17492,
  "re": 635,
  "##ecess": 1960,
  "fountain": 17411,
  "awp": 25519,
  "ia": 16551,
  "brew": 9021,
  "691": 13104,
  "saw": 10403,
  "helm": 24597,
  "999": 10924,
  "cynthia": 24640,
  "cablevision": 13775,
  "1966": 17814,
  "petitions": 11188,
  "scheduling": 10738,
  "cip": 16091,
  "coast": 6222,
  "warrants": 2265,
  "aggregates": 13682,
  "zapata": 22478,
  "assure": 4449,
  "inability": 4181,
  "precious": 10084,
  "##cott": 18473,
  "##avor": 2449,
  "walgreens": 25283,
  "elek": 28402,
  "reliably": 11324,
  "##arian": 12073,
  "notifies": 21395,
  "##\u03bf": 543,
  "apsc": 19845,
  "rz": 22418,
  "noble": 11010,
  "venture": 2743,
  "polyurethane": 20873,
  "##istically": 18571,
  "columns": 15112,
  "pike": 20246,
  "indirect": 3368,
  "litt": 25194,
  "countercl": 8374,
  "woodbridge": 22786,
  "4": 124,
  "superced": 19257,
  "terminable": 14470,
  "cfa": 28315,
  "owning": 6842,
  "schultz": 26469,
  "todd": 14303,
  "universities": 10617,
  "negotiated": 5189,
  "reimbursed": 6126,
  "therms": 27628,
  "apartment": 6137,
  "##jv": 27297,
  "##urgical": 11789,
  "mab": 22049,
  "municip": 5071,
  "146": 6476,
  "urged": 19358,
  "vencor": 28872,
  "consor": 11798,
  "sponsors": 5912,
  "resubstitution": 18149,
  "mdeq": 28798,
  "recognizes": 4570,
  "##iest": 25745,
  "materials": 2546,
  "survivor": 19458,
  "tria": 22176,
  "##\u02ee": 591,
  "cautioned": 14364,
  "completions": 19687,
  "harmed": 6327,
  "realizations": 25710,
  "calciton": 28951,
  "##hem": 20143,
  "sur": 2618,
  "alto": 18221,
  "##andon": 5724,
  "reformulation": 29126,
  "concludes": 14131,
  "##wise": 2372,
  "restr": 1330,
  "documenting": 18816,
  "parity": 16406,
  "##fare": 9157,
  "positions": 2651,
  "humana": 22271,
  "##produc": 14471,
  "terrorist": 7036,
  "##uck": 4219,
  "unlever": 27485,
  "##oe": 15988,
  "##its": 954,
  "assump": 1914,
  "##econdary": 23925,
  "storing": 15231,
  "coaching": 25591,
  "depreciation": 2323,
  "northrop": 17860,
  "grouped": 14397,
  "interchange": 9468,
  "efh": 16079,
  "madrid": 25070,
  "realize": 4758,
  "irish": 14840,
  "continually": 6079,
  "pneum": 15599,
  "account": 1952,
  "##ised": 2038,
  "age": 3891,
  "##osure": 24761,
  "multipoint": 25399,
  "portion": 1931,
  "cnb": 20765,
  "rooft": 25092,
  "769": 12750,
  "seafood": 15817,
  "461": 11764,
  "superfund": 9801,
  "grading": 13879,
  "rel": 860,
  "cle": 2668,
  "signs": 11734,
  "matches": 11364,
  "revert": 18269,
  "decides": 14606,
  "andersen": 8146,
  "producers": 5803,
  "}": 171,
  "redirect": 23582,
  "information": 1101,
  "ath": 10060,
  "##apital": 4800,
  "substances": 5383,
  "ruther": 26611,
  "hamburg": 20564,
  "\u03ba": 242,
  "705": 12046,
  "##2o": 24098,
  "owns": 3526,
  "994": 13392,
  "piedmont": 13689,
  "jackson": 8515,
  "##utt": 19469,
  "peripheral": 10051,
  "stratified": 26848,
  "##icated": 5459,
  "induce": 12491,
  "##electric": 10435,
  "trying": 19158,
  "anything": 16195,
  "affixed": 23724,
  "suspicious": 20403,
  "cok": 29567,
  "220": 7051,
  "carb": 5727,
  "carrols": 25020,
  "j": 152,
  "activate": 20657,
  "nee": 15575,
  "ecr": 18277,
  "bulle": 5617,
  "veris": 18736,
  "##astate": 10639,
  "film": 5870,
  "cecl": 29806,
  "##liver": 8561,
  "prom": 2221,
  "scaff": 22114,
  "##dom": 4934,
  "[unused27]": 28,
  "##stop": 18148,
  "swaptions": 20802,
  "camden": 19726,
  "biotherap": 22836,
  "##valued": 23492,
  "##37": 13966,
  "718": 6402,
  "##\u00a8": 498,
  "##rable": 16972,
  "##tel": 6374,
  "gmib": 23030,
  "conform": 3083,
  "cleaners": 23115,
  "bondholders": 18681,
  "vectors": 22011,
  "dropping": 27328,
  "tek": 15168,
  "behaviors": 17549,
  "##gers": 15831,
  "alfred": 18746,
  "woodward": 18753,
  "bnsf": 15966,
  "dissatisf": 15848,
  "tdma": 24683,
  "##ingham": 22634,
  "derived": 3453,
  "database": 6720,
  "telematics": 25804,
  "doses": 11882,
  "coco": 21022,
  "situated": 9572,
  "explo": 10221,
  "reactive": 24151,
  "mdpsc": 22371,
  "midwestern": 17057,
  "urs": 23880,
  "procedural": 12667,
  "andas": 19863,
  "imminent": 22193,
  "kirin": 22746,
  "signature": 5797,
  "resc": 7342,
  "##ding": 8798,
  "indeterm": 14854,
  "protocols": 9282,
  "predatory": 28715,
  "inject": 11272,
  "award": 2689,
  "cinc": 10532,
  "ltl": 19701,
  "insert": 19085,
  "krupp": 20117,
  "modes": 20570,
  "beh": 2582,
  "displaying": 21582,
  "pull": 18922,
  "nationwide": 7371,
  "##ning": 1728,
  "heco": 14044,
  "dynamic": 9418,
  "rupture": 29553,
  "overbur": 25210,
  "rocket": 20503,
  "##lu": 3868,
  "restricts": 9999,
  "valves": 12372,
  "loyal": 7898,
  "carton": 21664,
  "bonuses": 5859,
  "larson": 22203,
  "chose": 14979,
  "alkaline": 26911,
  "##enson": 11382,
  "igt": 20607,
  "directional": 17064,
  "sinclair": 22572,
  "infl": 23364,
  "funded": 3635,
  "communicates": 26019,
  "seca": 25354,
  "dissolved": 12782,
  "divesting": 23771,
  "manchester": 19402,
  "##utility": 18858,
  "guarantors": 5498,
  "editor": 23554,
  "richardson": 16199,
  "consolidations": 9209,
  "gemini": 20309,
  "emc": 10464,
  "ticker": 14679,
  "mohawk": 16253,
  "##eld": 1335,
  "marwick": 15698,
  "paragraph": 5729,
  "robotics": 19136,
  "##asol": 28453,
  "consummating": 15502,
  "formulate": 18622,
  "mcdermott": 22372,
  "##lees": 20259,
  "mir": 6668,
  "##gren": 24601,
  "commits": 16902,
  "likewise": 11069,
  "517": 11433,
  "cargo": 8503,
  "desks": 27432,
  "chalk": 24534,
  "bancfirst": 29841,
  "##ks": 2384,
  "histor": 2098,
  "vanc": 13683,
  "foil": 20719,
  "##loading": 15339,
  "hur": 8728,
  "synd": 5819,
  "lts": 17972,
  "strateg": 1852,
  "abuse": 8549,
  "##thr": 10696,
  "stereo": 27887,
  "ced": 6281,
  "mice": 17631,
  "alco": 7240,
  "actel": 28790,
  "aia": 27338,
  "amortized": 2566,
  "experience": 2163,
  "speech": 13557,
  "convertible": 2325,
  "studying": 21361,
  "billboard": 20566,
  "purch": 1052,
  "ping": 21263,
  "ya": 16546,
  "783": 12824,
  "conforms": 22568,
  "yahoo": 14280,
  "dar": 12588,
  "vect": 14903,
  "repower": 28619,
  "fh": 11606,
  "##ollers": 28482,
  "##esting": 1935,
  "publishes": 16247,
  "##ocurrency": 17858,
  "cooking": 17494,
  "declares": 22138,
  "feeds": 20418,
  "pregn": 18303,
  "dup": 7735,
  "danaher": 26458,
  "documentary": 23509,
  "importers": 20749,
  "primary": 2526,
  "hull": 14646,
  "federated": 15363,
  "plead": 20195,
  "nucleos": 28258,
  "accomplishing": 22951,
  "laf": 15372,
  "greystone": 20416,
  "cnl": 10628,
  "ample": 21326,
  "ridge": 8696,
  "aflac": 19933,
  "##anol": 5786,
  "proposes": 15110,
  "%": 109,
  "tcm": 22218,
  "\uff80": 444,
  "tranches": 10915,
  "tolling": 14231,
  "arden": 18538,
  "obligation": 2688,
  "##reated": 21493,
  "##upp": 12584,
  "cooperate": 14812,
  "snowboard": 27878,
  "degr": 19628,
  "anthony": 10429,
  "kend": 18890,
  "879": 13076,
  "takeda": 15344,
  "##oskel": 25202,
  "schreiber": 26807,
  "oral": 6491,
  "fir": 1297,
  "anac": 26947,
  "##aughton": 24563,
  "aggregated": 6533,
  "therap": 3414,
  "defibrill": 22768,
  "itc": 10992,
  "breadth": 9018,
  "genes": 10668,
  "sewer": 18034,
  "##ause": 1480,
  "marcum": 21462,
  "orphan": 8209,
  "##anet": 14233,
  "disru": 4023,
  "triggering": 9158,
  "##405": 17953,
  "perquisites": 11564,
  "xen": 16303,
  "consoles": 19882,
  "##nis": 9327,
  "arrears": 7717,
  "professor": 12129,
  "##aded": 8433,
  "permian": 12940,
  "##email": 26405,
  "fa": 5095,
  "occupational": 10184,
  "##ons": 1279,
  "sepsis": 27825,
  "takeover": 7728,
  "cav": 13011,
  "hrp": 26662,
  "bsc": 22873,
  "bradley": 13891,
  "hostilities": 17022,
  "niche": 10609,
  "eureka": 21992,
  "umbrella": 14421,
  "antiv": 20153,
  "inflated": 20146,
  "vom": 26009,
  "delegated": 12680,
  "lynn": 18231,
  "exploration": 3559,
  "prospects": 4457,
  "rmr": 13406,
  "rofin": 29244,
  "amendments": 3637,
  "fraudulent": 8464,
  "extraction": 10689,
  "bfc": 17644,
  "ont": 8534,
  "sophistication": 17125,
  "acuity": 16993,
  "betting": 22855,
  "##week": 27868,
  "sod": 10254,
  "use": 1308,
  "santee": 29879,
  "separ": 2436,
  "established": 2217,
  "##tirement": 2200,
  "garner": 23393,
  "##66": 16655,
  "##en": 614,
  "coupons": 14883,
  "francis": 15535,
  "hawthorne": 26494,
  "nsi": 24555,
  "chances": 27910,
  "medco": 25052,
  "contingency": 7031,
  "capacity": 2493,
  "eck": 28144,
  "ni": 7706,
  "investees": 11092,
  "across": 4117,
  "potter": 28559,
  "encompass": 8706,
  "sox": 18298,
  "priv": 2147,
  "centralized": 8114,
  "lead": 2484,
  "boats": 13758,
  "pem": 19162,
  "##acellular": 26156,
  "escalate": 21841,
  "precise": 9103,
  "norm": 3153,
  "ameristar": 25578,
  "##enderson": 14965,
  "miracle": 22115,
  "##crs": 24889,
  "874": 13178,
  "conrad": 26393,
  "h2": 29811,
  "##ul": 685,
  "##ffa": 26896,
  "oppenheimer": 18583,
  "renowned": 29544,
  "demonstrating": 13828,
  "##orah": 24175,
  "##glomer": 25529,
  "drake": 28245,
  "##graft": 19023,
  "ucs": 29891,
  "salesforce": 23341,
  "##mount": 24516,
  "reps": 20622,
  "focus": 3144,
  "beneath": 27129,
  "amplifier": 22494,
  "survey": 8479,
  "relie": 11395,
  "nareit": 14830,
  "##light": 4809,
  "##s": 469,
  "retin": 18189,
  "mwh": 12958,
  "bgss": 27225,
  "##sex": 12715,
  "minne": 12325,
  "##ophys": 10300,
  "colors": 15998,
  "cabot": 12944,
  "extinguishment": 5874,
  "policing": 23447,
  "amf": 21861,
  "telem": 9832,
  "probabilistic": 28449,
  "tohmatsu": 29555,
  "installations": 10831,
  "##illard": 16899,
  "remington": 18637,
  "fide": 17434,
  "cran": 18706,
  "identified": 3246,
  "gladstone": 21269,
  "utilizes": 5708,
  "symantec": 20898,
  "jean": 16291,
  "panel": 7858,
  "pay": 936,
  "southmark": 27945,
  "pret": 6185,
  "3com": 21034,
  "soybeans": 19861,
  "paperwork": 28387,
  "##ym": 9882,
  "fashions": 24074,
  "quist": 28663,
  "synopsys": 24646,
  "persu": 8472,
  "residues": 25990,
  "##tro": 17377,
  "recoverability": 5267,
  "##ulent": 8358,
  "separated": 11024,
  "impediments": 25153,
  "gin": 22930,
  "bw": 19698,
  "repricing": 7942,
  "246": 9621,
  "nol": 6906,
  "##preciated": 26530,
  "##ave": 5667,
  "nico": 17412,
  "economic": 1959,
  "harness": 16497,
  "3c": 29410,
  "portable": 9037,
  "kva": 25065,
  "nervous": 18002,
  "cooperative": 7039,
  "builds": 16063,
  "inflationary": 11133,
  "##ighting": 21111,
  "levied": 17893,
  "wcg": 26104,
  "mixture": 17707,
  "gluc": 10997,
  "stanton": 25746,
  "418": 11035,
  "dallas": 7437,
  "capsule": 20820,
  "##by": 2657,
  "##adyne": 12805,
  "hawaii": 8974,
  "sports": 5981,
  "transporter": 28718,
  "garages": 27844,
  "lojack": 24518,
  "arrang": 1945,
  "cycling": 27333,
  "harbour": 24493,
  "##pres": 19914,
  "##feng": 21017,
  "bur": 5072,
  "animated": 22318,
  "domic": 9438,
  "ngp": 25426,
  "refrigerated": 15340,
  "##odyne": 8041,
  "launching": 15395,
  "bhe": 18343,
  "nii": 19689,
  "deal": 2873,
  "korn": 23126,
  "dale": 16646,
  "ust": 18965,
  "ris": 1076,
  "presidential": 17007,
  "embry": 23978,
  "refine": 13560,
  "routes": 12361,
  "dominated": 16592,
  "sos": 18600,
  "polystyrene": 29370,
  "reformulated": 27663,
  "313": 9998,
  "file": 2414,
  "gathering": 5823,
  "winning": 14019,
  "supervisors": 17765,
  "##esley": 27799,
  "##fill": 4843,
  "pins": 27529,
  "##yps": 14768,
  "seth": 29320,
  "travelo": 26786,
  "subpoenas": 16595,
  "ost": 29289,
  "penetrated": 28221,
  "shirts": 19890,
  "amend": 1372,
  "initiative": 7613,
  "mba": 12256,
  "williamson": 20227,
  "portfol": 1851,
  "past": 2683,
  "dma": 20928,
  "##ram": 11716,
  "tin": 14245,
  "registered": 2530,
  "americas": 6877,
  "##atory": 1485,
  "fetal": 25858,
  "capco": 19401,
  "discrep": 22577,
  "margins": 3585,
  "1939": 29883,
  "##anova": 25504,
  "caterp": 18028,
  "authored": 26088,
  "hiland": 26770,
  "hier": 4517,
  "##ona": 10814,
  "biosimilars": 26889,
  "##oms": 8271,
  "astraz": 14296,
  "beij": 10454,
  "forecasting": 11807,
  "reput": 9610,
  "astrazeneca": 14302,
  "##lik": 20348,
  "carbide": 19288,
  "##imil": 14216,
  "##stat": 3573,
  "classifying": 17664,
  "##eye": 20813,
  "touc": 6898,
  "objective": 4606,
  "carlo": 11701,
  "muscul": 29040,
  "915": 11120,
  "kan": 15794,
  "pdv": 22221,
  "implementing": 5290,
  "quinta": 23592,
  "##anche": 18642,
  "hgi": 26784,
  "##connect": 23433,
  "rl": 17179,
  "handy": 29670,
  "lev": 7142,
  "trustmark": 16687,
  "steph": 16452,
  "rw": 21347,
  "microbial": 22042,
  "##beck": 20911,
  "yan": 18911,
  "consolidation": 3296,
  "details": 5469,
  "unaccept": 14137,
  "philos": 9401,
  "##oxy": 25162,
  "##leton": 11974,
  "mississip": 5456,
  "sa": 2172,
  "medis": 27009,
  "##tsch": 25534,
  "inhibit": 10706,
  "obvious": 26583,
  "2022": 6997,
  "medina": 26267,
  "##encia": 19700,
  "blu": 11054,
  "backgrounds": 19204,
  "##bursed": 23259,
  "059": 13804,
  "nonpublic": 15635,
  "commercialize": 5348,
  "newbridge": 24048,
  "mogul": 16437,
  "avon": 17236,
  "cabinets": 19649,
  "##acher": 19842,
  "quantitatively": 28622,
  "comstock": 20523,
  "rigorous": 11632,
  "ihop": 22975,
  "safety": 2940,
  "561": 11782,
  "aware": 5437,
  "##ori": 19562,
  "prescrib": 7630,
  "digest": 21222,
  "differential": 8682,
  "##wide": 3228,
  "interest": 910,
  "values": 2304,
  "satisfactory": 6416,
  "toxicities": 23999,
  "cove": 17914,
  "orb": 12665,
  "326": 9772,
  "gastroint": 17259,
  "polyst": 29184,
  "##emb": 2197,
  "\u2265": 366,
  "doss": 28611,
  "fails": 6097,
  "consult": 3229,
  "mans": 19214,
  "asi": 17161,
  "gao": 24839,
  "##thetics": 20270,
  "##isano": 29989,
  "perhaps": 14663,
  "urug": 25642,
  "general": 1015,
  "fedex": 12651,
  "##np": 24103,
  "once": 4630,
  "infine": 25167,
  "178": 8744,
  "##fluid": 26473,
  "##itable": 5790,
  "petrie": 28360,
  "##berts": 9878,
  "nor": 1742,
  "nokia": 19117,
  "basins": 15453,
  "juris": 3076,
  "efficiently": 7341,
  "simplification": 19570,
  "project": 2572,
  "trh": 21089,
  "harvest": 10662,
  "sph": 29367,
  "xiv": 18386,
  "refractory": 15187,
  "fabricating": 25774,
  "corrobor": 19579,
  "relig": 20910,
  "patches": 23327,
  "starr": 26465,
  "believes": 2174,
  "##ango": 16491,
  "forecast": 6399,
  "swapped": 20888,
  "unde": 6049,
  "y2": 12153,
  "antibiotics": 17083,
  "prev": 1614,
  "##ackaged": 24448,
  "##hong": 24237,
  "dele": 14312,
  "little": 6016,
  "mexican": 8258,
  "##erock": 28808,
  "##58": 21132,
  "procuring": 18026,
  "##essa": 22952,
  "subcom": 21328,
  "2033": 14576,
  "1940": 7305,
  "968": 13139,
  "piston": 27963,
  "monster": 19887,
  "can": 1170,
  "##itel": 18905,
  "nonre": 13840,
  "reflected": 3019,
  "##ulators": 17967,
  "##acious": 24259,
  "schum": 28274,
  "retain": 2352,
  "truth": 14190,
  "##burn": 11671,
  "augmented": 18675,
  "fuji": 22948,
  "hematologic": 27219,
  "energ": 11322,
  "lubric": 13911,
  "landy": 25978,
  "##areit": 14420,
  "##hazardous": 29600,
  "weaker": 12600,
  "##pcs": 29156,
  "forg": 8355,
  "assum": 2411,
  "asp": 4319,
  "piz": 12544,
  "tortious": 21412,
  "##ility": 855,
  "wpc": 17713,
  "10017": 29055,
  "welsh": 26330,
  "##agency": 20625,
  "newsprint": 15124,
  "##ronics": 13246,
  "dredging": 21037,
  "energy": 1709,
  "##ically": 1930,
  "own": 1247,
  "prepar": 2398,
  "embezz": 24706,
  "showroom": 20647,
  "clean": 4408,
  "adapt": 8315,
  "proppants": 29800,
  "sensitive": 4918,
  "loss": 971,
  "demol": 15346,
  "235": 8818,
  "penins": 16264,
  "abstr": 19580,
  "unn": 13210,
  "nio": 22127,
  "intensive": 8772,
  "oss": 25414,
  "bever": 8466,
  "interven": 7610,
  "fel": 9084,
  "bioc": 14429,
  "brackets": 26403,
  "issuing": 5380,
  "vip": 20250,
  "3b": 22854,
  "extrem": 22830,
  "resorts": 7277,
  "bombard": 26303,
  "##bp": 13914,
  "##aleigh": 15936,
  "conocoph": 19294,
  "##mobil": 17884,
  "inkjet": 20467,
  "##ergies": 7978,
  "prelimin": 5574,
  "melafind": 28969,
  "lie": 19046,
  "recognize": 3185,
  "cf": 6622,
  "grades": 10932,
  "hct": 22774,
  "brandywine": 20462,
  "legislative": 5795,
  "laser": 6891,
  "undet": 16074,
  "collecting": 9111,
  "alz": 16127,
  "respa": 24527,
  "polypropylene": 21027,
  "uncommon": 21349,
  "excav": 17350,
  "aros": 14301,
  "certain": 973,
  "##olent": 29334,
  "\u215d": 342,
  "retainage": 23417,
  "take": 2939,
  "linda": 18428,
  "arlington": 16475,
  "resonance": 24467,
  "geoff": 22075,
  "fragr": 12597,
  "opposing": 23237,
  "mri": 12154,
  "sce": 8796,
  "byproducts": 20919,
  "hortic": 28107,
  "condition": 1181,
  "##elling": 22453,
  "repatriate": 14337,
  "wynne": 27536,
  "thereto": 3762,
  "carramerica": 28411,
  "##avo": 17979,
  "##espie": 27581,
  "gca": 27690,
  "horwath": 25113,
  "opc": 21507,
  "stocks": 6090,
  "quantifies": 29858,
  "accessories": 6613,
  "consequently": 4990,
  "xi": 8997,
  "vineyards": 22738,
  "myocardial": 23780,
  "western": 4926,
  "eia": 21489,
  "benefited": 9061,
  "prevents": 15092,
  "commercial": 1588,
  "last": 3043,
  "incision": 27182,
  "trademarks": 4429,
  "physics": 16486,
  "[unused12]": 13,
  "avionics": 18799,
  "usci": 25185,
  "bott": 7541,
  "gilead": 20272,
  "semiann": 11847,
  "reade": 23712,
  "lyons": 18928,
  "##mi": 6614,
  "come": 7317,
  "meantime": 29532,
  "chemists": 29640,
  "regul": 1043,
  "planar": 26650,
  "structured": 6039,
  "imbedded": 28749,
  "544": 11626,
  "kronos": 14488,
  "##orrect": 9185,
  "dream": 16575,
  "clinicians": 15957,
  "wick": 19947,
  "convened": 29944,
  "##ans": 805,
  "baskets": 12998,
  "reform": 4602,
  "opens": 21301,
  "appearing": 6247,
  "dwight": 25216,
  "reincorporated": 16281,
  "##36": 15247,
  "ibc": 19494,
  "hershey": 24828,
  "increasing": 2918,
  "orbit": 13725,
  "##ibration": 15776,
  "##estown": 27883,
  "military": 5979,
  "atc": 14118,
  "apart": 4763,
  "jimmy": 27520,
  "exceeding": 6727,
  "decentralized": 16793,
  "below": 1756,
  "sliding": 22332,
  "boll": 26715,
  "hns": 23147,
  "dealer": 4189,
  "passu": 15610,
  "##ida": 3654,
  "allow": 1419,
  "accrued": 2196,
  "##ableness": 12069,
  "upc": 10314,
  "##iph": 9027,
  "ginn": 16675,
  "baseload": 19801,
  "uncompetitive": 29461,
  "##retion": 3177,
  "979": 13745,
  "stricter": 14126,
  "judgmental": 16893,
  "ranch": 9729,
  "mosc": 21898,
  "forfeited": 7330,
  "nsos": 26681,
  "073": 13927,
  "imbal": 11405,
  "orbcomm": 19595,
  "##enne": 18252,
  "##ured": 1695,
  "##priation": 8601,
  "commercials": 20811,
  "taper": 29194,
  "peabody": 19267,
  "hereby": 5168,
  "refinery": 7091,
  "impulse": 28780,
  "professional": 3160,
  "nontaxable": 23504,
  "948": 13408,
  "identifying": 6021,
  "069": 13781,
  "fung": 15580,
  "unevalu": 21063,
  "muff": 28363,
  "mish": 24676,
  "13a": 4501,
  "wrongfully": 19730,
  "##antech": 22272,
  "51": 3021,
  "tren": 20516,
  "tanks": 9106,
  "eisen": 25719,
  "perr": 23001,
  "fracture": 17018,
  "tailoring": 23556,
  "borr": 1600,
  "moon": 25889,
  "##whe": 26260,
  "numer": 3687,
  "resol": 3312,
  "##ersion": 14310,
  "2016": 1505,
  "guil": 17501,
  "##mbor": 27599,
  "albeit": 29214,
  "##fred": 22043,
  "cohorts": 24714,
  "relocate": 13579,
  "models": 4520,
  "imperial": 11516,
  "goodwill": 1917,
  "iron": 7802,
  "brazos": 24975,
  "cobank": 21078,
  "martha": 20956,
  "leuk": 15078,
  "alleviate": 17461,
  "##utes": 4099,
  "[unused5]": 6,
  "transdermal": 20034,
  "##ilicon": 20200,
  "##hc": 6320,
  "particip": 1857,
  "ambulatory": 16055,
  "thirteen": 12874,
  "slope": 21030,
  "quotient": 24927,
  "canned": 23681,
  "throughout": 3478,
  "infr": 2655,
  "preparation": 3118,
  "eight": 4643,
  "cautions": 21922,
  "phrases": 19231,
  "##teen": 6513,
  "acp": 20107,
  "patric": 18105,
  "subcontracted": 21613,
  "diagnostics": 8350,
  "damaging": 21086,
  "corr": 2697,
  "bartlett": 25301,
  "ukraine": 19239,
  "hond": 15432,
  "equaled": 12965,
  "reo": 12315,
  "bottlers": 21789,
  "encapsulation": 28604,
  "##folk": 16380,
  "hai": 24677,
  "##lio": 21579,
  "ppas": 13514,
  "polr": 29715,
  "axs": 24976,
  "petro": 13464,
  "communities": 4760,
  "powder": 10724,
  "partly": 10393,
  "latter": 9949,
  "cisco": 13020,
  "federally": 7831,
  "##proved": 18980,
  "roadway": 20613,
  "##120": 28381,
  "exception": 5186,
  "_": 141,
  "##mach": 24817,
  "##fts": 21984,
  "pressures": 5949,
  "nursing": 7662,
  "transponder": 19528,
  "##ign": 856,
  "risk": 1092,
  "hcs": 18644,
  "know": 3449,
  "mak": 4089,
  "equ": 923,
  "##oted": 3240,
  "goldberg": 19736,
  "ldl": 23025,
  "gaz": 27730,
  "geophysical": 12247,
  "amusement": 21553,
  "##loy": 1032,
  "##ilium": 24187,
  "doctr": 17980,
  "exports": 12795,
  "writed": 13046,
  "##ken": 10406,
  "voy": 12327,
  "formats": 10833,
  "trial": 2473,
  "hou": 6308,
  "##opharm": 7596,
  "kc": 15980,
  "thr": 1090,
  "strauss": 22925,
  "improving": 5920,
  "##ou": 649,
  "##ph": 2468,
  "oaktree": 17813,
  "passing": 16473,
  "abandoning": 23717,
  "persuasive": 8730,
  "radioshack": 22258,
  "##licity": 21092,
  "empty": 25128,
  "tes": 10336,
  "books": 7172,
  "disparity": 28503,
  "neurological": 18104,
  "stearns": 14944,
  "christopher": 11005,
  "internet": 2959,
  "shutdowns": 16220,
  "garment": 23959,
  "bx": 26315,
  "##gp": 10138,
  "\u0384": 233,
  "533": 11598,
  "comp": 647,
  "304": 8806,
  "bowes": 24079,
  "[unused49]": 50,
  "wfn": 27163,
  "nek": 24838,
  "coordinated": 12126,
  "signing": 9343,
  "sensor": 11503,
  "banks": 2809,
  "resumes": 27721,
  "douglas": 8541,
  "discus": 1741,
  "##bles": 17223,
  "##while": 26343,
  "control": 1113,
  "centralize": 26980,
  "##bec": 11743,
  "industrialized": 28498,
  "stabilizing": 21310,
  "##linc": 29968,
  "##\u2460": 592,
  "jets": 21298,
  "borrower": 3554,
  "six": 2975,
  "inaccur": 16392,
  "inadequacy": 26523,
  "solutions": 2682,
  "27th": 27243,
  "dairy": 10677,
  "lil": 23487,
  "resist": 8032,
  "dbi": 27939,
  "##rust": 27616,
  "sidney": 22732,
  "emerg": 3592,
  "encourage": 7866,
  "bi": 2977,
  "misappropriation": 10075,
  "lacked": 20901,
  "xing": 18634,
  "distributors": 3660,
  "syringe": 22389,
  "hayward": 25402,
  "christi": 11843,
  "glp": 20799,
  "npns": 27411,
  "trees": 18606,
  "laidlaw": 21315,
  "doubleclick": 25365,
  "##onents": 26513,
  "pills": 28943,
  "arenas": 26794,
  "hospira": 15528,
  "unex": 5342,
  "molded": 15414,
  "symph": 20810,
  "san": 4144,
  "spaces": 13332,
  "neenah": 20750,
  "dillon": 24790,
  "##xon": 10803,
  "russell": 9918,
  "insurable": 16494,
  "considerable": 7633,
  "substitution": 10148,
  "##ochemical": 8970,
  "distillation": 27512,
  "130": 5452,
  "cbc": 22499,
  "lobb": 25456,
  "444": 10620,
  "adversely": 1923,
  "photographic": 25392,
  "##beans": 19848,
  "nsp": 10344,
  "configured": 16050,
  "soviet": 28565,
  "arbor": 18168,
  "pairs": 23476,
  "stifel": 21459,
  "450": 6142,
  "anal": 1793,
  "archer": 24621,
  "stratif": 20805,
  "14a": 7356,
  "equinox": 12364,
  "##hart": 17361,
  "defendants": 4277,
  "surrogate": 23729,
  "defaulted": 9946,
  "relapsed": 22378,
  "encour": 5976,
  "iec": 20214,
  "plr": 21103,
  "cytotoxic": 24558,
  "titanium": 11616,
  "clubs": 9599,
  "family": 3436,
  "##lain": 25741,
  "surg": 5089,
  "connect": 7854,
  "##efined": 19229,
  "##rw": 27821,
  "cordless": 28019,
  "mutations": 18912,
  "bottle": 17585,
  "axa": 17178,
  "foresee": 4492,
  "##92": 20295,
  "##ouse": 3044,
  "##auer": 13619,
  "rol": 20198,
  "cct": 20958,
  "voluntarily": 8143,
  "contingently": 12168,
  "mcd": 9519,
  "atsi": 20491,
  "##enswear": 29635,
  "[unused57]": 58,
  "matters": 2096,
  "##ru": 956,
  "fhlbanks": 13726,
  "teas": 28175,
  "##lers": 12877,
  "triumph": 20663,
  "chat": 17300,
  "estee": 27387,
  "edm": 25566,
  "reconciles": 12003,
  "reprocessing": 26342,
  "##erse": 1228,
  "spreading": 22742,
  "pitney": 24636,
  "crusader": 24699,
  "milwau": 13982,
  "consecutive": 5986,
  "lined": 28442,
  "puco": 15070,
  "##83": 17609,
  "##apol": 8069,
  "discounting": 8851,
  "cleanup": 7583,
  "sufficient": 2537,
  "##took": 15841,
  "##western": 8168,
  "##iatr": 29392,
  "##livan": 11229,
  "##\ufb02": 550,
  "county": 3703,
  "sir": 9584,
  "##hlor": 19854,
  "pershing": 26771,
  "energies": 17836,
  "ups": 9299,
  "cellulose": 21203,
  "begin": 2068,
  "frees": 21667,
  "hw": 18158,
  "implementations": 16538,
  "##vern": 1552,
  "overseen": 20590,
  "indep": 1752,
  "bars": 13931,
  "cartil": 24881,
  "recomm": 4294,
  "discoun": 2088,
  "aag": 18733,
  "lasts": 26306,
  "pres": 1074,
  "##ands": 1722,
  "hutchinson": 26706,
  "mcgladrey": 20011,
  "aquifer": 29050,
  "payable": 1976,
  "singer": 21486,
  "attendees": 28683,
  "##ye": 20014,
  "##alore": 28966,
  "theories": 15616,
  "lae": 9239,
  "workstations": 16761,
  "tu": 9358,
  "eq": 10615,
  "alleviated": 29448,
  "payables": 7130,
  "hsc": 28097,
  "pooling": 5563,
  "prsus": 24042,
  "<": 132,
  "workflows": 25187,
  "ceil": 21174,
  "interpretations": 5541,
  "lakeland": 18525,
  "westinghouse": 16330,
  "exemp": 10190,
  "##ving": 1734,
  "exhibitions": 23665,
  "411": 10718,
  "hedged": 4860,
  "flue": 22891,
  "planted": 25875,
  "##filled": 29176,
  "sunnyvale": 19172,
  "##enture": 2235,
  "767": 11406,
  "dss": 19733,
  "transistors": 24244,
  "successfully": 3371,
  "gd": 11584,
  "appointment": 7337,
  "summons": 25748,
  "\u02c6": 225,
  "pair": 18824,
  "affym": 22104,
  "deprec": 4957,
  "countrywide": 11898,
  "leg": 1679,
  "nsf": 29693,
  "marshall": 12493,
  "##yu": 24581,
  "kios": 15183,
  "##atever": 20090,
  "escape": 29697,
  "pcs": 6711,
  "72": 3610,
  "iheartcommunications": 23348,
  "5605": 23406,
  "alumin": 6642,
  "story": 10243,
  "allotments": 24598,
  "motiv": 7512,
  "laredo": 24356,
  "restart": 23028,
  "##etting": 18202,
  "hanc": 13815,
  "rot": 8614,
  "attempts": 7439,
  "deq": 28730,
  "immunoassay": 25411,
  "hip": 8371,
  "crow": 12982,
  "alab": 5717,
  "cw": 11741,
  "rul": 5379,
  "tron": 20796,
  "wis": 18027,
  "univ": 26221,
  "antidumping": 27372,
  "##ocation": 19996,
  "##alty": 23561,
  "##ing": 632,
  "00001": 22859,
  "scientific": 5373,
  "chadwick": 26586,
  "racetrack": 17523,
  "dilig": 6500,
  "ziff": 18705,
  "##avail": 7627,
  "conversely": 9445,
  "inapplic": 10229,
  "\u1d43": 292,
  "buyback": 16558,
  "##endo": 17652,
  "abandoned": 9241,
  "disinfection": 29293,
  "##ycom": 28768,
  "gradually": 12393,
  "timelines": 16969,
  "##change": 8243,
  "diode": 22205,
  "oriental": 21415,
  "origin": 4998,
  "broadened": 17768,
  "drin": 11015,
  "addressed": 8215,
  "realiz": 5043,
  "##world": 16432,
  "litigated": 22257,
  "thrust": 29151,
  "##rimp": 27214,
  "##endent": 1613,
  "development": 1235,
  "knox": 16799,
  "raw": 3736,
  "are": 703,
  "ratified": 12498,
  "##hler": 22501,
  "appearance": 14185,
  "superiority": 24670,
  "npa": 27420,
  "chel": 18603,
  "##ichi": 20263,
  "became": 3563,
  "mexico": 4231,
  "memorandum": 9590,
  "reach": 3734,
  "necessary": 2333,
  "tight": 8848,
  "pawn": 15439,
  "flood": 7576,
  "tolerant": 29730,
  "seasons": 12723,
  "ninth": 12182,
  "##82": 17134,
  "##ogee": 25949,
  "crypt": 17876,
  "fostering": 27928,
  "rsu": 10168,
  "prideco": 23288,
  "earthquake": 11074,
  "blas": 29057,
  "##tification": 4427,
  "accommodate": 8200,
  "216": 8935,
  "##ointing": 22745,
  "##vac": 20002,
  "041": 13669,
  "deterring": 22706,
  "320": 7992,
  "affix": 19216,
  "valve": 13650,
  "villa": 22483,
  "consens": 26814,
  "partially": 2753,
  "bot": 13574,
  "opt": 8688,
  "cables": 14251,
  "085": 12776,
  "indentures": 7564,
  "safeguarded": 18671,
  "sound": 6198,
  "pfo": 25436,
  "normal": 3459,
  "493": 11531,
  "majes": 15883,
  "##tim": 2260,
  "endosc": 15915,
  "masimo": 29347,
  "tai": 25341,
  "declarations": 20971,
  "prospectively": 6687,
  "assays": 12554,
  "prejud": 9195,
  "airpl": 12370,
  "liquidations": 18631,
  "draper": 25640,
  "shopper": 24755,
  "conclusions": 9319,
  "ratepayers": 18060,
  "encod": 16027,
  "##akis": 25692,
  "classes": 5034,
  "attractive": 5266,
  "anticipation": 9053,
  "shippers": 12912,
  "renegotiation": 14834,
  "telec": 3593,
  "##thouse": 19309,
  "competence": 23542,
  "sheath": 28627,
  "crohn": 29071,
  "##pc": 5239,
  "difference": 3697,
  "##direct": 20389,
  "rj": 10368,
  "willfully": 15521,
  "maps": 19426,
  "collaborators": 6801,
  "pfic": 15586,
  "sauc": 21711,
  "solu": 17183,
  "paydowns": 20886,
  "unavailability": 13987,
  "##eting": 4754,
  "##eth": 1211,
  "##ender": 2568,
  "##anka": 25945,
  "hexcel": 23146,
  "proved": 4320,
  "brunswick": 14125,
  "##ijuana": 14843,
  "xx": 12969,
  "lec": 15832,
  "pruco": 21452,
  "compromised": 14489,
  "##istry": 7363,
  "##ogram": 20224,
  "rud": 16377,
  "##\u0446": 532,
  "721": 13057,
  "chef": 15320,
  "114": 6676,
  "dox": 26830,
  "icann": 29749,
  "cannabis": 11942,
  "capacitors": 19835,
  "ha": 778,
  "fsg": 28421,
  "hedges": 4193,
  "interdep": 25371,
  "##kang": 28410,
  "rpm": 18251,
  "oriented": 8265,
  "obtain": 1707,
  "lect": 22182,
  "quote": 16041,
  "dres": 22880,
  "##atur": 15127,
  "ens": 3257,
  "sauer": 29995,
  "##timore": 11132,
  "juven": 20914,
  "prepaid": 4739,
  "imh": 24189,
  "qsp": 18295,
  "##iate": 9719,
  "##amide": 19100,
  "5": 125,
  "##ces": 8198,
  "##\u221a": 520,
  "clear": 3575,
  "##ki": 7594,
  "port": 1772,
  "##xis": 19252,
  "contract": 1463,
  "philip": 11156,
  "lyc": 29276,
  "##avision": 18042,
  "##factory": 6191,
  "613": 12170,
  "uncontrollable": 22802,
  "tnmp": 13226,
  "acceptance": 4133,
  "nci": 16879,
  "q2": 25444,
  "##oid": 5265,
  "adul": 26264,
  "inherently": 6848,
  "collabor": 3324,
  "premise": 13267,
  "refinancing": 5356,
  "empire": 12601,
  "chipsets": 22260,
  "target": 2784,
  "econom": 1753,
  "mal": 5431,
  "opportun": 2501,
  "tfs": 23841,
  "alterra": 29724,
  "alterations": 19440,
  "allege": 8852,
  "jointly": 6145,
  "entirety": 7033,
  "20549": 11562,
  "078": 13374,
  "##oba": 20086,
  "reserves": 2224,
  "towne": 23746,
  "involuntary": 9846,
  "4975": 29226,
  "##oor": 13603,
  "transtrend": 29853,
  "ensures": 14913,
  "supportable": 18960,
  "wallboard": 21236,
  "collaborate": 14581,
  "##ree": 1282,
  "gis": 25801,
  "rigs": 7625,
  "crossing": 11899,
  "quinn": 24070,
  "estim": 1050,
  "producing": 4335,
  "globalstar": 14049,
  "quantities": 4991,
  "radiopharmaceutical": 29467,
  "prematurely": 27982,
  "monitors": 6581,
  "absolute": 6376,
  "answered": 17904,
  "medal": 14842,
  "##tu": 14815,
  "regeneration": 19814,
  "amkor": 28393,
  "invoiced": 10739,
  "regression": 23345,
  "highligh": 18874,
  "registry": 14040,
  "essentials": 29321,
  "error": 5794,
  "nep": 13426,
  "equal": 2216,
  "##hr": 10329,
  "depressive": 26134,
  "hcf": 18847,
  "[unused17]": 18,
  "zimmerman": 23958,
  "macintosh": 26348,
  "beli": 1327,
  "nw": 12591,
  "supercedes": 22091,
  "327": 10395,
  "amgen": 13277,
  "benz": 17398,
  "vitamins": 19019,
  "##avar": 24311,
  "aer": 5748,
  "anticipate": 3428,
  "corrug": 14945,
  "sign": 1031,
  "dining": 11026,
  "wyeth": 17544,
  "qualifications": 7850,
  "spirit": 14784,
  "##spp": 29848,
  "caliber": 20964,
  "##ligh": 4303,
  "equaling": 25689,
  "622": 12277,
  "thl": 20651,
  "tast": 11987,
  "##acor": 17743,
  "monarch": 17256,
  "wgp": 26605,
  "52": 3107,
  "##21": 13447,
  "waterflo": 29005,
  "offer": 1488,
  "##uang": 21404,
  "guilty": 20337,
  "norton": 18988,
  "neill": 17142,
  "inacc": 8306,
  "psoriasis": 19228,
  "sill": 27771,
  "143": 6012,
  "arn": 14588,
  "withdrawn": 10560,
  "unle": 19622,
  "gambling": 17556,
  "sak": 20571,
  "totaled": 3176,
  "eph": 26356,
  "##ivided": 9799,
  "wec": 23753,
  "skincare": 29157,
  "overdraft": 11551,
  "arnold": 16023,
  "compatibility": 15163,
  "shenzhen": 13672,
  "uncondition": 8262,
  "obsol": 6219,
  "statement": 1288,
  "sophistic": 7310,
  "lih": 22650,
  "\u2016": 294,
  "distinguished": 16553,
  "beers": 19533,
  "backup": 10946,
  "##aw": 1129,
  "clerk": 23984,
  "graduate": 9542,
  "standalone": 11255,
  "occurrences": 11681,
  "ci": 9291,
  "nationsbank": 16250,
  "setoff": 25995,
  "boss": 17750,
  "thing": 16009,
  "unduly": 23180,
  "hydraulic": 8558,
  "457": 11310,
  "cy": 3146,
  "therefrom": 14656,
  "influences": 15487,
  "wcas": 29751,
  "kurt": 25349,
  "##chr": 21371,
  "860": 9526,
  "kept": 14968,
  "whereby": 4647,
  "##tronics": 13403,
  "##overs": 8746,
  "nue": 23980,
  "##atz": 26069,
  "accruals": 5353,
  "discom": 27403,
  "entrepreneurial": 19441,
  "lia": 18271,
  "inducements": 19466,
  "definition": 4833,
  "##03": 18716,
  "ches": 11419,
  "spartan": 16358,
  "uncollec": 20179,
  "renews": 17021,
  "desirability": 22857,
  "##hertz": 27800,
  "undrilled": 25507,
  "analyz": 4874,
  "allegations": 6501,
  "10004": 29772,
  "walth": 26634,
  "peregr": 21815,
  "credential": 17065,
  "##oplasty": 18319,
  "subleases": 13630,
  "default": 2917,
  "wps": 15749,
  "ambr": 26291,
  "##onate": 21183,
  "tonnes": 19530,
  "determ": 1239,
  "ultrac": 29172,
  "wake": 18339,
  "atls": 29804,
  "informed": 8131,
  "##erman": 4541,
  "##uy": 19039,
  "##cribed": 2223,
  "##ebook": 17209,
  "2020": 5195,
  "biennial": 28241,
  "##ones": 3995,
  "\u0eff": 286,
  "subsidiaries": 1383,
  "fortune": 12880,
  "audi": 12920,
  "cep": 15590,
  "##olutions": 17751,
  "659": 12699,
  "dayton": 14523,
  "##adiene": 28102,
  "asterias": 28769,
  "biogen": 15177,
  "companys": 26010,
  "pec": 9576,
  "presum": 13304,
  "rati": 2268,
  "outpar": 28057,
  "beyond": 3826,
  "##kase": 24428,
  "##emaker": 23458,
  "purdue": 20305,
  "pmp": 28623,
  "lindsay": 24148,
  "marc": 8621,
  "robo": 12585,
  "transporting": 13031,
  "mitig": 4682,
  "condemnation": 16910,
  "earlier": 4257,
  "bech": 22276,
  "promp": 18318,
  "frameworks": 23281,
  "##oderm": 25558,
  "memor": 7996,
  "##roads": 19404,
  "##lusions": 9044,
  "antenna": 12983,
  "##ini": 9991,
  "hpc": 24647,
  "arris": 21082,
  "aggressively": 10091,
  "investigation": 4748,
  "vul": 6660,
  "headc": 7087,
  "##rh": 27073,
  "automatic": 6947,
  "accessed": 12477,
  "##ability": 1472,
  "strictly": 14430,
  "amplify": 29357,
  "absor": 6062,
  "##ophos": 28848,
  "concluding": 17081,
  "indebtedness": 2841,
  "using": 1704,
  "852": 12039,
  "reclamation": 8409,
  "cephal": 23549,
  "announcing": 15050,
  "##inees": 7937,
  "voted": 9268,
  "##era": 7784,
  "##center": 19083,
  "paetec": 21247,
  "\u2464": 373,
  "reinsures": 22282,
  "rema": 28635,
  "##exchange": 17147,
  "miles": 5760,
  "875": 6545,
  "accounting": 1034,
  "emcor": 28875,
  "subordinated": 3075,
  "excell": 8217,
  "nos": 10789,
  "mgi": 24046,
  "unfor": 7954,
  "prob": 2603,
  "##auge": 28085,
  "splitting": 21896,
  "drive": 5145,
  "009": 12791,
  "ib": 5988,
  "##za": 7286,
  "interconn": 6520,
  "takes": 6445,
  "lucky": 22785,
  "exceeds": 4068,
  "entire": 3509,
  "ols": 24442,
  "##homes": 23730,
  "lifecycle": 15845,
  "maritime": 13193,
  "##iven": 2584,
  "##advisor": 19346,
  "besides": 21985,
  "jpmorgan": 8749,
  "\u25bc": 385,
  "prop": 5721,
  "financing": 1809,
  "vari": 1294,
  "170": 7274,
  "bankrupt": 3261,
  "measurement": 3002,
  "##estry": 16667,
  "poison": 25212,
  "connected": 8116,
  "##onstr": 4600,
  "surch": 8248,
  "affid": 29794,
  "radiology": 15330,
  "##urement": 5733,
  "legend": 15365,
  "##vet": 24835,
  "scb": 24660,
  "625": 6552,
  "##ozyme": 29959,
  "445": 10753,
  "##ican": 7395,
  "##fact": 1406,
  "496": 11389,
  "kroll": 22397,
  "industr": 1425,
  "insulate": 24294,
  "unproved": 10651,
  "accessory": 15265,
  "635": 11618,
  "##stemp": 14217,
  "comed": 7672,
  "background": 7649,
  "blues": 29595,
  "bread": 8480,
  "##77": 16087,
  "##ania": 15004,
  "##iq": 19452,
  "grounds": 10218,
  "phishing": 27388,
  "sbc": 14127,
  "typically": 2881,
  "spr": 4555,
  "452": 11167,
  "physi": 20443,
  "##terol": 16229,
  "devoting": 19041,
  "##ologist": 14197,
  "coherent": 23763,
  "currency": 2202,
  "hotline": 24295,
  "aem": 25606,
  "ischemic": 25512,
  "baxter": 12834,
  "##um": 816,
  "accurate": 6570,
  "##kok": 29826,
  "callaway": 18768,
  "##egra": 20217,
  "##sung": 13400,
  "##eur": 14964,
  "unilever": 20276,
  "shipment": 5698,
  "356": 10740,
  "bse": 22625,
  "words": 7575,
  "##m": 461,
  "board": 1262,
  "heard": 15058,
  "specify": 10234,
  "molding": 13475,
  "nondiscrim": 20568,
  "coincide": 16349,
  "##agine": 26136,
  "383": 10204,
  "922": 13266,
  "ww": 4645,
  "sche": 25982,
  "hasbro": 25009,
  "foam": 14318,
  "2038": 21309,
  "080": 11579,
  "wharton": 19614,
  "works": 7515,
  "optionees": 22357,
  "enjoin": 11532,
  "panther": 29474,
  "##iency": 20829,
  "349": 10447,
  "breweries": 24675,
  "172": 8342,
  "##da": 1867,
  "##vanta": 19534,
  "pai": 29504,
  "homes": 4766,
  "##retable": 13851,
  "drawn": 7226,
  "unique": 5358,
  "minnes": 6099,
  "promoter": 17957,
  "mega": 17552,
  "completed": 2282,
  "kennedy": 15563,
  "fly": 13234,
  "shar": 815,
  "##agon": 10623,
  "##etition": 14512,
  "inclusive": 8994,
  "upcoming": 14336,
  "securityholders": 18241,
  "civil": 4378,
  "##apsed": 14727,
  "chemicals": 5671,
  "weighed": 27101,
  "adjacent": 7434,
  "dismantlement": 19075,
  "townsend": 29387,
  "ghana": 21011,
  "fischer": 20940,
  "##access": 20718,
  "disbursed": 15505,
  "##prin": 20454,
  "crises": 20818,
  "blowouts": 23389,
  "circuit": 4911,
  "##array": 22755,
  "rr": 14566,
  "##ili": 1859,
  "##mond": 7543,
  "##dt": 28847,
  "eec": 25393,
  "favor": 2789,
  "retires": 23277,
  "##mobile": 25917,
  "syndication": 10087,
  "negotiation": 8718,
  "forman": 27093,
  "pbc": 26678,
  "participate": 4126,
  "##ographic": 7057,
  "##ronic": 8118,
  "seed": 9201,
  "switzer": 9737,
  "oper": 761,
  "transco": 15589,
  "consid": 1470,
  "horw": 23684,
  "underlie": 24523,
  "inexper": 24966,
  "allegiance": 23092,
  "k405": 19541,
  "##btu": 10235,
  "cytokines": 24171,
  "message": 13501,
  "##nership": 1141,
  "397": 10923,
  "stronger": 9616,
  "playtex": 29534,
  "472": 11486,
  "severance": 3859,
  "\u03b9": 241,
  "warmer": 14451,
  "smar": 18030,
  "telemarketing": 11890,
  "midcap": 20459,
  "determinant": 28055,
  "deterg": 22671,
  "[unused37]": 38,
  "holders": 2296,
  "erics": 18396,
  "segregate": 16643,
  "restaur": 3347,
  "aec": 21019,
  "ambul": 13241,
  "##zynski": 27114,
  "distraction": 18301,
  "470": 8849,
  "concentrating": 17923,
  "concentrates": 14154,
  "applicability": 12550,
  "##ifax": 18110,
  "foods": 5909,
  "ldts": 27408,
  "shusa": 29917,
  "843": 12921,
  "technological": 4299,
  "ge": 2243,
  "omega": 12570,
  "guide": 8510,
  "volvo": 24934,
  "pu": 6387,
  "avondale": 29906,
  "maui": 20296,
  "fulton": 18628,
  "011": 12746,
  "88": 3732,
  "hansen": 17601,
  "arriving": 17619,
  "wich": 18861,
  "tests": 4339,
  "sydney": 18901,
  "returnable": 28732,
  "pays": 5787,
  "gross": 2089,
  "buc": 11303,
  "voltage": 12078,
  "requir": 933,
  "cumbers": 28740,
  "mathematical": 19636,
  "collegiate": 23243,
  "teaching": 16211,
  "ave": 16935,
  "exacerbate": 19283,
  "powershares": 21491,
  "intercompany": 4588,
  "whether": 2132,
  "escheat": 29045,
  "batter": 6869,
  "##illi": 742,
  "bowl": 27678,
  "goodrich": 20774,
  "refunds": 7878,
  "computes": 17001,
  "owe": 13540,
  "attendants": 28514,
  "enacting": 27477,
  "##ich": 791,
  "realities": 17470,
  "##eteries": 23459,
  "wgl": 15762,
  "##mpa": 9346,
  "refill": 27762,
  "greenwich": 17508,
  "suffer": 5185,
  "preserve": 8639,
  "sapph": 23793,
  "tg": 18228,
  "lafarge": 29598,
  "narrowband": 28135,
  "##ifier": 19310,
  "analyzing": 8980,
  "exterior": 15067,
  "evapor": 20738,
  "morbidity": 15530,
  "core": 3506,
  "46": 2921,
  "flexible": 7112,
  "agric": 5241,
  "dsw": 19365,
  "##oice": 18521,
  "jeopardize": 13127,
  "charley": 29543,
  "formula": 5862,
  "bud": 17766,
  "ons": 11340,
  "bruker": 24394,
  "##elabs": 27023,
  "recapitalizations": 19750,
  "luck": 21163,
  "##gl": 4584,
  "command": 12519,
  "drex": 21372,
  "igf": 28009,
  "selection": 5652,
  "tdm": 28202,
  "##ead": 5428,
  "vill": 7827,
  "royal": 2781,
  "jamaica": 24816,
  "casa": 24945,
  "672": 12208,
  "dore": 29052,
  "preclinical": 5788,
  "cso": 27694,
  "wee": 3951,
  "broadens": 21393,
  "##ype": 25097,
  "regal": 16809,
  "contain": 1968,
  "\u2153": 338,
  "translations": 19130,
  "prioritized": 26618,
  "mere": 17577,
  "cider": 29257,
  "loom": 23400,
  "##tine": 5097,
  "cardio": 9964,
  "primedia": 13734,
  "pur": 878,
  "fungal": 26170,
  "twe": 12424,
  "recip": 7262,
  "reinsurer": 10224,
  "intl": 29354,
  "eversource": 15412,
  "stancorp": 29897,
  "171": 8640,
  "costs": 989,
  "glac": 23878,
  "supercon": 20473,
  "snack": 16339,
  "careful": 7202,
  "twenty": 5965,
  "pdvsa": 25987,
  "smaller": 4707,
  "connectivity": 8629,
  "interoper": 13825,
  "simplified": 10486,
  "\u02d9": 228,
  "deregulated": 19121,
  "pathogen": 22414,
  "nac": 13710,
  "##arket": 10494,
  "linked": 8285,
  "tooling": 11660,
  "invol": 2067,
  "btg": 24349,
  "veterans": 16628,
  "naming": 15627,
  "teller": 15327,
  "properly": 6027,
  "deple": 23271,
  "claiborne": 26418,
  "nmhg": 20575,
  "able": 2128,
  "roche": 9718,
  "consistent": 3264,
  "##hed": 26146,
  "pj": 24742,
  "assortments": 25363,
  "captures": 22006,
  "worsen": 17439,
  "kt": 26206,
  "beams": 26423,
  "acet": 15955,
  "itv": 26738,
  "progressively": 22026,
  "832": 12691,
  "metabol": 14342,
  "broker": 3148,
  "complement": 5773,
  "##aine": 11672,
  "gso": 26595,
  "drivers": 7893,
  "shipboard": 26983,
  "morator": 15688,
  "284": 10086,
  "keith": 14787,
  "hurricanes": 8964,
  "ipsen": 27778,
  "##ayer": 15971,
  "sanford": 21630,
  "884": 12648,
  "ranging": 4102,
  "wabco": 26806,
  "similarly": 5676,
  "casey": 23019,
  "col": 2606,
  "##anc": 655,
  "##qing": 18661,
  "cigar": 8795,
  "thus": 4423,
  "fab": 5165,
  "challeng": 3779,
  "reagent": 17483,
  "pump": 6853,
  "exporting": 17096,
  "semin": 11815,
  "metrop": 23474,
  "calibration": 20511,
  "nms": 23772,
  "identification": 5281,
  "896": 13160,
  "arise": 4704,
  "unsubordinated": 20025,
  "heading": 6764,
  "##86": 16952,
  "liu": 15012,
  "horseshoe": 28902,
  "curtail": 6449,
  "trenwick": 21508,
  "affecting": 4211,
  "amino": 21317,
  "festiv": 21900,
  "kenneth": 9936,
  "penny": 5307,
  "layoffs": 25615,
  "hdd": 25503,
  "canargo": 26551,
  "except": 2255,
  "mobs": 28483,
  "vote": 3627,
  "eventually": 10658,
  "[unused29]": 30,
  "ferrellgas": 8827,
  "pgp": 24586,
  "aerospace": 6893,
  "northeastern": 13216,
  "460": 9778,
  "##ational": 1304,
  "##alliance": 23194,
  "holly": 9313,
  "xxx": 21261,
  "thereafter": 4043,
  "2002": 1405,
  "##lop": 20697,
  "penal": 2985,
  "bly": 27854,
  "treatments": 7604,
  "ter": 9041,
  "##otox": 18331,
  "originates": 10409,
  "vandalism": 23538,
  "floods": 12282,
  "dak": 8036,
  "mand": 4204,
  "definitive": 4390,
  "##ebel": 27479,
  "##tax": 18159,
  "##ptive": 12573,
  "63": 3488,
  "advancing": 14729,
  "backwardation": 28867,
  "##omega": 27981,
  "abroad": 8684,
  "\u2665": 400,
  "bros": 15617,
  "mcgrath": 21557,
  "wisc": 5839,
  "putnam": 17875,
  "rsus": 5866,
  "##arial": 4853,
  "##97": 19544,
  "##p": 468,
  "##olla": 20369,
  "##fall": 13506,
  "amherst": 27574,
  "paying": 4542,
  "kilroy": 23062,
  "networked": 19549,
  "draf": 17663,
  "071": 14025,
  "gab": 12583,
  "folding": 21668,
  "partial": 2554,
  "matthe": 11178,
  "fon": 14955,
  "embezzlement": 26711,
  "substantially": 2281,
  "ox": 4047,
  "nonforfe": 21706,
  "xl": 12962,
  "rulings": 10752,
  "pim": 14324,
  "amph": 19178,
  "marketing": 1787,
  "gastr": 12647,
  "scotsman": 27965,
  "lllp": 25387,
  "sportswear": 15608,
  "hc": 10105,
  "lube": 28087,
  "adjudication": 17708,
  "abc": 13640,
  "268": 9804,
  "artif": 27272,
  "marina": 13877,
  "budg": 4716,
  "##heresis": 29524,
  "jordan": 15407,
  "withdraw": 4694,
  "noninterest": 6060,
  "agricult": 5277,
  "##60": 10849,
  "appropriation": 22266,
  "exhibitors": 23044,
  "therefore": 2587,
  "##bile": 3536,
  "aftermarket": 8896,
  "favorable": 3274,
  "capsu": 20449,
  "progressive": 11459,
  "nuis": 19092,
  "irrespective": 14722,
  "isolation": 13443,
  "seeking": 4187,
  "tahoe": 24145,
  "running": 11040,
  "withstand": 15114,
  "895": 12668,
  "711": 12685,
  "polyethylene": 16489,
  "norwalk": 28038,
  "019": 13333,
  "antidil": 9287,
  "nationalization": 19915,
  "annivers": 5104,
  "##per": 704,
  "immuno": 16980,
  "clearance": 6920,
  "till": 28384,
  "narrag": 28096,
  "portfolio": 1926,
  "zur": 15924,
  "just": 8084,
  "sic": 14325,
  "chr": 5660,
  "##ened": 5117,
  "om": 5310,
  "350": 5075,
  "landing": 15434,
  "landfill": 8452,
  "selections": 19102,
  "##ancere": 22812,
  "outcomes": 6487,
  "deviation": 18677,
  "delivers": 10015,
  "bnp": 18185,
  "##ards": 1209,
  "sugar": 9365,
  "##forest": 29248,
  "ultrav": 26812,
  "burlington": 13070,
  "spind": 27501,
  "nav": 5016,
  "posted": 7229,
  "freddie": 9426,
  "smithkline": 22160,
  "proofs": 24746,
  "soups": 29871,
  "121": 5722,
  "##iah": 27441,
  "59": 3542,
  "fluctuation": 8878,
  "strengthen": 8297,
  "##etic": 15442,
  "infused": 26699,
  "rum": 19880,
  "suggesting": 22279,
  "##aires": 20135,
  "warn": 13584,
  "##aris": 11956,
  "intermediary": 13753,
  "##actions": 8653,
  "planting": 19036,
  "microc": 13405,
  "##ging": 6680,
  "chug": 16920,
  "disaggregated": 18898,
  "brett": 24619,
  "fragments": 28248,
  "##of": 3182,
  "find": 4149,
  "##arco": 15950,
  "##ble": 1910,
  "footwear": 9028,
  "##as": 634,
  "geographical": 8580,
  "vulner": 7174,
  "dur": 4331,
  "##eter": 4765,
  "sppc": 12302,
  "notifications": 17651,
  "nh": 12306,
  "##ondo": 27497,
  "467": 11424,
  "##kyo": 14057,
  "##ateralized": 19911,
  "\u20ac": 330,
  "487": 11351,
  "addressable": 18877,
  "parker": 12753,
  "appreciated": 20745,
  "colleg": 6159,
  "briance": 28675,
  "wmc": 28712,
  "empress": 28939,
  "most": 2058,
  "tresp": 28851,
  "maturity": 2458,
  "logic": 11071,
  "keur": 28557,
  "psus": 11409,
  "factory": 8203,
  "##ished": 3756,
  "hod": 18451,
  "wah": 29905,
  "##inc": 1144,
  "adjust": 1548,
  "##ng": 6330,
  "cyrus": 24383,
  "iic": 27488,
  "##list": 21550,
  "##dr": 2138,
  "##tit": 2717,
  "judgements": 25215,
  "multiemployer": 13906,
  "quicks": 23892,
  "experimental": 16095,
  "##rals": 7519,
  "##velo": 1020,
  "naples": 27791,
  "endow": 20316,
  "##acia": 15977,
  "herc": 13079,
  "cyn": 17838,
  "ba": 8385,
  "petitioned": 22253,
  "##oking": 24778,
  "##121": 29860,
  "conver": 2961,
  "ses": 18826,
  "##phin": 16982,
  "##50": 9698,
  "bridger": 22904,
  "tau": 27271,
  "##amor": 25590,
  "##thia": 23974,
  "##usc": 21369,
  "merged": 6688,
  "enova": 25763,
  "\u00f7": 207,
  "##apolis": 8564,
  "endos": 27454,
  "##alm": 11615,
  "fuel": 2659,
  "peo": 17562,
  "acorn": 27592,
  "rto": 15606,
  "##edia": 6865,
  "##ission": 1407,
  "##vernmental": 16813,
  "rus": 6011,
  "une": 17725,
  "revealed": 18164,
  "##met": 8540,
  "thomp": 12207,
  "ccl": 24474,
  "ring": 13895,
  "focuses": 7534,
  "pearson": 22007,
  "verdicts": 25570,
  "##krodt": 21277,
  "sequestration": 20387,
  "\u2077": 318,
  "responded": 11422,
  "remec": 29100,
  "##une": 7404,
  "\u2e38": 416,
  "altered": 15064,
  "worth": 4959,
  "##oman": 18413,
  "assignees": 22109,
  "impeded": 28560,
  "bingham": 24949,
  "list": 4979,
  "##ulator": 20077,
  "sav": 2779,
  "slower": 10055,
  "prescriptions": 14970,
  "annex": 13605,
  "cas": 887,
  "valid": 4849,
  "mix": 3693,
  "273": 10000,
  "guides": 15129,
  "##reatment": 29969,
  "##izations": 2965,
  "wti": 15537,
  "compu": 3050,
  "relaxation": 29363,
  "tourist": 20410,
  "prosper": 15045,
  "spends": 25886,
  "protected": 7986,
  "##ercare": 26123,
  "after": 1519,
  "adding": 7293,
  "##oka": 23752,
  "iheartc": 23308,
  "ambass": 21359,
  "##rey": 6534,
  "specialty": 3957,
  "pand": 14723,
  "##ecom": 14381,
  "depending": 3753,
  "movement": 8451,
  "xvi": 24178,
  "install": 2871,
  "accumulates": 27238,
  "decatur": 19581,
  "acted": 9523,
  "diminution": 19281,
  "##mid": 18801,
  "\u00be": 201,
  "admitting": 22056,
  "lawsuits": 4531,
  "rubber": 11047,
  "##pi": 4254,
  "##ippany": 26535,
  "cbr": 28495,
  "##ford": 4723,
  "187": 8126,
  "involvement": 6587,
  "cyto": 16771,
  "532": 11557,
  "certainty": 6822,
  "licensee": 7313,
  "permit": 3356,
  "serono": 24230,
  "oib": 20991,
  "facilitates": 13066,
  "##asco": 15496,
  "fall": 4573,
  "pneumonia": 27052,
  "reimburses": 14552,
  "usaa": 28987,
  "##entin": 28717,
  "replaced": 5901,
  "dividends": 1919,
  "chancell": 20854,
  "mississ": 5423,
  "deadlines": 14634,
  "sanitation": 21434,
  "reduced": 2410,
  "fm": 7985,
  "596": 11994,
  "compared": 1513,
  "female": 18726,
  "spin": 6006,
  "##kel": 14008,
  "aimed": 10425,
  "furnishing": 13519,
  "keane": 25625,
  "fats": 27049,
  "##id": 661,
  "divorce": 29102,
  "exciting": 25545,
  "treasuries": 16607,
  "neurology": 27570,
  "##ogene": 11462,
  "strain": 9563,
  "underwriter": 9770,
  "segmented": 17451,
  "hds": 19559,
  "transmitting": 17605,
  "desserts": 25707,
  "stops": 20335,
  "ampal": 23883,
  "##uzumab": 24425,
  "22": 2040,
  "ethyl": 28137,
  "catal": 5827,
  "gradual": 17525,
  "stacking": 28918,
  "biopsy": 20907,
  "tex": 2823,
  "##essed": 7278,
  "##biz": 26709,
  "taylor": 10337,
  "mofcom": 27099,
  "gum": 22638,
  "wans": 23912,
  "cis": 15201,
  "prevalent": 15182,
  "ift": 27897,
  "fam": 3202,
  "vincent": 17149,
  "topics": 13678,
  "rank": 6615,
  "demonstrated": 7227,
  "contested": 16758,
  "bunker": 26367,
  "discovery": 5162,
  "rebut": 29937,
  "plm": 16857,
  "##ere": 782,
  "metavante": 27964,
  "volunte": 14431,
  "sever": 1978,
  "\u25a0": 379,
  "bno": 25808,
  "nonforfeitable": 21952,
  "dq": 27215,
  "payphone": 23956,
  "indemnifying": 21401,
  "devote": 7238,
  "enhancements": 6045,
  "##ucture": 2665,
  "recre": 8543,
  "##itably": 22326,
  "bradford": 19841,
  "lunch": 22132,
  "amro": 18449,
  "##ycle": 13393,
  "shuttle": 20593,
  "iii": 2322,
  "jj": 20785,
  "##\u207b": 527,
  "csd": 28271,
  "##erts": 19704,
  "typical": 7358,
  "regard": 1815,
  "osg": 20819,
  "jcp": 12402,
  "random": 10215,
  "mach": 4214,
  "isobut": 20682,
  "044": 13691,
  "##head": 4455,
  "illum": 20130,
  "fever": 26728,
  "##uco": 17852,
  "754": 12625,
  "syring": 17726,
  "##tor": 8461,
  "675": 10200,
  "##wing": 25697,
  "william": 4598,
  "partnering": 14331,
  "examiner": 21218,
  "racetr": 14059,
  "ledger": 17011,
  "283": 10005,
  "reinsurance": 3634,
  "undisc": 4810,
  "##omac": 12272,
  "rsl": 25235,
  "genentech": 12720,
  "##olithography": 28553,
  "##csa": 24753,
  "delineated": 27499,
  "##lobal": 29479,
  "ecu": 17099,
  "seeds": 17563,
  "awar": 7489,
  "regimen": 16656,
  "enough": 8175,
  "632": 12037,
  "church": 12800,
  "hancock": 13853,
  "047": 13592,
  "augmentation": 25109,
  "multi": 2380,
  "pronouncement": 9269,
  "##wall": 12160,
  "scrap": 9107,
  "saxon": 27604,
  "collar": 12722,
  "recomp": 15709,
  "constellation": 12924,
  "sequ": 7250,
  "##stm": 26954,
  "##terra": 17803,
  "coerc": 26412,
  "mpuc": 17421,
  "u": 163,
  "##ade": 1256,
  "competitively": 12796,
  "dealings": 16525,
  "##kit": 29352,
  "done": 6916,
  "regulating": 9606,
  "conserve": 16602,
  "combines": 11848,
  "rhodes": 25082,
  "oh": 4356,
  "alon": 17747,
  "rents": 6047,
  "centrifuge": 27235,
  "relic": 21864,
  "creditable": 24410,
  "ho": 8320,
  "reciprocal": 13613,
  "admin": 1720,
  "cook": 8701,
  "indices": 7451,
  "hcl": 20113,
  "insight": 8950,
  "lateral": 15328,
  "excite": 24269,
  "honor": 11366,
  "##ught": 24567,
  "excessive": 9017,
  "corresponds": 17012,
  "harris": 8412,
  "##balt": 15742,
  "uns": 2858,
  "##amo": 25335,
  "underes": 19988,
  "vaccines": 11233,
  "##\u0456": 572,
  "missing": 23388,
  "heico": 29164,
  "reex": 15643,
  "installed": 6151,
  "degree": 3499,
  "pretrial": 22337,
  "##rb": 26864,
  "##ogy": 15148,
  "pioneered": 23707,
  "regarded": 16249,
  "##atos": 27567,
  "fhlmc": 13396,
  "nhp": 17110,
  "cai": 20150,
  "taxi": 24867,
  "appetite": 19789,
  "connects": 16134,
  "subgroup": 21041,
  "niobr": 28068,
  "nonstandard": 25084,
  "##estration": 19289,
  "vehicle": 4528,
  "updating": 15750,
  "xviii": 27311,
  "challenging": 7715,
  "bred": 28125,
  "b": 144,
  "proportional": 10536,
  "637": 11721,
  "##ares": 5544,
  "sparks": 24180,
  "greek": 25952,
  "deed": 7999,
  "##tment": 23404,
  "custodians": 21849,
  "enclosed": 19191,
  "adit": 24805,
  "dispro": 10079,
  "dr": 1682,
  "engelhard": 27992,
  "perfusion": 26407,
  "scorecard": 28400,
  "sens": 3560,
  "retaining": 6391,
  "rupee": 23408,
  "text": 8437,
  "hoch": 27184,
  "optometrists": 29516,
  "supermajority": 24876,
  "##ulting": 3158,
  "geological": 8633,
  "432": 11038,
  "mii": 26388,
  "kilow": 13984,
  "metropcs": 29413,
  "grum": 18502,
  "tandem": 14071,
  "containing": 5626,
  "bluetooth": 22752,
  "dw": 12092,
  "angelo": 22770,
  "lapses": 16138,
  "professionals": 5330,
  "rush": 18723,
  "faa": 12310,
  "powertrain": 22443,
  "gh": 6963,
  "tablets": 11227,
  "wrote": 8929,
  "119": 7458,
  "toxic": 6844,
  "bandwidth": 9347,
  "cheyenne": 22489,
  "277": 9924,
  "consents": 10298,
  "initially": 4567,
  "nashville": 13660,
  "lowered": 10493,
  "recently": 3757,
  "subcommittee": 24164,
  "##opolis": 28004,
  "cn": 6858,
  "ends": 8797,
  "475": 9223,
  "tas": 10549,
  "ion": 11314,
  "##ode": 6995,
  "important": 3789,
  "loop": 13874,
  "##spar": 29691,
  "induced": 14461,
  "flown": 23660,
  "pollutants": 10552,
  "parish": 15507,
  "##bac": 6075,
  "##erved": 7966,
  "emir": 20341,
  "grams": 24848,
  "liquidity": 2278,
  "ship": 3033,
  "sustained": 5291,
  "leaseback": 7647,
  "kramer": 22633,
  "kane": 23322,
  "perceived": 7514,
  "analytic": 19555,
  "factoring": 12520,
  "50th": 23537,
  "nir": 27037,
  "solar": 5634,
  "nonregulated": 15060,
  "##oi": 28048,
  "technical": 3215,
  "drg": 21539,
  "414": 10840,
  "sluggish": 24988,
  "patented": 7553,
  "hun": 7255,
  "fired": 7405,
  "derm": 10768,
  "puct": 14585,
  "mop": 16941,
  "bifurc": 12044,
  "interfering": 27809,
  "slee": 23697,
  "br": 1194,
  "bedding": 18414,
  "##itical": 2748,
  "\u0442": 267,
  "noncredit": 26410,
  "emg": 26174,
  "ndr": 23154,
  "marine": 5701,
  "illegal": 11206,
  "##zoo": 24374,
  "mmi": 24702,
  "brought": 5468,
  "mmp": 19743,
  "cyapc": 29866,
  "transplants": 29018,
  "surgeries": 20502,
  "photovolta": 17558,
  "alberto": 24100,
  "alleges": 6955,
  "treas": 2934,
  "hbc": 27451,
  "summit": 9422,
  "wolf": 12502,
  "76": 3751,
  "16": 1664,
  "twc": 14274,
  "##assemb": 14599,
  "transportation": 3288,
  "##estone": 12533,
  "##ias": 10449,
  "ameren": 7003,
  "overheads": 21443,
  "halo": 24487,
  "goldendale": 26736,
  "##au": 1342,
  "align": 7500,
  "scholastic": 25303,
  "delinquencies": 8738,
  "##see": 29672,
  "continuous": 5993,
  "##onet": 24315,
  "ftp": 27655,
  "wellhead": 15133,
  "##opers": 6586,
  "fleetwood": 26768,
  "##ourse": 5193,
  "vw": 19248,
  "tej": 21526,
  "786": 12766,
  "##ground": 5578,
  "nuevo": 28760,
  "academic": 8991,
  "recalculated": 21834,
  "capitated": 19960,
  "conduc": 2054,
  "generates": 8431,
  "##woods": 18175,
  "strike": 8266,
  "scrubbers": 23521,
  "endorsed": 23580,
  "arranging": 14432,
  "commonwealth": 8347,
  "##ols": 3668,
  "082": 13905,
  "##aring": 20717,
  "mik": 22955,
  "ert": 29746,
  "assurant": 23529,
  "contempor": 11931,
  "addic": 20158,
  "088": 13268,
  "developers": 7296,
  "harbin": 19090,
  "illiquidity": 13824,
  "rectifier": 29838,
  "brien": 17530,
  "credentialing": 29253,
  "chang": 988,
  "outflow": 15490,
  "young": 5470,
  "##ancorp": 27847,
  "spss": 21566,
  "orion": 13618,
  "focused": 4272,
  "syndrome": 14592,
  "stamford": 17944,
  "##rol": 15906,
  "##umin": 6179,
  "iter": 23778,
  "suspend": 8208,
  "facilitating": 13053,
  "##scale": 14348,
  "##acs": 20783,
  "airway": 27106,
  "supervision": 4441,
  "pe": 2958,
  "requirement": 4004,
  "907": 13083,
  "109": 4793,
  "##emy": 13080,
  "overturn": 19050,
  "sufficiently": 9166,
  "huron": 25308,
  "##states": 26151,
  "##acement": 16210,
  "conscious": 17782,
  "sacra": 14444,
  "zada": 28103,
  "antidilutive": 9734,
  "swee": 20671,
  "##will": 1899,
  "attendance": 9962,
  "833": 10942,
  "##79": 16812,
  "dang": 25594,
  "amorph": 29251,
  "williams": 7184,
  "##estream": 24372,
  "##erna": 28829,
  "mistakes": 25300,
  "casc": 14015,
  "postpon": 23048,
  "reb": 5203,
  "inconvenience": 28365,
  "what": 4316,
  "recordings": 20787,
  "zc": 27384,
  "105": 5918,
  "majority": 2740,
  "##atic": 6565,
  "##tha": 18566,
  "clears": 29703,
  "gfi": 24978,
  "hey": 29328,
  "els": 24908,
  "abbvie": 16644,
  "season": 3764,
  "dalton": 18101,
  "##hares": 10249,
  "wider": 12682,
  "deducted": 9205,
  "arises": 9860,
  "ply": 13985,
  "242": 9579,
  "acrylic": 23643,
  "847": 12819,
  "cataly": 10901,
  "avoc": 21523,
  "825": 8690,
  "aps": 10351,
  "sales": 1025,
  "pricewaterhousecoopers": 7089,
  "406": 9198,
  "##mo": 7826,
  "##liness": 23683,
  "detroit": 11581,
  "##opathic": 20518,
  "deadline": 12459,
  "##eds": 16735,
  "gaylord": 20279,
  "##heed": 15807,
  "unregistered": 7259,
  "##person": 12839,
  "##odon": 17227,
  "1998": 1515,
  "renaissancere": 22866,
  "custodian": 8068,
  "tenure": 13763,
  "continuously": 7673,
  "democratic": 26680,
  "##yls": 24362,
  "wilcox": 23953,
  "crada": 28706,
  "030": 12210,
  "odyssey": 17835,
  "10b": 11204,
  "emit": 15165,
  "depleted": 12937,
  "502": 11187,
  "signal": 6759,
  "xiaflex": 27816,
  "guggen": 26101,
  "genu": 24562,
  "373": 11006,
  "callable": 10638,
  "steadily": 16604,
  "##abel": 20442,
  "us": 862,
  "staff": 2963,
  "structuring": 11173,
  "##ennan": 20351,
  "weak": 3500,
  "ssp": 19081,
  "cookie": 28493,
  "535": 10875,
  "##aton": 9412,
  "propriety": 26588,
  "assimilating": 21704,
  "therapies": 7044,
  "245": 8624,
  "italian": 13052,
  "kcp": 13129,
  "##ugene": 15380,
  "perpetual": 7353,
  "demonstrations": 20116,
  "signatories": 24703,
  "buena": 29564,
  "adjustable": 6816,
  "attn": 21712,
  "algorithms": 14628,
  "37475": 25337,
  "wasted": 20794,
  "filer": 15461,
  "riskier": 21987,
  "bakken": 17420,
  "sl": 6059,
  "sewing": 23448,
  "statis": 6014,
  "##inas": 10362,
  "190": 7269,
  "##cription": 2903,
  "compelled": 20998,
  "##let": 4553,
  "arose": 11002,
  "ned": 24969,
  "reveal": 13492,
  "johnson": 6791,
  "device": 4262,
  "derive": 7442,
  "lowest": 6270,
  "elementary": 24422,
  "netsol": 29348,
  "mr": 1413,
  "ohio": 4508,
  "dickinson": 21580,
  "pgs": 19974,
  "defaults": 5968,
  "##bv": 29116,
  "trustee": 3548,
  "eye": 9476,
  "##erica": 11746,
  "##itary": 5845,
  "antif": 21199,
  "wellpoint": 24971,
  "toledo": 14532,
  "computerized": 13972,
  "ant": 13479,
  "exposures": 5080,
  "checkout": 26695,
  "unfamiliar": 24682,
  "subsequently": 4055,
  "skel": 22972,
  "automa": 4634,
  "telecommunication": 9930,
  "jess": 26891,
  "307": 10232,
  "locomo": 17497,
  "theatres": 11254,
  "gr": 886,
  "##aph": 14416,
  "periodon": 29763,
  "tornado": 16974,
  "##ama": 4675,
  "occupancies": 29784,
  "waxman": 16445,
  "bpd": 17400,
  "wfs": 21961,
  "pag": 16825,
  "monroe": 15096,
  "videoconferencing": 26472,
  "symbols": 22439,
  "bona": 18188,
  "guideline": 14142,
  "824": 13027,
  "brack": 23909,
  "fremont": 13742,
  "biovest": 24113,
  "ibe": 19851,
  "mge": 9968,
  "makes": 4720,
  "##times": 7521,
  "dlj": 13994,
  "colon": 10185,
  "harleysville": 21971,
  "consensus": 9989,
  "closings": 10869,
  "racetracks": 19721,
  "197": 3909,
  "grav": 17731,
  "authentic": 10404,
  "beneficiary": 5884,
  "reopened": 24327,
  "##ather": 2735,
  "vine": 16205,
  "vii": 7561,
  "##iesel": 6392,
  "max": 8568,
  "aurora": 12416,
  "warfare": 22408,
  "##uff": 16443,
  "clar": 4684,
  "##ta": 4070,
  "##walk": 14064,
  "salesperson": 18495,
  "cc": 7380,
  "elizabeth": 14010,
  "ryan": 13228,
  "unpat": 11963,
  "##itsu": 18832,
  "057": 13740,
  "##kom": 23006,
  "nepool": 25310,
  "certificateholder": 25821,
  "tamper": 19506,
  "lp": 4778,
  "ventricular": 24791,
  "bway": 28002,
  "##itone": 26289,
  "outp": 5892,
  "synthesis": 15661,
  "\u2193": 350,
  "ecol": 24373,
  "diplomatic": 29718,
  "##ber": 706,
  "discounts": 4474,
  "##isk": 12413,
  "feed": 5844,
  "##foot": 29442,
  "conductor": 25373,
  "calc": 2236,
  "minus": 8710,
  "##ative": 992,
  "telesc": 27548,
  "unins": 22847,
  "ibm": 8154,
  "##mos": 21773,
  "norwe": 18452,
  "##ono": 20993,
  "critically": 11251,
  "uruguay": 25988,
  "diaz": 29945,
  "reis": 22629,
  "belong": 15153,
  "porous": 27132,
  "##pha": 21025,
  "##bone": 16492,
  "gregg": 23777,
  "pllc": 17991,
  "mitsubishi": 17046,
  "uci": 22393,
  "woods": 15522,
  "petersen": 26703,
  "focusing": 7785,
  "experiencing": 8251,
  "qwest": 15359,
  "withdrawing": 20050,
  "waterways": 23193,
  "bioequivalent": 28660,
  "planet": 17172,
  "marion": 20009,
  "cincinn": 10722,
  "quota": 11276,
  "certify": 9019,
  "##inex": 20411,
  "biotherapeutics": 24463,
  "resets": 18690,
  "medley": 21830,
  "immedi": 3053,
  "##ake": 5217,
  "##olia": 17107,
  "mucos": 25129,
  "affir": 22239,
  "intervened": 25063,
  "doi": 24137,
  "safeco": 26735,
  "mines": 8171,
  "##argo": 4586,
  "ikon": 26384,
  "intercarrier": 25142,
  "##cence": 7982,
  "constraints": 7140,
  "##ecting": 2746,
  "correctly": 16519,
  "rehearing": 12095,
  "sykes": 25764,
  "sag": 15469,
  "scotts": 13783,
  "kun": 20586,
  "assertions": 16547,
  "steris": 29411,
  "samuel": 14075,
  "rotation": 17457,
  "investment": 1238,
  "xxi": 25366,
  "predecessors": 12009,
  "breaching": 24246,
  "remun": 9356,
  "complimentary": 17151,
  "apis": 21560,
  "coaxial": 15654,
  "predictable": 10170,
  "practice": 4326,
  "rentals": 6691,
  "june": 1426,
  "providing": 2883,
  "unus": 7260,
  "##ersburg": 26594,
  "outright": 19808,
  "##ocytes": 22001,
  "erd": 28234,
  "##guide": 28864,
  "sar": 7938,
  "opti": 18626,
  "sys": 17244,
  "glaucoma": 22222,
  "capitalized": 2848,
  "simultaneously": 8267,
  "pavil": 23694,
  "##read": 3464,
  "prescribe": 12767,
  "##an": 615,
  "mun": 4897,
  "unmarketable": 19515,
  "effic": 5707,
  "digits": 14534,
  "legislature": 14237,
  "logistics": 6008,
  "vacancies": 13598,
  "lags": 24047,
  "vacate": 18431,
  "riviera": 22878,
  "host": 6236,
  "presses": 20574,
  "loose": 24620,
  "##ovol": 15796,
  "ceridian": 23692,
  "diving": 24895,
  "pertaining": 6752,
  "void": 12988,
  "remediating": 15974,
  "##ometr": 11110,
  "hea": 23690,
  "aep": 8527,
  "stockpiles": 25986,
  "stanley": 6880,
  "##im": 696,
  "##fus": 29728,
  "##48": 18232,
  "##ima": 15773,
  "gprs": 29748,
  "luke": 29704,
  "seminole": 28194,
  "rallied": 27608,
  "promoting": 10802,
  "newell": 27923,
  "\u2714": 403,
  "css": 21461,
  "uncon": 7448,
  "fluores": 19695,
  "printer": 14746,
  "sand": 6381,
  "##gt": 29099,
  "rockies": 19348,
  "revolution": 19640,
  "##ount": 6174,
  "introducing": 10258,
  "unith": 4886,
  "##agra": 21387,
  "actual": 2116,
  "zana": 28912,
  "deutsche": 7689,
  "##heim": 8998,
  "bin": 13098,
  "##od": 751,
  "communicate": 10181,
  "notic": 8421,
  "##\u2044": 499,
  "contour": 25391,
  "regardless": 5483,
  "essex": 13711,
  "licensed": 3830,
  "cautious": 24827,
  "mastr": 27793,
  "ogden": 24488,
  "compensation": 1190,
  "##aron": 27756,
  "treated": 4550,
  "combustion": 9517,
  "##iverton": 24771,
  "\u0f49": 287,
  "butadiene": 28709,
  "royalties": 4458,
  "##urion": 22865,
  "leuc": 20561,
  "ct": 8003,
  "sage": 18818,
  "inexpensive": 19982,
  "stal": 28181,
  "vand": 18290,
  "barrist": 13629,
  "leve": 24367,
  "corner": 11162,
  "##tif": 1834,
  "incomp": 11927,
  "57th": 25962,
  "587": 12102,
  "trends": 3527,
  "expansion": 3330,
  "upper": 10027,
  "catalog": 6940,
  "##202": 23808,
  "nfc": 25799,
  "paid": 1555,
  "66": 3320,
  "epil": 20894,
  "inspire": 23175,
  "approximation": 26300,
  "emb": 4698,
  "macroeconomic": 11191,
  "wab": 16563,
  "decade": 13017,
  "##ergy": 1659,
  "lke": 14265,
  "##adia": 16045,
  "##\u0153": 494,
  "mva": 29563,
  "firstbank": 22514,
  "sib": 18215,
  "##istr": 1128,
  "gels": 27329,
  "##frog": 29404,
  "89": 3935,
  "440": 9393,
  "ans": 24994,
  "##wright": 21474,
  "##ve": 646,
  "813": 12240,
  "peers": 14511,
  "vegetable": 17658,
  "##joy": 27772,
  "smsc": 18407,
  "haz": 4025,
  "fibr": 15493,
  "multichannel": 20096,
  "##cast": 8834,
  "tractor": 16854,
  "fahrenheit": 28529,
  "discovered": 8572,
  "crosstex": 23407,
  "curt": 22129,
  "cst": 24274,
  "##omerase": 29265,
  "mediaone": 29075,
  "654": 12297,
  "##base": 9296,
  "regulate": 6606,
  "zfp": 29145,
  "asg": 28260,
  "##ollo": 7660,
  "musc": 28907,
  "indef": 4371,
  "misrepres": 10263,
  "meals": 15814,
  "acid": 8526,
  "jeans": 19993,
  "carm": 13131,
  "##inter": 4594,
  "simplify": 11569,
  "##arro": 24086,
  "apache": 14399,
  "embark": 23088,
  "eve": 18014,
  "citations": 26755,
  "##uring": 919,
  "passage": 10367,
  "##enburg": 18125,
  "ignition": 23698,
  "cad": 7690,
  "wcs": 26992,
  "tough": 28197,
  "weap": 15978,
  "owing": 11246,
  "nightclub": 27138,
  "lilly": 12057,
  "introduc": 3881,
  "autonomous": 23240,
  "mary": 5031,
  "turbine": 9950,
  "sinking": 11332,
  "undertak": 6903,
  "##ptible": 7617,
  "ipf": 28314,
  "##15": 10180,
  "hartford": 9925,
  "deceptive": 14389,
  "boat": 12400,
  "conditioned": 12497,
  "town": 9114,
  "\u0644": 282,
  "practiced": 18367,
  "cable": 3482,
  "encana": 29498,
  "propp": 19421,
  "##39": 15073,
  "906": 6887,
  "110": 5370,
  "977": 13320,
  "proceedings": 2639,
  "straight": 3316,
  "##ae": 13168,
  "nrc": 8686,
  "rebalance": 28671,
  "inherited": 26154,
  "illegally": 25549,
  "viv": 10806,
  "subtracting": 19574,
  "enogex": 18932,
  "rug": 14618,
  "building": 3213,
  "unitil": 20333,
  "984": 13362,
  "homest": 17509,
  "safegu": 8731,
  "##vasive": 15234,
  "keycorp": 24955,
  "partition": 29345,
  "\u01c2": 218,
  "##eti": 1369,
  "151": 7210,
  "pasc": 26668,
  "\u03b6": 239,
  "ago": 10733,
  "braking": 25384,
  "affected": 2269,
  "terminaling": 22434,
  "708": 12452,
  "biochemical": 22314,
  "interferon": 17366,
  "01": 3247,
  "played": 17019,
  "disp": 4022,
  "whatsoever": 19318,
  "tarp": 14076,
  "unic": 24991,
  "ja": 21213,
  "waterproof": 29661,
  "##iliation": 10459,
  "depreciate": 15492,
  "placebo": 9723,
  "oxycodone": 29557,
  "basin": 6692,
  "articles": 5180,
  "surgical": 6708,
  "##ectiveness": 2707,
  "183": 8756,
  "formally": 9753,
  "39": 3014,
  "trending": 20138,
  "competi": 1440,
  "condens": 11465,
  "reac": 10865,
  "##iera": 20981,
  "illumin": 21329,
  "##pmg": 6265,
  "morgans": 28960,
  "airspace": 20072,
  "widening": 18792,
  "##fore": 1773,
  "cards": 6113,
  "##tober": 1783,
  "jiu": 29833,
  "##enet": 15961,
  "1953": 25334,
  "viasat": 26210,
  "outst": 1347,
  "nepa": 26811,
  "amplifiers": 16080,
  "428": 10742,
  "euronext": 22147,
  "winchester": 22493,
  "912": 12803,
  "fun": 9809,
  "understand": 7303,
  "bord": 8056,
  "##ault": 17574,
  "zh": 9492,
  "expatri": 29497,
  "va": 9421,
  "psd": 20924,
  "trap": 19236,
  "cardiac": 10413,
  "##enti": 5995,
  "##erville": 18321,
  "##alfa": 29547,
  "prud": 5744,
  "tactical": 15379,
  "rec": 753,
  "as": 644,
  "virtue": 8948,
  "landscape": 12981,
  "coral": 21498,
  "##\u00b9": 495,
  "gsp": 26949,
  "hoy": 26808,
  "prohibitions": 11492,
  "sei": 21224,
  "##onald": 8040,
  "nonfor": 21679,
  "execute": 5696,
  "repatri": 9928,
  "mmr": 27193,
  "restrain": 20545,
  "854": 13404,
  "creditworthiness": 7522,
  "##allas": 7308,
  "revalued": 14990,
  "issuer": 3819,
  "mcdonnell": 20004,
  "90th": 29722,
  "leading": 3977,
  "outlooks": 28280,
  "glo": 2438,
  "emphas": 5583,
  "uncollectable": 23000,
  "turned": 18453,
  "principle": 5935,
  "ceva": 28736,
  "##uous": 12142,
  "harass": 27069,
  "monsanto": 14428,
  "sfas": 1830,
  "underwrites": 20532,
  "handler": 22169,
  "machines": 6540,
  "traffic": 5271,
  "pen": 2186,
  "trays": 25595,
  "mats": 15753,
  "junc": 19707,
  "##greens": 24864,
  "28th": 26636,
  "beard": 24749,
  "shore": 10676,
  "vick": 26509,
  "scratch": 27396,
  "sharon": 25654,
  "angioplasty": 23464,
  "##arex": 18398,
  "\u20a9": 329,
  "135": 5492,
  "arl": 21001,
  "raceway": 23664,
  "formerly": 4549,
  "diminishes": 25809,
  "zim": 16781,
  "unrestricted": 8477,
  "conectiv": 14644,
  "commodore": 26253,
  "cools": 27339,
  "proposals": 6020,
  "icr": 27848,
  "demonstrate": 6860,
  "anaheim": 23629,
  "citiz": 6874,
  "vint": 15149,
  "##oenix": 7920,
  "weightings": 16002,
  "cere": 15734,
  "##vc": 13358,
  "extending": 7482,
  "switches": 11586,
  "rubin": 16889,
  "prol": 7062,
  "patrick": 10186,
  "bhd": 22842,
  "##etics": 19641,
  "wellbore": 22848,
  "ormat": 25484,
  "988": 13343,
  "cow": 12676,
  "##guard": 17665,
  "\uffe5": 446,
  "##emaking": 7693,
  "subservicer": 20844,
  "homogenous": 23016,
  "molecular": 8904,
  "891": 13673,
  "favored": 19133,
  "could": 1033,
  "40": 2154,
  "oshk": 22888,
  "penalty": 6036,
  "##yra": 25051,
  "sublic": 8715,
  "cica": 27994,
  "india": 6733,
  "amounts": 1290,
  "purchasable": 26216,
  "funda": 6830,
  "greenbr": 20842,
  "protecting": 8875,
  "michelle": 26460,
  "302": 6383,
  "##iter": 2585,
  "passed": 6417,
  "##store": 14360,
  "preferred": 1758,
  "cay": 9194,
  "##10": 6447,
  "##urne": 20817,
  "hiv": 9945,
  "giga": 23868,
  "ew": 13802,
  "##wig": 29300,
  "11th": 19491,
  "basic": 3174,
  "promptly": 8737,
  "##ompati": 29242,
  "constitu": 14507,
  "##ailey": 24606,
  "##azyme": 22204,
  "##vert": 6538,
  "altern": 2803,
  "moneygram": 27593,
  "places": 8468,
  "##vine": 11865,
  "##kowitz": 27332,
  "advocacy": 20007,
  "concurrence": 23738,
  "throughput": 8643,
  "1964": 18823,
  "xc": 26824,
  "maintained": 3865,
  "coalbed": 24258,
  "##jan": 17742,
  "prostate": 11812,
  "##ember": 743,
  "239": 9815,
  "##ines": 1744,
  "caith": 26428,
  "tian": 13418,
  "exercises": 6260,
  "holland": 15348,
  "##nd": 697,
  "appreciate": 18620,
  "acreage": 7692,
  "antitrust": 9016,
  "schol": 22724,
  "deborah": 24517,
  "aei": 20355,
  "##ellsch": 25823,
  "recondition": 23419,
  "accelerator": 25448,
  "lifes": 17453,
  "cpl": 15581,
  "wealth": 9109,
  "mcgee": 21747,
  "##gn": 9248,
  "eso": 18246,
  "altisource": 28530,
  "##wh": 3611,
  "rough": 14921,
  "pellets": 22822,
  "acmi": 25358,
  "##priate": 11470,
  "transalta": 29611,
  "698": 11952,
  "remarket": 16768,
  "disaggreg": 13481,
  "represent": 2052,
  "##ech": 1161,
  "##rid": 19908,
  "alignment": 14863,
  "##iliary": 16526,
  "spur": 19754,
  "hamp": 8343,
  "bison": 24207,
  "eps": 5594,
  "lies": 19916,
  "upholstered": 27202,
  "chile": 11413,
  "##assee": 28204,
  "##isters": 10874,
  "vouchers": 27487,
  "pds": 25361,
  "##ancin": 28367,
  "evalu": 1594,
  "oxyc": 29384,
  "hr": 10063,
  "##lan": 10553,
  "investig": 4174,
  "rica": 16826,
  "##alde": 27158,
  "dcr": 27373,
  "compx": 21691,
  "##hanna": 15645,
  "maric": 27788,
  "finishing": 11636,
  "leckerman": 23027,
  "ferm": 28893,
  "photo": 14769,
  "sherr": 27811,
  "wise": 20106,
  "excluding": 3262,
  "deteriorates": 19830,
  "opera": 23206,
  "phenomena": 29864,
  "platelet": 20419,
  "alternating": 29480,
  "violation": 5175,
  "des": 1188,
  "did": 2550,
  "spt": 28662,
  "undergoes": 19148,
  "quicker": 27178,
  "disbursements": 11217,
  "deb": 1160,
  "tastes": 16106,
  "lax": 28180,
  "bc": 8296,
  "rebuilt": 29760,
  "version": 8047,
  "foster": 11099,
  "optimal": 11013,
  "oecd": 29626,
  "speakers": 22277,
  "##ffs": 27709,
  "gary": 9280,
  "desktops": 27717,
  "##bilt": 20982,
  "tonne": 23937,
  "generics": 20274,
  "##engine": 17249,
  "underway": 12938,
  "supermajor": 24845,
  "abs": 3646,
  "##osen": 9216,
  "weighing": 21628,
  "contracted": 6370,
  "intermediate": 8408,
  "[unused9]": 10,
  "measures": 3301,
  "circumst": 2390,
  "relieve": 16815,
  "##omedics": 25351,
  "healthgate": 29346,
  "conferred": 25012,
  "caterair": 18237,
  "##itoneal": 28661,
  "##raph": 5629,
  "568": 11937,
  "transform": 8066,
  "super": 2700,
  "branches": 6405,
  "grow": 1662,
  "maximizes": 20678,
  "alber": 10547,
  "osi": 13203,
  "missour": 6152,
  "nordisk": 24299,
  "##heet": 24554,
  "joint": 2301,
  "toxins": 24568,
  "497": 11536,
  "atlantic": 6003,
  "anch": 8376,
  "1962": 20041,
  "phase": 3310,
  "interconnection": 9093,
  "au": 1250,
  "domiciled": 11820,
  "vort": 29021,
  "syndic": 19266,
  "instrument": 3933,
  "pei": 23598,
  "tremend": 24940,
  "lsi": 20063,
  "mitel": 29529,
  "oreg": 7449,
  "alternatives": 6001,
  "express": 2812,
  "obese": 29946,
  "shelby": 22495,
  "frb": 7375,
  "spacecraft": 29398,
  "antagonists": 24236,
  "##eces": 13620,
  "amti": 25940,
  "##lim": 5198,
  "precisely": 15444,
  "daiichi": 23245,
  "assembling": 22070,
  "sumit": 16951,
  "prepare": 7258,
  "shrinking": 29458,
  "implic": 9113,
  "##gle": 17441,
  "approached": 25458,
  "ie": 21244,
  "##aging": 3170,
  "##ately": 987,
  "forums": 24249,
  "taiwanese": 26073,
  "reinvestment": 5940,
  "terminalling": 19335,
  "tier": 4162,
  "##isphere": 18587,
  "##ectile": 29110,
  "consortium": 12345,
  "concurrently": 9144,
  "nonemployees": 22737,
  "conclud": 3581,
  "treaty": 9629,
  "##ually": 3525,
  "polish": 18187,
  "telemark": 28243,
  "calculate": 6091,
  "heinz": 20522,
  "inappropriately": 26951,
  "##strateg": 19661,
  "compete": 3085,
  "merit": 7027,
  "victor": 16865,
  "rems": 16305,
  "##atric": 9301,
  "sil": 4514,
  "bunting": 28272,
  "420": 9170,
  "##201": 19482,
  "bases": 5322,
  "interp": 3216,
  "##ank": 1012,
  "believed": 6309,
  "cap": 924,
  "consenting": 24979,
  "225": 6646,
  "grove": 12406,
  "corillian": 26767,
  "##isto": 21892,
  "inser": 11960,
  "commenc": 6226,
  "tribune": 17806,
  "transformation": 12439,
  "cfr": 19634,
  "diablo": 28878,
  "linens": 26468,
  "robertson": 19278,
  "stresses": 26882,
  "fha": 12309,
  "evolves": 25017,
  "traders": 14694,
  "root": 19389,
  "huntington": 13746,
  "contributed": 3896,
  "diluting": 22252,
  "##ip": 745,
  "##unded": 6229,
  "foregone": 23722,
  "context": 7952,
  "nl": 12608,
  "mofc": 27008,
  "digital": 3645,
  "poss": 2371,
  "stol": 17402,
  "lps": 26400,
  "lac": 11407,
  "prototypes": 18071,
  "yun": 25103,
  "##workers": 24438,
  "substation": 19410,
  "estates": 14673,
  "loops": 27531,
  "mcco": 26006,
  "jamex": 27621,
  "nobel": 21726,
  "wh4": 26572,
  "miz": 24208,
  "##cv": 26607,
  "hunter": 14553,
  "gauge": 17994,
  "##so": 1022,
  "##etts": 5204,
  "tohmat": 29546,
  "locate": 9869,
  "billion": 2345,
  "indones": 11665,
  "sensitivity": 5656,
  "balanced": 9235,
  "discomfort": 28446,
  "adler": 28764,
  "##akers": 15109,
  "worthy": 24109,
  "##ancing": 4836,
  "590": 11031,
  "tracked": 16202,
  "upgr": 4706,
  "fittings": 19453,
  "likely": 2460,
  "vent": 8850,
  "armco": 28492,
  "nt": 11078,
  "##ectomy": 19415,
  "[SEP]": 103,
  "containers": 6980,
  "illinois": 4462,
  "fix": 1941,
  "##crip": 2685,
  "##tion": 625,
  "volcanic": 21701,
  "homogeneous": 14335,
  "##agenics": 28757,
  "lives": 3192,
  "hybrid": 8062,
  "patents": 2769,
  "shep": 21100,
  "##ll": 1158,
  "macadam": 28527,
  "aar": 15951,
  "tracks": 13561,
  "##ay": 702,
  "sear": 26818,
  "uniden": 17417,
  "##imatrix": 20054,
  "powdered": 26245,
  "dcm": 29538,
  "antiviral": 22333,
  "dash": 20496,
  "7th": 25261,
  "fram": 29285,
  "##phia": 8063,
  "motion": 4275,
  "hockey": 22852,
  "dri": 21890,
  "##ining": 2433,
  "subdivisions": 14632,
  "seasoned": 15548,
  "gti": 27467,
  "fres": 16058,
  "cnc": 23731,
  "\u2120": 336,
  "##ein": 5549,
  "custod": 6531,
  "burning": 17234,
  "salt": 8855,
  "##ris": 8869,
  "islands": 8465,
  "gifts": 16184,
  "##ude": 3778,
  "##asure": 28464,
  "depression": 17221,
  "whitney": 16564,
  "maver": 26921,
  "dade": 20965,
  "wild": 9498,
  "seminars": 14481,
  "reassesses": 26962,
  "photoc": 26352,
  "incorrectly": 17282,
  "##quin": 16742,
  "tsmc": 25054,
  "brigham": 19585,
  "cit": 8470,
  "warranties": 5815,
  "robots": 24182,
  "unat": 22534,
  "ana": 15967,
  "##esa": 8562,
  "whiting": 19154,
  "blockbuster": 19397,
  "mutation": 22373,
  "pti": 20422,
  "technologies": 2445,
  "decorative": 17243,
  "tread": 25015,
  "licensees": 6604,
  "anticompetitive": 29152,
  "\ufb01": 425,
  "717": 12192,
  "code": 2705,
  "prep": 3289,
  "abel": 22978,
  "head": 3103,
  "unrem": 15115,
  "disconn": 19572,
  "##recy": 15959,
  "usx": 19064,
  "over": 986,
  "asserts": 13069,
  "raleigh": 15956,
  "bottling": 14132,
  "unpredictable": 8705,
  "advantages": 6282,
  "uniform": 6886,
  "religious": 25364,
  "\u207d": 322,
  "scis": 21988,
  "cooperation": 10577,
  "##iggs": 17240,
  "functionality": 6343,
  "cfo": 6977,
  "##aby": 20122,
  "mpc": 17061,
  "369": 10944,
  "carolinas": 11513,
  "fw": 22459,
  "excel": 16242,
  "way": 3874,
  "bethlehem": 22761,
  "123": 3142,
  "clarifications": 21629,
  "unear": 7150,
  "color": 4595,
  "##cline": 23226,
  "recreational": 9742,
  "unprecedented": 15213,
  "connell": 26965,
  "mcl": 14124,
  "defiance": 21321,
  "oec": 23823,
  "bns": 15166,
  "##link": 8442,
  "##22": 10451,
  "cement": 10881,
  "anchors": 22787,
  "##atm": 25866,
  "16th": 25900,
  "necessitate": 16632,
  "fredd": 9378,
  "##aic": 27322,
  "tactics": 18308,
  "heter": 24999,
  "olin": 19673,
  "smc": 20446,
  "winton": 14250,
  "astoria": 18940,
  "budget": 5487,
  "oxygen": 9911,
  "diab": 8193,
  "##vell": 14347,
  "schult": 21648,
  "harleys": 21955,
  "swing": 11772,
  "##endon": 25461,
  "##mon": 6717,
  "thal": 20840,
  "pigments": 19481,
  "union": 3740,
  "while": 2158,
  "##ok": 1604,
  "securitizing": 28380,
  "catheter": 12897,
  "extern": 3835,
  "worthless": 16623,
  "gaap": 3039,
  "##vested": 4240,
  "##isbury": 20655,
  "underperformance": 19077,
  "##hai": 9148,
  "quant": 12574,
  "worst": 16619,
  "marie": 25505,
  "764": 12845,
  "compar": 1291,
  "largely": 4865,
  "reservation": 10637,
  "pantry": 24393,
  "violating": 16307,
  "92": 3833,
  "download": 11838,
  "rmb": 7263,
  "abbott": 9673,
  "bog": 18360,
  "##rx": 14596,
  "pressured": 26622,
  "chrysler": 14090,
  "madden": 21157,
  "baldwin": 16884,
  "112": 5098,
  "gar": 7248,
  "##utical": 3088,
  "drawdown": 17823,
  "shale": 8792,
  "nation": 5898,
  "##fe": 1666,
  "coun": 1620,
  "duff": 17304,
  "multiple": 3302,
  "cautionary": 9680,
  "83": 3765,
  "##people": 21637,
  "abetted": 25734,
  "telcom": 23830,
  "nanometer": 29309,
  "##orrow": 19477,
  "hall": 8727,
  "sept": 1529,
  "##using": 6612,
  "lumen": 26266,
  "staying": 22174,
  "046": 13772,
  "ceilings": 21281,
  "michaels": 22906,
  "fnb": 16126,
  "endpoints": 13764,
  "sarbanes": 4663,
  "carries": 8944,
  "##urbs": 28104,
  "##obil": 28132,
  "wavel": 18012,
  "##75": 8445,
  "craig": 11760,
  "warm": 10100,
  "cem": 10656,
  "dependency": 19969,
  "brio": 26652,
  "burk": 26666,
  "##orph": 20926,
  "underwrite": 14522,
  "habitat": 22245,
  "lasalle": 11028,
  "##works": 9830,
  "kazakh": 18904,
  "##body": 24937,
  "##icing": 7148,
  "technique": 9486,
  "vitas": 27195,
  "dno": 24418,
  "brooklyn": 16708,
  "carbonated": 26749,
  "stero": 20935,
  "owners": 3098,
  "ass": 826,
  "liber": 6335,
  "ang": 5514,
  "flight": 8683,
  "designations": 10330,
  "hilf": 23188,
  "pt": 9653,
  "recoup": 11663,
  "saturns": 28112,
  "gallon": 10854,
  "##ras": 24142,
  "wearable": 25891,
  "##omo": 11330,
  "catch": 14112,
  "fundings": 22986,
  "superintendent": 19152,
  "##atica": 29954,
  "##orpor": 945,
  "enthus": 17997,
  "amalgamation": 28311,
  "##isar": 28041,
  "trinidad": 23591,
  "encompasses": 13929,
  "unwind": 20620,
  "modules": 8394,
  "ended": 968,
  "parliament": 24898,
  "restatement": 7141,
  "##hea": 17754,
  "##inf": 15193,
  "##authorized": 5019,
  "undetected": 16446,
  "medication": 13336,
  "dislocations": 25166,
  "gpu": 12143,
  "##traditional": 23185,
  "it": 894,
  "steps": 6015,
  "scheme": 12004,
  "types": 3400,
  "shoe": 16905,
  "dba": 18780,
  "cookies": 20221,
  "monoc": 14341,
  "malays": 9939,
  "variance": 10597,
  "defaulting": 16997,
  "merchant": 5885,
  "##\u00a4": 496,
  "debit": 8627,
  "computers": 7326,
  "wors": 12132,
  "resp": 943,
  "cinema": 14349,
  "##rix": 9011,
  "destr": 8590,
  "petition": 5669,
  "canc": 4405,
  "volunteer": 25332,
  "diverted": 17440,
  "murr": 13839,
  "allan": 19279,
  "assessed": 4787,
  "nols": 7940,
  "rjrn": 27586,
  "seymour": 25913,
  "surplus": 5269,
  "davenport": 25007,
  "telecommun": 3974,
  "##grad": 12521,
  "solidify": 28192,
  "##tility": 12828,
  "trc": 16849,
  "zo": 15825,
  "income": 909,
  "kem": 10707,
  "dhs": 23623,
  "reaching": 8930,
  "airline": 8469,
  "janus": 20866,
  "cells": 5397,
  "zenith": 20110,
  "##reh": 2302,
  "hydrochlor": 21248,
  "##ger": 8539,
  "have": 831,
  "approximate": 4414,
  "857": 11745,
  "theatr": 9062,
  "nhr": 29131,
  "collections": 5970,
  "##ando": 16927,
  "amc": 12120,
  "##nie": 19120,
  "neigh": 9581,
  "340b": 26126,
  "cadiz": 26061,
  "toys": 11709,
  "sponge": 23438,
  "suspending": 15774,
  "integral": 3943,
  "mcafee": 24232,
  "avant": 17414,
  "revision": 5116,
  "##run": 19164,
  "##ams": 7306,
  "iconic": 29908,
  "artes": 18720,
  "##izona": 6212,
  "bmi": 23635,
  "kingdom": 5024,
  "scrutin": 8668,
  "conditions": 1651,
  "enacted": 4196,
  "apbo": 17443,
  "supervalu": 24490,
  "stendal": 29303,
  "\u203a": 312,
  "##onation": 27546,
  "deductibles": 10150,
  "avid": 20674,
  "harvey": 14710,
  "inter": 759,
  "##\u00b3": 487,
  "bayer": 12219,
  "##nett": 11052,
  "estimates": 1612,
  "domes": 3027,
  "tyco": 12107,
  "goss": 27404,
  "canyon": 12737,
  "##pto": 13029,
  "forging": 24770,
  "segment": 1790,
  "per": 738,
  "pronouncements": 4650,
  "carey": 15673,
  "seals": 22559,
  "wink": 23446,
  "wilhel": 27431,
  "offic": 1018,
  "keny": 24287,
  "junior": 5566,
  "irreversible": 29700,
  "recapitalization": 6783,
  "receivable": 2187,
  "##eneca": 13805,
  "satellite": 4964,
  "##occus": 29779,
  "##letion": 6492,
  "faulty": 15887,
  "478": 11380,
  "determinable": 5747,
  "normalization": 22149,
  "raymond": 11901,
  "##essor": 8368,
  "pharmacokinetic": 20652,
  "unaff": 20184,
  "tllp": 29487,
  "sho": 9479,
  "hrg": 29107,
  "armstrong": 14283,
  "##unk": 25152,
  "showboat": 25000,
  "morale": 25993,
  "simp": 5012,
  "legislation": 3727,
  "10th": 19206,
  "boiler": 16366,
  "##anda": 11915,
  "evidenced": 9441,
  "bus": 898,
  "##posed": 22953,
  "tbc": 24177,
  "##quer": 17250,
  "alfalfa": 29645,
  "force": 3804,
  "propel": 27798,
  "ingred": 6505,
  "##lihood": 5138,
  "1440": 17628,
  "unp": 28296,
  "heterogeneous": 29280,
  "russian": 12462,
  "tobacco": 6833,
  "44": 3089,
  "##ust": 767,
  "indexing": 22683,
  "pma": 9178,
  "microturb": 25922,
  "accordion": 18913,
  "##c": 454,
  "intends": 4255,
  "africa": 7361,
  "stripping": 22280,
  "##quet": 20612,
  "immunoass": 22705,
  "contributing": 7498,
  "##usch": 20599,
  "infections": 11941,
  "offense": 25994,
  "notwithstanding": 7771,
  "aif": 26582,
  "mcc": 7459,
  "strips": 15371,
  "ely": 25701,
  "hemod": 19647,
  "processors": 9229,
  "genetically": 17582,
  "##ask": 4933,
  "perspective": 10988,
  "395": 10540,
  "deck": 17354,
  "ucb": 18528,
  "sprint": 7481,
  "gramercy": 21155,
  "holmes": 19714,
  "accounted": 2500,
  "##53": 19213,
  "##eno": 24808,
  "grass": 16765,
  "santi": 29083,
  "availability": 3082,
  "immunotherap": 20285,
  "endoscope": 28428,
  "registries": 24882,
  "feel": 14156,
  "##\ufb03": 595,
  "##etooth": 22750,
  "removal": 5368,
  "slots": 17649,
  "##itz": 8570,
  "trss": 15353,
  "umwa": 28189,
  "houston": 6474,
  "holt": 25637,
  "profitability": 3203,
  "bgs": 17005,
  "oli": 16088,
  "spoilage": 19597,
  "entreprene": 13538,
  "hauppauge": 29627,
  "anom": 27344,
  "kellog": 20517,
  "gsci": 22821,
  "worksite": 19384,
  "norms": 25266,
  "13485": 24776,
  "harken": 18621,
  "##employment": 8091,
  "lat": 7032,
  "connections": 9665,
  "advertiser": 14567,
  "reacquisition": 23283,
  "yi": 23568,
  "orderly": 7825,
  "collateralize": 13922,
  "usury": 23413,
  "##ota": 4712,
  "flavors": 17344,
  "adr": 16327,
  "simplifying": 12350,
  "riggs": 25340,
  "dav": 4559,
  "regenerative": 18066,
  "coordination": 10999,
  "##laim": 13115,
  "el": 1289,
  "gm": 6095,
  "##\u2074": 528,
  "taxpayers": 17144,
  "they": 1913,
  "##ined": 1180,
  "141r": 10940,
  "measuring": 5793,
  "rmp": 27216,
  "sizes": 9354,
  "prints": 22666,
  "hosting": 8303,
  "forbearance": 10948,
  "embodies": 29227,
  "comply": 2968,
  "interfere": 11879,
  "inducing": 26617,
  "disputing": 27053,
  "think": 18225,
  "sutton": 23565,
  "maximums": 28242,
  "abl": 8507,
  "ordered": 8100,
  "onsite": 16950,
  "gartner": 23267,
  "cagr": 24270,
  "cherry": 17941,
  "##ipharma": 27917,
  "air": 2309,
  "ku": 8553,
  "sfr": 27117,
  "comparable": 3430,
  "surcharge": 10375,
  "exposes": 11085,
  "##ja": 10183,
  "calam": 23387,
  "packet": 14343,
  "promoted": 9594,
  "9062": 24483,
  "##ectable": 19678,
  "generate": 3277,
  "089": 13988,
  "fer": 5573,
  "mss": 21237,
  "##uns": 11145,
  "##erm": 825,
  "reacquire": 25609,
  "access": 2334,
  "embody": 29966,
  "501": 9798,
  "ballistic": 28238,
  "colom": 12868,
  "uniforms": 23625,
  "obes": 16312,
  "##anxi": 16165,
  "sealing": 18400,
  "##whel": 28490,
  "exited": 13965,
  "cess": 10919,
  "2323": 26661,
  "##anger": 11546,
  "videocass": 24475,
  "incontinence": 22981,
  "awa": 10593,
  "contem": 5173,
  "mosa": 24726,
  "##hg": 17045,
  "wir": 14996,
  "remodels": 24197,
  "salons": 19793,
  "##itic": 25516,
  "headwaters": 18777,
  "##emis": 22867,
  "##applic": 9959,
  "lightstone": 20968,
  "exter": 11953,
  "##issancere": 22856,
  "issuance": 2133,
  "218": 9140,
  "uici": 28170,
  "new": 1045,
  "odms": 28820,
  "trin": 19018,
  "##fuel": 11929,
  "genworth": 21551,
  "##etro": 27220,
  "trg": 26168,
  "ratios": 4184,
  "##farm": 27784,
  "underperform": 11494,
  "he": 1264,
  "srl": 24832,
  "cpr": 20035,
  "indexed": 8449,
  "presumption": 16060,
  "##tings": 8789,
  "st": 653,
  "##ep": 1203,
  "soluble": 24006,
  "rochester": 13769,
  "interrupted": 15026,
  "uncertain": 2238,
  "held": 1739,
  "ride": 17535,
  "kiosk": 23190,
  "vessel": 7203,
  "gravel": 20304,
  "##lite": 20471,
  "strugg": 25723,
  "inherent": 3270,
  "telenet": 26309,
  "broadcom": 21198,
  "math": 11853,
  "##arbonate": 26398,
  "utilized": 3991,
  "turnaround": 12183,
  "##prints": 26365,
  "##keeping": 10316,
  "##ortiz": 1569,
  "f": 148,
  "coverage": 2775,
  "factories": 15986,
  "##cross": 20541,
  "ji": 17894,
  "flo": 3307,
  "deployed": 9350,
  "whereas": 9119,
  "fourth": 2558,
  "vap": 27826,
  "##bt": 3342,
  "sacramento": 14445,
  "\u044f": 272,
  "geologic": 14967,
  "hemophilia": 23496,
  "##iam": 21466,
  "##ista": 8135,
  "holidays": 12932,
  "297": 10333,
  "prerequisite": 28149,
  "band": 7078,
  "nees": 20151,
  "##85": 11499,
  "##luent": 15642,
  "teleph": 3936,
  "chic": 5678,
  "cwc": 29326,
  "expedients": 16353,
  "concur": 24542,
  "central": 4175,
  "competitiveness": 11343,
  "##ante": 14485,
  "adcetris": 26916,
  "breach": 3501,
  "mlc": 28329,
  "assemb": 5033,
  "rmg": 28968,
  "##bourne": 17778,
  "afg": 13553,
  "switch": 5702,
  "resigns": 16168,
  "sdi": 23711,
  "zhou": 25853,
  "repayments": 6250,
  "633": 11988,
  "guaranteed": 3997,
  "adoption": 2531,
  "accrue": 6163,
  "residents": 7648,
  "##mith": 13991,
  "molten": 25749,
  "dictate": 15532,
  "hbo": 23310,
  "bmp": 26640,
  "instant": 11124,
  "us12ng": 26988,
  "strengthened": 12214,
  "unloc": 22864,
  "##hy": 6750,
  "bolt": 24466,
  "identi": 8545,
  "ongoing": 3166,
  "interm": 5530,
  "greenwood": 22184,
  "quite": 21521,
  "briefed": 23705,
  "halifax": 28899,
  "operator": 5127,
  "darling": 28591,
  "renovated": 19514,
  "acquires": 8344,
  "hosiery": 28549,
  "inhibition": 18691,
  "fee": 2312,
  "vulcan": 15295,
  "fovista": 29221,
  "innovator": 19028,
  "kemper": 12234,
  "bmw": 23794,
  "rutherford": 26909,
  "ineff": 5880,
  "chilled": 27873,
  "moss": 17583,
  "americans": 13209,
  "519": 11837,
  "##opoulos": 24933,
  "redeemable": 4629,
  "in": 617,
  "ebitdax": 27231,
  "aims": 20461,
  "repurch": 2321,
  "003": 11334,
  "##manship": 17073,
  "achie": 2361,
  "rambus": 20994,
  "iroquois": 23634,
  "fig": 8487,
  "harmon": 17543,
  "rtos": 20814,
  "generated": 2794,
  "divided": 5943,
  "\u00b4": 191,
  "raf": 23588,
  "##ina": 2703,
  "217": 9258,
  "structurally": 17462,
  "sp": 994,
  "phmsa": 21397,
  "great": 2256,
  "##alt": 9213,
  "adds": 13218,
  "ocwen": 17365,
  "presence": 5215,
  "oshkosh": 23065,
  "convinc": 28193,
  "ark": 7048,
  "tropicana": 15895,
  "irr": 8524,
  "##heng": 24195,
  "mathe": 28656,
  "ll": 1795,
  "\u2666": 401,
  "##econ": 24277,
  "pla": 16369,
  "commissions": 3938,
  "##eline": 12730,
  "##echan": 4672,
  "retiring": 15993,
  "##ame": 1481,
  "london": 6432,
  "##uter": 12050,
  "glax": 14648,
  "kiss": 27895,
  "siding": 18788,
  "##bson": 23566,
  "computer": 3424,
  "[unused80]": 81,
  "near": 3620,
  "##certain": 2211,
  "##ocard": 17454,
  "hector": 29258,
  "subsidi": 1154,
  "designated": 3541,
  "coffee": 8677,
  "655": 12005,
  "fame": 27980,
  "hak": 26631,
  "1950": 19959,
  "##omatic": 16916,
  "numerous": 3829,
  "immediate": 5432,
  "boule": 12652,
  "confection": 24809,
  "cure": 8825,
  "1400": 27942,
  "lo": 918,
  "resources": 2036,
  "770": 10247,
  "bae": 29098,
  "qing": 22139,
  "environmental": 2195,
  "shifts": 10269,
  "453": 11460,
  "adjoining": 17521,
  "timely": 3017,
  "##ience": 5511,
  "stressed": 26424,
  "508": 11541,
  "false": 6393,
  "##gar": 9726,
  "optometr": 26901,
  "preemp": 12919,
  "crisis": 8785,
  "commerzbank": 24136,
  "myel": 22352,
  "facto": 25179,
  "arc": 8999,
  "nether": 8165,
  "guarantor": 5422,
  "fell": 11394,
  "cll": 27291,
  "embodied": 24506,
  "invalidity": 15025,
  "brooks": 14630,
  "locs": 29241,
  "avan": 25169,
  "capping": 17981,
  "426": 11292,
  "##onic": 11004,
  "yankee": 10774,
  "mong": 20904,
  "salomon": 17219,
  "##ionics": 18009,
  "rack": 14713,
  "methyl": 20412,
  "dea": 16478,
  "patterns": 6037,
  "cac": 15405,
  "alcon": 29961,
  "expert": 6834,
  "solutia": 17317,
  "boots": 17016,
  "confisc": 26948,
  "return": 1872,
  "##flower": 25837,
  "workflow": 13701,
  "maytag": 28539,
  "[unused86]": 87,
  "asics": 21143,
  "##comed": 23719,
  "728": 12326,
  "##ults": 11114,
  "##late": 16725,
  "##azoo": 28962,
  "printed": 8956,
  "pecun": 16141,
  "durect": 28746,
  "island": 7169,
  "preliminarily": 17496,
  "##hand": 13356,
  "##mento": 14053,
  "fronts": 28614,
  "proactive": 12913,
  "medic": 2970,
  "guyana": 25289,
  "\uff1b": 440,
  "cogent": 22590,
  "blank": 8150,
  "sprink": 27080,
  "mccarthy": 22946,
  "##efr": 12384,
  "incompati": 20762,
  "wellington": 20244,
  "subsystem": 22144,
  "##ab": 677,
  "##ients": 6326,
  "moissan": 25395,
  "tailor": 18005,
  "##opathy": 19909,
  "##uez": 20409,
  "##aneously": 7637,
  "##ellschaft": 25914,
  "hydroelectric": 11445,
  "amarillo": 27794,
  "hed": 25533,
  "perfectly": 26550,
  "\u03d2": 252,
  "adopts": 18184,
  "effort": 4997,
  "photomasks": 28729,
  "##der": 4287,
  "correctional": 15732,
  "##aties": 12008,
  "##uca": 21384,
  "967": 13368,
  "fos": 21710,
  "##thal": 28141,
  "changed": 4228,
  "193": 2589,
  "edwards": 12089,
  "hyperion": 21118,
  "##uct": 1428,
  "##core": 15724,
  "vertical": 8294,
  "phys": 3108,
  "mafco": 22562,
  "lcd": 17787,
  "entrants": 12649,
  "equates": 20580,
  "israel": 7382,
  "brokered": 8569,
  "haynesville": 23227,
  "instituting": 22861,
  "litigating": 29837,
  "schmidt": 26439,
  "##gress": 4771,
  "##onsolid": 4627,
  "##und": 1087,
  "##earr": 24721,
  "##nix": 22839,
  "binder": 25737,
  "governor": 14766,
  "##ians": 14214,
  "##contin": 16976,
  "outpaced": 24743,
  "##anch": 2316,
  "293": 10349,
  "##fone": 29933,
  "##olysis": 25259,
  "elabor": 24138,
  "##ocin": 27855,
  "sigeco": 21586,
  "stev": 12365,
  "lund": 19921,
  "investigator": 15754,
  "holds": 4473,
  "##uted": 1727,
  "noncompliance": 8481,
  "interconnections": 19964,
  "divid": 1512,
  "275": 7399,
  "mdp": 24799,
  "pmt": 29291,
  "##alls": 6318,
  "buffalo": 14653,
  "a4": 28891,
  "nhs": 27042,
  "terrorism": 6927,
  "meters": 9499,
  "refinement": 17013,
  "##anto": 13575,
  "surv": 6304,
  "724": 11653,
  "##ength": 3137,
  "jefferies": 14400,
  "solvents": 18655,
  "mathematically": 27960,
  "mov": 5421,
  "ksop": 29150,
  "surviving": 8398,
  "alters": 29581,
  "dramatically": 11489,
  "graves": 29104,
  "electronic": 3910,
  "panda": 20583,
  "dubai": 22017,
  "##mac": 18986,
  "washington": 4470,
  "belk": 26739,
  "sonus": 25717,
  "typho": 29831,
  "compaq": 17620,
  "minimal": 6555,
  "modernize": 21568,
  "influenced": 6889,
  "209": 9039,
  "##len": 12686,
  "mob": 8189,
  "[unused67]": 68,
  "##ecogn": 3750,
  "nrs": 19277,
  "assemble": 14382,
  "contemplating": 21845,
  "bioavailability": 23844,
  "loral": 14300,
  "holdings": 2343,
  "##owners": 8498,
  "facets": 23928,
  "##vs": 10898,
  "mewbourne": 26102,
  "neil": 13182,
  "latest": 8702,
  "tpa": 23380,
  "cemeteries": 23732,
  "wheels": 15748,
  "vishay": 20463,
  "##actic": 23870,
  "atv": 24612,
  "##ensed": 2560,
  "verifiable": 21758,
  "peters": 15815,
  "fifo": 10387,
  "sufficiency": 16420,
  "##ates": 889,
  "762": 12802,
  "characterize": 17918,
  "reseller": 9859,
  "softbank": 25141,
  "ergo": 26124,
  "433": 11144,
  "forwarding": 17056,
  "dtla": 28758,
  "sylvan": 22421,
  "irrad": 26577,
  "recovers": 16649,
  "metall": 11400,
  "contest": 10613,
  "qa": 23454,
  "hungarian": 22122,
  "streets": 20302,
  "calls": 6199,
  "invasive": 10825,
  "progressing": 26254,
  "##alg": 18365,
  "salvage": 9380,
  "##ace": 1563,
  "521": 11795,
  "##tia": 13309,
  "##amins": 17978,
  "consolidates": 13414,
  "##union": 17387,
  "##ettes": 10918,
  "cdo": 11502,
  "dmc": 22677,
  "doj": 11076,
  "gibson": 19792,
  "sm": 2228,
  "disaster": 8692,
  "spg": 19427,
  "transm": 25380,
  "##mas": 16571,
  "hic": 28404,
  "piv": 10882,
  "a320": 26997,
  "si": 9322,
  "consultancy": 18935,
  "saturn": 22420,
  "injury": 5635,
  "##apore": 7585,
  "stratum": 28418,
  "size": 3852,
  "ccm": 25375,
  "appeared": 18708,
  "schedule": 2653,
  "mouth": 17845,
  "reid": 20676,
  "arcade": 28741,
  "##tman": 23945,
  "stainless": 14248,
  "microb": 17003,
  "lbs": 22415,
  "llc": 2086,
  "gds": 22103,
  "trans": 970,
  "attached": 6650,
  "##prod": 19430,
  "npamlp": 26064,
  "cmi": 19307,
  "894": 13329,
  "djo": 26218,
  "quantity": 7461,
  "nab": 12621,
  "lymp": 13054,
  "910": 11871,
  "hahn": 27405,
  "tech": 7132,
  "decont": 16270,
  "fr": 736,
  "resul": 851,
  "facsim": 15758,
  "embargoes": 24752,
  "##nc": 8650,
  "palms": 25743,
  "idt": 15049,
  "incapacity": 27556,
  "hawai": 7724,
  "nexus": 21542,
  "##zy": 8105,
  "itg": 19583,
  "srp": 20476,
  "hedg": 1996,
  "smd": 29948,
  "corona": 24669,
  "stp": 20608,
  "harman": 24871,
  "examination": 4273,
  "rewards": 9436,
  "pretr": 22278,
  "shrink": 12164,
  "cardinal": 13518,
  "perceive": 16496,
  "##ledg": 10791,
  "dropped": 14305,
  "##uda": 7147,
  "overdrafts": 16665,
  "validating": 25080,
  "momentive": 27362,
  "thinking": 28249,
  "include": 1410,
  "wabash": 26308,
  "##immune": 13245,
  "depreciates": 25022,
  "ground": 5042,
  "engineered": 8109,
  "realty": 5129,
  "diffic": 2674,
  "ranged": 8968,
  "passive": 9539,
  "introductory": 25047,
  "magnitude": 9276,
  "##atherm": 24691,
  "##idex": 23453,
  "##axin": 24446,
  "malicious": 17301,
  "mario": 26913,
  "here": 1860,
  "pocono": 27731,
  "bigg": 19967,
  "##roup": 25163,
  "premium": 2463,
  "drying": 19858,
  "conci": 26937,
  "magnum": 23116,
  "coyote": 27438,
  "unan": 5856,
  "willing": 6448,
  "suddenly": 28917,
  "sundry": 27909,
  "costar": 25568,
  "dresser": 21882,
  "[unused19]": 20,
  "##tious": 9556,
  "explan": 8726,
  "##pelier": 21337,
  "dissatisfied": 24020,
  "lifestyle": 10872,
  "screening": 8628,
  "retainer": 9935,
  "displace": 28294,
  "alle": 7175,
  "1117": 21509,
  "voicemail": 27948,
  "##uded": 20897,
  "interagency": 21128,
  "prove": 6855,
  "tried": 20334,
  "brakes": 24307,
  "ahi": 26004,
  "malt": 19363,
  "sympos": 29536,
  "##agnetic": 18945,
  "triarc": 24089,
  "gug": 25547,
  "arb": 10450,
  "olig": 19926,
  "##minster": 21957,
  "fairs": 28563,
  "potomac": 12454,
  "##sequent": 2135,
  "##ivity": 7335,
  "forest": 8339,
  "##anor": 27773,
  "##law": 5114,
  "replication": 19688,
  "prearranged": 25513,
  "##ium": 2078,
  "##ato": 10652,
  "usefulness": 19245,
  "cross": 4435,
  "decking": 27647,
  "sediments": 24512,
  "##tronic": 14322,
  "chloride": 16934,
  "hopper": 25838,
  "##tv": 10325,
  "##log": 4494,
  "recaptured": 24247,
  "boliv": 15105,
  "##eas": 5692,
  "##ow": 808,
  "legislatures": 15987,
  "pension": 2375,
  "eigh": 11000,
  "oe": 13064,
  "global": 2488,
  "ciena": 18657,
  "victim": 26826,
  "keyspan": 23333,
  "bsi": 28666,
  "richards": 14164,
  "net": 903,
  "appraise": 28804,
  "amerco": 17637,
  "fei": 21363,
  "576": 11920,
  "simultaneous": 13893,
  "##care": 3139,
  "shield": 12622,
  "louisville": 14177,
  "whar": 17104,
  "silver": 6231,
  "##bet": 26950,
  "wilfred": 25095,
  "387": 10959,
  "fluctuate": 5146,
  "heilongjiang": 23445,
  "osc": 17748,
  "seventy": 17686,
  "angle": 23477,
  "disposal": 3537,
  "prosecuted": 23837,
  "spanish": 13247,
  "alleghany": 20632,
  "nqs": 26625,
  "instit": 1981,
  "pnm": 7975,
  "rub": 7836,
  "lor": 9256,
  "attemp": 5640,
  "##uated": 20584,
  "decorating": 27600,
  "\"": 106,
  "genomic": 17877,
  "##mitted": 2362,
  "liquor": 14818,
  "examines": 21645,
  "##web": 11143,
  "animal": 6964,
  "hundredth": 18128,
  "[unused95]": 96,
  "##rep": 14657,
  "##bell": 9537,
  "##\u03b7": 606,
  "fencing": 27679,
  "a1": 17737,
  "722": 12397,
  "ecker": 27670,
  "##itzer": 8645,
  "multinational": 12177,
  "angola": 24768,
  "##zo": 12023,
  "##zes": 24745,
  "functioning": 13483,
  "cooperated": 23897,
  "explicit": 13622,
  "loans": 1226,
  "##lay": 13871,
  "##hi": 8011,
  "anixter": 27644,
  "bok": 20103,
  "##ocratic": 26485,
  "##vard": 8124,
  "achieves": 13809,
  "weber": 22610,
  "\u2217": 358,
  "regional": 3680,
  "corporate": 1880,
  "##unition": 19826,
  "stret": 17393,
  "607": 11993,
  "waterfall": 28224,
  "attracts": 20931,
  "##vaco": 25546,
  "organics": 26783,
  "repeal": 9437,
  "varieties": 18573,
  "##oga": 13323,
  "nar": 20828,
  "packages": 8048,
  "detecting": 19652,
  "ensure": 3530,
  "restate": 14997,
  "##911": 28237,
  "bl": 2559,
  "inaccuracies": 21049,
  "correspond": 3722,
  "kmr": 25646,
  "lim": 1151,
  "##eo": 22655,
  "repurchased": 4974,
  "##boy": 16456,
  "sanitary": 24715,
  "##olson": 25822,
  "##oods": 15368,
  "10019": 29518,
  "##entioned": 5531,
  "carrier": 5557,
  "xbox": 24085,
  "dialog": 18869,
  "species": 11267,
  "##ules": 1921,
  "358": 10562,
  "lifeline": 29170,
  "gables": 22533,
  "combining": 9951,
  "tunnels": 29279,
  "##ock": 775,
  "##ots": 8844,
  "nsai": 28610,
  "create": 4220,
  "disturbance": 23187,
  "centralizing": 29272,
  "ready": 7460,
  "547": 11870,
  "misstat": 3783,
  "overl": 10563,
  "##our": 1086,
  "\u22c5": 367,
  "936": 12910,
  "daisy": 29942,
  "restructure": 8419,
  "avoids": 26100,
  "##lington": 10388,
  "##ngs": 21106,
  "spansion": 21119,
  "##ria": 15285,
  "mezz": 8411,
  "arrangement": 3333,
  "tj": 18286,
  "foc": 2613,
  "sblf": 27107,
  "flow": 1276,
  "repeat": 11346,
  "px": 14807,
  "delayed": 5894,
  "workshops": 23517,
  "##\u043d": 523,
  "radio": 4502,
  "##force": 4975,
  "##ptions": 3249,
  "ocean": 8537,
  "cohesive": 29219,
  "643": 12387,
  "commerz": 23855,
  "##zing": 16444,
  "essence": 25396,
  "kinross": 28227,
  "side": 6424,
  "periodicals": 27738,
  "hypoth": 21242,
  "undistributed": 6950,
  "nonr": 24077,
  "##tar": 10107,
  "warsaw": 28723,
  "sheet": 2292,
  "##49": 8535,
  "phosph": 10554,
  "##aylor": 9977,
  "cultiv": 14345,
  "years": 1008,
  "nortel": 10971,
  "mdr": 24773,
  "700": 4750,
  "pocket": 8815,
  "voice": 5738,
  "belgium": 11216,
  "netscout": 26565,
  "eesa": 18443,
  "preclud": 8332,
  "lme": 19198,
  "##rug": 2444,
  "draft": 11109,
  "noncancellable": 14734,
  "dwelling": 18344,
  "retrie": 13345,
  "lyd": 27211,
  "hayes": 20213,
  "jonway": 26324,
  "cuis": 26847,
  "compell": 12028,
  "nitride": 28956,
  "aam": 22442,
  "every": 4747,
  "chartwell": 25049,
  "nel": 21948,
  "##un": 930,
  "froz": 8351,
  "nationally": 9120,
  "brookwood": 23379,
  "constitute": 5388,
  "explanation": 14194,
  "unidentified": 18754,
  "personal": 3376,
  "##estit": 5831,
  "507": 11166,
  "applica": 27413,
  "replace": 5164,
  "##ter": 684,
  "naval": 18805,
  "sun": 4738,
  "mcglad": 19985,
  "[unused81]": 82,
  "##lease": 4917,
  "merr": 29049,
  "##oglobin": 20698,
  "without": 2262,
  "##ani": 13713,
  "##hook": 25228,
  "ebusiness": 26450,
  "2004": 1408,
  "tribe": 12328,
  "ncl": 25413,
  "epact": 23169,
  "stagn": 26074,
  "bronch": 28886,
  "crime": 16704,
  "qu": 1075,
  "byron": 27087,
  "diagnosing": 29692,
  "cord": 10641,
  "abilities": 12414,
  "han": 9384,
  "migrate": 17316,
  "examp": 3417,
  "554": 11596,
  "##ici": 1760,
  "sense": 16316,
  "##air": 879,
  "deliberate": 22935,
  "##itter": 20952,
  "mrna": 24673,
  "grandfathered": 16036,
  "unilaterally": 18488,
  "material": 1079,
  "tup": 23973,
  "##itors": 5418,
  "modestly": 18219,
  "##flo": 17044,
  "##arth": 15310,
  "beans": 23296,
  "##utch": 10023,
  "peoria": 25890,
  "ebc": 27007,
  "lenders": 3775,
  "tcw": 25206,
  "##olving": 2453,
  "triennial": 27457,
  "[unused74]": 75,
  "geared": 22171,
  "337": 10011,
  "ids": 16455,
  "totaling": 3460,
  "staar": 26552,
  "recommending": 12386,
  "copying": 19016,
  "gallium": 24170,
  "nonaccrual": 6620,
  "tab": 7608,
  "fifteenth": 24713,
  "applying": 5070,
  "##ture": 6132,
  "anthrax": 25211,
  "numerators": 21906,
  "hoffmann": 20428,
  "##lipse": 22041,
  "oste": 13318,
  "##arks": 4205,
  "738": 12513,
  "tiv": 14871,
  "513": 11363,
  "biomarker": 22054,
  "syndicate": 10201,
  "devry": 16096,
  "volumetric": 17138,
  "uspto": 13427,
  "^": 140,
  "hor": 5272,
  "author": 1655,
  "peanut": 27081,
  "##phan": 8055,
  "coven": 2706,
  "buen": 23356,
  "hud": 7213,
  "usb": 17761,
  "dir": 4969,
  "disallowance": 15574,
  "symm": 27444,
  "linear": 12672,
  "##asia": 18264,
  "advises": 21807,
  "canton": 20367,
  "trusts": 5056,
  "eei": 18293,
  "##ij": 7824,
  "homestead": 21969,
  "##anne": 22065,
  "##ann": 5680,
  "appliance": 11801,
  "bays": 24075,
  "basis": 1277,
  "[unused23]": 24,
  "surface": 6106,
  "mackenzie": 26132,
  "centrif": 20197,
  "##etted": 23846,
  "162": 6734,
  "wraparound": 28292,
  "albumin": 29981,
  "##opic": 10411,
  "cerebral": 26718,
  "beijing": 10470,
  "damaged": 8914,
  "asc": 2897,
  "region": 2616,
  "##ultural": 29153,
  "receiver": 9730,
  "##stadt": 26320,
  "doubts": 21367,
  "400": 3847,
  "requiring": 4129,
  "irregularities": 18466,
  "279": 10173,
  "teen": 22325,
  "satis": 2699,
  "ether": 26716,
  "caller": 19342,
  "logging": 19078,
  "conce": 5558,
  "621": 12576,
  "reinforced": 22699,
  "filled": 11664,
  "residential": 2893,
  "lti": 6922,
  "implement": 2432,
  "individualized": 21552,
  "above": 1878,
  "##dyne": 19332,
  "loading": 13278,
  "mostly": 9160,
  "dispatch": 11123,
  "sugarcane": 26762,
  "chees": 26184,
  "410": 8910,
  "uts": 28862,
  "manitowoc": 25133,
  "##trin": 24865,
  "july": 1827,
  "behalf": 2771,
  "##rail": 20881,
  "##idy": 18526,
  "inso": 15527,
  "prologis": 14479,
  "enrollees": 22035,
  "##andoah": 25498,
  "forfe": 4127,
  "glaxosmith": 17801,
  "facilitated": 17191,
  "feedback": 12974,
  "psi": 10642,
  "zealand": 9501,
  "fowler": 26832,
  "54": 3372,
  "alexandria": 22363,
  "clayton": 16479,
  "##ito": 15206,
  "comd": 18085,
  "vulnerability": 13608,
  "tsx": 17182,
  "eddie": 26959,
  "coso": 5618,
  "disqualified": 17201,
  "consumable": 15343,
  "proceeds": 2030,
  "reinterp": 23123,
  "2007": 1337,
  "adsl": 24769,
  "##rise": 12022,
  "acceptable": 4210,
  "tronox": 29665,
  "rick": 17466,
  "##enberg": 17477,
  "intang": 2039,
  "accordance": 1751,
  "##learning": 28422,
  "dispatched": 27656,
  "gaf": 16396,
  "cer": 927,
  "polytechnic": 26000,
  "##relations": 29189,
  "grossman": 27692,
  "##avax": 23368,
  "compensated": 7602,
  "\u0446": 270,
  "##otides": 24785,
  "alumina": 17643,
  "##clad": 28919,
  "pathmark": 28589,
  "386": 10787,
  "##sa": 6403,
  "rfid": 18429,
  "680": 10474,
  "479": 11404,
  "617": 12066,
  "hodgkin": 28470,
  "variable": 2818,
  "ebs": 26186,
  "appears": 6595,
  "shenz": 13577,
  "brick": 15497,
  "repository": 20380,
  "naic": 10983,
  "suffers": 22592,
  "clicking": 28948,
  "tended": 21445,
  "scha": 20167,
  "smur": 25600,
  "demanded": 15639,
  "instruments": 1764,
  "supplemented": 10152,
  "##ilt": 5774,
  "dressings": 26328,
  "flat": 6452,
  "lawn": 15480,
  "construc": 5810,
  "rather": 4309,
  "ora": 24064,
  "salaried": 8978,
  "ccb": 22370,
  "magnet": 19824,
  "##ocardial": 22582,
  "##azole": 20406,
  "mems": 27749,
  "~": 172,
  "##univers": 22835,
  "arre": 7422,
  "vinc": 13612,
  "millennium": 11138,
  "clinic": 12592,
  "##omm": 2719,
  "charging": 12068,
  "wel": 8359,
  "##ale": 2524,
  "amortizes": 12329,
  "letterhead": 16627,
  "##yers": 11354,
  "##dex": 21792,
  "agreeable": 27807,
  "alameda": 23866,
  "petsmart": 27226,
  "postponement": 24458,
  "breakfast": 23574,
  "laclede": 14717,
  "relying": 11839,
  "exams": 28497,
  "weigh": 2344,
  "prepayable": 28297,
  "polic": 1483,
  "texas": 3080,
  "fail": 1966,
  "##thetic": 7658,
  "burke": 17106,
  "614": 12301,
  "lapar": 26717,
  "cham": 11498,
  "activation": 12238,
  "task": 7160,
  "swiss": 9086,
  "##encor": 17445,
  "##hua": 14253,
  "decontamination": 17396,
  "##apc": 22827,
  "invested": 3723,
  "##court": 24996,
  "upb": 23439,
  "hem": 7472,
  "fiduciary": 6034,
  "##iti": 4769,
  "##aim": 1510,
  "findings": 8802,
  "sotheby": 19033,
  "poker": 14499,
  "she": 2159,
  "constituents": 19898,
  "municipalities": 9392,
  "##feas": 18323,
  "hypothec": 26698,
  "oversupply": 16038,
  "wales": 17698,
  "vol": 1699,
  "3dfx": 26065,
  "##otechn": 24231,
  "chipset": 25635,
  "vested": 3491,
  "##ni": 12336,
  "ncb": 16016,
  "rip": 18131,
  "exposing": 17753,
  "notable": 18919,
  "imetel": 28163,
  "tob": 28480,
  "subtit": 22775,
  "1978": 9596,
  "guatem": 19986,
  "scrub": 16469,
  "dispens": 18541,
  "##aper": 9289,
  "pge": 14340,
  "patent": 2399,
  "accelerating": 14894,
  "disclose": 5493,
  "sca": 18130,
  "hdtv": 24365,
  "lodge": 18649,
  "expression": 8151,
  "installation": 4950,
  "mining": 4093,
  "075": 11260,
  "torchmark": 17864,
  "refuse": 12294,
  "pesticide": 27419,
  "chancery": 13453,
  "cci": 17431,
  "##forms": 29589,
  "##hous": 5808,
  "matur": 2047,
  "instr": 5710,
  "boxes": 11638,
  "dyn": 6264,
  "christian": 17235,
  "##obut": 20319,
  "esche": 26401,
  "winter": 7752,
  "prepackaged": 25028,
  "##elsen": 13261,
  "##idata": 28319,
  "free": 2763,
  "jenn": 16647,
  "lance": 22958,
  "871": 13500,
  "collaborator": 15151,
  "unreli": 20149,
  "opec": 19428,
  "directories": 13752,
  "741": 13201,
  "markdown": 16083,
  "latin": 7115,
  "horse": 11093,
  "carpenter": 17618,
  "pillar": 19104,
  "cooled": 21733,
  "##ophen": 29178,
  "avi": 23041,
  "calg": 18926,
  "##peg": 21018,
  "synthes": 19355,
  "incoming": 17774,
  "##airs": 5864,
  "plus": 2381,
  "regionally": 18376,
  "twentieth": 25342,
  "aventis": 14770,
  "downs": 5973,
  "##tise": 4652,
  "pist": 29211,
  "defamation": 22242,
  "##fr": 7247,
  "accur": 3799,
  "hypothetical": 7214,
  "assertion": 8283,
  "clinics": 10377,
  "biov": 24379,
  "unsold": 15927,
  "##aire": 19672,
  "miff": 25116,
  "eis": 14070,
  "ul": 2773,
  "jerry": 14850,
  "employing": 12524,
  "enclosure": 29105,
  "citrus": 15723,
  "trespass": 29078,
  "jac": 9554,
  "interchangeable": 23074,
  "##ens": 812,
  "localities": 22449,
  "smel": 12357,
  "[unused97]": 98,
  "intelligent": 11934,
  "cpa": 8506,
  "married": 25024,
  "investments": 1501,
  "vogel": 28479,
  "direct": 949,
  "ribis": 27274,
  "sarat": 21399,
  "lowe": 19116,
  "daughter": 22989,
  "truckload": 15245,
  "msp": 20216,
  "male": 17105,
  "shelton": 29165,
  "##\u220a": 554,
  "promised": 12116,
  "proteomics": 28909,
  "office": 2277,
  "##ringer": 13947,
  "##ensus": 8736,
  "desist": 12562,
  "teg": 29881,
  "voi": 20779,
  "underestim": 29136,
  "biometrics": 24276,
  "reasons": 4984,
  "cylinder": 20451,
  "causes": 7545,
  "rbc": 11030,
  "csw": 13255,
  "chris": 9338,
  "amerisourcebergen": 27241,
  "trains": 18089,
  "accomp": 7063,
  "lends": 25938,
  "breathing": 27028,
  "skechers": 27705,
  "kiw": 23536,
  "modifying": 12950,
  "improperly": 13092,
  "his": 2440,
  "severely": 9766,
  "reconstr": 13944,
  "fpic": 29903,
  "##ense": 1078,
  "subsection": 16739,
  "circulating": 24459,
  "initiation": 10396,
  "797": 12835,
  "ceasing": 17648,
  "investing": 3595,
  "salable": 27617,
  "##where": 4342,
  "allocable": 8287,
  "1300": 25419,
  "\u02da": 229,
  "thes": 29372,
  "experiments": 22220,
  "devices": 3667,
  "liv": 2092,
  "wester": 28289,
  "272": 9780,
  "viii": 8663,
  "conway": 17964,
  "##ishable": 18892,
  "subp": 10949,
  "vib": 29459,
  "capitol": 17154,
  "##isson": 25885,
  "##ystems": 8660,
  "##odynam": 18230,
  "##ulate": 7058,
  "anhydr": 22496,
  "probes": 22300,
  "##ectic": 6064,
  "erickson": 27295,
  "##eets": 2483,
  "incentives": 5107,
  "wash": 4266,
  "commod": 2884,
  "equitable": 9275,
  "inex": 15470,
  "competition": 2456,
  "calpine": 10509,
  "westchester": 20660,
  "exen": 29373,
  "##fins": 24688,
  "clustering": 26687,
  "pharmacology": 18956,
  "hear": 4585,
  "hampshire": 9902,
  "used": 1384,
  "prohibitively": 24286,
  "levies": 27664,
  "insufficiency": 29658,
  "follows": 1901,
  "fibrillation": 28634,
  "archrock": 27483,
  "profiles": 10979,
  "demands": 6044,
  "analytical": 9188,
  "walters": 26822,
  "dm": 10095,
  "fl": 1893,
  "adop": 1771,
  "gone": 25171,
  "##27": 13596,
  "joseph": 7100,
  "etc": 8525,
  "597": 12043,
  "imagery": 20078,
  "exact": 10288,
  "generators": 9220,
  "##69": 15360,
  "suspended": 6359,
  "noncurrent": 8626,
  "operators": 4617,
  "##oda": 22251,
  "midway": 18963,
  "loaded": 17266,
  "##ced": 1711,
  "textual": 23272,
  "exclus": 3046,
  "asth": 17542,
  "rut": 18273,
  "##west": 4311,
  "##\u00b4": 489,
  "misc": 6131,
  "##tient": 24679,
  "sapphire": 24366,
  "marketplace": 5109,
  "##vak": 21805,
  "nanopartic": 27475,
  "##utions": 1437,
  "users": 4034,
  "##ahu": 22385,
  "monetary": 5006,
  "oligonucle": 23114,
  "mfc": 22834,
  "privile": 8567,
  "485": 10866,
  "activision": 25148,
  "\u0111": 210,
  "generation": 2999,
  "reclass": 3328,
  "\uff06": 433,
  "bromine": 28949,
  "##igent": 27481,
  "pbms": 29424,
  "dollar": 2095,
  "firearms": 19175,
  "diamonds": 19062,
  "sugars": 28734,
  "atomic": 17155,
  "malfunctions": 18783,
  "##or": 618,
  "eqt": 17498,
  "bellsouth": 15839,
  "pools": 7467,
  "help": 4592,
  "deconsolidated": 15384,
  "kilowatt": 15932,
  "##ices": 3384,
  "661": 12552,
  "1": 121,
  "ig": 8177,
  "repriced": 16066,
  "##25": 7501,
  "deduction": 5944,
  "[unused51]": 52,
  "accompanied": 11727,
  "##91": 19412,
  "remission": 27139,
  "massachusetts": 5236,
  "continental": 7737,
  "##burton": 18924,
  "bg": 18714,
  "discretion": 3443,
  "inasm": 25437,
  "lap": 7631,
  "##tes": 6522,
  "bonded": 22095,
  "walk": 15005,
  "rational": 10014,
  "examined": 10047,
  "cambridge": 12113,
  "kitch": 11703,
  "sweeth": 28748,
  "mmcfd": 28800,
  "measured": 3172,
  "cities": 8085,
  "gasification": 18784,
  "preserving": 16650,
  "stop": 5572,
  "bow": 8579,
  "tam": 10433,
  "crossroads": 23071,
  "kab": 28773,
  "blinded": 27671,
  "asym": 28617,
  "963": 13543,
  "meaning": 4536,
  "##oosa": 27867,
  "##vant": 3361,
  "clip": 22153,
  "1963": 21405,
  "##fb": 10089,
  "beaumont": 25227,
  "259": 9979,
  "phelps": 17298,
  "markers": 17507,
  "zal": 22743,
  "operationally": 23051,
  "nuclear": 4341,
  "nq": 19590,
  "expenses": 1206,
  "deaths": 16785,
  "centennial": 15504,
  "##ycl": 20329,
  "reviewed": 3970,
  "hackers": 16801,
  "begun": 8031,
  "armed": 15737,
  "turbines": 12759,
  "fine": 8377,
  "cemet": 13932,
  "boost": 18161,
  "texaco": 19370,
  "imposed": 4711,
  "transtexas": 26623,
  "up": 1023,
  "detached": 27626,
  "##awn": 9278,
  "054": 13644,
  "##ret": 2596,
  "danish": 23564,
  "insureds": 14092,
  "thousand": 4372,
  "363": 10511,
  "statistics": 9182,
  "##af": 5181,
  "2008": 1318,
  "overdue": 22341,
  "earli": 4020,
  "cortic": 25424,
  "influence": 5263,
  "hines": 16805,
  "##ho": 8823,
  "earth": 6286,
  "##station": 18763,
  "bankers": 7261,
  "chestnut": 22915,
  "linde": 22344,
  "worksh": 17945,
  "##return": 28957,
  "wave": 10343,
  "leaders": 5785,
  "hobbs": 28655,
  "##cia": 17826,
  "moly": 17578,
  "update": 4251,
  "monitor": 3087,
  "##pack": 25196,
  "showed": 10868,
  "reassess": 10164,
  "lsb": 23211,
  "carlyle": 11640,
  "clinically": 13482,
  "vhf": 28145,
  "franchises": 7750,
  "relations": 2002,
  "heater": 27168,
  "discharge": 6435,
  "carol": 4535,
  "closing": 2670,
  "four": 1885,
  "441": 11593,
  "npv": 17792,
  "jenkins": 22375,
  "benchmarking": 18166,
  "##ath": 3472,
  "liquidator": 26841,
  "disallowances": 24710,
  "desoto": 28215,
  "15c": 22229,
  "##veland": 10214,
  "##elan": 28975,
  "with": 701,
  "coup": 5413,
  "250": 3652,
  "clo": 7738,
  "depicted": 25559,
  "niagara": 14207,
  "669": 12349,
  "discl": 4854,
  "finger": 15215,
  "##idal": 21875,
  "bkc": 27412,
  "biore": 27010,
  "manually": 19761,
  "hispan": 16180,
  "##fco": 18929,
  "byrne": 29572,
  "ingelheim": 26907,
  "electrical": 5926,
  "aspects": 4965,
  "##aired": 12273,
  "referenced": 8605,
  "referencing": 23499,
  "uneconomical": 18731,
  "subjecting": 17036,
  "303": 8649,
  "cognitive": 20688,
  "419": 10853,
  "##ugal": 15744,
  "##itas": 13337,
  "potable": 26012,
  "uncontrolled": 26369,
  "hark": 16434,
  "##search": 27829,
  "hms": 24426,
  "judic": 6694,
  "save": 14003,
  "rated": 5685,
  "malware": 21903,
  "individuals": 3907,
  "gmp": 13515,
  "ifrss": 23003,
  "unil": 26707,
  "syndicated": 10719,
  "mohave": 29696,
  "##tl": 8810,
  "greece": 17791,
  "##iler": 19954,
  "##\u2070": 552,
  "##alog": 23012,
  "hcc": 15429,
  "numerical": 22883,
  "##owski": 16206,
  "2040": 22903,
  "disclosure": 2033,
  "schre": 24429,
  "length": 4659,
  "smartphones": 17932,
  "administrative": 2111,
  "hurt": 13594,
  "discrim": 9609,
  "supplementally": 21005,
  "parsons": 26232,
  "identifiable": 4873,
  "oxid": 16569,
  "solo": 26003,
  "hose": 25010,
  "placer": 20391,
  "money": 3540,
  "garden": 9311,
  "fatty": 25165,
  "surr": 4841,
  "utility": 3398,
  "originator": 15778,
  "##pin": 18233,
  "cand": 2757,
  "fronting": 22799,
  "reinforcement": 27369,
  "detailing": 16869,
  "afghan": 25924,
  "validated": 14676,
  "wamu": 15503,
  "caf": 13811,
  "contractors": 5303,
  "idex": 27765,
  "fhlbb": 21503,
  "explained": 13204,
  "##ation": 643,
  "##aceous": 24091,
  "garr": 22113,
  "body": 6404,
  "pollut": 9586,
  "anth": 8949,
  "\u300a": 419,
  "searches": 18852,
  "083": 12708,
  "physician": 5684,
  "pom": 20076,
  "[unused83]": 84,
  "luxembourg": 15452,
  "grubb": 24533,
  "701": 11279,
  "jazz": 18220,
  "##6": 475,
  "nondiscriminatory": 22454,
  "repos": 9530,
  "swift": 12084,
  "##icious": 13826,
  "android": 21450,
  "seidman": 16246,
  "##chi": 17488,
  "##arr": 1091,
  "mails": 24983,
  "crown": 8951,
  "proportionate": 7054,
  "reinstatement": 15615,
  "verifying": 21920,
  "taxonomy": 9481,
  "taip": 27167,
  "mb": 9567,
  "##uxe": 22922,
  "##ife": 8770,
  "##ogo": 29610,
  "##alin": 28830,
  "glyc": 25765,
  "storm": 8557,
  "alamosa": 25554,
  "1980s": 16837,
  "definitions": 10895,
  "058": 13749,
  "lerner": 27429,
  "##anting": 24580,
  "kh": 16800,
  "##undo": 23342,
  "nhl": 18121,
  "impractical": 18665,
  "energyplus": 24869,
  "recyclable": 26471,
  "##opter": 17251,
  "nonemploy": 11747,
  "thromb": 19827,
  "possessed": 25420,
  "sting": 27841,
  "alton": 26809,
  "##autions": 13034,
  "placement": 4122,
  "msci": 22765,
  "cra": 7703,
  "declining": 6269,
  "proshares": 24526,
  "complies": 11416,
  "statutorily": 20756,
  "nascar": 16286,
  "flash": 10619,
  "enrich": 10762,
  "edg": 25928,
  "##ghan": 23168,
  "##\u02e1": 604,
  "12b": 13153,
  "[unused30]": 31,
  "##iley": 10490,
  "writings": 24744,
  "im": 1302,
  "comm": 758,
  "unlock": 26923,
  "regimes": 18408,
  "contaminants": 13649,
  "feet": 3503,
  "nopsi": 21517,
  "kindred": 22659,
  "##odies": 6312,
  "inv": 844,
  "ssa": 26972,
  "##assis": 11481,
  "serv": 847,
  "advantaged": 21094,
  "schein": 26043,
  "##07": 19391,
  "dia": 20183,
  "##yx": 15136,
  "prodigy": 28211,
  "tightly": 23911,
  "grapes": 24434,
  "professionally": 26112,
  "obsoles": 8202,
  "appoint": 6108,
  "aligned": 12276,
  "##clc": 19691,
  "registration": 2389,
  "714": 11524,
  "discloses": 15002,
  "for": 645,
  "metering": 15693,
  "nuisance": 19161,
  "physiological": 26171,
  "##itan": 6252,
  "anchorage": 21339,
  "ka": 14616,
  "reclassifying": 26080,
  "##pb": 10335,
  "ov": 9901,
  "##ched": 11834,
  "depos": 1782,
  "\u25e6": 390,
  "residue": 19300,
  "indicated": 2817,
  "pledging": 18757,
  "tit": 3163,
  "relinquishment": 24041,
  "##bi": 5945,
  "investigated": 15464,
  "compound": 6512,
  "match": 4096,
  "appointed": 4669,
  "commens": 9427,
  "953": 13284,
  "hydr": 4648,
  "##eson": 28226,
  "prescribes": 11141,
  "##ratic": 21989,
  "anti": 3197,
  "denominations": 21757,
  "bacter": 10995,
  "fca": 16560,
  "##gem": 23630,
  "##thus": 17373,
  "barr": 5491,
  "disseminate": 27836,
  "developing": 3524,
  "interl": 29306,
  "away": 9197,
  "ultrasound": 15646,
  "dor": 8906,
  "##iated": 5321,
  "tox": 6536,
  "guangdong": 21763,
  "breat": 16533,
  "organically": 19468,
  "readers": 10109,
  "flour": 22072,
  "##edict": 8121,
  "hil": 14466,
  "abn": 17413,
  "winery": 22814,
  "vive": 28698,
  "inspections": 8492,
  "customization": 12914,
  "ovens": 24460,
  "1600": 28673,
  "superconduc": 28408,
  "cele": 15777,
  "mammoth": 26917,
  "helps": 9135,
  "consent": 3700,
  "connection": 1788,
  "editing": 17091,
  "prosecutions": 25323,
  "346": 10538,
  "jafra": 28802,
  "\u0432": 256,
  "but": 1763,
  "licensure": 13155,
  "523": 11842,
  "##pd": 19545,
  "##fully": 25294,
  "ultrasonic": 26244,
  "selecting": 9112,
  "median": 10703,
  "a2": 18745,
  "swanson": 23050,
  "omnic": 28537,
  "##amine": 13497,
  "stopping": 22606,
  "pharmacists": 20948,
  "srs": 23317,
  "##leb": 16403,
  "aids": 12446,
  "tnt": 27076,
  "defici": 4259,
  "imputation": 22607,
  "##try": 11599,
  "219": 9351,
  "recognizable": 20969,
  "naa": 17714,
  "##my": 24090,
  "extr": 3711,
  "abey": 26277,
  "borders": 18594,
  "performances": 19817,
  "ip": 3869,
  "withhold": 5906,
  "association": 3208,
  "nelson": 13684,
  "exert": 14097,
  "##amm": 8995,
  "##tronix": 19246,
  "committ": 1777,
  "heaters": 21480,
  "bouti": 16786,
  "type": 3522,
  "tube": 12655,
  "hybr": 7883,
  "northwest": 7936,
  "lin": 5737,
  "insituform": 27935,
  "0330": 12447,
  "solving": 22158,
  "##anz": 20627,
  "benjamin": 17372,
  "european": 3922,
  "argued": 24599,
  "prizes": 29780,
  "tic": 9151,
  "jose": 6104,
  "antim": 20191,
  "##equ": 2457,
  "[unused31]": 32,
  "mask": 17976,
  "favorably": 8129,
  "belden": 26105,
  "efficiency": 4779,
  "interpreting": 17355,
  "signatory": 17645,
  "nano": 16374,
  "john": 4291,
  "cabana": 26971,
  "implanted": 20916,
  "administers": 12457,
  "nus": 25324,
  "so": 1595,
  "does": 1948,
  "kang": 18114,
  "##apharm": 29590,
  "resilient": 26655,
  "belmond": 23235,
  "airport": 8790,
  "exits": 26202,
  "entering": 5454,
  "vault": 18558,
  "animals": 12367,
  "transce": 18347,
  "definite": 9829,
  "securely": 20189,
  "wording": 29892,
  "registrant": 1802,
  "bates": 18399,
  "hyundai": 24590,
  "intrusion": 17285,
  "textile": 13597,
  "wherein": 13391,
  "olympic": 19813,
  "reproductive": 23695,
  "##ights": 1629,
  "##uly": 1654,
  "strength": 3959,
  "conversion": 2612,
  "arbitrations": 23425,
  "securitized": 8611,
  "dating": 18150,
  "medif": 27340,
  "feld": 16947,
  "bristol": 12374,
  "talbot": 26050,
  "dis": 789,
  "\u00af": 186,
  "tantalum": 21998,
  "abandon": 5752,
  "effectuate": 16844,
  "robust": 10758,
  "continuing": 2877,
  "bou": 9683,
  "intervene": 17727,
  "predominately": 15085,
  "published": 5331,
  "reconfiguration": 27618,
  "wmi": 25556,
  "actuaries": 12774,
  "beverly": 17098,
  "atg": 25464,
  "##feld": 17362,
  "conf": 2631,
  "rad": 3564,
  "quorum": 15803,
  "terminations": 9290,
  "gates": 18715,
  "pne": 15280,
  "olson": 22124,
  "recognizing": 6983,
  "##icate": 8324,
  "ipo": 5328,
  "coke": 12180,
  "receivables": 2790,
  "semiconductor": 5064,
  "biggest": 23735,
  "franchisor": 15870,
  "sunopta": 26391,
  "eli": 9874,
  "##enn": 5471,
  "reorganizations": 17113,
  "reconstit": 27814,
  "wiring": 17153,
  "expressjet": 26457,
  "discip": 8331,
  "##ureth": 18281,
  "extends": 8383,
  "other": 798,
  "hundred": 7653,
  "merton": 14924,
  "galectin": 29902,
  "[unused56]": 57,
  "judged": 16147,
  "tables": 4755,
  "buses": 15799,
  "495": 10644,
  "slim": 25325,
  "migrated": 23640,
  "expenditures": 2271,
  "potash": 16712,
  "##inea": 21407,
  "statistically": 13685,
  "admiral": 21994,
  "manufact": 1441,
  "researching": 19878,
  "rx": 15152,
  "##boats": 18324,
  "\u2c61": 414,
  "sund": 11655,
  "syl": 18377,
  "##aney": 27582,
  "scholars": 25983,
  "inspected": 16322,
  "complying": 7024,
  "smithfield": 28070,
  "##ited": 995,
  "og": 10636,
  "##arm": 1961,
  "dense": 19224,
  "finders": 21784,
  "211": 9083,
  "mct": 29648,
  "##sop": 6503,
  "exemption": 6477,
  "hardwood": 22019,
  "recast": 18864,
  "surcharges": 12316,
  "promotes": 15214,
  "tournament": 26431,
  "credibility": 19873,
  "##dig": 17226,
  "teles": 10939,
  "micros": 6722,
  "702": 11810,
  "##xy": 2696,
  "##arc": 11372,
  "participated": 8509,
  "dates": 3022,
  "731": 12832,
  "crimes": 21149,
  "acme": 19509,
  "membership": 4740,
  "electrom": 15787,
  "uncomp": 12599,
  "adhere": 12190,
  "drugstore": 23727,
  "lond": 6414,
  "##iced": 8889,
  "1984": 6328,
  "##uro": 23890,
  "##pay": 7059,
  "##page": 17448,
  "appealed": 8883,
  "063": 13071,
  "corral": 29514,
  "orthopedic": 14571,
  "approving": 7873,
  "disciplined": 13009,
  "defective": 11103,
  "derecogn": 12333,
  "##ference": 6951,
  "accordingly": 2522,
  "participation": 3651,
  "\u25b2": 383,
  "uso": 25517,
  "actionable": 23726,
  "fsb": 13974,
  "cray": 23046,
  "subtotal": 25867,
  "narrower": 23397,
  "landry": 29624,
  "sonar": 28885,
  "dti": 23775,
  "ntn": 24360,
  "nam": 2786,
  "speed": 5021,
  "transocean": 18441,
  "mirr": 12146,
  "processing": 3149,
  "produced": 4269,
  "transunion": 27230,
  "might": 3406,
  "emerald": 20494,
  "reassessments": 26524,
  "pn": 5385,
  "boundaries": 18146,
  "##berg": 5854,
  "interior": 10476,
  "##ser": 18133,
  "outdated": 25936,
  "cfpb": 11277,
  "##ova": 9886,
  "anesthesia": 19478,
  "mineralization": 11932,
  "wilmington": 10220,
  "##caro": 28468,
  "paula": 27758,
  "unbilled": 8270,
  "##emia": 10146,
  "##ran": 13486,
  "airborne": 16370,
  "ksb": 11527,
  "filmed": 22474,
  "grantor": 11852,
  "640": 10237,
  "discrete": 9101,
  "argon": 25050,
  "##sour": 5731,
  "##lede": 14706,
  "mold": 7644,
  "walker": 12930,
  "jurisdiction": 4783,
  "futurefuel": 28880,
  "hei": 13484,
  "##arch": 4381,
  "sant": 11624,
  "polk": 23924,
  "supersedes": 9783,
  "measurable": 15273,
  "antisense": 18781,
  "feldman": 23352,
  "##esse": 16987,
  "acetaminophen": 29982,
  "turmoil": 15218,
  "explanatory": 11384,
  "qfs": 22660,
  "converters": 16408,
  "trust": 1593,
  "scott": 7511,
  "sum": 1780,
  "anomaly": 27525,
  "linerboard": 28659,
  "##ension": 2007,
  "##ns": 2850,
  "costa": 12846,
  "'": 111,
  "sbs": 16255,
  "climatic": 25608,
  "crlp": 19831,
  "##stead": 19799,
  "counteract": 28088,
  "massive": 20519,
  "accum": 2548,
  "malfeasance": 22943,
  "announ": 3425,
  "teled": 21145,
  "minimis": 15597,
  "##herd": 26704,
  "##press": 2644,
  "##epa": 20032,
  "215": 8456,
  "##orum": 15682,
  "##fed": 18842,
  "legalized": 23601,
  "merchandisers": 14908,
  "perfect": 14934,
  "me": 1143,
  "agriculturals": 28536,
  "laptops": 29081,
  "september": 1530,
  "##oining": 16913,
  "809": 12469,
  "obligated": 4596,
  "paramount": 15198,
  "remove": 6975,
  "nf": 20353,
  "##ume": 18889,
  "##edding": 14725,
  "amplified": 28499,
  "gasoline": 7066,
  "leased": 3339,
  "payday": 19125,
  "inserts": 19728,
  "\u0440": 265,
  "##we": 1445,
  "adhering": 25238,
  "looking": 2967,
  "kron": 11717,
  "subassemb": 15433,
  "slightly": 6583,
  "zy": 16414,
  "reconnaissance": 24017,
  "smelter": 15605,
  "glucose": 12755,
  "cellular": 6233,
  "esw": 28032,
  "##brecht": 24188,
  "bert": 21554,
  "308": 9856,
  "kor": 18795,
  "##andia": 29660,
  "ipg": 24498,
  "wagner": 19955,
  "syru": 19780,
  "curtain": 23688,
  "tco": 28846,
  "diversey": 29541,
  "nitric": 23765,
  "remed": 3260,
  "preparing": 7007,
  "contractual": 2492,
  "outcome": 3731,
  "infineon": 27057,
  "charterer": 29247,
  "mmbtu": 10579,
  "hill": 6837,
  "icl": 28685,
  "room": 4946,
  "##ostar": 10284,
  "marcellus": 16143,
  "##uccess": 7529,
  "languages": 15990,
  "##ulative": 2923,
  "rayon": 20578,
  "depository": 5533,
  "edc": 17321,
  "superc": 27676,
  "contin": 1082,
  "themed": 20157,
  "spx": 26510,
  "##aho": 7088,
  "j2": 22931,
  "889": 12194,
  "surround": 25041,
  "profitable": 5207,
  "furnish": 6018,
  "mci": 14295,
  "##ele": 17063,
  "hardware": 4544,
  "dew": 22188,
  "935": 12887,
  "emf": 26940,
  "circ": 2091,
  "purport": 11474,
  "possesses": 14509,
  "barney": 14148,
  "voic": 19642,
  "carnegie": 26094,
  "transformed": 26046,
  "farming": 14469,
  "quarterly": 2181,
  "bes": 18190,
  "##ligence": 6879,
  "pol": 1357,
  "avail": 1311,
  "eliminated": 4468,
  "unqualified": 7362,
  "fueling": 17736,
  "obama": 16738,
  "subsidize": 25482,
  "cleaned": 28388,
  "##iation": 1724,
  "put": 4699,
  "pg": 8734,
  "##tal": 1133,
  "positively": 9773,
  "##ising": 2805,
  "creations": 27869,
  "wrongdo": 15119,
  "marvel": 20006,
  "mid": 2876,
  "rounds": 20371,
  "staffing": 6218,
  "heads": 15457,
  "##ar": 623,
  "safekeeping": 22380,
  "deficient": 18999,
  "##ika": 20554,
  "##iew": 1647,
  "que": 8711,
  "##lman": 28127,
  "##efield": 18236,
  "prediction": 18366,
  "cpo": 28915,
  "##fp": 12936,
  "celebrity": 21588,
  "disease": 4737,
  "simpler": 28985,
  "##nia": 2658,
  "missions": 24431,
  "rockford": 19663,
  "outc": 3360,
  "occurrence": 4759,
  "pst": 21986,
  "##b": 478,
  "stent": 15999,
  "agility": 27631,
  "##gor": 9507,
  "exhausted": 14081,
  "is": 686,
  "vegetables": 18278,
  "arista": 29350,
  "##omes": 2275,
  "prime": 4321,
  "spous": 18139,
  "dismissed": 6706,
  "waived": 8370,
  "##ochem": 7925,
  "centers": 3535,
  "homebuilders": 17900,
  "liner": 18456,
  "##revoc": 8679,
  "convey": 8046,
  "nonin": 24734,
  "128": 5868,
  "omx": 24862,
  "playboy": 21848,
  "sporadic": 19635,
  "synov": 18276,
  "mixes": 22709,
  "retroactively": 8895,
  "##sville": 20097,
  "sli": 29043,
  "dealers": 4230,
  "##eg": 18242,
  "rts": 27946,
  "incurs": 9785,
  "##lip": 11231,
  "##ant": 752,
  "880": 11154,
  "concert": 14910,
  "teradata": 27532,
  "##ibles": 4509,
  "unconstitutional": 26598,
  "iridium": 13150,
  "glaxosmithkline": 17827,
  "ref": 1373,
  "reinforcing": 27875,
  "kiantone": 28321,
  "cft": 9064,
  "##olin": 19106,
  "##hard": 15550,
  "excavation": 23621,
  "stockholder": 2867,
  "blocking": 18729,
  "cag": 17531,
  "nurses": 14757,
  "conjunction": 3644,
  "diffusion": 27929,
  "##iral": 15449,
  "speculation": 16259,
  "##bon": 25726,
  "\u03bc": 244,
  "undercapitalized": 6776,
  "overlap": 12347,
  "always": 7764,
  "##anas": 21180,
  "renminbi": 12434,
  "##pac": 22548,
  "##fields": 25198,
  "altogether": 16692,
  "epa": 4357,
  "headache": 28609,
  "##eric": 1877,
  "expected": 1522,
  "dole": 20456,
  "remodel": 10165,
  "allevi": 16182,
  "##employ": 6398,
  "intevac": 20079,
  "phosphate": 14716,
  "iz": 27987,
  "steroid": 29059,
  "certifying": 8387,
  "miami": 9607,
  "stream": 5228,
  "messages": 13496,
  "universal": 6109,
  "877": 12925,
  "bluegreen": 14503,
  "jackup": 22093,
  "presiding": 23220,
  "called": 5035,
  "corne": 18765,
  "dismissal": 9587,
  "repairing": 20249,
  "rework": 23183,
  "satisfy": 3925,
  "##ry": 4568,
  "collaborative": 6420,
  "##lair": 20530,
  "##vious": 24659,
  "##ibusiness": 20664,
  "mrp": 29575,
  "austria": 15113,
  "theme": 13638,
  "blizz": 27802,
  "pilgrim": 21411,
  "unsatisfied": 24300,
  "controvers": 20754,
  "stan": 6065,
  "laps": 14755,
  "mobility": 11976,
  "herbal": 19249,
  "misrepresent": 10952,
  "##\u0251": 561,
  "##bility": 12300,
  "beverages": 9339,
  "##ynet": 26723,
  "shorten": 10969,
  "gour": 18265,
  "creates": 8242,
  "frederic": 13060,
  "suther": 26373,
  "certificates": 4157,
  "barn": 16197,
  "oils": 12781,
  "interpret": 3455,
  "supervisory": 7151,
  "osa": 28542,
  "aigfp": 27912,
  "entrance": 16502,
  "recalls": 10255,
  "illino": 4448,
  "payout": 7884,
  "mattresses": 27389,
  "renew": 2702,
  "husband": 22032,
  "dominion": 7698,
  "brief": 7881,
  "dmd": 27341,
  "arranger": 17391,
  "bethle": 22759,
  "##icks": 9898,
  "##stra": 26877,
  "##olo": 18045,
  "##advant": 8378,
  "##ovolta": 17538,
  "certified": 4761,
  "glba": 19306,
  "extension": 3928,
  "wid": 7910,
  "abrams": 27857,
  "logos": 18154,
  "##lete": 11951,
  "precludes": 21972,
  "belvieu": 24012,
  "forwards": 6274,
  "tvs": 27421,
  "vodaf": 28304,
  "sorting": 22983,
  "preceded": 25207,
  "##ash": 5771,
  "edmonton": 28275,
  "ifrs": 13885,
  "work": 1740,
  "baggage": 23228,
  "##\u00be": 488,
  "optimally": 29613,
  "newcastle": 18086,
  "##74": 19048,
  "shingles": 27468,
  "186": 8723,
  "##acting": 4668,
  "retal": 22609,
  "unreported": 18934,
  "545": 11226,
  "directv": 11500,
  "controlled": 4413,
  "dentistry": 26760,
  "blad": 19069,
  "fabricators": 23297,
  "slide": 21345,
  "##owers": 21346,
  "further": 1861,
  "##111": 27222,
  "##iber": 4183,
  "randolph": 22579,
  "lucas": 21368,
  "administer": 8238,
  "bca": 29415,
  "competitive": 2300,
  "orlando": 11431,
  "contiguous": 14109,
  "companion": 13523,
  "bilateral": 15708,
  "yorktown": 26425,
  "##hole": 19970,
  "bring": 5593,
  "fred": 9450,
  "hua": 23597,
  "construed": 13357,
  "243": 9663,
  "gind": 23706,
  "920": 11111,
  "trs": 7597,
  "bonus": 3305,
  "##erg": 1230,
  "lt": 2896,
  "lnr": 21857,
  "##ept": 2795,
  "##tides": 18341,
  "intervention": 11241,
  "##anca": 25973,
  "pick": 10143,
  "chim": 22968,
  "vacations": 19182,
  "transferability": 16568,
  "perfumania": 28219,
  "temple": 20465,
  "kew": 20484,
  "timken": 23914,
  "sought": 6114,
  "aortic": 29154,
  "floral": 21138,
  "asia": 4607,
  "populations": 11973,
  "map": 8471,
  "##enstein": 24072,
  "jet": 9202,
  "displays": 8521,
  "stipulation": 9732,
  "soils": 21665,
  "rang": 3538,
  "cavern": 25292,
  "averaged": 9494,
  "like": 2126,
  "frequent": 4702,
  "thereunder": 6475,
  "##inoff": 17611,
  "##yard": 14447,
  "##26": 16534,
  "because": 1842,
  "multim": 10790,
  "##shore": 10278,
  "conex": 22626,
  "lacks": 18719,
  "##letown": 24430,
  "gts": 21193,
  "##abs": 12975,
  "blackrock": 13148,
  "therapeutics": 6867,
  "biloxi": 21990,
  "src": 25379,
  "##appro": 6276,
  "rialto": 18546,
  "ets": 20049,
  "waypoint": 24756,
  "##rad": 15512,
  "discover": 4085,
  "##gr": 1093,
  "directions": 20037,
  "wall": 6677,
  "notifying": 20803,
  "hff": 27513,
  "conforming": 11878,
  "sich": 22700,
  "seachange": 27036,
  "revocation": 10996,
  "redund": 9657,
  "losing": 14161,
  "brooke": 21425,
  "ebitd": 20780,
  "##ucks": 19667,
  "##idia": 21966,
  "##59": 19795,
  "relapse": 29011,
  "cotter": 23701,
  "weinstein": 26052,
  "java": 17659,
  "458": 11051,
  "113": 7146,
  "knowing": 10517,
  "markwest": 20132,
  "decided": 7196,
  "##otal": 10426,
  "sacr": 24398,
  "effluent": 19319,
  "##ulating": 11374,
  "nacco": 22828,
  "cyl": 14685,
  "ibnr": 12218,
  "effectively": 3515,
  "##ellas": 15912,
  "people": 5038,
  "sure": 10176,
  "targa": 19270,
  "blackhawk": 23394,
  "##mw": 24396,
  "packard": 12903,
  "frequency": 5977,
  "##rett": 13624,
  "##idel": 17733,
  "graphical": 18966,
  "aa": 9035,
  "ntic": 16523,
  "vere": 29493,
  "fringe": 14378,
  "\u0438": 259,
  "065": 13050,
  "bend": 12719,
  "lynx": 26691,
  "jolla": 28905,
  "controll": 2886,
  "debilitating": 25055,
  "##qa": 27877,
  "1994": 2175,
  "atm": 6972,
  "unpreced": 15212,
  "foamex": 13983,
  "contacts": 11383,
  "respective": 2872,
  "actuate": 28584,
  "sdc": 27331,
  "bugs": 20804,
  "carp": 14147,
  "rising": 6804,
  "brocade": 20328,
  "\u0fe0": 290,
  "mccarth": 22844,
  "prepetition": 20642,
  "scan": 8364,
  "kg": 12094,
  "rebranding": 27039,
  "organize": 16696,
  "lehman": 10122,
  "easily": 9040,
  "contribution": 3570,
  "1959": 21569,
  "martinez": 25522,
  "\u25a1": 380,
  "remand": 17294,
  "entail": 9920,
  "authors": 21655,
  "23": 2081,
  "##americ": 6820,
  "catalogue": 23133,
  "##smith": 28554,
  "##prime": 12693,
  "baton": 18493,
  "lincolnway": 18643,
  "event": 2165,
  "cultivation": 19662,
  "##ision": 1148,
  "##ewear": 18937,
  "cls": 28278,
  "afor": 6976,
  "##ominated": 4363,
  "ribb": 20160,
  "##eralds": 23377,
  "##itt": 8967,
  "subdivision": 11273,
  "attention": 5087,
  "548": 12016,
  "proph": 20838,
  "##fundable": 14158,
  "where": 2082,
  "voc": 14385,
  "pea": 28767,
  "##way": 2925,
  "subsystems": 13860,
  "##ener": 10205,
  "##ogenics": 24661,
  "ingot": 26109,
  "noncompetition": 19314,
  "torque": 26615,
  "glenc": 25869,
  "adj": 1492,
  "##urance": 1166,
  "unlike": 6413,
  "indications": 6273,
  "packaging": 4932,
  "skywest": 23632,
  "uptime": 29947,
  "by": 707,
  "ford": 7354,
  "##igh": 891,
  "artis": 18393,
  "ftc": 10475,
  "allot": 10559,
  "679": 12596,
  "machinery": 6815,
  "inmates": 29283,
  "int": 911,
  "nasd": 13181,
  "##tica": 12968,
  "investigatory": 25071,
  "grad": 4913,
  "naphth": 24384,
  "overlook": 27736,
  "initiates": 24628,
  "oed": 28692,
  "pizza": 13750,
  "ethern": 12760,
  "verification": 10017,
  "##lification": 15541,
  "##sts": 26852,
  "valv": 21318,
  "\u00a3": 175,
  "sng": 25571,
  "##ern": 5302,
  "milestones": 5961,
  "##mere": 28504,
  "legg": 16737,
  "##timely": 23423,
  "bribery": 13751,
  "##ailing": 4664,
  "custodial": 10412,
  "##year": 16146,
  "lost": 6287,
  "harvesting": 16402,
  "her": 3679,
  "##tenstein": 23495,
  "730": 11017,
  "carson": 16856,
  "finalized": 7736,
  "pir": 19180,
  "ecuador": 18856,
  "kwhs": 25948,
  "visited": 28528,
  "uni": 6473,
  "dog": 14882,
  "notably": 13801,
  "306": 9985,
  "efi": 21072,
  "##alloy": 29187,
  "astec": 29684,
  "dmi": 29720,
  "##ends": 1484,
  "davis": 9442,
  "appeal": 4616,
  "truly": 23798,
  "##fre": 22939,
  "##eland": 8661,
  "992": 13026,
  "##ma": 4140,
  "##orne": 5007,
  "##orily": 14475,
  "commercialized": 11438,
  "venturers": 18305,
  "refresh": 19362,
  "establishes": 4565,
  "conveniently": 24925,
  "bsg": 28092,
  "618": 12204,
  "resale": 5998,
  "##ino": 3135,
  "sulfate": 19957,
  "hug": 21663,
  "reputable": 20714,
  "renal": 14066,
  "##rued": 13036,
  "##fo": 4646,
  "kind": 6121,
  "\u20a4": 327,
  "propulsion": 20019,
  "factored": 17216,
  "scop": 27612,
  "vang": 15357,
  "bh": 8781,
  "##uras": 23493,
  "synfuel": 28143,
  "##alid": 6913,
  "slovak": 22809,
  "##isciplinary": 29808,
  "wine": 9932,
  "stephens": 18835,
  "jwh": 20917,
  "cream": 13981,
  "##ill": 820,
  "known": 3097,
  "##atherine": 21837,
  "##ban": 7319,
  "predict": 3577,
  "insol": 6736,
  "assigned": 4438,
  "##arma": 16351,
  "sites": 3678,
  "crane": 13925,
  "confirmatory": 23887,
  "cumberland": 19339,
  "##entures": 2731,
  "depressed": 12249,
  "nonutility": 18886,
  "corporations": 5802,
  "states": 1458,
  "statewide": 17305,
  "reebok": 25244,
  "locked": 19840,
  "arctic": 21646,
  "##bar": 16591,
  "##ical": 1001,
  "wagered": 29336,
  "whol": 2051,
  "##sbad": 24139,
  "pages": 5284,
  "explosives": 19575,
  "refinements": 20864,
  "hostile": 18192,
  "influx": 27312,
  "forgo": 21282,
  "expense": 1216,
  "bylaw": 5605,
  "##iba": 19434,
  "solid": 6243,
  "missed": 20358,
  "swingline": 17351,
  "371": 10991,
  "directive": 9688,
  "weapons": 18235,
  "##fu": 26978,
  "dangerous": 20880,
  "especially": 6089,
  "electro": 13733,
  "egy": 20404,
  "email": 8884,
  "580": 10382,
  "cosmetic": 10947,
  "##enth": 8179,
  "unann": 22545,
  "decrease": 1779,
  "##aul": 7818,
  "ral": 10487,
  "[unused99]": 100,
  "rentech": 21256,
  "fant": 23233,
  "usual": 12288,
  "cessation": 11360,
  "mobile": 4131,
  "##universal": 23026,
  "commissioned": 16931,
  "contributory": 11399,
  "bold": 29456,
  "injectable": 14775,
  "agonists": 24874,
  "simulate": 25114,
  "motivate": 8907,
  "nontax": 23221,
  "unanim": 12797,
  "stur": 25319,
  "championship": 25918,
  "overseeing": 10938,
  "693": 12479,
  "combination": 2713,
  "attributes": 7373,
  "sick": 17680,
  "sorb": 28989,
  "ensuring": 8927,
  "tesla": 28707,
  "disagreement": 14403,
  "\u33a1": 423,
  "033": 12977,
  "charlotte": 12405,
  "iori": 27038,
  "better": 4340,
  "molson": 27560,
  "turp": 28407,
  "##portun": 2498,
  "nearly": 7254,
  "tep": 8838,
  "sh": 731,
  "=": 133,
  "aure": 24893,
  "\u0e3f": 285,
  "refurbishment": 15275,
  "courty": 20430,
  "efg": 21212,
  "inst": 1315,
  "bifurcation": 18632,
  "osteoarthritis": 26547,
  "ags": 23820,
  "cet": 14884,
  "msv": 24693,
  "##amination": 13138,
  "discon": 2832,
  "parfums": 26601,
  "purpa": 17109,
  "606": 6721,
  "##umatic": 26483,
  "telephone": 4267,
  "convention": 11011,
  "##xing": 23576,
  "biotechn": 25611,
  "reimbursing": 23949,
  "swan": 24478,
  "##ourc": 1607,
  "files": 6127,
  "surge": 9544,
  "jumbo": 19442,
  "##reet": 13953,
  "procurement": 6493,
  "urea": 24029,
  "trou": 7513,
  "##audited": 4305,
  "2a": 13950,
  "recurrent": 21519,
  "136": 7712,
  "zar": 22907,
  "##ew": 5852,
  "##iang": 10293,
  "documents": 4014,
  "claire": 25360,
  "801": 11786,
  "bowel": 22801,
  "chlor": 11087,
  "heavier": 26322,
  "deterrent": 26479,
  "##electronic": 21112,
  "ssi": 22567,
  "ec": 5881,
  "mezzanine": 8552,
  "haft": 23636,
  "##agg": 11064,
  "##encies": 1962,
  "##ior": 1060,
  "inadvertently": 18345,
  "##ych": 10418,
  "ebix": 28425,
  "originating": 9298,
  "espn": 25466,
  "licensing": 3771,
  "slab": 27584,
  "bachel": 7252,
  "requ": 867,
  "eligible": 3140,
  "endometr": 28394,
  "cyc": 4024,
  "commerce": 4792,
  "##ymac": 20222,
  "stamps": 27686,
  "massachus": 5233,
  "colony": 16231,
  "##ecr": 23544,
  "##etm": 20349,
  "pediatric": 11320,
  "neutral": 11911,
  "mus": 5601,
  "##ston": 4200,
  "##hp": 23813,
  "expend": 2127,
  "818": 12266,
  "scarcity": 26604,
  "090": 12536,
  "which": 800,
  "autol": 24033,
  "lpl": 29235,
  "mechanism": 7547,
  "##prom": 25892,
  "redep": 15930,
  "genco": 12232,
  "downloads": 22988,
  "##watch": 19063,
  "griffin": 11595,
  "given": 3188,
  "introd": 3285,
  "dividing": 5683,
  "inventions": 8916,
  "derecognition": 13735,
  "agreed": 2822,
  "265": 9207,
  "or": 668,
  "##hore": 5464,
  "\u220e": 354,
  "greenfield": 18382,
  "poly": 5718,
  "mbps": 21950,
  "sizeable": 28489,
  "warrior": 20457,
  "specifically": 4124,
  "inflam": 9775,
  "pellet": 27919,
  "subscribing": 25073,
  "reord": 27792,
  "zap": 14952,
  "reser": 1578,
  "vacuum": 14244,
  "vestar": 22792,
  "ugi": 14276,
  "impr": 14654,
  "303a": 27212,
  "##aga": 25282,
  "pgl": 26883,
  "servicer": 4461,
  "when": 1469,
  "##le": 670,
  "administratively": 24359,
  "subchap": 16393,
  "cob": 18076,
  "##aham": 8565,
  "failure": 2590,
  "exemptive": 20485,
  "##ograp": 2915,
  "##ela": 10786,
  "gi": 11589,
  "caithness": 26435,
  "calcul": 3802,
  "##oline": 6647,
  "##aste": 28473,
  "michael": 5152,
  "##dic": 2478,
  "sri": 19447,
  "ibt": 28073,
  "te": 2177,
  "hpl": 27894,
  "shortening": 21666,
  "alzheimer": 16500,
  "##ava": 14454,
  "##wald": 23485,
  "bleach": 21937,
  "unreimbur": 21769,
  "##lios": 23452,
  "halter": 29185,
  "edit": 23097,
  "gl": 4686,
  "davidson": 15929,
  "limitations": 2930,
  "reference": 1538,
  "approved": 2294,
  "devi": 16584,
  "servicem": 18838,
  "metc": 26517,
  "artist": 18296,
  "wholes": 3630,
  "wishes": 17688,
  "pelican": 23449,
  "##lotide": 27527,
  "##agh": 24717,
  "genomics": 14961,
  "quantification": 20865,
  "remittances": 19913,
  "unexpired": 16663,
  "cylinders": 18438,
  "##fair": 28651,
  "##amortiz": 5214,
  "736": 12894,
  "phot": 6821,
  "objections": 17425,
  "##ettled": 15908,
  "##lets": 7767,
  "gf": 19731,
  "469": 11455,
  "11": 1403,
  "usability": 29108,
  "nad": 25107,
  "dose": 7191,
  "drug": 2482,
  "volunt": 4848,
  "##lyn": 11387,
  "annu": 4825,
  "appalach": 12792,
  "coating": 7917,
  "eliz": 13997,
  "acceptability": 25078,
  "##ways": 5333,
  "##xiom": 23362,
  "firearm": 17510,
  "\u2611": 394,
  "province": 9575,
  "wire": 3528,
  "berm": 7397,
  "effective": 1365,
  "sharp": 9965,
  "dh": 15456,
  "finds": 15103,
  "center": 3001,
  "cafes": 19561,
  "fe": 1068,
  "##ars": 4148,
  "investigating": 11675,
  "axis": 15418,
  "bba": 19772,
  "banned": 29559,
  "observe": 17842,
  "wharf": 29711,
  "distor": 23298,
  "julian": 29025,
  "ffb": 25368,
  "sie": 16991,
  "biovax": 27447,
  "investigators": 12133,
  "externally": 14273,
  "showing": 11157,
  "684": 12546,
  "managing": 3074,
  "entrench": 26125,
  "unprofitable": 13524,
  "laurus": 16662,
  "forfeitures": 6130,
  "##esee": 4446,
  "outfit": 22646,
  "crda": 21962,
  "853": 13319,
  "district": 3062,
  "depicts": 19802,
  "making": 3195,
  "priority": 5060,
  "floors": 11425,
  "trigg": 5495,
  "maturities": 3323,
  "uptake": 29835,
  "resort": 6657,
  "772": 12763,
  "simi": 27977,
  "northstar": 14636,
  "##reets": 20243,
  "##mart": 9334,
  "barron": 27853,
  "dispositions": 5048,
  "leban": 22728,
  "constituent": 23307,
  "tall": 15678,
  "thrifts": 18011,
  "reclaim": 16185,
  "wv": 18053,
  "##ades": 5677,
  "existent": 28726,
  "affiliated": 4005,
  "vx": 22707,
  "fairness": 15703,
  "theatrical": 14379,
  "##msa": 19076,
  "orchid": 29642,
  "melbourne": 20424,
  "deems": 8617,
  "veneti": 26051,
  "lpg": 16378,
  "particles": 18255,
  "state": 1566,
  "holdback": 17602,
  "resins": 12283,
  "spor": 16276,
  "from": 755,
  "ccg": 27474,
  "relocation": 7635,
  "complements": 19269,
  "teletech": 26918,
  "exhaustion": 28225,
  "rods": 26022,
  "compass": 14088,
  "##astle": 29592,
  "cruise": 10913,
  "domain": 7923,
  "convergys": 27345,
  "0625": 26492,
  "##anes": 4013,
  "meaningfully": 20737,
  "ster": 6259,
  "##abas": 29929,
  "chun": 28012,
  "fibre": 16477,
  "assembles": 22940,
  "hass": 27805,
  "##band": 5715,
  "peoples": 8222,
  "nonb": 19834,
  "colombia": 13043,
  "wool": 21297,
  "bgl": 29925,
  "lockbox": 22546,
  "pental": 22073,
  "##\u2079": 567,
  "ledg": 16304,
  "pct": 17188,
  "donnelly": 26190,
  "university": 3549,
  "lign": 18313,
  "isra": 6338,
  "onvia": 25565,
  "unevaluated": 21068,
  "vpn": 24219,
  "granular": 23896,
  "174": 8713,
  "brus": 25730,
  "attacks": 6591,
  "##forces": 27453,
  "progr": 1358,
  "##76": 17171,
  "##mes": 13351,
  "choose": 5755,
  "\u2756": 406,
  "poll": 5419,
  "prere": 22918,
  "undertakings": 18650,
  "horsepower": 16490,
  "raptor": 28524,
  "##ecorp": 26543,
  "chooses": 16005,
  "##hd": 17339,
  "proges": 28783,
  "adesa": 26280,
  "adviser": 6992,
  "proceeding": 4829,
  "posts": 16642,
  "##mits": 9454,
  "egc": 28061,
  "quaker": 17334,
  "small": 2721,
  "[unused28]": 29,
  "payload": 24480,
  "ehrlich": 29740,
  "##igley": 29499,
  "filtration": 12184,
  "raz": 23143,
  "compress": 22273,
  "bypass": 13587,
  "##ned": 3514,
  "48": 2835,
  "bib": 27515,
  "paint": 12437,
  "btu": 17000,
  "##istributed": 6915,
  "prairie": 17253,
  "diarr": 22286,
  "##onsolidated": 4869,
  "lybrand": 15658,
  "eugene": 15564,
  "alferon": 27916,
  "intellectual": 2908,
  "neos": 10350,
  "merge": 8137,
  "##acom": 10197,
  "plano": 23960,
  "c": 145,
  "bands": 18639,
  "facsimile": 16034,
  "##omod": 24729,
  "nonproduc": 27724,
  "##ham": 6550,
  "##ciences": 11534,
  "etf": 21414,
  "operates": 3854,
  "##berry": 14502,
  "001": 5133,
  "taur": 27177,
  "categorizes": 23032,
  "impos": 3642,
  "economies": 7073,
  "graph": 5659,
  "##lements": 4724,
  "254": 9812,
  "incre": 905,
  "##ucer": 29120,
  "darden": 29130,
  "nicotine": 21137,
  "arkansas": 7560,
  "intentions": 13854,
  "##vent": 5661,
  "plastic": 7071,
  "constituted": 9221,
  "##iant": 16698,
  "materialize": 13243,
  "disinterested": 15446,
  "equivalent": 3752,
  "irrigation": 15079,
  "ipc": 12111,
  "apps": 16463,
  "clos": 2113,
  "tallahassee": 29314,
  "pso": 16225,
  "worker": 12891,
  "foreclos": 4624,
  "cinemedia": 27175,
  "##erry": 6910,
  "##nam": 10160,
  "waiting": 13873,
  "##entiary": 22874,
  "collectability": 6908,
  "advances": 3561,
  "mti": 18327,
  "katr": 14520,
  "projectors": 29358,
  "analysts": 6211,
  "suppress": 18426,
  "writers": 22173,
  "documentation": 6052,
  "residing": 20173,
  "298": 10285,
  "##imed": 21806,
  "pensions": 8664,
  "##n1": 23982,
  "##je": 28870,
  "vibr": 23127,
  "nz": 26986,
  "\u2026": 306,
  "unrecoverable": 20080,
  "##ospher": 23593,
  "dupont": 13798,
  "nonmember": 27016,
  "communicated": 7283,
  "disag": 4417,
  "quin": 19140,
  "whistleblower": 19179,
  "dci": 25415,
  "impractic": 15829,
  "reconfigur": 25991,
  "maverick": 27601,
  "##ective": 913,
  "perpet": 7085,
  "nintendo": 21209,
  "irrig": 14440,
  "going": 3689,
  "enhancement": 7000,
  "chs": 17049,
  "discontinuance": 12565,
  "##61": 18197,
  "workings": 26195,
  "huawei": 26131,
  "gibral": 21408,
  "fitzpatrick": 24698,
  "powerbu": 27503,
  "##health": 13709,
  "##ield": 2183,
  "swine": 22736,
  "##john": 25005,
  "##unct": 16232,
  "dag": 29584,
  "lihtc": 26086,
  "##abeth": 13865,
  "augment": 12445,
  "reengine": 20793,
  "specialize": 16030,
  "ntl": 15901,
  "practitioner": 23708,
  "promotional": 5609,
  "gradu": 6952,
  "##99": 9323,
  "007": 12312,
  "tip": 14565,
  "pepsico": 15019,
  "putative": 10499,
  "softness": 20269,
  "mcgl": 18875,
  "626": 12175,
  "tak": 3099,
  "##kins": 8388,
  "responsive": 11016,
  "method": 1626,
  "903": 13179,
  "avoid": 5576,
  "eua": 23108,
  "eighteen": 12231,
  "ambient": 16674,
  "evid": 8006,
  "keys": 15536,
  "subsequent": 2287,
  "langu": 7485,
  "press": 3729,
  "##oku": 27889,
  "sv": 10028,
  "floaters": 29911,
  "##omers": 23160,
  "mvc": 23559,
  "abatement": 14852,
  "##uris": 3038,
  "##ocrine": 24319,
  "maintains": 4195,
  "663": 12564,
  "##tifying": 7125,
  "transmitters": 21698,
  "multif": 7470,
  "occ": 1702,
  "area": 2847,
  "brownsville": 28877,
  "resides": 18948,
  "brokers": 5547,
  "incorporated": 1509,
  "rcn": 19760,
  "hans": 12582,
  "teleg": 28735,
  "941": 13420,
  "hauling": 20735,
  "sexual": 20887,
  "[unused94]": 95,
  "##urb": 5398,
  "guarantee": 3615,
  "morg": 20572,
  "ga": 2833,
  "newco": 21190,
  "##oning": 9489,
  "fortress": 13635,
  "unenc": 14141,
  "##oran": 15869,
  "uncorrected": 26175,
  "cilco": 13068,
  "initiated": 5255,
  "ingers": 24852,
  "exposed": 4579,
  "doubled": 20432,
  "telephonic": 22560,
  "##ecker": 26721,
  "promotions": 8489,
  "apollo": 8522,
  "jacobs": 13461,
  "cushion": 19351,
  "##\u03b5": 524,
  "acquiring": 4465,
  "recorders": 19364,
  "1x": 27059,
  "selected": 2950,
  "altering": 21876,
  "beef": 12265,
  "cleanliness": 28439,
  "nonac": 6344,
  "anemia": 19296,
  "045": 12628,
  "sek": 29974,
  "contran": 23017,
  "adverse": 1326,
  "##ario": 6744,
  "494": 11376,
  "selects": 16514,
  "acquir": 1606,
  "mitigating": 13790,
  "messaging": 9974,
  "885": 12547,
  "multil": 20286,
  "advance": 3979,
  "washing": 24251,
  "affiliations": 13498,
  "refuses": 23964,
  "aeros": 15871,
  "del": 1909,
  "saddle": 26257,
  "ruptures": 29072,
  "paris": 12449,
  "982": 13732,
  "\u043d": 262,
  "pyr": 15466,
  "discriminatory": 16271,
  "usc": 18559,
  "pron": 4234,
  "pacific": 4318,
  "017": 13344,
  "upgraded": 11243,
  "##lusive": 7465,
  "depreciated": 5887,
  "half": 4173,
  "cei": 17480,
  "compiled": 17608,
  "walnut": 19022,
  "igra": 29762,
  "orc": 26790,
  "bior": 17834,
  "neither": 5807,
  "seventh": 11614,
  "nin": 7849,
  "##enta": 28825,
  "diff": 1393,
  "aur": 10585,
  "kimberly": 17677,
  "shared": 5987,
  "prevailed": 25626,
  "legs": 27658,
  "stag": 27465,
  "126": 7488,
  "inf": 1892,
  "schizophrenia": 25090,
  "ipp": 29390,
  "adhesion": 27428,
  "cms": 6400,
  "benefic": 2324,
  "subject": 1202,
  "wilson": 10756,
  "\u3002": 418,
  "polychlor": 26589,
  "forged": 23111,
  "aiding": 21184,
  "majeure": 16933,
  "chf": 20825,
  "dockside": 23682,
  "subordination": 11611,
  "vot": 27445,
  "fda": 2642,
  "newpark": 25975,
  "faces": 8919,
  "mandate": 11627,
  "possibilities": 21392,
  "##thes": 15798,
  "##otherapy": 8887,
  "prevalence": 16912,
  "36": 2698,
  "expands": 7955,
  "icahn": 12666,
  "##cin": 16300,
  "##leading": 8230,
  "##oplatin": 28390,
  "southwest": 7837,
  "accrual": 3447,
  "power": 1814,
  "downgraded": 13806,
  "trun": 17136,
  "penetration": 8192,
  "tiverton": 24792,
  "appoints": 12436,
  "##ily": 1131,
  "cr": 1514,
  "agribusiness": 20672,
  "numbered": 11949,
  "##ocal": 21040,
  "##cr": 1364,
  "omitted": 4554,
  "jm": 18024,
  "msrs": 10775,
  "assur": 5908,
  "picture": 10870,
  "adopted": 2404,
  "generex": 21456,
  "prompted": 20753,
  "##ilit": 4511,
  "concentra": 21933,
  "reinstated": 15577,
  "fluctuations": 3026,
  "sg": 5693,
  "feedstock": 9247,
  "disbur": 7939,
  "nick": 12166,
  "unf": 3780,
  "carbonless": 29494,
  "infinity": 15410,
  "cures": 27165,
  "vwr": 29333,
  "chairs": 20092,
  "cricket": 23038,
  "\u2612": 395,
  "obtaining": 3962,
  "etch": 19516,
  "functionalities": 28084,
  "2024": 8669,
  "marri": 9336,
  "##auga": 26448,
  "redundancies": 22213,
  "794": 12677,
  "41": 3036,
  "merc": 5777,
  "dana": 15579,
  "petroleum": 4746,
  "cardi": 8290,
  "smok": 11479,
  "disallowed": 15144,
  "cataract": 27750,
  "listed": 3315,
  "assistance": 5620,
  "strata": 25496,
  "ungu": 23462,
  "dismemberment": 29304,
  "three": 1625,
  "cmbs": 10244,
  "no": 678,
  "calculated": 3199,
  "ease": 9342,
  "##atri": 9402,
  "##itations": 25671,
  "189": 8608,
  "gathers": 26290,
  "lyon": 17143,
  "##iosis": 27407,
  "profiling": 23120,
  "magne": 20136,
  "airtran": 26785,
  "pressur": 27287,
  "dermal": 25326,
  "##axis": 14541,
  "receipt": 4506,
  "troubleshooting": 28882,
  "brennan": 26914,
  "declaring": 11544,
  "328": 10294,
  "scandin": 26220,
  "commercially": 5258,
  "##ureate": 26578,
  "##first": 14753,
  "belvedere": 24504,
  "dismember": 29268,
  "quad": 11504,
  "schneider": 18259,
  "henan": 24575,
  "balcor": 21525,
  "rankings": 27084,
  "##ritis": 14780,
  "earliest": 9329,
  "##bid": 13186,
  "defined": 2010,
  "pretax": 6395,
  "fax": 9700,
  "demographic": 7734,
  "##gas": 5099,
  "actu": 4498,
  "rohs": 25252,
  "bif": 9147,
  "innov": 4397,
  "ipi": 28826,
  "accountability": 11135,
  "columbia": 5451,
  "##green": 10034,
  "disciplinary": 15625,
  "desalination": 25311,
  "esas": 26432,
  "economics": 8494,
  "inventors": 19682,
  "gloss": 17959,
  "norway": 14918,
  "injected": 18447,
  "clearinghouses": 22293,
  "bookkeeping": 20493,
  "yogurt": 24674,
  "light": 4179,
  "##ities": 777,
  "vendor": 4915,
  "transponders": 20264,
  "retire": 8379,
  "dishonesty": 22984,
  "forego": 15397,
  "ppg": 16593,
  "bacterial": 16631,
  "865": 12637,
  "##monton": 27925,
  "powers": 6608,
  "disadvantaged": 28944,
  "undertook": 15876,
  "ferc": 4285,
  "alere": 29197,
  "295": 9768,
  "##asota": 24919,
  "brows": 14093,
  "arizona": 6214,
  "##box": 11390,
  "insertion": 20109,
  "him": 6058,
  "##arry": 10311,
  "##son": 3798,
  "rpi": 20846,
  "6000": 24910,
  "assurances": 6026,
  "characteristic": 15833,
  "##owitz": 16410,
  "##wyn": 27409,
  "ico": 24543,
  "reactors": 17662,
  "thousandth": 19956,
  "bankruptcy": 3346,
  "upgrading": 11331,
  "scanning": 14974,
  "beginning": 2248,
  "cashflows": 28815,
  "entrepreneur": 15771,
  "revocable": 19436,
  "##\u215c": 525,
  "regis": 20684,
  "##atable": 25008,
  "concentrations": 5435,
  "ffp": 27032,
  "ritten": 27166,
  "##pa": 2360,
  "##uity": 12908,
  "##ga": 6175,
  "ston": 18489,
  "resolved": 6139,
  "opening": 5719,
  "##7": 477,
  "solids": 21893,
  "##ization": 1816,
  "materiality": 14650,
  "##umbo": 18693,
  "##acts": 1545,
  "ext": 1581,
  "kemp": 28284,
  "qnb": 24202,
  "##iving": 4475,
  "##titude": 27733,
  "mmboe": 16142,
  "alv": 22872,
  "mesaba": 25718,
  "##all": 1127,
  "owner": 3267,
  "925": 10980,
  "ord": 1575,
  "nonperform": 5890,
  "encompassing": 16894,
  "##ourne": 15028,
  "[unused35]": 36,
  "345": 9168,
  "rms": 21492,
  "sjgs": 21364,
  "nfp": 26108,
  "087": 13658,
  "hyster": 26670,
  "pervasive": 18203,
  "##assy": 20563,
  "##ividual": 2155,
  "585": 11526,
  "retrofit": 14849,
  "responsible": 2935,
  "\u02ee": 232,
  "touch": 11250,
  "pleading": 28090,
  "mdi": 23586,
  "twice": 10911,
  "hubs": 16926,
  "conexant": 24547,
  "[unused71]": 72,
  "kforce": 22392,
  "sanction": 13899,
  "##ofix": 28324,
  "\u0430": 254,
  "yuk": 28926,
  "meristar": 23304,
  "telex": 29681,
  "progenitor": 29109,
  "paging": 15034,
  "wip": 21620,
  "spouses": 19196,
  "ft": 8563,
  "ed": 3404,
  "##ond": 1391,
  "tasks": 12346,
  "exclusions": 13846,
  "thc": 26481,
  "ecosystem": 20700,
  "b2": 15662,
  "reward": 9081,
  "atmosphere": 15228,
  "forfeitable": 16641,
  "underst": 4217,
  "licensor": 12377,
  "nps": 22351,
  "specially": 15450,
  "balancing": 12027,
  "first": 1579,
  "unproven": 16932,
  "##icted": 7685,
  "nonrefundable": 14169,
  "[unused43]": 44,
  "mental": 16266,
  "mann": 15603,
  "ambassador": 25767,
  "talbots": 25288,
  "propor": 9738,
  "shareowner": 20668,
  "##ivers": 2146,
  "advisable": 16209,
  "b2b": 21476,
  "walmart": 21929,
  "ahead": 13813,
  "rear": 21700,
  "hfc": 19987,
  "party": 1721,
  "\u00a6": 178,
  "##ateg": 1603,
  "proportions": 20892,
  "##yal": 2661,
  "##ostic": 24544,
  "821": 13293,
  "##iliar": 11175,
  "accrete": 22841,
  "##stitutional": 26368,
  "forcing": 23569,
  "hal": 7603,
  "0000": 22071,
  "dv": 8186,
  "lower": 1929,
  "237": 9364,
  "versa": 18555,
  "nec": 16021,
  "visant": 27334,
  "vertically": 12530,
  "witt": 28887,
  "ceases": 9626,
  "##iciting": 10894,
  "dependence": 7806,
  "toll": 8455,
  "##arn": 27927,
  "##etron": 24453,
  "speculative": 6808,
  "##stein": 7958,
  "said": 7605,
  "cinemark": 17629,
  "lorillard": 20326,
  "predomin": 14087,
  "exchange": 1303,
  "cancel": 5389,
  "healthaxis": 26498,
  "##herty": 24358,
  "xin": 16257,
  "versatility": 26512,
  "tm": 5665,
  "##sti": 964,
  "##anks": 19066,
  "larry": 12038,
  "##vests": 27657,
  "sanders": 20297,
  "725": 10379,
  "finding": 7239,
  "tang": 4718,
  "outlay": 21052,
  "tokyo": 14179,
  "increased": 1310,
  "replen": 13465,
  "continual": 14007,
  "vintage": 17862,
  "volumes": 3801,
  "agreements": 1494,
  "lessors": 11845,
  "\u04ab": 278,
  "511": 11856,
  "line": 1964,
  "sparkling": 28687,
  "outpatient": 9513,
  "##ledge": 4235,
  "discontinuing": 18552,
  "schne": 17529,
  "towards": 7408,
  "instances": 5222,
  "juni": 18848,
  "spray": 14767,
  "breakage": 14598,
  "includ": 811,
  "##ocus": 29001,
  "stopp": 9054,
  "##aid": 3640,
  "drydocking": 24183,
  "cohort": 15392,
  "ifr": 29249,
  "##pots": 27983,
  "##fg": 12117,
  "##oglo": 17289,
  "wastewater": 9131,
  "##located": 7845,
  "##vo": 10533,
  "ve": 2960,
  "periodically": 4300,
  "homebuilding": 10090,
  "aor": 27633,
  "swaption": 29765,
  "architect": 6871,
  "consigned": 20544,
  "urgent": 24093,
  "umbil": 28821,
  "blocker": 27088,
  "memory": 8159,
  "implications": 12527,
  "released": 4999,
  "##tib": 5402,
  "temperatures": 12185,
  "retrans": 14315,
  "enjoining": 15272,
  "evidence": 3388,
  "capri": 24993,
  "coals": 29812,
  "dermatology": 20487,
  "juli": 20370,
  "egan": 20555,
  "##ensible": 17560,
  "idle": 12079,
  "counterfe": 17202,
  "partners": 2099,
  "##ated": 674,
  "chea": 27040,
  "sr": 7614,
  "frustrate": 26863,
  "aew": 29825,
  "fd": 9941,
  "##heimer": 12453,
  "ashland": 12395,
  "ndas": 17262,
  "levitt": 22613,
  "sherman": 14991,
  "reliant": 11971,
  "charities": 28994,
  "purchasers": 5390,
  "sbm": 28594,
  "ari": 13979,
  "##cor": 9126,
  "carolina": 4847,
  "mueller": 19174,
  "tourism": 15406,
  "civ": 4238,
  "gear": 12775,
  "interventional": 17522,
  "depleting": 25085,
  "##opat": 19899,
  "##119": 28756,
  "partnership": 1325,
  "media": 3614,
  "343": 10446,
  "droughts": 25599,
  "centurylink": 24872,
  "ios": 20060,
  "inverse": 17196,
  "gn": 12532,
  "recording": 5888,
  "##stry": 25871,
  "bundling": 20186,
  "ipuc": 24289,
  "tc": 7675,
  "mesh": 18100,
  "[unused3]": 4,
  "regards": 11965,
  "malvern": 29096,
  "encourages": 14255,
  "sirona": 27348,
  "##iro": 14338,
  "kessler": 28190,
  "crl": 22869,
  "[unused82]": 83,
  "ble": 14146,
  "adel": 15220,
  "theatre": 11176,
  "deline": 17635,
  "##itch": 4540,
  "fears": 26258,
  "enterprise": 3669,
  "##fl": 13185,
  "commensurate": 9560,
  "relieved": 16436,
  "migr": 10530,
  "introduction": 5441,
  "televisions": 18909,
  "trailing": 13025,
  "encounter": 6215,
  "##uri": 26732,
  "provisions": 2028,
  "atmos": 24110,
  "##acao": 29204,
  "ritux": 24995,
  "fms": 23805,
  "##atron": 22431,
  "five": 2188,
  "markup": 17541,
  "chairman": 2964,
  "gog": 24031,
  "lid": 19511,
  "##bert": 4314,
  "patentability": 24334,
  "want": 10982,
  "powerbuoy": 29457,
  "619": 12101,
  "##horn": 20543,
  "##ira": 10081,
  "anna": 25154,
  "charity": 21641,
  "rbocs": 21065,
  "mv": 9881,
  "##etric": 10765,
  "rifkin": 27204,
  "volc": 17318,
  "tolerated": 15056,
  "jewel": 9189,
  "minnesota": 6100,
  "##ald": 5740,
  "##mex": 9852,
  "resolve": 6909,
  "metallurgical": 13958,
  "inn": 4060,
  "byproduct": 25898,
  "optics": 13328,
  "suppliers": 3071,
  "s2": 26366,
  "recipient": 9559,
  "luxemb": 15302,
  "911": 11625,
  "percenti": 16388,
  "887": 13341,
  "##2": 466,
  "wilm": 10094,
  "row": 10953,
  "symb": 5101,
  "598": 12295,
  "authorized": 2620,
  "circular": 13674,
  "idb": 29093,
  "##zzi": 21786,
  "ballot": 28803,
  "assign": 4225,
  "cartridge": 19030,
  "orleans": 9777,
  "txu": 13037,
  "airing": 29594,
  "noncash": 10383,
  "##zone": 17245,
  "expect": 2071,
  "335": 9638,
  "renegoti": 8164,
  "##ander": 8236,
  "rsas": 17288,
  "considerably": 13081,
  "null": 23861,
  "##lese": 21373,
  "meat": 13528,
  "transc": 21158,
  "instrumentation": 11779,
  "reinforce": 19472,
  "nev": 4329,
  "##nski": 26083,
  "pace": 7758,
  "correlations": 22868,
  "hir": 6765,
  "january": 1401,
  "newsp": 7616,
  "##aha": 12279,
  "##ister": 2170,
  "limits": 3664,
  "792": 12847,
  "functionally": 22793,
  "##aves": 13565,
  "bureau": 7704,
  "##opausal": 29113,
  "unlimited": 9226,
  "stor": 2142,
  "earns": 10788,
  "encountered": 9341,
  "plumbing": 16059,
  "anticancer": 28578,
  "##ism": 4336,
  "##artis": 9309,
  "##ros": 17359,
  "##illy": 9762,
  "republic": 6564,
  "##aving": 9335,
  "occasional": 18491,
  "noncontrib": 13583,
  "##upply": 15568,
  "##andrews": 19578,
  "courseware": 25136,
  "##agram": 22749,
  "07": 4084,
  "asked": 12226,
  "##outs": 8496,
  "integrators": 11136,
  "swe": 10211,
  "morph": 21008,
  "commun": 2034,
  "##atisf": 14065,
  "gamco": 28052,
  "designation": 6076,
  "laureate": 27888,
  "##pel": 20015,
  "caustic": 23626,
  "poc": 19917,
  "pledge": 6696,
  "##tinguish": 4992,
  "param": 7643,
  "appealing": 16200,
  "synthetic": 8327,
  "##omer": 12257,
  "distinguishing": 19044,
  "##lor": 7006,
  "emergency": 7194,
  "capitalize": 7117,
  "imetelstat": 28165,
  "gases": 8890,
  "chubb": 20616,
  "trip": 8053,
  "sid": 14271,
  "kcsm": 18775,
  "tt": 20890,
  "cardiology": 18845,
  "##tern": 1940,
  "integrate": 5811,
  "fresenius": 21548,
  "transmitted": 12957,
  "agreeing": 15355,
  "cris": 8245,
  "466": 11259,
  "laundering": 10780,
  "packers": 25262,
  "endoc": 27064,
  "britain": 21288,
  "palisades": 25459,
  "conservators": 16971,
  "infringers": 28636,
  "530": 10283,
  "endorse": 28586,
  "[": 137,
  "borrowings": 2393,
  "tps": 22308,
  "hanson": 19233,
  "##dx": 25604,
  "guinea": 21755,
  "strug": 22302,
  "##\u215d": 545,
  "revoc": 9749,
  "agonist": 23460,
  "departure": 12268,
  "workshop": 24997,
  "dilute": 9628,
  "##ylic": 23118,
  "nonclinical": 18223,
  "transfusion": 21495,
  "##advis": 17581,
  "threatening": 14442,
  "##sta": 26731,
  "|": 170,
  "identify": 3926,
  "benefitted": 24519,
  "nct": 20500,
  "oliver": 21794,
  "nonat": 21780,
  "##omb": 8313,
  "cinem": 12603,
  "redeterm": 17977,
  "629": 12250,
  "pa": 1246,
  "305": 9411,
  "defend": 3278,
  "na": 7244,
  "##eek": 16171,
  "##pian": 22430,
  "nyiso": 25075,
  "##pt": 1071,
  "chartered": 6949,
  "inciner": 27262,
  "940": 11125,
  "love": 17718,
  "sclerosis": 20623,
  "suffering": 15948,
  "wcc": 23484,
  "berks": 10966,
  "distribution": 1824,
  "##hui": 23618,
  "peaks": 18676,
  "\u0456": 275,
  "yale": 17309,
  "adss": 19722,
  "188": 8362,
  "seneca": 17772,
  "##isms": 7479,
  "aroma": 29419,
  "##emedia": 19871,
  "cumulatively": 19903,
  "handpi": 27764,
  "##action": 4001,
  "phc": 21575,
  "nyc": 21823,
  "claridge": 24939,
  "declined": 4919,
  "analyses": 6762,
  "macadamia": 29802,
  "hinder": 11341,
  "profile": 6718,
  "deterioration": 6354,
  "macdonald": 23358,
  "undergoing": 12010,
  "navajo": 18001,
  "remanufactured": 23163,
  "supports": 8096,
  "estimating": 5210,
  "##issory": 4056,
  "##ervice": 10721,
  "46r": 11150,
  "converter": 20382,
  "nebr": 9990,
  "boeh": 22445,
  "matern": 20251,
  "lakewood": 25876,
  "clusters": 19931,
  "028": 13666,
  "acg": 26466,
  "dispersion": 17730,
  "difficulties": 4815,
  "natur": 25079,
  "wacc": 21853,
  "degener": 28797,
  "dick": 14212,
  "drops": 20423,
  "opa": 15612,
  "sudden": 12512,
  "depositors": 10106,
  "##alu": 1561,
  "dsus": 21225,
  "hoc": 19374,
  "amortization": 2109,
  "confirmation": 9667,
  "liver": 10578,
  "mismatch": 17607,
  "allerg": 11957,
  "football": 19208,
  "eleventh": 17938,
  "to": 631,
  "##trib": 1142,
  "392": 11116,
  "loeb": 29134,
  "apa": 20696,
  "alk": 13646,
  "##hen": 6098,
  "quantifiable": 21833,
  "differ": 1622,
  "kitchen": 13272,
  "postponed": 19751,
  "missile": 17347,
  "steel": 4407,
  "deductible": 5174,
  "brentwood": 26354,
  "maxtor": 27368,
  "month": 1460,
  "sus": 6683,
  "upward": 10633,
  "hath": 17576,
  "##ler": 4419,
  "realogy": 19101,
  "vc": 16331,
  "brachy": 20386,
  "min": 1518,
  "\u2463": 372,
  "1955": 26533,
  "rebu": 13410,
  "existing": 1761,
  "shareholder": 3325,
  "##ises": 2901,
  "streamlining": 16338,
  "gans": 27495,
  "##kr": 9263,
  "##ith": 693,
  "ppd": 25542,
  "easy": 9360,
  "dayr": 17738,
  "organizing": 18540,
  "arteries": 21529,
  "ventilation": 18176,
  "macqu": 18497,
  "cart": 15077,
  "mbbls": 22057,
  "comfortable": 19591,
  "directives": 14493,
  "1960": 17616,
  "820": 5951,
  "multiples": 9944,
  "supervises": 21514,
  "mbs": 7701,
  "##erch": 26553,
  "##apse": 14441,
  "remodeling": 13096,
  "##hardt": 21638,
  "\u221a": 360,
  "##anapali": 28937,
  "ems": 14531,
  "molyb": 18857,
  "amortizable": 11284,
  "activity": 2611,
  "##ahon": 28186,
  "dig": 3326,
  "proportion": 4820,
  "tentatively": 27687,
  "denies": 17935,
  "stra": 3284,
  "idec": 20486,
  "restor": 6446,
  "stif": 20850,
  "cultural": 14063,
  "grains": 11831,
  "deliverables": 7787,
  "##opening": 20281,
  "wor": 2374,
  "screw": 23350,
  "york": 2680,
  "moreover": 5115,
  "acb": 28036,
  "\u00bc": 199,
  "##lift": 21609,
  "petitioners": 28737,
  "unlisted": 28356,
  "metabolic": 17164,
  "contests": 19241,
  "supportive": 20636,
  "##ings": 960,
  "salvador": 21272,
  "idaho": 8065,
  "intimate": 23089,
  "##atlantic": 13111,
  "##cyc": 24941,
  "bond": 2801,
  "##tig": 1819,
  "bcf": 10260,
  "##ness": 2085,
  "prepares": 15242,
  "benton": 21185,
  "hemisphere": 22756,
  "numeric": 27550,
  "plaintiffs": 4209,
  "foreclosures": 12620,
  "semgroup": 27406,
  "##ervable": 3553,
  "transamerica": 22108,
  "branching": 12017,
  "summarizing": 22199,
  "344": 9725,
  "organiz": 6899,
  "##5s": 25327,
  "bresnan": 28025,
  "decide": 7118,
  "commence": 6788,
  "\u2571": 378,
  "enl": 17885,
  "##pec": 22141,
  "equipping": 24650,
  "ay": 21909,
  "##anton": 16645,
  "onto": 12865,
  "900": 4892,
  "gtc": 23409,
  "concealing": 29878,
  "purporting": 23898,
  "everything": 25295,
  "otcbb": 12030,
  "infringed": 10033,
  "theory": 20211,
  "##ire": 1236,
  "teamwork": 28653,
  "##78": 18069,
  "nutraceutical": 19617,
  "housing": 4087,
  "patr": 12492,
  "emerging": 4593,
  "steak": 14406,
  "bisc": 23957,
  "improv": 2623,
  "##una": 16018,
  "practices": 3187,
  "forgave": 23955,
  "horizons": 16260,
  "##ift": 4389,
  "neurotr": 25859,
  "platt": 27606,
  "jiang": 15592,
  "uncontroll": 18208,
  "viol": 3294,
  "parsley": 21790,
  "hoechst": 27022,
  "2012": 1433,
  "contractually": 6883,
  "citizens": 7419,
  "##tery": 9368,
  "walden": 24880,
  "##acters": 18516,
  "##verage": 1295,
  "leaks": 18357,
  "libel": 25976,
  "##iled": 8606,
  "web": 3967,
  "##anan": 24227,
  "appointing": 17447,
  "radar": 16672,
  "ery": 29957,
  "categorization": 18411,
  "westlake": 19712,
  "erm": 22367,
  "[unused33]": 34,
  "enter": 1361,
  "panhand": 14631,
  "invent": 1987,
  "base": 2240,
  "finra": 10326,
  "onset": 17205,
  "##rog": 16282,
  "enters": 6444,
  "regulatory": 1675,
  "standardization": 17795,
  "epidemics": 25355,
  "subservic": 18052,
  "selectively": 11180,
  "relator": 29267,
  "##hythm": 20588,
  "##etouch": 25508,
  "accommodations": 14228,
  "receip": 3589,
  "prorated": 14195,
  "geo": 13834,
  "templates": 26150,
  "##ulu": 16858,
  "christ": 8880,
  "ranger": 27627,
  "integr": 2037,
  "elapsed": 18363,
  "hemoglobin": 22040,
  "divestit": 5848,
  "crowne": 29677,
  "gv": 22164,
  "shan": 25691,
  "docking": 23385,
  "government": 2168,
  "\u25ca": 387,
  "operative": 14530,
  "midamerican": 8555,
  "hoech": 26967,
  "tradeshows": 29256,
  "eth": 3552,
  "##omc": 23530,
  "msr": 14610,
  "518": 11454,
  "324": 10259,
  "unobservable": 5280,
  "baxalta": 25703,
  "exparel": 29678,
  "mant": 27882,
  "cincinnati": 10730,
  "taxpayer": 14208,
  "outlays": 15048,
  "unamortiz": 5244,
  "caused": 3365,
  "decker": 21409,
  "enclos": 21290,
  "sits": 26238,
  "effect": 1447,
  "surrounding": 6872,
  "medicines": 11338,
  "gastroenter": 27324,
  "murphy": 13040,
  "facultative": 18941,
  "matsushita": 29701,
  "previously": 2273,
  "vest": 3562,
  "##ogenicity": 23969,
  "lime": 16052,
  "tripadvisor": 22175,
  "reluct": 16218,
  "examples": 9208,
  "21": 1970,
  "clientele": 25916,
  "vitro": 13487,
  "tuscar": 28472,
  "need": 1958,
  "autos": 26438,
  "pad": 10022,
  "waltham": 26871,
  "regeneron": 24381,
  "revenue": 1192,
  "##tify": 5963,
  "pasta": 17540,
  "logistical": 18102,
  "##echn": 1227,
  "inform": 1098,
  "aly": 28828,
  "32": 2598,
  "arra": 18803,
  "synergies": 8671,
  "carl": 8917,
  "human": 3858,
  "metropolitan": 6601,
  "directorships": 17322,
  "ascent": 18358,
  "worms": 29218,
  "bahamas": 19529,
  "##est": 724,
  "##vington": 26323,
  "ini": 1759,
  "undis": 22409,
  "rider": 11490,
  "expedited": 14558,
  "jian": 24320,
  "ncm": 13593,
  "purchased": 2335,
  "felcor": 17386,
  "contains": 3758,
  "baja": 26843,
  "tampering": 23372,
  "##soe": 9123,
  "egus": 27314,
  "836": 12935,
  "cmc": 16530,
  "eca": 21054,
  "npl": 23985,
  "front": 6994,
  "hampton": 16170,
  "nutrient": 19470,
  "defer": 4098,
  "weinberg": 23944,
  "mcgill": 28414,
  "landstar": 25674,
  "container": 7322,
  "##aters": 15860,
  "stap": 13126,
  "inversely": 27172,
  "desal": 23232,
  "##prot": 27789,
  "scottish": 22679,
  "sap": 10083,
  "ahp": 17485,
  "##enda": 16518,
  "##\u03c7": 594,
  "##eps": 17133,
  "##ulture": 21958,
  "correspondence": 16222,
  "investors": 2610,
  "myr": 22166,
  "##oker": 12703,
  "##lot": 5690,
  "xyrem": 26495,
  "cm": 5600,
  "erode": 21612,
  "tia": 17721,
  "##fm": 15217,
  "phil": 5149,
  "irrevocably": 16831,
  "##ifying": 3773,
  "##isc": 1056,
  "rav": 17831,
  "debilit": 24798,
  "lad": 11199,
  "dartmouth": 26201,
  "law": 1334,
  "carlson": 20606,
  "rafael": 29634,
  "##tracted": 14922,
  "cameron": 14890,
  "zen": 17119,
  "inflows": 9674,
  "appalachia": 19026,
  "wh": 711,
  "papa": 23906,
  "conventional": 6725,
  "expiry": 18522,
  "compuc": 23642,
  "wpi": 28606,
  "258": 9745,
  "coiled": 21851,
  "##isse": 11096,
  "##iff": 7400,
  "eld": 10856,
  "167": 7757,
  "\u221e": 361,
  "harmless": 15943,
  "affirm": 6635,
  "wn": 25831,
  "verint": 24037,
  "chips": 10061,
  "biofuel": 14875,
  "refused": 18533,
  "aggregators": 26242,
  "rendering": 13355,
  "chandler": 17229,
  "\u2502": 376,
  "refineries": 10716,
  "##ophy": 9121,
  "metav": 26685,
  "starwood": 15035,
  "legisl": 5247,
  "##\u0432": 568,
  "qef": 29167,
  "docum": 18461,
  "investigative": 14373,
  "valvoline": 22980,
  "ernest": 20712,
  "##vex": 23130,
  "tri": 7224,
  "viet": 16881,
  "\u0142": 213,
  "patients": 3175,
  "argo": 18907,
  "carryfor": 3377,
  "##blue": 22509,
  "franchis": 8089,
  "advant": 3609,
  "meda": 25686,
  "##icor": 18081,
  "abst": 18284,
  "cheng": 17487,
  "##avia": 25220,
  "dpuc": 20327,
  "regulates": 9075,
  "panasonic": 25742,
  "bolivar": 25110,
  "registr": 1421,
  "sti": 4109,
  "linden": 24313,
  "##goods": 18741,
  "jans": 15013,
  "threat": 5317,
  "mckesson": 17465,
  "merchandise": 4420,
  "##osmith": 17771,
  "desktop": 9695,
  "lenn": 17929,
  "valuing": 10102,
  "housekeeping": 24633,
  "##ulin": 9633,
  "commodity": 3219,
  "kam": 20591,
  "orchards": 24122,
  "empower": 14171,
  "##enium": 25846,
  "##ofi": 12494,
  "252": 9602,
  "carrington": 26297,
  "\ufdd0": 430,
  "816": 12808,
  "transferee": 13626,
  "insect": 26098,
  "verified": 13778,
  "iot": 19881,
  "attributed": 6232,
  "initi": 2889,
  "##tgage": 24095,
  "surpass": 20954,
  "ppm": 17916,
  "##itized": 19684,
  "rally": 21175,
  "vox": 26759,
  "##eca": 9862,
  "##activ": 16529,
  "climate": 6298,
  "authorizes": 8246,
  "##elco": 25939,
  "boating": 25046,
  "##antec": 19939,
  "matthews": 20847,
  "mur": 10357,
  "hosted": 11131,
  "adelphia": 16764,
  "261": 9956,
  "sale": 1381,
  "##ylated": 29869,
  "altr": 18068,
  "meridian": 12663,
  "\u21d2": 351,
  "##ide": 1539,
  "lottery": 11197,
  "transmontaigne": 22029,
  "seek": 3254,
  "sog": 21265,
  "##tili": 7369,
  "##haven": 19305,
  "ag": 787,
  "inadvert": 13816,
  "fire": 5783,
  "##earing": 11097,
  "borrows": 22152,
  "##ob": 4772,
  "prospective": 4576,
  "##asted": 22157,
  "psco": 16100,
  "morningstar": 19872,
  "don": 5592,
  "##les": 1275,
  "powerful": 14134,
  "charles": 6936,
  "feedstocks": 14879,
  "resolute": 22715,
  "cun": 19088,
  "princip": 1175,
  "criterion": 14356,
  "timeline": 17890,
  "##ecton": 24450,
  "cbs": 11580,
  "developments": 4105,
  "nonstatutory": 14555,
  "substantiated": 24254,
  "strengthens": 17758,
  "competitor": 7699,
  "##icking": 25826,
  "##verse": 5739,
  "delisted": 14297,
  "735": 11975,
  "blair": 19711,
  "emotional": 24325,
  "supervising": 17636,
  "##tiveness": 9164,
  "798": 13125,
  "mlip": 27748,
  "##olution": 6585,
  "##uate": 12650,
  "proc": 5170,
  "255": 9029,
  "cannabino": 25630,
  "novastar": 28544,
  "cannon": 26198,
  "retainers": 22970,
  "continuance": 15811,
  "id": 1821,
  "##\u043a": 506,
  "##road": 5960,
  "unfair": 9348,
  "bli": 23164,
  "rapids": 17030,
  "##tical": 1678,
  "dil": 2266,
  "bylaws": 5646,
  "budgeted": 11082,
  "postemployment": 14225,
  "macr": 22401,
  "##ustat": 25197,
  "##venth": 17913,
  "li": 845,
  "##\u02c2": 578,
  "gov": 8954,
  "boulder": 16608,
  "c1": 23105,
  "sonat": 27174,
  "symptomatic": 28933,
  "intu": 18554,
  "advan": 29277,
  "##estock": 14254,
  "tcc": 15819,
  "marked": 8678,
  "shell": 7908,
  "pathogens": 18061,
  "roadhouse": 25421,
  "##usen": 22884,
  "helpful": 19170,
  "jvs": 29489,
  "medically": 17606,
  "indemnit": 18083,
  "nike": 20087,
  "##cel": 6870,
  "cerner": 29270,
  "motorcycle": 17873,
  "deteriorated": 15867,
  "sullivan": 11275,
  "feasibility": 6937,
  "kess": 22168,
  "mcguire": 25291,
  "renewable": 5770,
  "retired": 5611,
  "mirage": 23222,
  "dirt": 28118,
  "[unused41]": 42,
  "preventive": 17175,
  "explosive": 22425,
  "586": 12145,
  "612": 11832,
  "trimble": 23923,
  "carn": 18132,
  "unocal": 27044,
  "firpta": 28582,
  "famous": 18180,
  "vies": 7183,
  "commingled": 15399,
  "sealed": 19251,
  "fluor": 15657,
  "jh": 28126,
  "##wear": 6824,
  "convenience": 6515,
  "magellan": 17597,
  "feasible": 9894,
  "whatever": 20093,
  "saul": 18370,
  "atmi": 27753,
  "##ateral": 2276,
  "##chlor": 20693,
  "##ukin": 28787,
  "tooth": 22214,
  "buyers": 7131,
  "confir": 9858,
  "##acute": 29315,
  "##olytic": 22680,
  "nea": 21048,
  "dementia": 28198,
  "fluctuates": 12783,
  "executing": 9480,
  "shaw": 13904,
  "anr": 21471,
  "wux": 27307,
  "net2": 25999,
  "attending": 13121,
  "247": 9651,
  "brink": 19631,
  "##\u00fe": 540,
  "factor": 4640,
  "restatements": 17308,
  "quantit": 4295,
  "routinely": 9145,
  "scherer": 19280,
  "secrecy": 15960,
  "arrangements": 2326,
  "insurance": 1471,
  "hick": 18314,
  "mansfield": 23357,
  "ted": 18584,
  "430": 9931,
  "939": 13373,
  "##team": 28371,
  "wwe": 25733,
  "divert": 7809,
  "##leaf": 19234,
  "coincides": 22895,
  "wil": 5849,
  "illuminating": 25191,
  "networks": 3834,
  "biolog": 10360,
  "dearborn": 19449,
  "pbr": 22829,
  "msw": 26292,
  "##ect": 689,
  "leather": 15164,
  "ultraviolet": 28063,
  "constitution": 14357,
  "##ovia": 9796,
  "suite": 5546,
  "deals": 14361,
  "##arily": 1213,
  "biovaxid": 29573,
  "##oming": 4967,
  "humans": 11761,
  "##illips": 19205,
  "snfs": 25450,
  "affects": 6944,
  "standpoint": 22165,
  "3rd": 14239,
  "immuc": 28856,
  "credible": 23825,
  "copyrights": 9668,
[...]
