{
  "\"": 107,
  "ind": 856,
  "##ecure": 21544,
  "ascend": 25789,
  "##inos": 8472,
  "missiles": 27805,
  "veter": 9005,
  "##awa": 13055,
  "verd": 11282,
  "nsaid": 26006,
  "understatement": 26508,
  "##emaker": 22208,
  "multitude": 20939,
  "swan": 23225,
  "textron": 15621,
  "tw": 1437,
  "bachel": 7017,
  "directorship": 22354,
  "breach": 3393,
  "fmcsa": 28808,
  "egy": 19168,
  "9a": 5672,
  "##lear": 3958,
  "cystic": 21565,
  "foundations": 17906,
  "ventana": 29994,
  "ask": 8326,
  "##coast": 17750,
  "##\u00aa": 513,
  "##here": 10648,
  "gam": 3298,
  "consignment": 13209,
  "dpc": 26404,
  "cox": 10946,
  "pfi": 20286,
  "rarely": 18911,
  "host": 6042,
  "multi": 2320,
  "particular": 2356,
  "retrans": 13134,
  "affinity": 13113,
  "conduct": 2898,
  "rio": 10526,
  "correlation": 9575,
  "intellectual": 2835,
  "rous": 27720,
  "imposs": 9232,
  "doctor": 11684,
  "passwords": 29070,
  "connecticut": 6007,
  "raz": 21891,
  "##\u00b8": 498,
  "univ": 24967,
  "coca": 12824,
  "expecting": 23792,
  "illiquid": 8522,
  "mainly": 5056,
  "##estop": 29371,
  "balloon": 9770,
  "hundredth": 16910,
  "##ital": 954,
  "gulfstream": 19284,
  "nurs": 6554,
  "receiver": 9327,
  "##auer": 12488,
  "machining": 15384,
  "trees": 17386,
  "weed": 27543,
  "restructuring": 2577,
  "delays": 3789,
  "##elect": 7967,
  "##atorial": 21536,
  "baron": 27749,
  "cor": 2291,
  "localities": 21206,
  "##uate": 11738,
  "j2": 21599,
  "correctional": 14539,
  "automate": 13974,
  "##matched": 28718,
  "##ermes": 18413,
  "alterra": 28459,
  "biopharm": 8012,
  "platelet": 19183,
  "##utt": 18244,
  "defr": 17866,
  "sek": 28705,
  "##zy": 7823,
  "##bec": 11025,
  "connected": 7832,
  "fahrenheit": 27269,
  "conforms": 21324,
  "consensus": 9546,
  "tra": 3912,
  "crowd": 28804,
  "candid": 2723,
  "debarment": 18282,
  "und": 828,
  "rit": 15758,
  "mq": 28100,
  "taste": 15261,
  "wiley": 22903,
  "##io": 1500,
  "forgent": 29733,
  "##odynamics": 27337,
  "payables": 6902,
  "dec": 732,
  "leuc": 19325,
  "mobil": 11035,
  "tan": 11677,
  "boutique": 18937,
  "\u2610": 393,
  "kkr": 10561,
  "##ps": 2713,
  "speaking": 18520,
  "metavante": 26701,
  "pcaob": 7711,
  "dataw": 24649,
  "##\ufb01": 545,
  "reactive": 22897,
  "\u2628": 396,
  "programmed": 18670,
  "heilong": 21997,
  "soybean": 13041,
  "surv": 6108,
  "##erer": 16283,
  "refiled": 26804,
  "disrupted": 11604,
  "grantors": 23689,
  "amp": 7422,
  "compile": 25310,
  "modalities": 22718,
  "##croft": 29315,
  "kun": 19350,
  "tendered": 9815,
  "##graduate": 16631,
  "##opers": 6376,
  "recipients": 10244,
  "covanta": 18500,
  "woodward": 17529,
  "credit": 1035,
  "tenure": 12611,
  "naming": 14433,
  "topical": 12920,
  "##illance": 9101,
  "##child": 16499,
  "lithotr": 26859,
  "pb": 7128,
  "lengthen": 21219,
  "manipulated": 25476,
  "##ieties": 19596,
  "mutual": 4306,
  "helicopters": 18038,
  "develop": 1028,
  "##ections": 2853,
  "##itted": 12573,
  "oxides": 17474,
  "##acious": 23007,
  "distinguish": 9803,
  "remained": 5004,
  "invest": 933,
  "kom": 25840,
  "anal": 1756,
  "##lig": 1202,
  "yuk": 27661,
  "##agram": 21505,
  "marketplace": 4942,
  "moun": 5344,
  "abraham": 25929,
  "homebuilding": 9638,
  "advertising": 2642,
  "##choice": 23201,
  "competed": 22346,
  "lexicon": 26789,
  "sumitomo": 15848,
  "nond": 9331,
  "##tish": 20783,
  "##enhagen": 25372,
  "##aceutical": 3021,
  "scatter": 27736,
  "undesir": 15111,
  "wish": 9392,
  "mov": 5252,
  "pleadings": 21843,
  "maur": 18138,
  "##opia": 20583,
  "outl": 10953,
  "fischer": 19702,
  "rab": 10395,
  "nso": 29115,
  "##lone": 21829,
  "abb": 7367,
  "cust": 990,
  "arrive": 11675,
  "enserch": 29047,
  "gci": 16681,
  "gic": 24525,
  "##oger": 19904,
  "failure": 2526,
  "pharma": 8672,
  "flammable": 26816,
  "[unused34]": 35,
  "curtain": 22440,
  "##opoly": 15934,
  "slight": 5739,
  "polyureth": 17558,
  "##ocardial": 21339,
  "stafford": 19963,
  "orient": 7048,
  "##vy": 21653,
  "detergent": 29046,
  "trustees": 5884,
  "griff": 9191,
  "##iest": 24498,
  "collectors": 17026,
  "plural": 27881,
  "fixation": 21268,
  "cleaners": 21863,
  "interrelated": 20960,
  "buyouts": 19975,
  "firpta": 27322,
  "usl": 19403,
  "##isure": 10464,
  "carriage": 11683,
  "colombian": 21447,
  "exceptions": 5091,
  "powertrain": 21200,
  "##eq": 19862,
  "bk": 13414,
  "##ettes": 10361,
  "minimum": 2275,
  "##aria": 14469,
  "mellon": 10394,
  "respond": 4513,
  "##ift": 4237,
  "##tists": 8159,
  "highway": 8887,
  "surface": 5914,
  "##ouch": 12292,
  "worcester": 22431,
  "blockbuster": 18174,
  "soils": 20421,
  "venetian": 25161,
  "parallel": 9484,
  "app": 1033,
  "ipad": 29062,
  "tariff": 5679,
  "##ports": 4403,
  "interconnected": 13680,
  "uspb": 24654,
  "tractor": 15657,
  "financ": 723,
  "corv": 26207,
  "teacher": 23054,
  "arps": 29959,
  "[unused84]": 85,
  "forwards": 6079,
  "edi": 16731,
  "lapse": 9359,
  "dex": 10733,
  "jamba": 29063,
  "adder": 28616,
  "mons": 13140,
  "enriched": 21222,
  "##nor": 9424,
  "mgcl": 21763,
  "orb": 11751,
  "adhesive": 18155,
  "##anova": 24244,
  "dav": 4405,
  "catastr": 5871,
  "pbx": 23070,
  "90th": 28455,
  "aramark": 25577,
  "pathogens": 16845,
  "overturned": 22702,
  "unitr": 26853,
  "##alde": 25896,
  "esrd": 17536,
  "##vious": 23409,
  "circumvented": 10891,
  "firstenergy": 9315,
  "production": 1816,
  "diamondback": 28466,
  "sect": 4211,
  "lms": 29783,
  "election": 3850,
  "butt": 25584,
  "##ther": 758,
  "banco": 19466,
  "\u00b4": 192,
  "epil": 19655,
  "fabricated": 13201,
  "jewelry": 9452,
  "jr": 4869,
  "activate": 19419,
  "team": 3611,
  "resins": 11452,
  "vs": 7395,
  "diseases": 6265,
  "constitution": 13173,
  "##50": 11857,
  "protects": 14993,
  "subcontract": 6339,
  "occupations": 19828,
  "subsidized": 15645,
  "tactical": 14189,
  "saved": 27434,
  "consumption": 6843,
  "jup": 18589,
  "cautionary": 9290,
  "pull": 17697,
  "aegco": 22534,
  "baxter": 11872,
  "astraz": 13115,
  "establishing": 4203,
  "13g": 25313,
  "diverted": 16236,
  "##iman": 18280,
  "discoveries": 10024,
  "undergoes": 17925,
  "probes": 21058,
  "##phal": 22551,
  "hex": 12597,
  "##ting": 681,
  "reinsured": 11014,
  "rr": 13380,
  "usage": 5132,
  "##cription": 2830,
  "discourage": 8016,
  "evaluable": 27489,
  "deficiency": 5854,
  "algorith": 11459,
  "##eller": 9443,
  "seneff": 26846,
  "dismissal": 9207,
  "kod": 12653,
  "##oco": 8361,
  "##\ufb03": 563,
  "paula": 26499,
  "renamed": 11807,
  "comprehensive": 2250,
  "reedhyc": 29215,
  "nyn": 19285,
  "ware": 4208,
  "desiring": 22042,
  "##emens": 12044,
  "perce": 5169,
  "magne": 18900,
  "insures": 14610,
  "ocon": 26714,
  "coherent": 22516,
  "lc": 9487,
  "appeals": 5627,
  "optimize": 8249,
  "##tieth": 23991,
  "##maid": 27386,
  "preserve": 8331,
  "charge": 2181,
  "subtopic": 9640,
  "whole": 3753,
  "fitness": 8035,
  "usai": 26411,
  "gues": 9580,
  "red": 1116,
  "ihs": 20442,
  "multiemployer": 12741,
  "default": 2844,
  "saba": 26573,
  "transocean": 17219,
  "freeway": 29831,
  "##huetter": 28857,
  "wynd": 15088,
  "##aughlin": 16518,
  "precipit": 17942,
  "widespread": 9664,
  "recompletions": 26251,
  "turnkey": 11389,
  "panasonic": 24489,
  "tolerances": 17976,
  "basement": 23946,
  "marl": 21192,
  "##ener": 9740,
  "jmp": 23268,
  "inasmuch": 24181,
  "danaher": 25204,
  "specifies": 10831,
  "imposition": 6676,
  "naphtha": 25236,
  "##using": 6403,
  "##ercare": 24870,
  "shaving": 29877,
  "municipal": 4939,
  "bst": 28917,
  "##ector": 9499,
  "##ffer": 29753,
  "museum": 23659,
  "devices": 3548,
  "lax": 26920,
  "appell": 11426,
  "unimpaired": 14428,
  "backward": 22251,
  "lis": 21384,
  "assur": 5725,
  "##emark": 18932,
  "cheryl": 26176,
  "facts": 5106,
  "contingent": 3034,
  "algae": 24961,
  "nexus": 20297,
  "ira": 10323,
  "concord": 12732,
  "##gor": 9131,
  "er": 2783,
  "##apide": 28721,
  "altogether": 15495,
  "using": 1667,
  "realign": 16648,
  "microbial": 20796,
  "##around": 26269,
  "crypt": 16662,
  "synthesized": 29131,
  "##away": 9827,
  "drinking": 13392,
  "ibt": 26810,
  "tvs": 26162,
  "battery": 8190,
  "recoverables": 13471,
  "fibrill": 27030,
  "cli": 2288,
  "unaffiliated": 5995,
  "emerson": 16414,
  "##ordinated": 18218,
  "hops": 29590,
  "iowa": 7253,
  "##iy": 17693,
  "silicone": 19821,
  "##imod": 26989,
  "cushion": 18129,
  "inspecting": 29981,
  "infos": 21023,
  "beyond": 3693,
  "##monton": 26663,
  "civil": 4228,
  "##atex": 22751,
  "wi": 11493,
  "milpitas": 27216,
  "surrenders": 16699,
  "##feng": 19777,
  "welch": 22174,
  "competes": 5960,
  "morris": 10000,
  "egp": 29755,
  "fcb": 20557,
  "dominance": 29154,
  "\ud83c\udf11": 448,
  "##olling": 4609,
  "blog": 21524,
  "dun": 9795,
  "distinguishes": 18013,
  "list": 4816,
  "rca": 18106,
  "src": 24122,
  "hydroxy": 28995,
  "##force": 4812,
  "##urs": 5928,
  "pnmr": 13289,
  "fpu": 29521,
  "regeneration": 18587,
  "##2a": 25023,
  "occupy": 10961,
  "wine": 9498,
  "uninter": 14962,
  "orthopa": 19240,
  "mi": 3738,
  "investigating": 10969,
  "appraisers": 13302,
  "behringer": 14849,
  "##nord": 28345,
  "joining": 4941,
  "spc": 19469,
  "##dale": 8667,
  "##atlantic": 12087,
  "zhou": 24601,
  "escrowed": 14573,
  "fee": 2256,
  "ame": 28915,
  "mg": 5612,
  "irr": 8228,
  "inserts": 18503,
  "ineligible": 16471,
  "##opat": 18669,
  "perry": 11632,
  "avoiding": 14845,
  "timelines": 15769,
  "[unused25]": 26,
  "oversupply": 14843,
  "quickly": 5967,
  "eastern": 5805,
  "positioning": 10444,
  "##lows": 6314,
  "\u03bc": 245,
  "desk": 8208,
  "##etooth": 21506,
  "meanings": 19315,
  "cio": 22013,
  "distract": 15651,
  "shreveport": 15199,
  "keys": 14345,
  "vald": 28336,
  "3dfx": 24811,
  "mffo": 15825,
  "airway": 25846,
  "antagon": 15670,
  "hectares": 20218,
  "turnar": 10406,
  "qtr": 19306,
  "appraise": 27540,
  "esh": 15472,
  "memberships": 12779,
  "##ertification": 22852,
  "united": 1472,
  "##oc": 708,
  "escalated": 21234,
  "unlocking": 22178,
  "algor": 11382,
  "linkbase": 10014,
  "among": 1928,
  "population": 5586,
  "halifax": 27633,
  "drums": 27896,
  "##street": 15858,
  "allin": 25085,
  "##site": 29927,
  "sizes": 8992,
  "westlake": 18486,
  "syndicated": 10189,
  "donna": 22241,
  "##othelial": 28989,
  "##afee": 22687,
  "camel": 21979,
  "withholdings": 17945,
  "##oughton": 21060,
  "##amination": 12110,
  "pavilion": 23102,
  "disproportionate": 11758,
  "sales": 1016,
  "russian": 11596,
  "##ued": 29983,
  "sce": 8474,
  "##nic": 17291,
  "##net": 6881,
  "andrew": 9274,
  "moj": 27986,
  "deviate": 19395,
  "xcel": 11506,
  "lared": 23076,
  "##13": 13263,
  "dispatch": 10528,
  "symptom": 27576,
  "##pta": 18000,
  "cpm": 21353,
  "weaver": 22418,
  "hack": 10971,
  "\u044f": 273,
  "avalon": 15662,
  "napico": 25281,
  "achieves": 12648,
  "film": 5691,
  "##pler": 21474,
  "support": 2087,
  "exclus": 2965,
  "intrastate": 10133,
  "##inees": 7661,
  "antigens": 16262,
  "##cil": 3664,
  "##break": 13460,
  "##ippon": 20339,
  "##vency": 6765,
  "##right": 25247,
  "overallotment": 22125,
  "##mitt": 13887,
  "define": 7592,
  "emm": 15335,
  "test": 2641,
  "astec": 28419,
  "concerns": 5340,
  "avista": 14544,
  "bou": 9300,
  "wyatt": 25991,
  "##eneca": 12644,
  "sacr": 23144,
  "40": 29442,
  "##ful": 1612,
  "pei": 22349,
  "horw": 22436,
  "monticello": 25837,
  "##ompany": 4407,
  "payout": 7610,
  "hw": 16942,
  "rs": 4699,
  "unallocated": 8038,
  "##yl": 3455,
  "##tim": 2205,
  "reversal": 6385,
  "entirely": 6825,
  "prohib": 3381,
  "buchanan": 24441,
  "amro": 17228,
  "kforce": 21151,
  "back": 2400,
  "lies": 18686,
  "avail": 1301,
  "worsening": 16873,
  "pbf": 11735,
  "keurig": 28262,
  "withheld": 8691,
  "copyrights": 9279,
  "floors": 10773,
  "spv": 17159,
  "tencor": 26029,
  "obliged": 25989,
  "enabling": 7307,
  "wellhead": 13945,
  "unreturn": 28955,
  "[NUM]": 105,
  "alert": 15521,
  "supermajor": 23592,
  "gour": 17046,
  "sundance": 29393,
  "attempts": 7186,
  "[unused79]": 80,
  "immunotherapies": 23254,
  "##stry": 24616,
  "unclear": 10548,
  "##uson": 15487,
  "wm": 5599,
  "##mark": 4220,
  "redeploy": 17205,
  "guides": 13941,
  "dalton": 16883,
  "autom": 2625,
  "##ede": 8670,
  "pscs": 25052,
  "dm": 9643,
  "unattr": 22353,
  "hiber": 27968,
  "ot": 7238,
  "advantage": 4016,
  "0x": 28468,
  "loom": 22152,
  "isos": 12957,
  "skyterra": 26383,
  "##is": 639,
  "##qual": 4786,
  "venous": 24049,
  "tnt": 25816,
  "tiaa": 24148,
  "adjusts": 9500,
  "##fly": 21931,
  "pucn": 15764,
  "##mune": 23944,
  "liberal": 21263,
  "pour": 28647,
  "disproportion": 9672,
  "weakening": 10992,
  "influence": 5094,
  "theaters": 15981,
  "forrester": 22162,
  "friend": 10441,
  "ltd": 2961,
  "trups": 22593,
  "gov": 8623,
  "nearly": 7019,
  "intervening": 23457,
  "alabama": 5545,
  "##shares": 7162,
  "regency": 11731,
  "acts": 4959,
  "##iller": 15285,
  "mip": 15607,
  "works": 7258,
  "liqu": 9406,
  "confron": 24003,
  "isch": 18721,
  "arctic": 20402,
  "##ised": 1992,
  "ordin": 8780,
  "relocating": 17242,
  "ont": 8238,
  "crossings": 29172,
  "campuses": 13706,
  "hostile": 16976,
  "consor": 11066,
  "softening": 19722,
  "uns": 2786,
  "ike": 21309,
  "hae": 29434,
  "organisms": 18965,
  "efforts": 2600,
  "contractually": 6664,
  "see": 1337,
  "category": 4002,
  "firearm": 16303,
  "extensive": 3885,
  "wickes": 27971,
  "quarr": 24182,
  "excavation": 22372,
  "abatement": 13662,
  "biopsy": 19669,
  "qf": 19560,
  "downloadable": 28896,
  "gordon": 12203,
  "billboards": 17924,
  "burdened": 23681,
  "steady": 12035,
  "##haeuser": 24623,
  "fujitsu": 18326,
  "threatening": 13256,
  "navig": 9344,
  "ext": 1546,
  "qu": 1067,
  "prepared": 3735,
  "waterflo": 27741,
  "cm": 5425,
  "chassis": 11277,
  "replenishment": 16607,
  "tomm": 17887,
  "slate": 18548,
  "criteria": 2695,
  "arguments": 15991,
  "concess": 6068,
  "##olutions": 16540,
  "siemens": 12450,
  "correspondence": 15023,
  "particle": 17646,
  "paulo": 20381,
  "travel": 4150,
  "##iano": 17441,
  "reputable": 19475,
  "clarify": 10203,
  "##fern": 26924,
  "##inqu": 10453,
  "##ron": 3627,
  "eog": 15165,
  "nonforfe": 20463,
  "warehouse": 4892,
  "amfm": 27606,
  "altria": 19279,
  "alon": 16536,
  "thous": 1909,
  "ofgem": 29275,
  "##entry": 29674,
  "itc": 10419,
  "prev": 1579,
  "##istributed": 6695,
  "allowances": 3620,
  "exists": 4223,
  "##nr": 8726,
  "##tgage": 22842,
  "rbocs": 19826,
  "vision": 7014,
  "retainer": 9501,
  "##date": 29206,
  "egc": 26798,
  "garcia": 19802,
  "##lick": 13287,
  "preex": 22630,
  "immunos": 22472,
  "dea": 15278,
  "indicated": 2747,
  "##tics": 2550,
  "bgl": 28656,
  "destroyed": 14631,
  "closed": 3975,
  "investigator": 14561,
  "terex": 17654,
  "berkadia": 29833,
  "hef": 24860,
  "minimis": 14405,
  "withhold": 5723,
  "widely": 6763,
  "##erb": 10257,
  "##ols": 3549,
  "amalgamation": 27052,
  "##illion": 743,
  "dent": 26654,
  "candidate": 5016,
  "##esignated": 15812,
  "thail": 11016,
  "puco": 13882,
  "developing": 3415,
  "discontinues": 19559,
  "##ylene": 9145,
  "safeguarding": 18429,
  "here": 1821,
  "quanex": 28996,
  "##frog": 28138,
  "undes": 14559,
  "used": 1365,
  "assurances": 5839,
  "screened": 23381,
  "perfect": 13747,
  "company": 684,
  "rowan": 19769,
  "scales": 20315,
  "consultative": 22703,
  "nordic": 18746,
  "lanc": 14358,
  "gss": 27566,
  "ccf": 29323,
  "kling": 25275,
  "basins": 14262,
  "chef": 14131,
  "biograph": 14094,
  "##hth": 10625,
  "sublet": 17193,
  "medif": 26081,
  "vote": 3510,
  "predecessors": 11238,
  "agribusiness": 19433,
  "nynex": 21179,
  "cinc": 10028,
  "goal": 5635,
  "##pin": 17016,
  "##otech": 11133,
  "combined": 2857,
  "pren": 22582,
  "##omega": 26719,
  "elected": 3439,
  "employment": 2240,
  "membership": 4582,
  "\u2033": 310,
  "mallinckrodt": 20044,
  "alum": 13488,
  "epl": 25186,
  "occurrences": 10974,
  "dismissing": 13709,
  "exhibiting": 26562,
  "pcr": 16995,
  "render": 3933,
  "##kers": 24266,
  "effective": 1347,
  "##\u03b9": 604,
  "enhancements": 5856,
  "bristol": 11524,
  "bonds": 3292,
  "remy": 29321,
  "phys": 3022,
  "##izona": 6018,
  "centralization": 24228,
  "##\u2265": 521,
  "crediting": 13402,
  "nees": 18914,
  "gsr": 19632,
  "bis": 14784,
  "dispose": 5993,
  "##alia": 16459,
  "rog": 9390,
  "##aneously": 7378,
  "interfaces": 11112,
  "breeze": 28805,
  "muzak": 24970,
  "hydroc": 7894,
  "q": 160,
  "rug": 13428,
  "##orpor": 938,
  "doses": 11135,
  "demurr": 19948,
  "conocophillips": 18080,
  "##agene": 29948,
  "##teries": 23456,
  "tolling": 13051,
  "crus": 19575,
  "fonar": 21395,
  "neurode": 23533,
  "banking": 2702,
  "experi": 1744,
  "polytechnic": 24746,
  "permanently": 7456,
  "explanations": 20004,
  "cdn": 10591,
  "andrx": 20413,
  "plumb": 14493,
  "tax": 862,
  "chesterfield": 26706,
  "lawr": 9772,
  "yi": 22291,
  "suggestions": 25987,
  "ntc": 26007,
  "overwhel": 27333,
  "goals": 4611,
  "##craft": 3714,
  "blocks": 9377,
  "freestone": 26869,
  "erbitux": 26099,
  "oxford": 11355,
  "brent": 13117,
  "##vere": 9192,
  "taking": 4899,
  "clyde": 26510,
  "thru": 17810,
  "zur": 14728,
  "artery": 15627,
  "##usion": 5999,
  "##eer": 16353,
  "fairness": 14512,
  "iomega": 28927,
  "cadence": 14497,
  "fca": 15362,
  "##ourse": 5025,
  "##istar": 9604,
  "skype": 27360,
  "wiz": 23036,
  "decentralized": 15598,
  "merrimack": 28660,
  "perfumania": 26960,
  "oats": 27549,
  "calciton": 27688,
  "ascent": 17137,
  "##no": 11049,
  "[unused90]": 91,
  "\u02e1": 232,
  "tul": 10696,
  "##el": 761,
  "ceridian": 22444,
  "phasing": 26121,
  "##ortiz": 1534,
  "nmhg": 19340,
  "specifics": 25924,
  "ratings": 4107,
  "dole": 19219,
  "##pherson": 27829,
  "bingo": 15439,
  "nfa": 13938,
  "decre": 1310,
  "relatives": 26190,
  "ole": 16189,
  "consolid": 931,
  "ltv": 13487,
  "bowes": 22828,
  "##urst": 18371,
  "pef": 13225,
  "##lt": 21193,
  "ave": 15737,
  "deplete": 20532,
  "uncompetitive": 28196,
  "summons": 24494,
  "##icin": 19766,
  "prominently": 27996,
  "##america": 10271,
  "insulin": 11184,
  "snf": 18765,
  "tsu": 18551,
  "divide": 18740,
  "icn": 26759,
  "##ric": 2843,
  "kiosk": 21940,
  "##phy": 11254,
  "##letion": 6287,
  "binder": 24484,
  "##ayment": 25911,
  "sequoia": 21232,
  "##fel": 21164,
  "aging": 8194,
  "debtor": 8252,
  "##cript": 19391,
  "recoverability": 5098,
  "hi": 11090,
  "statements": 877,
  "dye": 19612,
  "heights": 14656,
  "##tran": 15766,
  "representation": 8546,
  "degenerative": 29310,
  "subsequent": 2232,
  "grey": 12368,
  "contamination": 5580,
  "recruited": 21161,
  "sanitary": 23464,
  "ryerson": 21445,
  "reevaluated": 18543,
  "##owned": 27093,
  "##hop": 23434,
  "strategically": 10212,
  "doll": 23780,
  "chemists": 28377,
  "triggering": 8815,
  "desp": 5651,
  "tradeable": 29826,
  "quantifiable": 20589,
  "ferrell": 7821,
  "petitioned": 21012,
  "##gh": 972,
  "##wear": 6607,
  "traction": 26034,
  "freescale": 24639,
  "beryllium": 25249,
  "ibx": 22754,
  "unisys": 22721,
  "drp": 18070,
  "nature": 2837,
  "cellegy": 29015,
  "promoted": 9214,
  "hern": 26071,
  "##planned": 13843,
  "auditors": 3986,
  "sealant": 27066,
  "coral": 20253,
  "##odes": 9748,
  "dilig": 6295,
  "elim": 6171,
  "surviv": 15160,
  "webmd": 17702,
  "excel": 15043,
  "westminster": 22814,
  "reaching": 8599,
  "tracts": 20439,
  "monies": 11195,
  "especially": 5898,
  "wind": 4145,
  "derecogn": 11491,
  "##oran": 14674,
  "cem": 10141,
  "retransmission": 14349,
  "buff": 8021,
  "railroads": 12864,
  "molson": 26303,
  "hollis": 29943,
  "missouri": 5959,
  "hew": 10481,
  "toronto": 10723,
  "frag": 7327,
  "attorney": 4993,
  "achievable": 17274,
  "galvanized": 29932,
  "conceptual": 22673,
  "million": 748,
  "##trin": 24043,
  "cookie": 27233,
  "purchases": 2673,
  "##hea": 16543,
  "oncor": 12680,
  "unres": 5230,
  "imm": 2513,
  "##qualified": 4966,
  "##ilin": 17472,
  "empowered": 17043,
  "enforceable": 8994,
  "##86": 29128,
  "stryker": 19952,
  "hap": 20290,
  "##lington": 9902,
  "[unused35]": 36,
  "ticket": 9520,
  "##ledg": 10252,
  "forecasts": 6480,
  "manhattan": 8785,
  "psb": 16529,
  "taylor": 9856,
  "renewable": 5591,
  "rei": 25210,
  "cumulatively": 18673,
  "sulfur": 8206,
  "##asses": 24977,
  "bossier": 21538,
  "##yen": 26711,
  "##atable": 23755,
  "wallboard": 19994,
  "collaborate": 13394,
  "xxi": 24109,
  "contest": 10101,
  "calculates": 10868,
  "semisub": 23664,
  "divestitures": 7878,
  "owning": 6625,
  "ctp": 28167,
  "##och": 5433,
  "age": 3751,
  "smaller": 4550,
  "cranberry": 29665,
  "proposal": 5956,
  "alf": 13237,
  "multipoint": 24142,
  "mill": 4760,
  "mortar": 20724,
  "nacoal": 26040,
  "directions": 18804,
  "salespeople": 20779,
  "carcinoma": 21362,
  "accumulations": 20670,
  "functionalities": 26820,
  "cef": 25131,
  "microp": 27857,
  "macn": 28737,
  "length": 4502,
  "award": 2621,
  "switches": 10900,
  "allows": 3662,
  "##eny": 7691,
  "pulaski": 27319,
  "gir": 13521,
  "gustav": 28545,
  "chose": 13792,
  "recovering": 12453,
  "ethical": 10158,
  "interven": 7351,
  "bip": 13538,
  "subs": 1095,
  "dependents": 13721,
  "\u03b7": 241,
  "unitary": 15124,
  "newborn": 27647,
  "microprocessors": 16975,
  "cryolife": 25110,
  "ctc": 13436,
  "pllc": 16773,
  "statut": 2866,
  "associations": 7142,
  "bmca": 22143,
  "ended": 960,
  "##inable": 22931,
  "##acia": 14782,
  "unity": 23194,
  "##bourne": 16568,
  "##tainer": 26120,
  "rmc": 20711,
  "participations": 11210,
  "smallcap": 14236,
  "determining": 3281,
  "connecting": 12706,
  "broadc": 4164,
  "##ferred": 1092,
  "dbt": 15623,
  "account": 1906,
  "beneath": 25868,
  "locke": 29812,
  "##romycin": 24334,
  "subchap": 15192,
  "prepaid": 4581,
  "tsx": 15977,
  "domain": 7648,
  "stap": 12099,
  "insuff": 5838,
  "laboratories": 6064,
  "lubricants": 18269,
  "kick": 8362,
  "belize": 27112,
  "handled": 11686,
  "##cy": 3137,
  "reasonably": 3015,
  "sund": 10951,
  "gencaro": 28885,
  "deb": 1151,
  "denies": 16719,
  "terminable": 13285,
  "unen": 9595,
  "##\u00b4": 495,
  "contaminated": 9401,
  "clar": 4527,
  "matter": 3729,
  "objects": 15314,
  "teamstaff": 22625,
  "##yx": 13948,
  "graves": 27837,
  "periph": 9579,
  "mce": 24674,
  "whit": 9736,
  "##nst": 5861,
  "remediated": 14064,
  "aep": 8231,
  "##asive": 6382,
  "began": 3596,
  "reactiv": 20770,
  "cen": 15573,
  "zero": 5061,
  "sankyo": 23179,
  "pcb": 14065,
  "##ah": 3054,
  "##lease": 4753,
  "##ystic": 18018,
  "tabular": 9830,
  "##iral": 14258,
  "##mersible": 21884,
  "##elman": 15539,
  "assist": 3516,
  "ltda": 18940,
  "delete": 25365,
  "uncoated": 26221,
  "\u201e": 301,
  "##mit": 1809,
  "##olastic": 23920,
  "crucial": 17970,
  "cmi": 18083,
  "wow": 28180,
  "##po": 15717,
  "ev": 1046,
  "collec": 6975,
  "tech": 6904,
  "\u00ba": 198,
  "bla": 10683,
  "asking": 17528,
  "outpaced": 23492,
  "periodic": 3556,
  "ameris": 21405,
  "selection": 5477,
  "identifying": 5834,
  "prec": 2938,
  "##ander": 7947,
  "absolute": 6178,
  "efficiency": 4620,
  "designing": 6799,
  "##tional": 3176,
  "toxicities": 22749,
  "embargo": 19965,
  "philadelphia": 8451,
  "equin": 25941,
  "midcon": 26232,
  "quebec": 11586,
  "eastgroup": 28653,
  "pipelines": 5568,
  "dynas": 29312,
  "ist": 23085,
  "supplement": 2536,
  "graphic": 7561,
  "##tinez": 22668,
  "##connect": 22183,
  "diversified": 5175,
  "eri": 28187,
  "past": 2615,
  "volatile": 5316,
  "slovakia": 26227,
  "existed": 7627,
  "premised": 29035,
  "disadvantageous": 17326,
  "hath": 16370,
  "##nect": 27791,
  "##rev": 7612,
  "costco": 19919,
  "invent": 1940,
  "##ahan": 17222,
  "discrimination": 11990,
  "blast": 16349,
  "13th": 22745,
  "##etrust": 27094,
  "##enthal": 15287,
  "microspheres": 26723,
  "##ennan": 19115,
  "rackete": 26133,
  "proj": 2041,
  "schema": 16367,
  "distant": 18839,
  "\u0627": 280,
  "victor": 15668,
  "ric": 9097,
  "##enex": 21521,
  "peer": 6002,
  "underutilized": 23159,
  "wagers": 22789,
  "humm": 28105,
  "walnut": 17798,
  "biggest": 22488,
  "[unused10]": 11,
  "auxiliary": 19661,
  "mell": 10001,
  "gar": 7013,
  "gos": 20682,
  "##gun": 7602,
  "accidental": 12150,
  "fsg": 27161,
  "recip": 7026,
  "abund": 19103,
  "peat": 14099,
  "reconstruction": 16870,
  "trade": 2520,
  "cafeteria": 26277,
  "bass": 14951,
  "acetic": 29077,
  "achieved": 4404,
  "resale": 5812,
  "##alfa": 28282,
  "huay": 28090,
  "##the": 4477,
  "anita": 24865,
  "headcount": 6885,
  "##enh": 18521,
  "dere": 9167,
  "aron": 21459,
  "load": 5503,
  "walker": 11944,
  "pel": 11707,
  "pre": 973,
  "word": 6649,
  "##ara": 6374,
  "hemophilia": 22247,
  "##ornado": 10872,
  "restricts": 9554,
  "rockwood": 23510,
  "lex": 9508,
  "brand": 2944,
  "##ants": 1176,
  "entrepreneur": 14577,
  "acquiror": 19366,
  "acme": 18284,
  "okl": 6114,
  "submitted": 4226,
  "tic": 8808,
  "buried": 28842,
  "bruno": 26745,
  "homebuyers": 16848,
  "stahl": 28383,
  "i2": 28238,
  "authoring": 27753,
  "prohibitively": 23034,
  "##iam": 20222,
  "usng": 21313,
  "##ectiveness": 2638,
  "avr": 27309,
  "kite": 26306,
  "bay": 5491,
  "realized": 2670,
  "commitments": 2381,
  "parcels": 9722,
  "mohawk": 15054,
  "uncontr": 16273,
  "nonr": 22825,
  "osborne": 27530,
  "##activeness": 13611,
  "federated": 14174,
  "meats": 20668,
  "cour": 1793,
  "##issued": 8434,
  "lug": 23260,
  "nopsi": 20272,
  "mab": 20804,
  "##\u0442": 560,
  "ordered": 7818,
  "aerial": 16387,
  "ders": 22629,
  "cold": 7916,
  "liber": 6137,
  "delhi": 21773,
  "poison": 23955,
  "battle": 18060,
  "actuaries": 11829,
  "spinal": 13025,
  "precipitated": 29103,
  "polk": 22675,
  "desktops": 26457,
  "opened": 5798,
  "cin": 7096,
  "unbilled": 7981,
  "ntic": 15326,
  "##7th": 16003,
  "asset": 1452,
  "plas": 4911,
  "ulcers": 20472,
  "compos": 3965,
  "arterial": 20555,
  "##branded": 20757,
  "goldendale": 25481,
  "anc": 7365,
  "##00": 5441,
  "##berland": 17771,
  "panama": 15846,
  "jama": 21809,
  "ibg": 27163,
  "so4": 26521,
  "supersed": 7782,
  "homecom": 28769,
  "repurchase": 2663,
  "order": 1893,
  "dau": 26429,
  "utg": 21786,
  "applicability": 11663,
  "permits": 3883,
  "uti": 1740,
  "freighter": 28332,
  "recompletion": 20710,
  "urge": 26077,
  "ghana": 19771,
  "##ein": 5374,
  "mediated": 18941,
  "##meas": 20010,
  "esc": 18074,
  "dhc": 24710,
  "overlap": 11504,
  "preserving": 15455,
  "willfully": 14329,
  "challeng": 3649,
  "silica": 16064,
  "##ai": 4380,
  "##rc": 11570,
  "informatics": 23688,
  "telem": 9414,
  "delia": 28490,
  "bachelor": 7233,
  "acquirers": 18102,
  "##adena": 18372,
  "pw": 14957,
  "\u03c7": 251,
  "williamsburg": 27104,
  "##odesk": 17464,
  "attending": 12096,
  "nsps": 22257,
  "greystone": 19180,
  "##urable": 12757,
  "browser": 15633,
  "handheld": 13607,
  "burn": 8183,
  "##stated": 10917,
  "illino": 4295,
  "proton": 23293,
  "ultra": 9804,
  "comptroller": 10022,
  "kelley": 19788,
  "kcc": 20839,
  "isolate": 22221,
  "hilton": 11255,
  "revolution": 18414,
  "transferee": 12495,
  "purpa": 15907,
  "federally": 7559,
  "confer": 9513,
  "locate": 9445,
  "warburg": 16137,
  "homes": 4607,
  "##reens": 10473,
  "prohibited": 5650,
  "cort": 14419,
  "intel": 6076,
  "vpc": 22844,
  "chad": 17981,
  "us12": 17200,
  "ladder": 22737,
  "repurchasing": 15258,
  "replacing": 9272,
  "aure": 23641,
  "extreme": 6110,
  "scen": 6947,
  "##electric": 9945,
  "ranger": 26370,
  "furnaces": 16565,
  "nutrients": 17943,
  "sunnyvale": 17948,
  "synthesis": 14470,
  "knit": 20134,
  "rods": 24768,
  "belie": 1329,
  "forgave": 22706,
  "diagram": 26438,
  "gymboree": 26978,
  "gifts": 14984,
  "standard": 2473,
  "starwood": 13849,
  "##ouse": 2963,
  "idled": 17512,
  "incontinence": 21730,
  "chattanooga": 20202,
  "##vedere": 23243,
  "redundancy": 14950,
  "##abit": 16977,
  "brush": 21509,
  "perfum": 22978,
  "interc": 4200,
  "nonaccruing": 20615,
  "expression": 7866,
  "clarifying": 14091,
  "\u0455": 275,
  "##gal": 16190,
  "others": 3063,
  "axa": 15973,
  "workgroup": 27086,
  "biodegr": 23485,
  "modest": 8895,
  "nuclear": 4191,
  "mobile": 3983,
  "watkins": 26050,
  "fovista": 27956,
  "estimates": 1577,
  "memphis": 13130,
  "vacation": 7042,
  "iroquois": 22385,
  "##awk": 22951,
  "mend": 17393,
  "just": 7802,
  "aii": 29578,
  "snowboard": 26617,
  "blackout": 23841,
  "mallinc": 20025,
  "approaching": 21826,
  "calculate": 5900,
  "anderson": 8422,
  "consultants": 4080,
  "measured": 3083,
  "remotely": 17223,
  "sometime": 21716,
  "batteries": 9825,
  "motions": 8310,
  "overburden": 24673,
  "##unded": 6035,
  "boot": 23570,
  "serena": 29625,
  "gro": 14259,
  "##uctive": 15027,
  "cnp": 23698,
  "robots": 22928,
  "tiers": 13913,
  "rib": 14286,
  "amn": 25547,
  "blanket": 13687,
  "jud": 6098,
  "savings": 2805,
  "##aps": 6670,
  "coates": 26842,
  "syringes": 23859,
  "culmination": 29180,
  "title": 3519,
  "segregated": 8828,
  "genetically": 16375,
  "december": 793,
  "##till": 8671,
  "lifting": 16872,
  "sweetheart": 27519,
  "^": 141,
  "clarification": 12398,
  "infant": 15173,
  "extinguishment": 5694,
  "awi": 18411,
  "inciner": 26002,
  "\u0431": 256,
  "##und": 1079,
  "sublicense": 9808,
  "hutch": 16711,
  "v": 165,
  "biochem": 17825,
  "seneca": 16562,
  "melting": 23753,
  "##gard": 15044,
  "terminology": 13056,
  "##ote": 2533,
  "ercot": 16138,
  "event": 2110,
  "eliminating": 8100,
  "somers": 17211,
  "felony": 17768,
  "surch": 7959,
  "hydrochlor": 20007,
  "arrearages": 22170,
  "##dc": 6105,
  "##dal": 22732,
  "nondeductible": 13763,
  "mlip": 26487,
  "messaging": 9536,
  "qsp": 17076,
  "##ud": 726,
  "agway": 29560,
  "bbls": 14647,
  "joliet": 22277,
  "##od": 750,
  "state": 1531,
  "6050": 22854,
  "##aired": 11443,
  "##ami": 8374,
  "##rb": 25614,
  "##gram": 13433,
  "reconfigur": 24737,
  "router": 23020,
  "##ucker": 15968,
  "##mt": 17114,
  "##\u2215": 532,
  "identities": 25734,
  "retire": 8087,
  "reacquire": 24350,
  "preservation": 11070,
  "transfers": 4763,
  "scar": 18135,
  "igcc": 13228,
  "sst": 17377,
  "##igne": 19169,
  "##ectives": 3720,
  "##icides": 21836,
  "##\u03b7": 599,
  "nonoper": 14334,
  "tomato": 22761,
  "hallwood": 19178,
  "substantiate": 27816,
  "perhaps": 13474,
  "##maker": 18492,
  "nausea": 20991,
  "policies": 1831,
  "gpo": 25092,
  "actuarially": 11833,
  "quotas": 13406,
  "##atorily": 9588,
  "nisource": 14017,
  "##uce": 9259,
  "startup": 15081,
  "guided": 16506,
  "##ectious": 11115,
  "reclam": 8110,
  "##ographs": 20574,
  "oman": 26380,
  "activities": 1444,
  "ome": 11221,
  "##\u2079": 606,
  "oyster": 21372,
  "epme": 29110,
  "##di": 8941,
  "reclamation": 8117,
  "marketplaces": 14726,
  "tca": 16825,
  "vhf": 26883,
  "hog": 12514,
  "deleg": 8974,
  "attracted": 16808,
  "secondly": 28916,
  "hawaiian": 12111,
  "##ically": 1886,
  "driven": 3921,
  "answ": 8063,
  "revert": 17050,
  "tau": 26011,
  "assay": 11088,
  "degen": 25019,
  "volcker": 17405,
  "oep": 14702,
  "adhering": 23982,
  "##veda": 24468,
  "processor": 10532,
  "diving": 23643,
  "##ompass": 8355,
  "investigations": 5763,
  "hers": 14848,
  "ecu": 15897,
  "distillate": 19289,
  "unlaw": 11235,
  "incompati": 19524,
  "restating": 20075,
  "console": 16265,
  "##aming": 10174,
  "fo": 3101,
  "commod": 2811,
  "insolvent": 10643,
  "##tigation": 2133,
  "##ogr": 16606,
  "automating": 23134,
  "irl": 19703,
  "enjoin": 10857,
  "deductions": 5307,
  "##isch": 16737,
  "entitlements": 15859,
  "recent": 2225,
  "actuate": 27324,
  "uil": 19748,
  "psco": 14902,
  "imetelstat": 26905,
  "##fol": 1801,
  "orland": 10642,
  "send": 10407,
  "\u2039": 311,
  "##lds": 28591,
  "nat": 1681,
  "longwall": 25099,
  "##ld": 851,
  "laptops": 27815,
  "subtotal": 24612,
  "##ali": 14599,
  "substan": 1603,
  "cout": 29020,
  "caterp": 16811,
  "inexper": 23713,
  "ivr": 25806,
  "components": 2440,
  "wisc": 5661,
  "##erge": 21762,
  "retainage": 22167,
  "contr": 832,
  "##preced": 14022,
  "automob": 10166,
  "gynec": 19146,
  "campaigns": 8454,
  "readily": 5421,
  "lupus": 26246,
  "agile": 20499,
  "wholly": 2739,
  "austr": 4427,
  "csd": 27009,
  "revalue": 27746,
  "##ourt": 19049,
  "rulemak": 24989,
  "those": 1385,
  "hereto": 7268,
  "conve": 17783,
  "hazardous": 4323,
  "northridge": 25616,
  "portability": 12362,
  "emf": 25682,
  "tele": 2686,
  "econom": 1715,
  "motels": 23577,
  "upgrades": 6910,
  "##upon": 22279,
  "##glas": 8199,
  "mississippi": 5311,
  "distin": 6582,
  "gas": 1464,
  "##iwan": 7569,
  "lm": 11984,
  "inhibition": 17471,
  "##axy": 11521,
  "partition": 28078,
  "sol": 1748,
  "dielectric": 27951,
  "tiverton": 23538,
  "spong": 18531,
  "aeronau": 21928,
  "nextgen": 26545,
  "instituted": 9125,
  "##iger": 8071,
  "unexercised": 9059,
  "cheyenne": 21246,
  "bacs": 14283,
  "neill": 15937,
  "santi": 27818,
  "dwight": 23959,
  "imbedded": 27486,
  "##olife": 23987,
  "fulfills": 27120,
  "hospitality": 8103,
  "looking": 2891,
  "report": 1163,
  "##elec": 12415,
  "penal": 2909,
  "unwanted": 22215,
  "stamford": 16728,
  "wam": 11540,
  "aml": 16059,
  "yates": 25016,
  "deliber": 14173,
  "[unused62]": 63,
  "prototyping": 20580,
  "amherst": 26319,
  "##vd": 13169,
  "concentr": 3160,
  "lines": 2877,
  "21e": 11303,
  "nearby": 13089,
  "edison": 5496,
  "mains": 18568,
  "##tib": 5233,
  "lubbock": 29635,
  "dma": 19690,
  "relate": 4216,
  "##ynet": 25469,
  "cnh": 18834,
  "alls": 22477,
  "regulation": 2251,
  "jag": 19374,
  "amic": 18009,
  "boise": 15954,
  "##works": 9412,
  "leu": 24809,
  "procures": 24579,
  "nacco": 21583,
  "phr": 14955,
  "increasingly": 5338,
  "inverters": 27863,
  "vol": 1662,
  "##iscal": 1086,
  "delta": 8241,
  "hurt": 12466,
  "walton": 25339,
  "englewood": 24230,
  "peripherals": 15383,
  "medicines": 10702,
  "gan": 16627,
  "interagency": 19888,
  "##payment": 11216,
  "vehic": 3251,
  "jenkins": 21132,
  "eip": 15035,
  "repower": 27358,
  "reag": 10401,
  "abrupt": 28706,
  "schizophrenia": 23839,
  "sharing": 4240,
  "draw": 4824,
  "vial": 22670,
  "mh": 9792,
  "pax": 21163,
  "pip": 3000,
  "##front": 7394,
  "reacquired": 14246,
  "precedent": 12545,
  "menus": 23891,
  "store": 3105,
  "linked": 7996,
  "mda": 22186,
  "care": 2417,
  "syringe": 21147,
  "putnam": 16661,
  "##opter": 16046,
  "cummins": 20069,
  "stal": 26921,
  "avoid": 5401,
  "conting": 2347,
  "litigating": 28572,
  "undertak": 6683,
  "fiber": 5231,
  "##oy": 6223,
  "stimulating": 22493,
  "amerco": 16427,
  "fetal": 24602,
  "extinguish": 5236,
  "xiv": 17164,
  "gon": 17322,
  "essentially": 8126,
  "clerk": 22735,
  "emb": 4541,
  "owed": 5095,
  "##ptibility": 22764,
  "cwcapital": 27072,
  "perception": 8304,
  "\\": 139,
  "cib": 11392,
  "communicate": 9721,
  "eit": 4712,
  "prod": 19843,
  "superseding": 29972,
  "breake": 21040,
  "salesforce": 22092,
  "vertex": 15994,
  "grafts": 22892,
  "tarp": 12899,
  "stat": 760,
  "bridg": 17483,
  "ccp": 21574,
  "toys": 11000,
  "pik": 9324,
  "abundant": 23122,
  "valvoline": 21729,
  "scul": 28103,
  "seasoned": 14357,
  "electros": 22514,
  "guangdong": 20519,
  "sha": 13240,
  "intrac": 24974,
  "preparing": 6784,
  "joy": 14992,
  "participating": 4398,
  "clean": 4255,
  "names": 4866,
  "miss": 4841,
  "normally": 6488,
  "[unused83]": 84,
  "resumed": 14417,
  "disinc": 24886,
  "immediately": 3382,
  "cutter": 28641,
  "staying": 20933,
  "##forward": 15066,
  "##abody": 17985,
  "somerset": 17996,
  "##phan": 7774,
  "busch": 21237,
  "replic": 10667,
  "james": 4857,
  "curtailment": 9231,
  "operable": 26045,
  "aaron": 19740,
  "##athan": 13473,
  "interpol": 24645,
  "magnolia": 22559,
  "warrant": 2640,
  "hot": 3056,
  "##itative": 3619,
  "strengthens": 16548,
  "sloan": 20733,
  "pinn": 9426,
  "##rew": 5278,
  "volc": 16113,
  "nestle": 21812,
  "classification": 4294,
  "texas": 2996,
  "collateralization": 15268,
  "cont": 2292,
  "neenah": 19511,
  "radiopharm": 24625,
  "topics": 12538,
  "ballast": 25002,
  "##ags": 8275,
  "aler": 11970,
  "ow": 1039,
  "casa": 23691,
  "inapplic": 9764,
  "##iss": 2194,
  "mileage": 15228,
  "ldl": 21774,
  "orchid": 28378,
  "##oma": 4697,
  "fbo": 26447,
  "german": 5023,
  "duane": 17936,
  "recapitalizations": 18525,
  "fruit": 10832,
  "torr": 17282,
  "lasts": 25053,
  "smel": 11510,
  "gateway": 8900,
  "##pm": 4561,
  "brought": 5295,
  "##ises": 2828,
  "occasionally": 9715,
  "apotex": 21870,
  "##iko": 27241,
  "macon": 27624,
  "exploit": 11921,
  "##person": 11874,
  "dissatisfied": 22770,
  "patients": 3085,
  "undrilled": 24247,
  "omi": 25741,
  "validation": 10366,
  "comparator": 23600,
  "liable": 5019,
  "churchill": 22579,
  "torrance": 25109,
  "colonial": 11850,
  "legalized": 22352,
  "boundary": 24753,
  "##arsat": 27381,
  "maintained": 3728,
  "refers": 7408,
  "restore": 10888,
  "rudolph": 25811,
  "bridger": 21655,
  "tel": 2975,
  "cci": 16226,
  "booth": 18624,
  "depreciated": 5705,
  "qualitative": 4014,
  "##acts": 1511,
  "flo": 3209,
  "autodesk": 17487,
  "below": 1718,
  "avastin": 27616,
  "gary": 8923,
  "leon": 10373,
  "##tile": 7673,
  "##\u00a2": 487,
  "tolerance": 11958,
  "nations": 9262,
  "elliot": 29461,
  "mayo": 19512,
  "juan": 12933,
  "##tiz": 1428,
  "pittsburgh": 10099,
  "fires": 11125,
  "producing": 4185,
  "leasing": 3946,
  "transmit": 8097,
  "##bon": 24473,
  "peninsula": 15352,
  "converted": 3675,
  "##30": 15180,
  "phs": 23471,
  "expedite": 16218,
  "##prints": 25113,
  "telesales": 20993,
  "refuse": 11461,
  "discovery": 4994,
  "unexpectedly": 18368,
  "layer": 10175,
  "##antis": 19094,
  "renaissance": 12751,
  "advice": 6818,
  "##orubicin": 26785,
  "hackett": 26691,
  "##oul": 9915,
  "uncomp": 11703,
  "registrar": 14048,
  "intermedi": 6059,
  "loew": 25512,
  "bone": 8564,
  "##les": 1265,
  "licensure": 12123,
  "##udi": 14538,
  "open": 2660,
  "affir": 20998,
  "northbrook": 26770,
  "repr": 1493,
  "models": 4366,
  "wireless": 3771,
  "compute": 10132,
  "specializing": 9878,
  "fuels": 6936,
  "herbicides": 28185,
  "postpon": 21797,
  "##outs": 8200,
  "guide": 8214,
  "christine": 24503,
  "oversight": 3768,
  "strained": 28770,
  "##mias": 29922,
  "appliances": 9478,
  "textbook": 22533,
  "vasce": 24296,
  "exchanger": 29986,
  "privilege": 20576,
  "greenway": 29565,
  "##ament": 24559,
  "still": 4674,
  "licenses": 3285,
  "g": 150,
  "avondale": 28637,
  "##lotide": 26270,
  "tuck": 27203,
  "ven": 7341,
  "mod": 1650,
  "initiated": 5086,
  "stanton": 24492,
  "for": 647,
  "copy": 4177,
  "##hare": 12317,
  "##ementioned": 6876,
  "parad": 13071,
  "minera": 20748,
  "paper": 3775,
  "##iness": 890,
  "premises": 5330,
  "symbol": 5058,
  "passes": 11662,
  "##arrier": 20354,
  "silverman": 19300,
  "itiner": 28226,
  "##za": 7047,
  "##itrust": 23512,
  "instrumental": 13801,
  "rtos": 19577,
  "employee": 1872,
  "twitter": 22730,
  "##troller": 9754,
  "lopez": 26320,
  "noncore": 27695,
  "spp": 16777,
  "coverings": 29421,
  "##pha": 19785,
  "shareholding": 28169,
  "##ticipated": 6142,
  "plough": 15095,
  "organiz": 6679,
  "recyclable": 25217,
  "atmosphere": 14041,
  "relic": 20620,
  "advertis": 2465,
  "affordable": 7187,
  "dba": 17556,
  "southern": 3565,
  "effected": 6561,
  "blueprint": 29300,
  "conflic": 4482,
  "gbc": 25662,
  "neiman": 25940,
  "##fm": 14030,
  "chocol": 18089,
  "15th": 14458,
  "reproduction": 21688,
  "##ebel": 26220,
  "##members": 25634,
  "ascending": 29311,
  "marcus": 15057,
  "rjrn": 26328,
  "line": 1918,
  "orig": 2069,
  "ellis": 12537,
  "motorcycles": 18540,
  "csapr": 17751,
  "wgeservices": 24442,
  "els": 23655,
  "bullion": 13910,
  "##oplasty": 17101,
  "##ent": 629,
  "rosenthal": 19408,
  "postretirement": 3830,
  "multic": 13501,
  "michel": 26843,
  "creditable": 23157,
  "northwest": 7660,
  "seismic": 7850,
  "predictability": 18584,
  "long": 1326,
  "waxman": 15244,
  "represents": 2664,
  "nucle": 13021,
  "apm": 29778,
  "dalian": 18276,
  "anatom": 28411,
  "perh": 13469,
  "restar": 26898,
  "phillips": 10877,
  "##icient": 2142,
  "fpl": 9006,
  "harper": 21679,
  "\u0434": 258,
  "lengthening": 26636,
  "ibis": 24175,
  "slow": 4665,
  "unamortized": 5082,
  "##ison": 3311,
  "substitution": 9692,
  "matured": 8842,
  "vienna": 24825,
  "adversely": 1879,
  "maxim": 2708,
  "ingersoll": 23674,
  "call": 2765,
  "rally": 19935,
  "##ogenicity": 22720,
  "vpn": 22967,
  "sugg": 7789,
  "##atories": 5925,
  "intuit": 20560,
  "\u20ac": 330,
  "##utaneous": 16571,
  "vermillion": 25349,
  "overr": 7010,
  "##alth": 1763,
  "sympos": 28271,
  "tba": 16502,
  "bhp": 26178,
  "ebi": 25985,
  "biotech": 12227,
  "gonzalez": 28825,
  "comprise": 7530,
  "grades": 10371,
  "binds": 24571,
  "assembling": 20826,
  "researchers": 12714,
  "charters": 9560,
  "compositions": 14529,
  "essex": 12567,
  "check": 6036,
  "powersecure": 29145,
  "stil": 28715,
  "communications": 2902,
  "potentially": 3647,
  "dartmouth": 24947,
  "collaboration": 4715,
  "evolved": 16178,
  "##econ": 23025,
  "wester": 27028,
  "##adon": 24381,
  "segmentation": 18630,
  "elements": 4492,
  "rank": 6405,
  "horton": 22549,
  "barring": 15550,
  "consolidating": 5975,
  "##nuts": 26799,
  "meritor": 11359,
  "peers": 13326,
  "simulator": 25684,
  "##ylic": 21866,
  "championship": 24663,
  "nomura": 24110,
  "##ng": 6132,
  "##ectively": 1162,
  "onco": 23761,
  "accessory": 14078,
  "mitsui": 23644,
  "signed": 3073,
  "fracturing": 8650,
  "participates": 8813,
  "threaten": 18519,
  "tandem": 12894,
  "fitzgeralds": 22293,
  "atr": 10728,
  "##duct": 4330,
  "novation": 22743,
  "uncertainty": 3646,
  "faa": 11472,
  "hem": 7218,
  "##greg": 1799,
  "fundamentally": 20111,
  "##icians": 9556,
  "ya": 15348,
  "oem": 5003,
  "##aves": 12444,
  "fiserv": 23933,
  "##andrews": 18350,
  "expropriation": 15892,
  "exports": 11846,
  "nyse": 5201,
  "commodities": 5522,
  "pledges": 15087,
  "##oice": 17298,
  "endorsements": 21674,
  "unbundling": 19606,
  "african": 12416,
  "##ortgage": 26589,
  "##aring": 19478,
  "determinations": 8020,
  "[unused16]": 17,
  "ppl": 5416,
  "kear": 19555,
  "vul": 6450,
  "abf": 23123,
  "franchised": 8819,
  "iac": 14595,
  "ras": 19996,
  "##empt": 3823,
  "rou": 4948,
  "##kit": 28086,
  "allen": 9151,
  "fremont": 12593,
  "consideration": 2564,
  "##ots": 8520,
  "##ologists": 9254,
  "card": 3360,
  "##ake": 5048,
  "led": 5283,
  "fm": 7706,
  "##endant": 13447,
  "awar": 7234,
  "ncc": 26659,
  "##ion": 785,
  "sudden": 11637,
  "##yd": 26520,
  "\u3001": 417,
  "##let": 4399,
  "servers": 8486,
  "##tina": 8363,
  "saratoga": 20391,
  "##ovolta": 16331,
  "dispersed": 13952,
  "unreal": 25403,
  "coupled": 7634,
  "##prise": 17583,
  "reposit": 17252,
  "petrod": 28451,
  "##horn": 19307,
  "supported": 5945,
  "oly": 12049,
  "promotion": 5652,
  "evansville": 20470,
  "hect": 17811,
  "medicare": 3938,
  "activated": 12084,
  "authenticated": 29495,
  "budgeted": 10491,
  "##urg": 8346,
  "recommendation": 8745,
  "ferm": 27627,
  "struck": 23969,
  "adopted": 2343,
  "dox": 25573,
  "adient": 27781,
  "concerts": 21972,
  "fairfield": 16000,
  "##nco": 29688,
  "acids": 16935,
  "tsg": 25879,
  "##team": 27114,
  "75th": 29251,
  "mostly": 8817,
  "thompson": 11436,
  "camp": 4720,
  "piv": 10330,
  "##ch": 738,
  "##rella": 12736,
  "whitney": 15366,
  "##management": 20739,
  "difficult": 3304,
  "fig": 8191,
  "ath": 9611,
  "sarb": 4499,
  "jans": 13827,
  "##ofi": 11620,
  "##avail": 7368,
  "respa": 23274,
  "shrink": 11362,
  "explo": 9756,
  "wholesale": 3730,
  "rating": 2956,
  "ico": 23290,
  "ecr": 17058,
  "imputed": 12003,
  "avant": 16209,
  "##her": 1989,
  "subacc": 27765,
  "navy": 10839,
  "applicants": 13184,
  "##ome": 826,
  "disparate": 17672,
  "discrim": 9227,
  "right": 2402,
  "caes": 15891,
  "ranked": 13697,
  "landfills": 11388,
  "sabre": 17740,
  "platinum": 9657,
  "sprint": 7227,
  "##veston": 24928,
  "torque": 25359,
  "##xa": 24416,
  "##ice": 1682,
  "chugach": 16889,
  "tolerability": 15115,
  "elderly": 16319,
  "conducting": 5663,
  "##ans": 802,
  "deem": 6003,
  "macquarie": 17336,
  "posit": 22314,
  "cx": 17324,
  "meat": 12412,
  "rin": 28326,
  "amends": 6552,
  "laguna": 29769,
  "george": 7743,
  "##ostar": 9811,
  "##emax": 17493,
  "cultures": 17149,
  "comm": 756,
  "however": 1905,
  "##fco": 17704,
  "##tek": 9926,
  "afric": 6452,
  "depreciate": 14300,
  "towards": 7157,
  "##arians": 20592,
  "##transfer": 21214,
  "##web": 10545,
  "hudson": 8503,
  "topeka": 24888,
  "fragr": 11701,
  "cole": 11058,
  "yank": 10030,
  "borgata": 22540,
  "ct": 7723,
  "clarion": 27868,
  "pentalpha": 22226,
  "stret": 16188,
  "##zen": 15338,
  "##pl": 2128,
  "##thetic": 7398,
  "additives": 11568,
  "gt": 11300,
  "carramerica": 27151,
  "arrowhead": 23328,
  "rolled": 10686,
  "##ommerce": 13825,
  "chromat": 21056,
  "##mile": 25862,
  "ambient": 15477,
  "white": 6252,
  "kyoto": 21344,
  "debate": 22026,
  "interviews": 19243,
  "hatfield": 27466,
  "infom": 20603,
  "nonre": 12678,
  "##herd": 25447,
  "##irect": 930,
  "coding": 13171,
  "##ist": 1187,
  "beaver": 15009,
  "require": 1773,
  "ferguson": 16956,
  "intending": 28445,
  "treadway": 5001,
  "split": 4379,
  "posters": 27447,
  "doral": 14228,
  "rnai": 17468,
  "tap": 10934,
  "caribbean": 11365,
  "tank": 5970,
  "counter": 2871,
  "##omar": 20689,
  "harbour": 23239,
  "syndic": 18041,
  "fails": 5905,
  "##ospec": 28059,
  "##ovir": 18905,
  "lone": 15479,
  "style": 9636,
  "qr": 27007,
  "##limin": 2815,
  "everyday": 17167,
  "##dong": 19164,
  "miscalc": 21539,
  "logitech": 26515,
  "fifty": 7946,
  "strictly": 13244,
  "veins": 16953,
  "tong": 16276,
  "##eep": 11746,
  "suppress": 17204,
  "enorm": 29784,
  "nail": 21117,
  "streets": 19066,
  "dog": 13693,
  "monetizing": 29336,
  "industries": 3179,
  "acrylic": 22394,
  "bresnan": 26762,
  "##national": 23104,
  "discovering": 19264,
  "plays": 12808,
  "accidents": 10669,
  "kimball": 24317,
  "polysilicon": 22404,
  "entr": 4700,
  "exploitable": 27732,
  "powers": 6399,
  "wp": 9252,
  "believes": 2119,
  "irish": 13651,
  "smt": 25118,
  "##esign": 8922,
  "floaters": 28642,
  "standpoint": 20923,
  "sa": 2117,
  "##cles": 16771,
  "underinsured": 24747,
  "forg": 8064,
  "##911": 28257,
  "##erson": 5466,
  "cy": 3057,
  "##itor": 2761,
  "indonesia": 11999,
  "covered": 3044,
  "orderly": 7554,
  "wick": 18715,
  "##oxid": 20462,
  "decides": 13415,
  "npc": 10777,
  "manufacturing": 2003,
  "explan": 8407,
  "nominated": 12480,
  "caiso": 24241,
  "bdcs": 19563,
  "##tiv": 994,
  "toxins": 23317,
  "##itiz": 3380,
  "flights": 13754,
  "tbc": 22923,
  "secrets": 5852,
  "davenport": 23754,
  "##ticello": 25615,
  "embedded": 5116,
  "unus": 7024,
  "##erving": 13562,
  "paydowns": 19647,
  "constituted": 8873,
  "##oked": 12282,
  "arabia": 17161,
  "non": 1087,
  "decoup": 16899,
  "comparative": 6600,
  "vacc": 6982,
  "unknown": 6762,
  "summer": 6893,
  "genesee": 25626,
  "condemnation": 15712,
  "mut": 3944,
  "guangzhou": 20389,
  "committ": 1741,
  "satisf": 2802,
  "starz": 17475,
  "eating": 23052,
  "##ocyt": 29791,
  "vineyards": 21494,
  "touring": 29480,
  "aux": 14989,
  "mot": 4533,
  "hearing": 6675,
  "cooperatives": 12770,
  "program": 1407,
  "nutrient": 18245,
  "moratorium": 14945,
  "actimmune": 29370,
  "cytotoxic": 23305,
  "arrang": 1900,
  "australia": 5286,
  "unanim": 11848,
  "pag": 15629,
  "letter": 3554,
  "naturally": 13186,
  "##etech": 14608,
  "##qu": 688,
  "hung": 11881,
  "jubil": 25976,
  "hai": 23406,
  "negatively": 3498,
  "projectors": 28092,
  "capitol": 15949,
  "attract": 3972,
  "asheville": 29438,
  "##patrick": 21283,
  "earn": 1307,
  "investig": 4026,
  "junction": 20001,
  "undertaken": 6977,
  "remedial": 7294,
  "hastings": 22248,
  "milest": 4030,
  "amoco": 18929,
  "disposable": 9239,
  "mcf": 7075,
  "sysco": 18378,
  "trespass": 27813,
  "lending": 3388,
  "branding": 11569,
  "##tifies": 12555,
  "become": 2461,
  "##iver": 3467,
  "jones": 7197,
  "##loc": 1778,
  "##othe": 6682,
  "slower": 9605,
  "mining": 3945,
  "indictment": 26390,
  "disclaim": 11065,
  "orthodon": 17847,
  "pmp": 27362,
  "sued": 11607,
  "##ene": 2242,
  "unif": 26167,
  "##urement": 5555,
  "brokerages": 26949,
  "recession": 7232,
  "coordin": 10396,
  "improve": 3539,
  "##hlor": 18628,
  "mortg": 1597,
  "sterling": 6787,
  "recall": 7942,
  "presentation": 2869,
  "##bow": 12930,
  "##arios": 8582,
  "reconcil": 3963,
  "edg": 24672,
  "embargoes": 23500,
  "mezzanine": 8254,
  "sac": 9703,
  "gravel": 19069,
  "cave": 25958,
  "dna": 8858,
  "cfc": 10651,
  "diy": 24730,
  "recast": 17637,
  "##ochem": 7650,
  "feedstock": 8894,
  "##astate": 10126,
  "forecasted": 5432,
  "joined": 4809,
  "##ometer": 15393,
  "bolt": 23212,
  "professor": 11333,
  "pops": 19316,
  "extent": 2308,
  "advisers": 9739,
  "portland": 10287,
  "\u2120": 336,
  "##arry": 9833,
  "hcfa": 20612,
  "##05": 28957,
  "sheet": 2237,
  "obsolescence": 7928,
  "lifesciences": 19054,
  "avid": 19435,
  "committed": 4594,
  "poster": 24221,
  "##ocking": 28779,
  "rat": 4803,
  "solar": 5459,
  "##networks": 25907,
  "##ureate": 25321,
  "cbr": 27235,
  "unrecovered": 18806,
  "caf": 12650,
  "eig": 26672,
  "ccs": 16351,
  "ip": 3732,
  "yes": 16678,
  "fuze": 24531,
  "lub": 9821,
  "##ogle": 11603,
  "expectation": 8136,
  "fs": 7748,
  "ibe": 18625,
  "serves": 4049,
  "bed": 7276,
  "encrypted": 26090,
  "faculty": 14652,
  "firm": 2274,
  "##rexone": 29974,
  "survive": 15357,
  "##ke": 1126,
  "hbc": 26192,
  "move": 6572,
  "purch": 1043,
  "schultz": 25215,
  "solve": 16860,
  "gigabit": 20321,
  "referred": 3242,
  "moderate": 8108,
  "cast": 9391,
  "lasalle": 10449,
  "c": 146,
  "enablement": 26384,
  "sits": 24984,
  "satisfying": 11474,
  "world": 2567,
  "peso": 12626,
  "definite": 9411,
  "prescribing": 13297,
  "delegates": 26440,
  "warwick": 25222,
  "alcoholic": 12874,
  "pms": 21526,
  "malcolm": 23733,
  "shap": 11712,
  "##entan": 18771,
  "usap": 15320,
  "lic": 1529,
  "iheartcommunications": 22099,
  "##ectivity": 7176,
  "##id": 662,
  "##iast": 28028,
  "hawthorne": 25239,
  "tif": 28179,
  "kin": 11360,
  "efh": 14881,
  "redundancies": 20972,
  "answers": 18131,
  "ech": 8233,
  "##ampo": 29513,
  "marcellus": 14944,
  "##trans": 15150,
  "##oskel": 23945,
  "stain": 12083,
  "originally": 4974,
  "cheniere": 13454,
  "cooperative": 6815,
  "beta": 10999,
  "_": 142,
  "##lain": 24488,
  "sweeth": 27485,
  "haul": 10621,
  "easton": 22877,
  "##iance": 14181,
  "organizes": 22113,
  "pxre": 17871,
  "realizable": 5325,
  "defend": 3181,
  "surround": 23787,
  "contribution": 3457,
  "reaches": 10985,
  "##annel": 15186,
  "guggen": 24847,
  "##oag": 28114,
  "competitive": 2245,
  "improves": 10765,
  "mergers": 5558,
  "##whe": 25006,
  "alaska": 8688,
  "epr": 25737,
  "##li": 675,
  "impax": 25408,
  "eck": 26882,
  "historically": 3638,
  "with": 701,
  "enterpr": 2980,
  "mmboe": 14943,
  "jamaica": 23563,
  "conventions": 15616,
  "sip": 10726,
  "##keeping": 9837,
  "##olor": 20829,
  "##tower": 29060,
  "retrosp": 5198,
  "##jor": 20407,
  "cbs": 10895,
  "named": 3156,
  "jimmy": 26263,
  "pyr": 14275,
  "eddy": 27047,
  "##iters": 6236,
  "deploy": 4847,
  "##atv": 27734,
  "monetary": 4843,
  "hss": 29781,
  "compensation": 1180,
  "extinguishments": 12182,
  "governance": 3754,
  "##atel": 12152,
  "##iliary": 15329,
  "audited": 3125,
  "principle": 5751,
  "144a": 16221,
  "devotes": 16789,
  "primestar": 25011,
  "troy": 14256,
  "loan": 1198,
  "alvin": 29284,
  "vim": 24367,
  "##aba": 16693,
  "vies": 6953,
  "cron": 16829,
  "dobson": 24799,
  "\u2016": 294,
  "peabody": 18042,
  "acr": 3235,
  "##vests": 26398,
  "opposition": 10680,
  "newspaper": 9799,
  "biology": 12418,
  "verte": 26456,
  "##lions": 28087,
  "oligonucle": 21862,
  "##\u2044": 517,
  "##water": 4310,
  "admitted": 10954,
  "logis": 16122,
  "adjacent": 7181,
  "##image": 27089,
  "##aware": 3289,
  "coopers": 13532,
  "provisions": 1982,
  "repaying": 17547,
  "##azz": 14960,
  "redistrib": 23816,
  "el": 1279,
  "##fp": 11950,
  "cerc": 18711,
  "gor": 15592,
  "jsc": 26968,
  "osm": 19529,
  "##fen": 19715,
  "downtown": 11750,
  "bom": 29743,
  "coalbed": 23006,
  "##sys": 17153,
  "opposing": 21985,
  "##liant": 18813,
  "sk": 3497,
  "terry": 13642,
  "24b": 19630,
  "behavioral": 11508,
  "timetable": 19667,
  "mitigates": 16424,
  "discretionary": 5343,
  "##anties": 5487,
  "kind": 5929,
  "bim": 19619,
  "han": 9018,
  "comple": 2255,
  "##ply": 26947,
  "##ints": 28695,
  "##umbar": 28472,
  "litton": 22965,
  "seconds": 21153,
  "##al": 623,
  "\u2248": 364,
  "intercompany": 4434,
  "renewals": 6969,
  "##eterm": 7274,
  "imposing": 10510,
  "leasable": 17142,
  "fraud": 3997,
  "##emics": 16634,
  "nortel": 10404,
  "hanmi": 26904,
  "##quid": 1710,
  "mandate": 10931,
  "##wd": 27433,
  "syrac": 19038,
  "crystals": 21691,
  "irs": 4989,
  "latex": 19990,
  "myeloma": 22925,
  "payne": 21027,
  "jeffery": 27832,
  "##ametal": 28258,
  "glat": 28752,
  "gillespie": 26340,
  "feet": 3395,
  "##osc": 8727,
  "sarasota": 25482,
  "repair": 3748,
  "thinking": 26988,
  "##\u03b6": 566,
  "kaufman": 23376,
  "walters": 25565,
  "##anine": 8154,
  "##ple": 22045,
  "##stan": 14162,
  "buses": 14606,
  "understandable": 22190,
  "ftc": 9979,
  "##operative": 24613,
  "latest": 8387,
  "##kirk": 20835,
  "seeks": 5205,
  "arranges": 19424,
  "ordinary": 3577,
  "precludes": 20729,
  "nj": 7567,
  "##rexon": 20446,
  "violating": 15105,
  "originating": 8942,
  "ppo": 16665,
  "##etting": 16984,
  "large": 2354,
  "undersea": 26092,
  "reseller": 9436,
  "##ij": 7553,
  "##alco": 12571,
  "riviera": 21631,
  "homer": 14224,
  "minutes": 9719,
  "airline": 8174,
  "hl": 13333,
  "fnb": 14927,
  "ffi": 24655,
  "macr": 20361,
  "nokia": 17894,
  "anonym": 20497,
  "india": 6519,
  "##st": 659,
  "pand": 13535,
  "inorganic": 23262,
  "landscap": 17969,
  "buyout": 12161,
  "humidity": 28189,
  "somewhat": 9572,
  "amber": 25722,
  "qualification": 6630,
  "wic": 25753,
  "wool": 20054,
  "pseg": 11555,
  "zapata": 21235,
  "salable": 26360,
  "##ogenous": 17629,
  "commerz": 22607,
  "njbpu": 16280,
  "##omed": 11182,
  "##estim": 24532,
  "##aver": 15920,
  "athletes": 20650,
  "sharply": 14282,
  "atrium": 20270,
  "imagery": 18844,
  "instead": 5505,
  "playback": 22671,
  "sh": 730,
  "10k": 22772,
  "town": 8772,
  "october": 1747,
  "candy": 19522,
  "how": 1699,
  "alpine": 15351,
  "mapping": 13078,
  "untitled": 27525,
  "##uka": 23387,
  "will": 891,
  "forte": 25855,
  "mitchell": 11283,
  "kiw": 22288,
  "corel": 29055,
  "whistleblower": 17955,
  "##tc": 3651,
  "repeat": 10710,
  "turfitt": 29399,
  "accepts": 14082,
  "cough": 21513,
  "##funded": 11106,
  "laps": 13567,
  "ratchet": 24155,
  "predictable": 9713,
  "amending": 10539,
  "brun": 10850,
  "##phere": 13807,
  "execution": 5074,
  "kathleen": 21880,
  "determin": 5414,
  "configuration": 10131,
  "hand": 3090,
  "cadm": 24384,
  "beh": 2519,
  "trader": 16706,
  "sme": 26572,
  "attractive": 5097,
  "dresser": 20638,
  "spacing": 16525,
  "mountains": 11634,
  "inhib": 6273,
  "byproducts": 19681,
  "cube": 24089,
  "##ifts": 11742,
  "##emy": 12061,
  "cbt": 22677,
  "##urements": 22256,
  "terminal": 6023,
  "##tag": 23817,
  "casinos": 8693,
  "shusa": 28648,
  "alter": 6346,
  "##therap": 13277,
  "cai": 18913,
  "medic": 2894,
  "opening": 5542,
  "microwave": 10116,
  "##ards": 1199,
  "nonproduc": 26463,
  "export": 5173,
  "christian": 16030,
  "formats": 10291,
  "russ": 7697,
  "certification": 3967,
  "dealing": 8916,
  "pur": 871,
  "ashford": 14817,
  "burke": 15904,
  "mario": 25655,
  "dia": 18947,
  "computations": 10138,
  "reasons": 4821,
  "drop": 7141,
  "##acs": 19546,
  "painful": 28399,
  "calvert": 23232,
  "items": 2507,
  "unique": 5190,
  "flat": 6249,
  "constructed": 7172,
  "prematurely": 26720,
  "pfic": 14395,
  "tailings": 20142,
  "diagn": 4485,
  "lj": 24716,
  "pony": 27997,
  "rejecting": 23541,
  "pervasive": 16985,
  "##vey": 5429,
  "forgings": 29130,
  "##homes": 22483,
  "library": 9552,
  "discriminatory": 15072,
  "opioids": 24042,
  "##\u2211": 529,
  "carbonated": 25494,
  "underserved": 18763,
  "panhandle": 13479,
  "collected": 4738,
  "actel": 27526,
  "infomercial": 21351,
  "stratosphere": 29775,
  "readings": 25268,
  "servicing": 2603,
  "breaching": 22995,
  "sabine": 15216,
  "wan": 14136,
  "presumption": 14863,
  "bifurcation": 17412,
  "amazon": 14081,
  "pequ": 29165,
  "instance": 8205,
  "aldr": 29017,
  "invasive": 10283,
  "allogeneic": 29860,
  "nineteen": 20065,
  "endoscope": 27168,
  "pps": 14748,
  "0": 121,
  "il": 5107,
  "incapable": 27756,
  "holmes": 18488,
  "resiliency": 28934,
  "coff": 7734,
  "##wait": 27061,
  "greyhound": 19998,
  "sony": 12147,
  "corticostero": 25401,
  "[unused29]": 30,
  "harold": 14503,
  "##ution": 1228,
  "expectations": 3952,
  "##ger": 8242,
  "amounting": 8904,
  "palace": 25364,
  "gannett": 24864,
  "##ulatory": 21986,
  "dollars": 2653,
  "primus": 17371,
  "##arie": 16452,
  "statute": 5915,
  "##arral": 19813,
  "##urch": 2193,
  "myrtle": 25373,
  "joinder": 22171,
  "solectron": 21882,
  "verifying": 20677,
  "lake": 6067,
  "\uff05": 432,
  "reilly": 17165,
  "aol": 11530,
  "mop": 15743,
  "magazines": 9880,
  "depr": 16360,
  "##learning": 27162,
  "detrimental": 12343,
  "demol": 14157,
  "phosph": 10049,
  "mcc": 7204,
  "hod": 17230,
  "##bancorp": 25254,
  "fire": 5604,
  "prestigious": 26410,
  "vehicular": 27684,
  "##ties": 721,
  "kre": 17927,
  "##for": 799,
  "repurch": 2264,
  "embar": 27164,
  "decode": 23650,
  "videocon": 20959,
  "enrichment": 11512,
  "geodyne": 8099,
  "born": 13636,
  "nelson": 12543,
  "view": 4097,
  "##walk": 12887,
  "macao": 18661,
  "primedia": 12586,
  "##te": 2344,
  "pesticides": 21178,
  "magellan": 16390,
  "break": 5896,
  "tradition": 3765,
  "revised": 4023,
  "note": 1222,
  "pp": 6407,
  "escalations": 13206,
  "##umont": 22909,
  "\u06d5": 284,
  "##illar": 12900,
  "reportable": 4622,
  "rx": 13964,
  "artificial": 15125,
  "##aceu": 28511,
  "eisai": 21450,
  "rescind": 10817,
  "facilitating": 12040,
  "stewardship": 22194,
  "necessitate": 15437,
  "creator": 27278,
  "mammoth": 25659,
  "node": 19123,
  "##tys": 29372,
  "headache": 27348,
  "cyrus": 23130,
  "taur": 25916,
  "\u03bb": 244,
  "once": 4475,
  "downloads": 21737,
  "rural": 8296,
  "limit": 1942,
  "over": 978,
  "underground": 7323,
  "rti": 20095,
  "##orpe": 13771,
  "rapidly": 5346,
  "##woven": 25928,
  "##ilton": 8437,
  "atx": 29867,
  "safe": 4328,
  "##quet": 19375,
  "##reatment": 28700,
  "rm": 6512,
  "friedman": 13545,
  "##ena": 7552,
  "streamlining": 15136,
  "##ention": 2879,
  "hov": 20882,
  "trays": 24336,
  "incub": 22538,
  "horm": 12656,
  "immersion": 28813,
  "##brand": 12148,
  "intl": 28088,
  "parentheses": 20177,
  "external": 3770,
  "##aution": 29667,
  "sickle": 29530,
  "zada": 26839,
  "fgco": 27701,
  "nautica": 29205,
  "mach": 4065,
  "proceeded": 23151,
  "cohorts": 23463,
  "itself": 6166,
  "bottler": 28619,
  "freight": 5533,
  "cafes": 18333,
  "##cious": 16402,
  "household": 7733,
  "opportunistic": 14308,
  "##atriation": 9183,
  "sichuan": 22626,
  "seen": 9555,
  "nah": 23440,
  "outset": 21478,
  "recommendations": 6632,
  "lindsay": 22894,
  "##enta": 27560,
  "miguel": 28895,
  "##ense": 1070,
  "specializes": 12005,
  "tablet": 12695,
  "##ves": 1406,
  "unreturned": 28973,
  "condition": 1171,
  "delek": 17615,
  "carg": 16313,
  "sliding": 21089,
  "safeguarded": 17452,
  "growing": 4810,
  "ideas": 14371,
  "rut": 17054,
  "chemotherap": 20913,
  "xviii": 26052,
  "analys": 1967,
  "##ur": 628,
  "datab": 5634,
  "opa": 14418,
  "##ford": 4565,
  "##tronix": 18020,
  "conversions": 9727,
  "caller": 18120,
  "bioavail": 21169,
  "##bu": 6029,
  "##\u2460": 574,
  "asarco": 28664,
  "agreeable": 26548,
  "telesc": 26291,
  "ixys": 25546,
  "jurisdictional": 11858,
  "cycle": 5251,
  "pie": 22224,
  "rebuild": 13098,
  "foreclosure": 5294,
  "bal": 1263,
  "reimbursed": 5934,
  "coulter": 20086,
  "southwestern": 11866,
  "##zed": 10521,
  "##match": 14489,
  "citizenship": 23564,
  "mini": 10118,
  "administer": 7949,
  "\u2021": 304,
  "setting": 6072,
  "love": 16508,
  "##ensen": 13679,
  "airports": 12078,
  "connor": 18509,
  "jcg": 22815,
  "trades": 6329,
  "[unused91]": 92,
  "progressing": 25000,
  "earthlink": 20234,
  "##ensys": 28243,
  "ensco": 20621,
  "liter": 8658,
  "duplicate": 12849,
  "amax": 27258,
  "##wide": 3135,
  "\u00b0": 188,
  "capturing": 17562,
  "gbcc": 25515,
  "lr": 22309,
  "doubt": 3531,
  "transc": 19918,
  "inn": 3914,
  "allowed": 4528,
  "ratable": 15486,
  "spinning": 25922,
  "##oss": 878,
  "chancellor": 19713,
  "forbes": 15505,
  "11th": 18266,
  "lllp": 24129,
  "informal": 12564,
  "complements": 18045,
  "hook": 20437,
  "tuscarora": 28389,
  "coach": 11229,
  "tertiary": 16312,
  "commissioned": 15733,
  "parts": 4044,
  "queensland": 27557,
  "contraction": 15323,
  "paribas": 18380,
  "5x": 28482,
  "cutoff": 18823,
  "disease": 4579,
  "##32": 24726,
  "aladdin": 25250,
  "storage": 3145,
  "quist": 27402,
  "absorbing": 25971,
  "brock": 18435,
  "any": 889,
  "indicates": 5942,
  "chevy": 25415,
  "densities": 25346,
  "##ering": 2856,
  "tissue": 6435,
  "sufficiency": 15218,
  "offs": 1817,
  "cpuc": 9938,
  "rv": 11264,
  "rati": 2213,
  "accounts": 1554,
  "designates": 15417,
  "##so": 1013,
  "qad": 21381,
  "novartis": 9221,
  "obstacles": 18808,
  "rga": 19571,
  "\u0f6b": 288,
  "occurs": 4500,
  "collects": 13224,
  "jameson": 26157,
  "naphth": 23131,
  "norcraft": 24082,
  "dra": 21663,
  "##olver": 6578,
  "tria": 20935,
  "neil": 12142,
  "bureau": 7442,
  "discounts": 4321,
  "njea": 26744,
  "experimental": 14896,
  "perrin": 28993,
  "border": 8950,
  "##idad": 17330,
  "mso": 29916,
  "writers": 20932,
  "occupying": 19763,
  "polys": 19163,
  "contacts": 10737,
  "ingred": 6300,
  "courseware": 23883,
  "##als": 2008,
  "panels": 11411,
  "markwest": 18896,
  "dedicate": 12982,
  "arenas": 25538,
  "##aving": 8976,
  "lyons": 17703,
  "nil": 8890,
  "phillip": 17458,
  "relay": 15822,
  "forman": 25832,
  "sluggish": 23736,
  "hea": 22442,
  "confirmed": 8554,
  "umc": 20221,
  "ple": 8737,
  "scale": 4724,
  "scotsman": 26702,
  "deriv": 1634,
  "ki": 22517,
  "heco": 12870,
  "instruments": 1727,
  "lecs": 17420,
  "licensee": 7072,
  "ineffici": 11957,
  "fitz": 12722,
  "investcorp": 29629,
  "repossess": 25717,
  "facult": 17665,
  "##ston": 4052,
  "mad": 7092,
  "masonry": 25612,
  "contractor": 6540,
  "dwyer": 27457,
  "alteration": 16482,
  "vish": 18885,
  "freed": 10875,
  "icl": 27423,
  "lyond": 13765,
  "##uctu": 2478,
  "##outh": 7688,
  "##itrans": 19832,
  "asps": 27292,
  "##casts": 29684,
  "jeans": 18761,
  "read": 2973,
  "sanitation": 20189,
  "annuity": 5448,
  "chmp": 27332,
  "usho": 25299,
  "##eta": 13652,
  "##avour": 21613,
  "physici": 3884,
  "ach": 2294,
  "##icted": 7423,
  "belk": 25485,
  "enhancement": 6777,
  "impact": 1471,
  "distinction": 17618,
  "nyiso": 23825,
  "noted": 4331,
  "##isar": 26777,
  "banks": 2740,
  "raymond": 11153,
  "##acycline": 23783,
  "ws": 14739,
  "sithe": 21276,
  "mercury": 9128,
  "book": 3233,
  "passive": 9161,
  "party": 1684,
  "##ific": 935,
  "cruc": 15154,
  "periods": 1661,
  "alan": 10746,
  "tcr": 25497,
  "bfi": 21886,
  "land": 2516,
  "nitr": 7788,
  "##que": 7464,
  "fg": 12649,
  "runs": 10927,
  "##oi": 26784,
  "redef": 22481,
  "##steel": 25111,
  "\u27a4": 413,
  "identical": 5032,
  "quality": 2215,
  "##rett": 12493,
  "issuers": 5973,
  "scenario": 10314,
  "##iron": 14484,
  "\u03ba": 243,
  "##amark": 20496,
  "anomalies": 18904,
  "perimeter": 22076,
  "beij": 9960,
  "multiple": 3204,
  "vois": 20817,
  "expeditiously": 29527,
  "truly": 22550,
  "allotment": 11281,
  "georg": 4234,
  "exec": 1159,
  "liv": 2040,
  "irlcs": 22307,
  "##up": 2847,
  "pbs": 27432,
  "marvin": 18861,
  "##ads": 12833,
  "natur": 23829,
  "gastrointestinal": 16066,
  "cele": 14583,
  "acreage": 7430,
  "kab": 27510,
  "##nie": 17897,
  "palomar": 24650,
  "contributors": 15849,
  "came": 9896,
  "washing": 23000,
  "successfully": 3271,
  "burger": 15130,
  "kk": 17175,
  "deliberations": 20970,
  "bny": 16086,
  "transplant": 11357,
  "leases": 1953,
  "ud": 15189,
  "wexford": 23133,
  "##ms": 2906,
  "simps": 17224,
  "dece": 17379,
  "keyboard": 25045,
  "##\u0131": 502,
  "comprises": 10253,
  "satisfactorily": 16683,
  "cents": 8668,
  "acl": 15181,
  "dismember": 28002,
  "formula": 5684,
  "rins": 19502,
  "tony": 19819,
  "affairs": 5862,
  "##ampton": 22253,
  "##asted": 20915,
  "##arag": 22902,
  "vincent": 15944,
  "##bv": 27852,
  "##res": 9889,
  "##universal": 21775,
  "computershare": 23365,
  "accommodation": 16824,
  "analyzer": 17801,
  "dill": 19864,
  "anchorage": 20096,
  "bae": 27833,
  "elizabeth": 12841,
  "jiangsu": 20372,
  "curative": 25077,
  "fcra": 28866,
  "##iliation": 9964,
  "nfc": 24544,
  "premature": 14543,
  "patch": 13063,
  "collateralizing": 16232,
  "nonex": 15209,
  "lobb": 24197,
  "umth": 29728,
  "sequences": 18165,
  "appliance": 11068,
  "displays": 8225,
  "\u23bc": 368,
  "otsuka": 28822,
  "heavy": 7144,
  "##dig": 16021,
  "cuts": 9138,
  "sporadic": 18408,
  "artes": 17497,
  "##esh": 5464,
  "impaired": 3141,
  "wy": 6769,
  "##ize": 1737,
  "pleasure": 15856,
  "expirations": 12125,
  "msb": 27412,
  "nce": 22861,
  "navajo": 16784,
  "transmontaigne": 20784,
  "outperform": 15869,
  "latitude": 19544,
  "sort": 20500,
  "conspired": 24445,
  "sealy": 21284,
  "clem": 29435,
  "macadamia": 28537,
  "cce": 17711,
  "wraparound": 27031,
  "cleaned": 27130,
  "##ct": 6128,
  "unduly": 21929,
  "tanker": 18078,
  "fil": 1108,
  "dentists": 16677,
  "inefficiencies": 12264,
  "adapter": 23211,
  "pursue": 4546,
  "disparity": 27243,
  "corillian": 25513,
  "##ostic": 23291,
  "outf": 7683,
  "##aire": 18447,
  "henderson": 13844,
  "chick": 11371,
  "desire": 8445,
  "agro": 24422,
  "bankunited": 20009,
  "relinquishment": 22790,
  "geometr": 27064,
  "interrupt": 13589,
  "euronext": 20905,
  "expenses": 1196,
  "nrg": 9383,
  "undetermined": 25600,
  "celleg": 28094,
  "##a": 467,
  "##erver": 18776,
  "products": 989,
  "dependence": 7537,
  "thrift": 7269,
  "\u03c6": 250,
  "appetite": 18563,
  "responses": 9590,
  "##boro": 11288,
  "##ocular": 26781,
  "cray": 21795,
  "tempur": 28407,
  "count": 8738,
  "writings": 23493,
  "impr": 13465,
  "##rette": 23961,
  "bigg": 18735,
  "remand": 16088,
  "fhlbanks": 12580,
  "collaborator": 13963,
  "eci": 25143,
  "progenitor": 27842,
  "dryers": 27091,
  "taxi": 23613,
  "##artisan": 29517,
  "boa": 27174,
  "motorola": 9865,
  "misappro": 7986,
  "monetize": 15929,
  "cboe": 26749,
  "enogex": 17707,
  "brid": 10739,
  "closeout": 24523,
  "##ifer": 9973,
  "unexpired": 15467,
  "users": 3888,
  "tmr": 23407,
  "sherman": 13805,
  "##icam": 24706,
  "conveyor": 19193,
  "dynamex": 29803,
  "steve": 14693,
  "save": 12834,
  "tenancy": 18004,
  "bombard": 25050,
  "inpatient": 10630,
  "leslie": 17358,
  "neurodegenerative": 25005,
  "centr": 6610,
  "jiu": 28568,
  "pts": 20547,
  "amk": 24282,
  "nsa": 27041,
  "##elona": 29987,
  "son": 6788,
  "aforesaid": 24198,
  "legislature": 13057,
  "engineering": 3371,
  "verisign": 18769,
  "correspondents": 21717,
  "stretch": 17166,
  "creates": 7952,
  "registrant": 1765,
  "##opolitan": 6358,
  "anticipation": 8713,
  "innovations": 8571,
  "vicks": 21758,
  "lipa": 29682,
  "mary": 4868,
  "liberty": 6608,
  "lawful": 8699,
  "roadway": 19376,
  "advertisers": 7322,
  "plat": 3184,
  "joe": 13292,
  "18th": 28525,
  "ics": 11101,
  "adhd": 26134,
  "b2b": 20232,
  "##well": 6190,
  "thermo": 11903,
  "##ids": 6101,
  "now": 3557,
  "nonowner": 29465,
  "##ophen": 27912,
  "avenues": 23636,
  "reynolds": 12998,
  "rif": 15526,
  "##hyc": 29208,
  "unrede": 22283,
  "functional": 4059,
  "heav": 5302,
  "alzheimer": 15303,
  "captures": 20763,
  "domino": 20929,
  "##usa": 10631,
  "darpa": 29704,
  "leaders": 5606,
  "donation": 23027,
  "repaired": 19334,
  "acceptance": 3985,
  "##gress": 4612,
  "##umin": 5985,
  "related": 957,
  "relatively": 4172,
  "##lined": 6814,
  "nominee": 8899,
  "losses": 1345,
  "clarity": 16087,
  "achiev": 9388,
  "proppants": 28535,
  "lanier": 29441,
  "fte": 16282,
  "original": 2613,
  "incorporated": 1476,
  "##agg": 10474,
  "##ists": 2279,
  "atms": 13334,
  "citing": 25884,
  "superconduc": 27149,
  "##rep": 13468,
  "stearns": 13757,
  "feld": 15749,
  "presents": 3661,
  "harbor": 6663,
  "valley": 5241,
  "[unused0]": 1,
  "cooperate": 13623,
  "pennant": 28785,
  "sherb": 29198,
  "micro": 5489,
  "hazards": 9340,
  "evercore": 24426,
  "message": 12392,
  "##\u02c6": 505,
  "##ade": 1246,
  "intangible": 2143,
  "##lical": 7730,
  "dayr": 16527,
  "societies": 24320,
  "triangle": 16816,
  "quarterly": 2125,
  "realizes": 19031,
  "maj": 1910,
  "##cell": 15877,
  "rubicon": 29471,
  "rockwell": 16177,
  "##ient": 4415,
  "kohl": 15700,
  "assimilate": 20558,
  "found": 2933,
  "fmbs": 25853,
  "outflows": 9096,
  "crowe": 19357,
  "preventive": 15969,
  "nue": 22731,
  "starr": 25211,
  "bav": 28914,
  "teen": 21082,
  "##tron": 6828,
  "wholes": 3513,
  "stakeholder": 27231,
  "19": 8799,
  "expressly": 8685,
  "wmmsc": 7018,
  "herbst": 27750,
  "lcc": 26155,
  "nbty": 26138,
  "##apped": 23366,
  "chron": 20405,
  "insights": 14488,
  "supermajority": 23623,
  "wc": 12328,
  "concealing": 28612,
  "diane": 25733,
  "engineer": 9187,
  "refocus": 25501,
  "xtrac": 29968,
  "automotive": 4621,
  "##oking": 23524,
  "##goods": 17518,
  "dating": 16933,
  "decoupling": 18439,
  "nontax": 21970,
  "takeda": 14154,
  "reception": 17922,
  "herm": 22001,
  "containerized": 29406,
  "abx": 24973,
  "##amax": 17029,
  "##ollar": 2012,
  "ahc": 23513,
  "subpoen": 10745,
  "livestock": 13971,
  "vand": 17071,
  "snowfall": 29710,
  "cgc": 26951,
  "losing": 12981,
  "tripadvisor": 20934,
  "twelve": 3334,
  "publisher": 12702,
  "geophysical": 11427,
  "tcp": 19930,
  "##matic": 15086,
  "##ango": 15293,
  "mer": 2563,
  "rfp": 19856,
  "hel": 3618,
  "cep": 14399,
  "##fication": 9200,
  "consequential": 18557,
  "mvc": 22311,
  "monopol": 21671,
  "qfs": 21416,
  "vort": 27757,
  "reincorporation": 19202,
  "genesis": 12492,
  "places": 8173,
  "consultancy": 17710,
  "initi": 2816,
  "club": 5335,
  "\u2611": 394,
  "erbit": 26098,
  "var": 6888,
  "norms": 24010,
  "prol": 6835,
  "stry": 19685,
  "[unused73]": 74,
  "benzene": 25455,
  "csrc": 23375,
  "ytd": 28621,
  "simul": 12283,
  "xv": 13515,
  "exco": 19273,
  "baton": 17271,
  "disagreements": 4696,
  "contaminants": 12515,
  "geneva": 19346,
  "tak": 3014,
  "nonmonetary": 11771,
  "verdicts": 24313,
  "encaps": 16065,
  "feels": 20474,
  "kai": 29183,
  "vandal": 22206,
  "individually": 5057,
  "broadcasts": 17415,
  "##oucher": 28669,
  "anatomic": 28798,
  "resell": 5129,
  "aided": 13970,
  "development": 1226,
  "figure": 12086,
  "hsc": 26833,
  "tmp": 27063,
  "sq": 11031,
  "every": 4589,
  "sponsorships": 17581,
  "##anes": 3868,
  "emitted": 22971,
  "uas": 29861,
  "misuse": 13307,
  "moff": 26015,
  "##tious": 9178,
  "\uff06": 433,
  "##acies": 16655,
  "observation": 16986,
  "discharged": 12312,
  "always": 7497,
  "mistake": 16621,
  "mcs": 22646,
  "easy": 8995,
  "congress": 5622,
  "arrangements": 2269,
  "lh": 18570,
  "four": 1843,
  "kl": 13310,
  "encumber": 15992,
  "##town": 9705,
  "scaling": 18633,
  "diameter": 13168,
  "bog": 17139,
  "rsa": 14309,
  "regulates": 8736,
  "deal": 2801,
  "hosted": 10534,
  "solutions": 2614,
  "unear": 6920,
  "mortgaged": 11822,
  "##aplex": 29072,
  "##brands": 27527,
  "valen": 24644,
  "intra": 10589,
  "simulation": 7758,
  "enova": 24510,
  "##ovens": 28826,
  "lighter": 18741,
  "nevertheless": 9205,
  "##ound": 1742,
  "##emen": 17966,
  "greenhill": 27071,
  "partnership": 1312,
  "quot": 5696,
  "##lott": 29124,
  "tactics": 17090,
  "##ball": 9892,
  "devaluations": 21477,
  "infrared": 15837,
  "metabol": 13159,
  "##proof": 23010,
  "##inc": 1136,
  "eia": 20244,
  "invoice": 9867,
  "camping": 19509,
  "##prac": 9332,
  "simultaneous": 12729,
  "complic": 9122,
  "surr": 4680,
  "transformed": 24792,
  "lifts": 23966,
  "pricewater": 6820,
  "##hi": 7731,
  "cannabis": 11187,
  "epm": 29568,
  "asynchronous": 27256,
  "##ibilities": 5242,
  "ian": 18079,
  "##ych": 9930,
  "mp": 7401,
  "invalidated": 11994,
  "dismantlement": 17850,
  "wilhel": 26173,
  "##read": 3359,
  "bap": 28402,
  "mechanics": 16465,
  "holdback": 16395,
  "##yls": 23109,
  "attrib": 2283,
  "road": 5300,
  "transferors": 24250,
  "grams": 23595,
  "alters": 28316,
  "lob": 17478,
  "laser": 6671,
  "opportunities": 2940,
  "optimal": 10436,
  "few": 4339,
  "stellar": 26516,
  "therewith": 8317,
  "landline": 24395,
  "transacting": 19547,
  "benefits": 1781,
  "##oic": 29246,
  "mastercard": 11304,
  "walk": 13819,
  "favored": 17910,
  "reagent": 16277,
  "##oba": 18852,
  "aerostructures": 27249,
  "governmental": 3458,
  "census": 14468,
  "hd": 8495,
  "coating": 7642,
  "alexion": 27644,
  "wong": 18818,
  "fidelity": 8629,
  "refunds": 7605,
  "advertise": 14713,
  "##employment": 7809,
  "simplifies": 13425,
  "unconditionally": 10207,
  "eesa": 17221,
  "claimant": 15282,
  "oglethorpe": 14095,
  "##ibration": 14582,
  "became": 3451,
  "chaparral": 19949,
  "##\u03c0": 582,
  "##ominant": 6744,
  "grip": 26501,
  "pellets": 21577,
  "shrimp": 27784,
  "revis": 28143,
  "jaff": 19453,
  "affording": 29036,
  "pages": 5115,
  "awaiting": 13274,
  "conduc": 2004,
  "provid": 943,
  "virtual": 8261,
  "assert": 7643,
  "wave": 9862,
  "##uer": 27866,
  "##\u043e": 581,
  "towing": 16635,
  "pressur": 26027,
  "proximity": 9455,
  "patheon": 25370,
  "rej": 7799,
  "ineff": 5699,
  "linda": 17206,
  "responders": 25740,
  "rms": 20247,
  "jury": 9451,
  "enterprises": 4761,
  "outbreak": 14217,
  "nnn": 15075,
  "sca": 16912,
  "orthopedics": 24687,
  "heico": 27899,
  "macadam": 27267,
  "coordinating": 13252,
  "thing": 14814,
  "predicate": 23977,
  "payroll": 4898,
  "##reted": 6569,
  "medimmune": 22040,
  "weakens": 21963,
  "##arel": 27363,
  "pscw": 13341,
  "##ifier": 18087,
  "##ewear": 17712,
  "fas": 2049,
  "##uring": 912,
  "##invest": 26937,
  "establishments": 14010,
  "equities": 8107,
  "involvement": 6378,
  "ortho": 15132,
  "weigh": 2286,
  "corporate": 1838,
  "##ifiable": 28958,
  "keegan": 29664,
  "##\u02e1": 592,
  "puds": 25767,
  "##isle": 18993,
  "healthier": 27176,
  "ert": 28481,
  "scru": 7626,
  "lenders": 3645,
  "obtained": 3216,
  "extensively": 11733,
  "lasting": 17389,
  "##ovic": 26005,
  "##ver": 714,
  "##portion": 4251,
  "##bra": 11244,
  "cheaper": 25817,
  "##ansa": 28788,
  "nobel": 20482,
  "intervention": 10627,
  "stratton": 24665,
  "compon": 1946,
  "oshk": 21640,
  "mus": 5426,
  "##strong": 12964,
  "likewise": 10478,
  "denom": 16534,
  "batch": 12749,
  "snc": 28882,
  "meanwhile": 26136,
  "\u2044": 313,
  "clarks": 25205,
  "##era": 7517,
  "chil": 6705,
  "remuneration": 9093,
  "craf": 27453,
  "##ao": 10682,
  "hyde": 27147,
  "keny": 23035,
  "incentiv": 17534,
  "##graphics": 28395,
  "##rey": 6326,
  "##total": 20955,
  "##bred": 18398,
  "yin": 29274,
  "##talk": 29218,
  "statutorily": 19517,
  "##fn": 16949,
  "parenthes": 16880,
  "sinc": 18161,
  "atm": 6750,
  "hypoth": 20000,
  "##its": 947,
  "suffering": 14752,
  "dmi": 28456,
  "##lip": 10617,
  "stan": 5875,
  "describing": 14483,
  "recipient": 9181,
  "et": 4846,
  "conexant": 23294,
  "elementary": 23167,
  "armco": 27232,
  "h1n1": 29666,
  "actors": 28204,
  "malcol": 23721,
  "##mith": 12822,
  "brok": 2729,
  "subfacility": 23767,
  "renovate": 19184,
  "woods": 14330,
  "hamper": 17550,
  "fabrication": 7805,
  "preserves": 28029,
  "##oining": 15716,
  "receive": 2209,
  "bcp": 24666,
  "simulations": 16843,
  "##strategy": 19983,
  "##long": 21138,
  "reauthor": 17253,
  "capitalized": 2776,
  "marijuana": 14547,
  "density": 9567,
  "sie": 15790,
  "nerc": 19158,
  "invention": 11904,
  "newly": 4865,
  "bach": 6797,
  "dishonesty": 21733,
  "metastases": 27625,
  "cors": 25330,
  "mailings": 16233,
  "stories": 22066,
  "emea": 10211,
  "proactive": 11932,
  "##width": 8968,
  "transpl": 10795,
  "sbm": 27334,
  "##hythm": 19352,
  "trico": 28981,
  "sept": 1495,
  "##unda": 29111,
  "ht": 18345,
  "conditioned": 11622,
  "##ounding": 5930,
  "##orb": 13418,
  "nsp": 9863,
  "transformers": 17670,
  "ngs": 28765,
  "hla": 28747,
  "client": 3739,
  "##kn": 5550,
  "daniels": 20412,
  "##atisf": 12888,
  "cigar": 8473,
  "richfield": 29675,
  "dismiss": 4289,
  "subleasing": 23534,
  "entry": 5654,
  "##ological": 5113,
  "##etter": 15152,
  "bever": 8171,
  "dressing": 27088,
  "victim": 25569,
  "cs": 5203,
  "spots": 21419,
  "unscheduled": 15638,
  "vers": 3866,
  "robertson": 18054,
  "pleading": 26825,
  "junior": 5391,
  "guidance": 2481,
  "##iera": 19742,
  "wgp": 25348,
  "humph": 23327,
  "##kin": 7152,
  "steep": 19159,
  "jenrette": 25493,
  "auctions": 10342,
  "sensitivities": 16347,
  "pfis": 28708,
  "##chen": 29420,
  "lumen": 25012,
  "feasible": 9469,
  "bor": 9780,
  "facebook": 16026,
  "##bus": 7590,
  "reclassification": 6629,
  "cica": 26733,
  "transferring": 10214,
  "zenith": 18875,
  "##ursion": 25385,
  "roger": 13147,
  "##cience": 11709,
  "lengthy": 8908,
  "##acking": 29031,
  "##sequent": 2083,
  "freeman": 20969,
  "neurotr": 24604,
  "deteriorate": 5804,
  "kilowatt": 14737,
  "##kes": 13449,
  "instrument": 3733,
  "photographic": 24135,
  "##acles": 17988,
  "dbc": 25252,
  "induce": 11617,
  "sensi": 5329,
  "##fit": 12742,
  "axs": 23724,
  "##rx": 13519,
  "separation": 5304,
  "graduates": 20602,
  "seminars": 13296,
  "traffic": 5102,
  "##ens": 808,
  "towne": 22499,
  "bioenergy": 27265,
  "registration": 2329,
  "advocacy": 18775,
  "wrongful": 11900,
  "styling": 20877,
  "bath": 12166,
  "##evalu": 10730,
  "phy": 19405,
  "indoor": 13597,
  "finders": 20540,
  "indicate": 4147,
  "##lying": 2289,
  "flagship": 14936,
  "##going": 2656,
  "borrows": 20910,
  "iheartc": 22058,
  "porous": 25871,
  "cbiz": 17348,
  "niobrara": 26809,
  "liquid": 1732,
  "\u03b2": 236,
  "##capital": 6370,
  "advancements": 14581,
  "kramer": 21390,
  "occupied": 7126,
  "\u2220": 362,
  "sharps": 23093,
  "circuit": 4747,
  "123r": 5754,
  "capabilities": 3882,
  "retailer": 8496,
  "altern": 2734,
  "integrator": 19221,
  "##lobe": 29887,
  "collateral": 2282,
  "suther": 25119,
  "rens": 23116,
  "##alf": 2314,
  "##atron": 21187,
  "##3rd": 15389,
  "apb": 5114,
  "protocol": 7409,
  "breeding": 20273,
  "##tip": 17585,
  "sra": 23148,
  "profitable": 5038,
  "accomp": 6836,
  "reunion": 28391,
  "advoc": 12251,
  "emit": 13977,
  "##ko": 10082,
  "vn": 21603,
  "about": 1975,
  "alps": 29795,
  "implied": 5337,
  "mahal": 18959,
  "lau": 21672,
  "commencement": 6043,
  "fri": 9130,
  "assess": 1730,
  "kroll": 21156,
  "ec": 5700,
  "albu": 16244,
  "replaced": 5718,
  "georgia": 4332,
  "extends": 8091,
  "concluding": 15878,
  "adesa": 25027,
  "ssc": 26780,
  "universe": 18446,
  "omit": 11628,
  "patio": 26377,
  "##\u00a8": 486,
  "messrs": 5189,
  "fountain": 16206,
  "fellow": 17365,
  "storms": 11774,
  "silk": 23995,
  "geared": 20930,
  "truck": 5982,
  "bert": 20310,
  "##par": 1387,
  "##ae": 12131,
  "cabot": 11956,
  "elevation": 23246,
  "mcdonnell": 18772,
  "environments": 7077,
  "totally": 17859,
  "##utive": 1191,
  "brs": 25648,
  "floating": 4661,
  "plates": 15646,
  "collaborative": 6218,
  "kla": 18296,
  "agreed": 2752,
  "vi": 2470,
  "solicitation": 7614,
  "##ring": 5966,
  "vacancies": 12469,
  "abl": 8211,
  "enjoined": 19260,
  "skin": 7863,
  "kx": 27459,
  "metabolism": 16058,
  "debris": 21285,
  "imetel": 26903,
  "##iris": 22155,
  "excess": 2134,
  "dain": 28112,
  "softs": 23704,
  "seas": 18185,
  "simplify": 10887,
  "##ellschaft": 24659,
  "pies": 29327,
  "dictated": 19127,
  "##5": 477,
  "alkaline": 25653,
  "lnr": 20613,
  "conditioning": 10768,
  "nurses": 13569,
  "exam": 2831,
  "countercl": 8082,
  "hann": 18527,
  "rud": 15175,
  "gur": 24711,
  "kee": 5351,
  "nationsbank": 15051,
  "tlr": 24719,
  "polypropylene": 19787,
  "paragon": 16121,
  "petitions": 10581,
  "cctv": 28907,
  "nad": 23854,
  "tribal": 13548,
  "regulus": 19564,
  "hab": 10633,
  "western": 4762,
  "depends": 3776,
  "##ench": 7954,
  "philipp": 10121,
  "##atrix": 14294,
  "##cross": 19305,
  "overse": 6796,
  "informing": 25503,
  "gk": 19707,
  "timeframes": 20070,
  "copiers": 26294,
  "##oda": 21010,
  "sm": 2172,
  "##yph": 20089,
  "player": 11445,
  "setbacks": 21400,
  "prescriptions": 13783,
  "landec": 28376,
  "nuts": 20528,
  "##has": 5324,
  "squibb": 14750,
  "physiological": 24917,
  "adaptive": 18454,
  "forks": 25607,
  "concepts": 9155,
  "reloc": 5717,
  "competition": 2394,
  "intended": 3456,
  "symphony": 21048,
  "collecting": 8769,
  "counterparty": 4639,
  "leonard": 12001,
  "java": 16450,
  "##erald": 9415,
  "\u2030": 308,
  "tumbleweed": 25799,
  "os": 8039,
  "##abe": 17782,
  "##v": 460,
  "oreo": 9682,
  "weap": 14783,
  "rounding": 13223,
  "elimin": 3138,
  "jpm": 7621,
  "##ipa": 29815,
  "garmin": 18238,
  "keith": 13599,
  "duncan": 15883,
  "risc": 27771,
  "csb": 28534,
  "##izer": 7898,
  "##\u03bc": 525,
  "complex": 3287,
  "repealed": 14998,
  "chargeback": 19022,
  "ung": 21700,
  "imprecise": 16559,
  "15d": 5192,
  "torchmark": 16651,
  "reposition": 10512,
  "creat": 19741,
  "randy": 22622,
  "influential": 29576,
  "comfortable": 18363,
  "##iana": 3886,
  "override": 11363,
  "accessible": 9522,
  "cash": 907,
  "cis": 14014,
  "##ram": 11006,
  "backgrounds": 17979,
  "redacted": 27084,
  "transtar": 27496,
  "cellular": 6039,
  "holes": 11908,
  "sd": 7881,
  "kci": 22379,
  "bushels": 25807,
  "bat": 12226,
  "employer": 5146,
  "diploma": 25290,
  "##\u0640": 585,
  "hta": 28469,
  "##eda": 11673,
  "donor": 15078,
  "healthsouth": 19635,
  "norwood": 27428,
  "bhca": 12483,
  "magnify": 25181,
  "##ile": 1678,
  "suspended": 6161,
  "oi": 22400,
  "cine": 27626,
  "score": 11573,
  "wich": 17634,
  "fighter": 28014,
  "##bor": 6615,
  "location": 3853,
  "gc": 11029,
  "appalachian": 14363,
  "##ollers": 27222,
  "enb": 22952,
  "##ecogn": 3622,
  "shelter": 20572,
  "##ukin": 27524,
  "\u0eff": 286,
  "reductions": 3749,
  "madrid": 23820,
  "cond": 3836,
  "spam": 19039,
  "mt": 7438,
  "mai": 27351,
  "obsc": 22357,
  "bulletins": 23001,
  "blends": 18123,
  "sid": 13091,
  "difficulty": 5732,
  "##part": 2934,
  "grandfather": 13138,
  "inexperienced": 29269,
  "revoke": 12827,
  "rpi": 19607,
  "delinquencies": 8420,
  "wab": 15365,
  "add": 2930,
  "forms": 4159,
  "stifel": 20214,
  "deputy": 14850,
  "monter": 15570,
  "cogent": 21347,
  "cbot": 22698,
  "##tr": 695,
  "its": 829,
  "fighting": 25951,
  "##emer": 19633,
  "transfere": 10197,
  "realty": 4962,
  "dilute": 9243,
  "parcel": 8706,
  "responsiveness": 14381,
  "broadened": 16558,
  "prodrug": 26612,
  "consequence": 8928,
  "dependent": 2997,
  "metering": 14502,
  "originated": 5584,
  "illegal": 10598,
  "blowouts": 22141,
  "aag": 17510,
  "conducts": 6662,
  "councils": 24901,
  "valero": 12865,
  "benefit": 1668,
  "be": 682,
  "exhibits": 2861,
  "nonstatutory": 13371,
  "anxi": 24232,
  "amorph": 27985,
  "kal": 12905,
  "##n1": 22733,
  "polyester": 18028,
  "##adium": 11863,
  "visant": 26075,
  "##cr": 1346,
  "unpro": 7625,
  "endothelial": 29087,
  "planned": 4241,
  "discl": 4692,
  "13": 4066,
  "orc": 25534,
  "reps": 19385,
  "kay": 12906,
  "liquefied": 17247,
  "centerpoint": 11669,
  "repayable": 13421,
  "fly": 12181,
  "continental": 7474,
  "layouts": 29239,
  "insider": 8286,
  "dress": 10740,
  "firewalls": 27069,
  "domin": 11785,
  "stable": 6122,
  "##band": 5538,
  "megawatt": 14104,
  "approximate": 4261,
  "fdi": 25848,
  "decl": 1769,
  "month": 1430,
  "mge": 9531,
  "analges": 17766,
  "france": 6431,
  "xtra": 29368,
  "gsci": 21576,
  "bundled": 10357,
  "guam": 21262,
  "##action": 3855,
  "##forms": 28324,
  "telemetry": 21845,
  "nd": 9660,
  "cpg": 17869,
  "megab": 25887,
  "haver": 24545,
  "pandemics": 24023,
  "huawei": 24878,
  "preclude": 10260,
  "##uber": 24425,
  "to": 633,
  "remeasure": 26918,
  "review": 1855,
  "##iverse": 14933,
  "forfeitures": 5938,
  "norris": 24585,
  "sur": 2553,
  "three": 1589,
  "interf": 8098,
  "container": 7080,
  "laptop": 17636,
  "equinix": 26353,
  "improvements": 3066,
  "boom": 15358,
  "french": 9507,
  "##asse": 17576,
  "harrison": 13272,
  "dsi": 15313,
  "##ust": 765,
  "spd": 23325,
  "pist": 27945,
  "electrophys": 25081,
  "renovation": 9395,
  "raf": 22339,
  "additionally": 2639,
  "infusion": 10315,
  "concurrence": 22491,
  "##ulk": 20067,
  "consortium": 11502,
  "dens": 19140,
  "gn": 11653,
  "discussing": 16267,
  "turf": 15686,
  "tennessee": 6170,
  "constituents": 18668,
  "fam": 3110,
  "tranch": 5841,
  "depended": 23474,
  "##esting": 1890,
  "u5s": 24725,
  "income": 902,
  "identified": 3153,
  "geographies": 12286,
  "brace": 26375,
  "crater": 26679,
  "try": 12608,
  "insured": 3533,
  "thin": 8258,
  "bns": 13978,
  "pied": 12275,
  "##pro": 847,
  "seller": 5349,
  "integral": 3799,
  "##ugen": 28106,
  "bryan": 15830,
  "precise": 8761,
  "langston": 27574,
  "##ecott": 29253,
  "##hythmia": 29648,
  "##orr": 1349,
  "creations": 26609,
  "mel": 7373,
  "kangas": 25030,
  "##ession": 2263,
  "##ighted": 18891,
  "reputation": 4423,
  "cing": 21018,
  "rocket": 19266,
  "prearranged": 24254,
  "domains": 20760,
  "#": 108,
  "kennametal": 29066,
  "dictates": 25124,
  "miami": 9225,
  "\ufb00": 424,
  "casualty": 5400,
  "mboe": 18642,
  "kpco": 27429,
  "##ve": 648,
  "eti": 22408,
  "##terra": 16592,
  "##grap": 17930,
  "drilling": 3434,
  "##omo": 10697,
  "noc": 24119,
  "##otox": 17113,
  "##marketable": 16495,
  "##american": 7937,
  "tran": 13047,
  "styles": 11862,
  "increases": 2252,
  "##types": 29817,
  "ruble": 28068,
  "##opy": 12635,
  "mason": 11498,
  "kcsr": 28071,
  "##ever": 1796,
  "consequ": 4287,
  "imh": 22935,
  "theatres": 10638,
  "pharmacological": 22594,
  "document": 3706,
  "surety": 7931,
  "outlines": 13510,
  "chevrontex": 28846,
  "economical": 13306,
  "shoulder": 24686,
  "nonunion": 26237,
  "##worth": 5883,
  "encoding": 19853,
  "infer": 15562,
  "##lc": 9582,
  "commitment": 3591,
  "agilent": 16001,
  "##los": 1392,
  "shell": 7633,
  "ehrlich": 28475,
  "attained": 11046,
  "aei": 19119,
  "salads": 25511,
  "dod": 5166,
  "earning": 4660,
  "constellation": 11940,
  "first": 1544,
  "##\u0438": 528,
  "ventilation": 16960,
  "neg": 1985,
  "##ido": 23808,
  "unitholders": 5147,
  "oli": 14889,
  "reconciliations": 10415,
  "tasks": 11503,
  "fax": 9304,
  "mcgl": 17650,
  "penetrated": 26962,
  "virtualization": 20298,
  "included": 1297,
  "allocates": 10058,
  "novelty": 19216,
  "noon": 23345,
  "osteopor": 18049,
  "dus": 20841,
  "##cock": 21476,
  "softwood": 27021,
  "nozz": 29306,
  "molybden": 17684,
  "xing": 17414,
  "destroy": 12113,
  "informed": 7846,
  "meyers": 19830,
  "##aer": 29468,
  "##itoneal": 27400,
  "policy": 2281,
  "subservic": 16836,
  "perc": 12310,
  "satisfies": 12047,
  "taubman": 22719,
  "pearl": 16689,
  "emergencies": 24598,
  "enlarg": 21134,
  "simulate": 23861,
  "sandwiches": 23676,
  "recombinant": 13962,
  "outdated": 24680,
  "##oup": 1542,
  "arabian": 28097,
  "severity": 6757,
  "pratt": 17926,
  "alta": 19298,
  "stamping": 23414,
  "##ilt": 5595,
  "radi": 7698,
  "sequentially": 21111,
  "delisting": 13080,
  "ds": 6534,
  "##emptions": 5757,
  "strain": 9185,
  "harb": 5806,
  "rsc": 21575,
  "davita": 29779,
  "tough": 26938,
  "motor": 5321,
  "headset": 28762,
  "##tend": 22866,
  "interbank": 9617,
  "issu": 1021,
  "##alog": 21761,
  "##astr": 3133,
  "grim": 24482,
  "syniverse": 26191,
  "destr": 8291,
  "biomass": 12675,
  "asr": 15516,
  "governed": 7778,
  "##oned": 13950,
  "driver": 8964,
  "dt": 12583,
  "ones": 10585,
  "presidio": 21854,
  "temple": 19228,
  "##zio": 26203,
  "veneti": 24797,
  "interview": 15005,
  "fill": 8002,
  "mes": 11808,
  "unb": 6771,
  "issue": 2681,
  "cotton": 11191,
  "warranties": 5637,
  "wo": 12718,
  "##estar": 14320,
  "##north": 25756,
  "seriously": 9364,
  "rash": 29558,
  "##eroy": 22713,
  "cataw": 28390,
  "##aph": 13230,
  "notifications": 16441,
  "speedway": 17241,
  "sold": 1823,
  "\u2776": 407,
  "denton": 28848,
  "defin": 3192,
  "unsu": 10670,
  "bico": 29390,
  "defendants": 4126,
  "teleport": 24924,
  "translates": 20190,
  "dvi": 29252,
  "art": 6732,
  "sdg": 14378,
  "sealants": 23400,
  "bareboat": 22144,
  "designer": 11717,
  "corroboration": 29820,
  "admission": 11912,
  "intelli": 27157,
  "supplementally": 19765,
  "appointment": 7093,
  "exploring": 10104,
  "mch": 18780,
  "identification": 5112,
  "exclusive": 3319,
  "refining": 6740,
  "mouse": 17416,
  "focusing": 7518,
  "continuum": 21359,
  "unpatented": 11469,
  "annualized": 6622,
  "behind": 11328,
  "gay": 15090,
  "mos": 13135,
  "##axial": 13451,
  "##ac": 664,
  "redetermination": 19406,
  "discussions": 5867,
  "fairfax": 19483,
  "disruptive": 12896,
  "##udc": 9976,
  "itv": 25483,
  "promulgate": 16187,
  "##anger": 10869,
  "telecon": 22802,
  "##incorpor": 10804,
  "making": 3103,
  "counse": 16332,
  "\u2116": 335,
  "county": 3582,
  "wt": 22325,
  "eric": 12518,
  "omnipod": 29484,
  "protection": 2758,
  "undesignated": 16596,
  "##hurst": 19925,
  "contempor": 11177,
  "vns": 29719,
  "courses": 9260,
  "##overs": 8427,
  "elite": 16055,
  "therein": 4787,
  "padep": 28177,
  "phosphorus": 29510,
  "##illing": 2876,
  "converge": 26172,
  "prevented": 7620,
  "organics": 25527,
  "##ess": 699,
  "undisc": 4650,
  "tulsa": 13181,
  "islands": 8170,
  "acquire": 2696,
  "intermed": 29797,
  "res": 691,
  "lesions": 17333,
  "assimilation": 22583,
  "sn": 5473,
  "rad": 3452,
  "pathway": 11918,
  "strives": 14875,
  "standardization": 16583,
  "milk": 12207,
  "dismantling": 23382,
  "measures": 3203,
  "run": 4837,
  "canyon": 11804,
  "tyco": 11316,
  "ond": 26088,
  "##ana": 4863,
  "southtrust": 28806,
  "##marks": 11920,
  "scrutin": 8357,
  "cwip": 23247,
  "cashflows": 27550,
  "##afind": 27648,
  "entrance": 15305,
  "##daq": 3612,
  "hoechst": 25762,
  "restraints": 25154,
  "capitalizations": 27051,
  "menlo": 24895,
  "##orse": 17990,
  "teletech": 25660,
  "phantom": 7854,
  "lakeside": 26231,
  "giving": 5657,
  "olin": 18448,
  "lifecycle": 14650,
  "##pose": 26687,
  "cache": 25890,
  "norway": 13729,
  "confirm": 5818,
  "lawrence": 9810,
  "##aser": 16299,
  "size": 3715,
  "tion": 20491,
  "exacerbate": 18059,
  "broadening": 17387,
  "bak": 6925,
  "eph": 25104,
  "##nard": 25641,
  "wells": 3067,
  "context": 7676,
  "##erated": 11656,
  "ledger": 15809,
  "selects": 15317,
  "hoc": 18153,
  "liang": 27283,
  "spread": 4265,
  "##cribe": 27674,
  "expended": 8748,
  "##lyn": 10741,
  "enable": 4053,
  "\u00af": 187,
  "consolidated": 951,
  "secre": 5771,
  "##orado": 15538,
  "explosive": 21181,
  "##k": 451,
  "boun": 27578,
  "globalization": 21785,
  "dynamics": 10015,
  "bishop": 21665,
  "allison": 23827,
  "anticip": 2054,
  "painting": 19253,
  "morning": 13823,
  "malfeasance": 21693,
  "flown": 22412,
  "##note": 28980,
  "massachusetts": 5067,
  "quint": 24169,
  "vat": 12618,
  "commuter": 25536,
  "shing": 19442,
  "players": 9651,
  "my": 4990,
  "casino": 4718,
  "##iotics": 29348,
  "exert": 12919,
  "horowitz": 28892,
  "lag": 8749,
  "##ength": 3049,
  "\uff09": 435,
  "farmers": 10139,
  "excal": 22801,
  "##bed": 16862,
  "alic": 21980,
  "plating": 24373,
  "gmac": 10370,
  "##mbor": 26342,
  "##uv": 18805,
  "stems": 23589,
  "broker": 3059,
  "##eus": 28867,
  "modules": 8102,
  "fgl": 17507,
  "'": 112,
  "mpc": 15857,
  "feeds": 19182,
  "upward": 10119,
  "unproven": 15734,
  "vad": 24766,
  "deployments": 15575,
  "revoking": 29427,
  "##\ufb00": 544,
  "##born": 20833,
  "##osure": 23509,
  "cattle": 12647,
  "##gas": 4933,
  "legally": 7221,
  "costs": 981,
  "hare": 28113,
  "situ": 4887,
  "##67": 28231,
  "mr": 1389,
  "##com": 6543,
  "wetlands": 18052,
  "##abytes": 26616,
  "sfc": 22320,
  "##adway": 4928,
  "echostar": 10096,
  "##osion": 9778,
  "sure": 9718,
  "energ": 10692,
  "nam": 2717,
  "screen": 6284,
  "programming": 4428,
  "technologies": 2383,
  "taiwanese": 24819,
  "nonoperating": 14694,
  "throm": 28049,
  "work": 1703,
  "exited": 12798,
  "resells": 24608,
  "rockef": 25470,
  "tournament": 25178,
  "yach": 21550,
  "jenn": 15452,
  "##ody": 3788,
  "##lein": 27113,
  "hsp": 23642,
  "##qa": 26618,
  "update": 4100,
  "waives": 23322,
  "kana": 29937,
  "chest": 15342,
  "baldwin": 15687,
  "condensed": 4667,
  "metric": 9142,
  "equates": 19344,
  "redir": 29824,
  "##ngs": 19866,
  "newest": 18927,
  "unregistered": 7023,
  "##cap": 8336,
  "##made": 24780,
  "humans": 11039,
  "derivative": 2152,
  "pru": 29823,
  "percentile": 15827,
  "solicited": 15522,
  "##prin": 19217,
  "minimizes": 13878,
  "hip": 8079,
  "log": 4084,
  "seeds": 16357,
  "tc": 7415,
  "musculoskeletal": 28502,
  "comsat": 25831,
  "correspondingly": 14368,
  "pdvsa": 24733,
  "unsub": 17163,
  "fdep": 29177,
  "##winds": 27893,
  "gone": 23917,
  "authored": 24834,
  "bcc": 18931,
  "##issan": 16958,
  "csi": 16230,
  "presidents": 12959,
  "capita": 14615,
  "##zyme": 9686,
  "##sets": 913,
  "21st": 15379,
  "amin": 29270,
  "##m": 472,
  "##emand": 28968,
  "whom": 4845,
  "locking": 22421,
  "ritz": 23885,
  "universal": 5917,
  "dividing": 5507,
  "groundwater": 8424,
  "##ground": 5403,
  "ceases": 9241,
  "dais": 26902,
  "lund": 18691,
  "##ometric": 22115,
  "kilow": 12816,
  "uptime": 28678,
  "extracted": 13772,
  "precluded": 13112,
  "ubs": 9313,
  "##cence": 7703,
  "##forest": 27982,
  "satisfaction": 5127,
  "##old": 854,
  "amaz": 13191,
  "subst": 1526,
  "knowledge": 4141,
  "airb": 12744,
  "##tment": 22156,
  "sublimit": 15952,
  "\ufb03": 427,
  "yielded": 16801,
  "summa": 24629,
  "mist": 12309,
  "##free": 22406,
  "endo": 14464,
  "ac": 668,
  "jus": 6681,
  "avenue": 6235,
  "goldberg": 18511,
  "montreal": 13923,
  "refiner": 26819,
  "validate": 13199,
  "##aneous": 5926,
  "hanna": 23186,
  "nippon": 23045,
  "##osen": 8868,
  "[unused1]": 2,
  "##fb": 9637,
  "limited": 1459,
  "constructive": 11909,
  "leisure": 10516,
  "rohs": 23996,
  "##onda": 22473,
  "itu": 25593,
  "valeant": 19839,
  "wiltel": 28218,
  "satis": 2630,
  "obligations": 1600,
  "keep": 6713,
  "lawfully": 13007,
  "oshkosh": 21814,
  "recycling": 8285,
  "glb": 14887,
  "nab": 11719,
  "compiled": 16401,
  "##onald": 7759,
  "##ru": 1066,
  "dale": 15451,
  "##atell": 4397,
  "blank": 7865,
  "biopharmaceutical": 8940,
  "zy": 15237,
  "cas": 880,
  "authorities": 3262,
  "liquidating": 8585,
  "multiplying": 11702,
  "antiv": 18916,
  "direct": 942,
  "gswc": 14117,
  "oxley": 4508,
  "bovine": 21912,
  "path": 6096,
  "pty": 11223,
  "scana": 14315,
  "accommodate": 7910,
  "luxembourg": 14261,
  "tractors": 12643,
  "alab": 5540,
  "##ented": 7936,
  "infringement": 4637,
  "ernst": 6088,
  "adher": 10031,
  "qcii": 23288,
  "hbb": 26193,
  "comes": 9561,
  "classroom": 14905,
  "contacting": 16080,
  "rup": 17217,
  "kon": 17323,
  "libbey": 26418,
  "scores": 12082,
  "##3": 463,
  "##tle": 4123,
  "horsesh": 26740,
  "reel": 18618,
  "##occus": 28514,
  "##bson": 22319,
  "cautions": 20679,
  "locomotives": 20199,
  "adr": 15123,
  "nerve": 14816,
  "ebix": 27165,
  "irrigation": 13891,
  "##utilized": 14220,
  "##house": 3857,
  "gse": 12941,
  "sem": 3501,
  ";": 132,
  "amorphous": 28043,
  "oxid": 15372,
  "steak": 13220,
  "nose": 29479,
  "##ales": 10722,
  "brew": 8684,
  "##club": 20375,
  "genetics": 13868,
  "sewell": 26528,
  "simply": 13215,
  "dsit": 28608,
  "hanover": 13044,
  "programm": 15059,
  "##ry": 4414,
  "beef": 11439,
  "color": 4440,
  "##beck": 19673,
  "opposed": 8456,
  "##emin": 26670,
  "history": 4212,
  "housekeeping": 23383,
  "vic": 11159,
  "trium": 19218,
  "bbc": 21088,
  "inventorship": 29965,
  "leidos": 28153,
  "unanimously": 16219,
  "dr": 1645,
  "dictate": 14341,
  "##omod": 23478,
  "discharg": 5126,
  "issuance": 2081,
  "##iting": 2405,
  "condens": 10805,
  "bot": 12451,
  "\u215d": 342,
  "seasonal": 4283,
  "veeco": 25112,
  "quiet": 26940,
  "##lik": 19112,
  "microproc": 12513,
  "intral": 22465,
  "advising": 15113,
  "thomp": 11399,
  "##b": 466,
  "##our": 1078,
  "acres": 5033,
  "##esville": 17617,
  "[SEP]": 103,
  "angeles": 6856,
  "emergence": 8152,
  "ox": 3901,
  "have": 825,
  "##tistry": 24853,
  "presentment": 23480,
  "gonz": 21481,
  "migr": 10026,
  "caref": 28379,
  "corp": 2814,
  "eurodollar": 8513,
  "abbvie": 15449,
  "ausp": 27201,
  "privately": 5588,
  "request": 3920,
  "forwarding": 15853,
  "##ailey": 23355,
  "hardgoods": 21054,
  "burbank": 25867,
  "pneum": 14407,
  "fibre": 15277,
  "importance": 8818,
  "tribune": 16595,
  "##arine": 29731,
  "bethle": 21515,
  "isi": 21962,
  "downgrade": 9297,
  "outflow": 14298,
  "ingers": 23599,
  "##father": 12929,
  "const": 5090,
  "##itabine": 20178,
  "enroll": 5379,
  "##ults": 10523,
  "##stakes": 29744,
  "urea": 22778,
  "alk": 12512,
  "sfda": 22672,
  "clo": 7475,
  "hemodialysis": 19104,
  "##min": 1457,
  "##acters": 17294,
  "##light": 4649,
  "deceptive": 13204,
  "owned": 1688,
  "facilitate": 5727,
  "manh": 8702,
  "outfit": 21403,
  "ilco": 29702,
  "mann": 14410,
  "vx": 21463,
  "##oil": 14193,
  "mecar": 29891,
  "bethlehem": 21517,
  "allerg": 11200,
  "semiconduct": 4702,
  "mortgagors": 18569,
  "##ft": 1610,
  "animated": 21075,
  "tarrant": 29337,
  "dredging": 19797,
  "misappropri": 14629,
  "repeatedly": 27554,
  "repos": 9152,
  "warn": 12459,
  "molding": 12367,
  "expectancy": 16198,
  "buyback": 15360,
  "sogou": 23468,
  "##stens": 21788,
  "vector": 13087,
  "luggage": 25335,
  "woodbridge": 21541,
  "osha": 14303,
  "ftse": 25150,
  "cataract": 26491,
  "developers": 7056,
  "delist": 26639,
  "ek": 20789,
  "physi": 16768,
  "means": 4195,
  "##hm": 19889,
  "undistributed": 6729,
  "bipolar": 20171,
  "##ures": 1002,
  "bottled": 18172,
  "producers": 5625,
  "extr": 3589,
  "roberts": 10224,
  "catalysts": 18734,
  "\u2022": 305,
  "##enor": 29403,
  "initiative": 7354,
  "accepting": 10684,
  "##banco": 17482,
  "##\u2217": 597,
  "arkansas": 7303,
  "brick": 14305,
  "submarket": 24277,
  "unstable": 15602,
  "gum": 22223,
  "nsclc": 20674,
  "concentrations": 5266,
  "registries": 23630,
  "compatibility": 13975,
  "maintaining": 3574,
  "##ago": 5293,
  "##istically": 17351,
  "hovnanian": 26717,
  "confirmations": 27328,
  "associ": 1375,
  "receipt": 4352,
  "stainless": 13068,
  "pab": 21228,
  "prepayment": 4530,
  "dosing": 11155,
  "##lot": 5514,
  "lmi": 29583,
  "alban": 13023,
  "hampshire": 9475,
  "wellcome": 27980,
  "securitizing": 27123,
  "ibc": 18268,
  "powerbu": 26244,
  "reval": 24938,
  "irrevers": 27202,
  "professionally": 24858,
  "palmetto": 24405,
  "industrial": 3062,
  "appalachia": 17802,
  "aggress": 6847,
  "saunders": 29394,
  "doing": 5984,
  "breakthrough": 15162,
  "##ural": 1842,
  "kahn": 27774,
  "dysfunction": 17885,
  "wms": 21667,
  "##oton": 17048,
  "waddell": 24446,
  "develops": 6674,
  "baum": 18677,
  "ols": 23189,
  "laidlaw": 20071,
  "withdrawing": 18816,
  "schwe": 23869,
  "##idges": 17572,
  "salts": 28645,
  "significant": 1106,
  "vehicles": 4378,
  "nucor": 27692,
  "nrtc": 29243,
  "show": 3726,
  "burdens": 8810,
  "capitalizing": 13042,
  "newmont": 14796,
  "banana": 23893,
  "commissions": 3794,
  "terrorists": 24457,
  "##gp": 9683,
  "paying": 4388,
  "impairment": 1596,
  "attendees": 27421,
  "pbo": 18762,
  "unwind": 19383,
  "hydrocarb": 8488,
  "everything": 24038,
  "occidental": 12357,
  "##gener": 21925,
  "unith": 4723,
  "garments": 18664,
  "wrote": 8598,
  "families": 9269,
  "telekom": 28671,
  "upper": 9577,
  "correcting": 16696,
  "acquires": 8053,
  "##mail": 26523,
  "##omach": 24400,
  "peop": 4369,
  "uw": 29355,
  "##locations": 22461,
  "outdo": 7725,
  "deloit": 6415,
  "recalculated": 20590,
  "cendant": 14534,
  "privacy": 5535,
  "seym": 24307,
  "usec": 18494,
  "producible": 24919,
  "opr": 23343,
  "certifications": 7722,
  "jdi": 29642,
  "goss": 26145,
  "dermatology": 19250,
  "certificate": 3024,
  "ahp": 16279,
  "universities": 10105,
  "##lay": 12707,
  "requires": 2013,
  "agreeing": 14167,
  "chr": 5485,
  "extrusion": 17292,
  "nii": 18463,
  "pronouncement": 8912,
  "intact": 24212,
  "magma": 14912,
  "alene": 29836,
  "limiting": 5937,
  "dental": 6451,
  "pertaining": 6537,
  "##vance": 11660,
  "pca": 7085,
  "defib": 20944,
  "setoff": 24741,
  "cognitive": 19449,
  "en": 791,
  "albert": 14474,
  "zimmer": 20975,
  "cc": 7133,
  "carbon": 6012,
  "##isano": 28720,
  "##mic": 16458,
  "allergy": 19203,
  "overage": 27785,
  "##iliar": 10571,
  "oib": 19754,
  "disreg": 14828,
  "##atuck": 29129,
  "accomplishing": 21701,
  "##fix": 23818,
  "intell": 2822,
  "\u20a9": 329,
  "##strateg": 18436,
  "vacated": 8423,
  "vending": 15265,
  "backbone": 16538,
  "##kw": 25315,
  "consider": 1518,
  "ral": 9991,
  "cumulative": 3078,
  "reinvestment": 5756,
  "indones": 10959,
  "offset": 1983,
  "lemon": 24836,
  "incons": 8938,
  "bern": 9809,
  "kath": 16037,
  "leaseholds": 19887,
  "expandable": 23806,
  "##ated": 674,
  "prepackaged": 23776,
  "ribavirin": 29772,
  "##row": 12753,
  "surewest": 27492,
  "hn": 27125,
  "##ki": 7335,
  "flash": 10107,
  "median": 10177,
  "##ferrous": 26803,
  "subassemblies": 14872,
  "bias": 27178,
  "framework": 3543,
  "imprec": 14069,
  "select": 5028,
  "[unused21]": 22,
  "##antown": 22999,
  "sponsored": 5378,
  "##ha": 5156,
  "cac": 14214,
  "designed": 2596,
  "night": 11982,
  "applications": 2500,
  "interl": 28039,
  "detachable": 18047,
  "piceance": 23682,
  "barrett": 18577,
  "rigel": 27724,
  "##omer": 11432,
  "portnoy": 29201,
  "glow": 29498,
  "refusal": 9021,
  "unprofitable": 12409,
  "mexico": 4082,
  "expending": 28835,
  "##alized": 2741,
  "##bell": 9159,
  "scanned": 29192,
  "simpler": 27721,
  "##ersey": 4429,
  "alphar": 27768,
  "##ilar": 2006,
  "vax": 26492,
  "cmo": 14274,
  "bw": 18472,
  "nbs": 26931,
  "slu": 21953,
  "graft": 13716,
  "aesthetics": 22094,
  "astr": 10258,
  "##oxide": 7738,
  "##usal": 8426,
  "##ulent": 8067,
  "cortland": 28188,
  "intelligence": 8677,
  "manor": 15631,
  "##estation": 18524,
  "##astar": 15833,
  "##tides": 17121,
  "sulphur": 20581,
  "unavailability": 12819,
  "centralized": 7830,
  "##ters": 1547,
  "surrounding": 6653,
  "holiday": 8069,
  "##01": 12428,
  "edmonton": 27013,
  "silicon": 7435,
  "melrose": 29213,
  "sixty": 10059,
  "oscar": 27709,
  "oa": 25407,
  "dishes": 24821,
  "##opt": 4684,
  "disinfect": 24020,
  "fertility": 19701,
  "prs": 18231,
  "cervical": 16733,
  "comment": 10290,
  "lighthouse": 27551,
  "##omax": 17197,
  "##flow": 9800,
  "electric": 2304,
  "olympus": 18250,
  "##s": 458,
  "culture": 9036,
  "initiate": 7347,
  "iw": 16500,
  "hunting": 10984,
  "acknow": 9709,
  "galaxy": 11655,
  "##wealth": 8028,
  "##kinson": 21354,
  "##ble": 1867,
  "provisionally": 27159,
  "##weight": 13083,
  "played": 15817,
  "tenant": 3936,
  "associates": 3890,
  "smartphones": 16716,
  "cemeteries": 22485,
  "revital": 24607,
  "exelon": 6439,
  "equally": 8143,
  "remitt": 10043,
  "deconsolidation": 10910,
  "##haul": 10862,
  "occurred": 3328,
  "fronti": 26479,
  "matthews": 19608,
  "refinance": 5819,
  "kaiser": 11423,
  "##ocation": 18764,
  "optical": 6708,
  "##ype": 23845,
  "egan": 19319,
  "prosec": 7214,
  "7th": 24004,
  "barnett": 14319,
  "integration": 4112,
  "tag": 11560,
  "ram": 8740,
  "offsets": 12363,
  "##ady": 27933,
  "jefferies": 13214,
  "packer": 22230,
  "training": 3889,
  "patricia": 17854,
  "halli": 17787,
  "schult": 20404,
  "hear": 4431,
  "cus": 20443,
  "geos": 16009,
  "kirk": 14115,
  "defray": 26358,
  "printed": 8625,
  "toled": 13267,
  "grubb": 23280,
  "##ichi": 18999,
  "reborrowed": 28150,
  "stationers": 29984,
  "replicated": 25418,
  "##lemen": 29285,
  "milwau": 12813,
  "bona": 16972,
  "##ious": 1881,
  "adler": 27501,
  "[unused76]": 77,
  "dfi": 20053,
  "vcm": 25549,
  "##info": 28873,
  "laz": 10892,
  "ceasing": 16438,
  "##pot": 16765,
  "gd": 10898,
  "##anced": 2875,
  "jefferson": 11854,
  "coffees": 26630,
  "gases": 8563,
  "glenn": 14137,
  "symb": 4935,
  "nycomed": 23796,
  "avan": 23915,
  "##hf": 14910,
  "coch": 21491,
  "rmp": 25956,
  "tutor": 25189,
  "##bers": 5647,
  "##stem": 1235,
  "bluff": 20064,
  "minimized": 18116,
  "substance": 7556,
  "##esty": 15727,
  "nonrefundable": 12989,
  "canal": 14625,
  "thomson": 17170,
  "automated": 6262,
  "sla": 29868,
  "incen": 2031,
  "##ameda": 22599,
  "anatomy": 27321,
  "##omerase": 27999,
  "hed": 24273,
  "##ope": 2280,
  "avoids": 24846,
  "initiation": 9909,
  "bax": 10676,
  "gartner": 22017,
  "supervisory": 6921,
  "continuance": 14618,
  "provisioning": 15184,
  "den": 2896,
  "political": 4504,
  "relocation": 7376,
  "conspiracy": 15674,
  "swe": 9746,
  "activ": 1273,
  "rtc": 23156,
  "##cs": 4737,
  "##lord": 6446,
  "coas": 9838,
  "rather": 4158,
  "millions": 3906,
  "reducing": 4246,
  "##ators": 2499,
  "caliper": 21920,
  "commercially": 5089,
  "optionality": 27311,
  "interact": 13319,
  "##emakers": 28518,
  "##\u00a3": 500,
  "##oller": 9382,
  "delever": 25761,
  "rental": 2870,
  "adhesives": 14566,
  "sunlight": 29454,
  "##iley": 9994,
  "chop": 25510,
  "20th": 20945,
  "wang": 11989,
  "##eryl": 17729,
  "unitedhealth": 24534,
  "buck": 12670,
  "fats": 25790,
  "sli": 27780,
  "##erto": 6886,
  "butane": 22080,
  "moto": 26847,
  "##icing": 6918,
  "##\u00df": 503,
  "pure": 10348,
  "##state": 4735,
  "reexamination": 16416,
  "solely": 4766,
  "caaa": 27323,
  "ne": 874,
  "todd": 13122,
  "##kol": 23968,
  "holding": 2336,
  "statistical": 7985,
  "paved": 26168,
  "teach": 9988,
  "activewear": 27043,
  "where": 2030,
  "##olysis": 23989,
  "gallery": 24093,
  "gras": 20683,
  "modifying": 11960,
  "reusable": 17527,
  "overl": 10057,
  "cls": 27016,
  "needles": 20772,
  "borne": 9999,
  "cocoa": 22396,
  "close": 3595,
  "metr": 4805,
  "chosen": 9007,
  "vsi": 26023,
  "smarts": 23864,
  "week": 4671,
  "tenn": 13389,
  "geopol": 13472,
  "sunoco": 12194,
  "su": 725,
  "pregnancy": 20791,
  "overlook": 26475,
  "autoby": 25042,
  "[unused71]": 72,
  "bum": 25406,
  "budgeting": 14185,
  "before": 2231,
  "christ": 8553,
  "petitioners": 27475,
  "macdonald": 22110,
  "##affer": 28587,
  "weighing": 20385,
  "compensated": 7343,
  "untimely": 22177,
  "theme": 12506,
  "perform": 1186,
  "##placement": 17919,
  "southeastern": 10499,
  "culver": 21155,
  "compete": 3001,
  "woodland": 21144,
  "gmp": 12402,
  "beck": 12589,
  "valorem": 16271,
  "mueller": 17950,
  "disconn": 18344,
  "criimi": 18778,
  "meadow": 16530,
  "##branding": 23547,
  "##adyne": 11853,
  "##\u2264": 516,
  "terr": 3471,
  "symptomatic": 27669,
  "resolving": 10803,
  "deficient": 17775,
  "donated": 20183,
  "competitor": 7437,
  "accountants": 3493,
  "background": 7389,
  "##cf": 6188,
  "interexchange": 18176,
  "execut": 20192,
  "passeng": 7297,
  "##erch": 25298,
  "changyou": 18639,
  "lowered": 9997,
  "nos": 10250,
  "tdrs": 10622,
  "50": 27027,
  "mirage": 21971,
  "##ourcing": 5142,
  "allan": 18055,
  "clears": 28438,
  "ng": 11964,
  "calculated": 3107,
  "##ua": 11393,
  "declaration": 7407,
  "populations": 11213,
  "beasley": 28784,
  "surgeon": 15587,
  "entrepr": 12382,
  "charlie": 26595,
  "prospect": 5737,
  "reincorporated": 15082,
  "requests": 5933,
  "##ob": 4613,
  "##emedicine": 29537,
  "##anks": 17841,
  "flex": 4113,
  "nevada": 4218,
  "##imed": 20562,
  "cly": 22847,
  "##vertible": 22932,
  "ppd": 24283,
  "upscale": 13824,
  "##inas": 9879,
  "\u00aa": 183,
  "wedding": 22531,
  "##foot": 28176,
  "##dress": 2910,
  "react": 8162,
  "##offs": 17382,
  "formulate": 17402,
  "equ": 916,
  "monterey": 18021,
  "caval": 24469,
  "azur": 25963,
  "##enswear": 28371,
  "decided": 6965,
  "edgar": 14598,
  "progenics": 29551,
  "charities": 27730,
  "gut": 24001,
  "wharf": 28446,
  "##bold": 17327,
  "genesys": 23505,
  "##ugh": 16036,
  "##urgical": 11060,
  "necessitated": 17628,
  "reinfor": 13555,
  "implanted": 19678,
  "kn": 2230,
  "##tra": 11638,
  "soy": 10063,
  "claimants": 10787,
  "\u03b5": 239,
  "organizations": 3236,
  "galena": 26728,
  "photos": 19979,
  "baird": 27932,
  "graded": 11067,
  "np": 9000,
  "signature": 5619,
  "##hine": 15679,
  "glycer": 29876,
  "obj": 2928,
  "auditor": 6013,
  "##ayo": 26041,
  "cynosure": 28206,
  "restates": 29920,
  "lmc": 22292,
  "duff": 16098,
  "kh": 15605,
  "historical": 2427,
  "quan": 2949,
  "winters": 25437,
  "deadline": 11593,
  "oven": 24137,
  "inaccuracies": 19809,
  "bermuda": 7266,
  "mdl": 17203,
  "##ual": 831,
  "##andong": 15392,
  "isda": 20582,
  "depth": 7363,
  "ingot": 24855,
  "consequent": 4779,
  "##isphere": 17367,
  "arlington": 15275,
  "##\u221e": 514,
  "##or": 620,
  "securitization": 4956,
  "beach": 7446,
  "affects": 6723,
  "hoffmann": 19192,
  "nyp": 20699,
  "xbox": 22834,
  "spectrometry": 25257,
  "misrepresented": 26117,
  "eis": 12893,
  "packaged": 8718,
  "instant": 10529,
  "resum": 9057,
  "icr": 26587,
  "##iding": 8215,
  "noncompetition": 18091,
  "abil": 24556,
  "pediatric": 10690,
  "##arth": 14121,
  "pleas": 10852,
  "lymp": 12041,
  "lin": 5559,
  "nong": 14485,
  "microprocessor": 16423,
  "digits": 13349,
  "zell": 26187,
  "##iegel": 16412,
  "deductibility": 10943,
  "feng": 22651,
  "alarcon": 28740,
  "augusta": 18204,
  "reprocessing": 25089,
  "equivalency": 29451,
  "##44": 29794,
  "##bot": 21238,
  "billboard": 19331,
  "retailing": 14666,
  "modernize": 20324,
  "lts": 16754,
  "pron": 4085,
  "accused": 25554,
  "dipl": 17151,
  "slide": 20102,
  "##ald": 5562,
  "accoun": 864,
  "indemnitee": 18591,
  "nuc": 4042,
  "venezuel": 8958,
  "amid": 16966,
  "aps": 9869,
  "##urgy": 25981,
  "##agra": 20143,
  "male": 15903,
  "fired": 7154,
  "independent": 1805,
  "defraud": 19120,
  "scientist": 18043,
  "14c": 20304,
  "ga": 2763,
  "##ervision": 25026,
  "##uil": 27192,
  "##ystem": 7311,
  "kodak": 13955,
  "##anka": 24689,
  "neer": 22656,
  "astrazeneca": 13121,
  "huang": 20948,
  "memorandum": 9210,
  "enumerated": 18558,
  "[unused6]": 7,
  "redesigned": 20792,
  "##leton": 11214,
  "specials": 26313,
  "hayden": 26101,
  "##leigh": 29777,
  "adequ": 2416,
  "##inion": 1998,
  "bren": 21957,
  "sag": 14278,
  "catalytica": 29506,
  "seaw": 20268,
  "britain": 20045,
  "induced": 13276,
  "majeure": 15735,
  "jar": 21092,
  "rmbs": 8305,
  "terrestr": 13365,
  "ags": 22571,
  "approximates": 5161,
  "slows": 26486,
  "ppos": 28601,
  "aiv": 21833,
  "orientation": 17912,
  "riley": 20698,
  "spor": 15077,
  "##dings": 29255,
  "fid": 4916,
  "cincinnati": 10198,
  "offered": 3678,
  "perfected": 17433,
  "nig": 18620,
  "serving": 4719,
  "##hardt": 20394,
  "shift": 6173,
  "##ected": 1017,
  "unlock": 25665,
  "omnic": 27277,
  "##llc": 14908,
  "##case": 17690,
  "major": 1926,
  "hess": 17196,
  "novog": 29516,
  "deterring": 21462,
  "macd": 19687,
  "upholst": 16382,
  "macandrews": 18538,
  "sjw": 22360,
  "clearances": 10432,
  "nonqualifying": 29049,
  "secured": 2333,
  "instability": 7904,
  "3rd": 13059,
  "mixture": 16497,
  "briefed": 22457,
  "chesapeake": 11050,
  "preparation": 3031,
  "exclusion": 8795,
  "##ass": 1167,
  "fcp": 29402,
  "medicine": 7150,
  "##acom": 9735,
  "coco": 19782,
  "kewaunee": 19955,
  "incumb": 9348,
  "epis": 13624,
  "format": 7260,
  "##eth": 1201,
  "investee": 8540,
  "command": 11641,
  "23": 11440,
  "46": 10368,
  "mcgee": 20503,
  "coming": 9955,
  "##agers": 26345,
  "##ores": 7654,
  "encapsulated": 25121,
  "expressing": 8403,
  "judy": 23038,
  "revlon": 12004,
  "willing": 6244,
  "mailing": 11037,
  "##sed": 2456,
  "vias": 16298,
  "lib": 3333,
  "lendingtree": 28617,
  "##olve": 8555,
  "sba": 7948,
  "harbinger": 24011,
  "roc": 8567,
  "acute": 7532,
  "acknowledg": 10418,
  "kinross": 26967,
  "hayward": 24145,
  "enforced": 11077,
  "discontinu": 2917,
  "neverth": 9202,
  "hunter": 13369,
  "liz": 22812,
  "##ups": 12697,
  "positioned": 8204,
  "multifamily": 7481,
  "##urna": 18154,
  "rel": 853,
  "whenever": 5306,
  "prosecuted": 22588,
  "##ister": 2115,
  "herman": 19658,
  "##grass": 15787,
  "cel": 7990,
  "##tinence": 21062,
  "hubei": 25545,
  "##\u207a": 580,
  "seoul": 25489,
  "light": 4031,
  "##bic": 29344,
  "incremental": 4742,
  "##points": 11732,
  "visit": 11878,
  "depict": 15474,
  "s": 162,
  "fractional": 10278,
  "##pine": 8741,
  "perpetuity": 22805,
  "refunding": 13424,
  "transitional": 10056,
  "merchand": 3802,
  "rotation": 16251,
  "tast": 11225,
  "fraudulent": 8169,
  "27th": 25982,
  "##ounted": 4647,
  "westchester": 19422,
  "localization": 24772,
  "legends": 20856,
  "cvc": 23367,
  "tsa": 16180,
  "assessable": 15935,
  "complied": 7618,
  "disclaimed": 29317,
  "mac": 4337,
  "cnb": 19528,
  "triple": 9871,
  "mitigating": 12631,
  "autoc": 25120,
  "cd": 4371,
  "caps": 7239,
  "measurement": 2926,
  "ticketing": 16753,
  "bookkeeping": 19256,
  "##earr": 23470,
  "zhe": 22392,
  "contracting": 8300,
  "##urne": 19580,
  "older": 8287,
  "attorneys": 5683,
  "njbp": 16176,
  "unrestricted": 8182,
  "##see": 28408,
  "amoun": 927,
  "alexand": 18884,
  "##astin": 24205,
  "14": 5615,
  "cwi": 29388,
  "depositor": 8515,
  "semis": 22738,
  "gao": 23586,
  "statutory": 3232,
  "hills": 8216,
  "identifiable": 4710,
  "fashions": 22822,
  "this": 883,
  "startups": 19381,
  "\u00a2": 175,
  "renegotiating": 24767,
  "whereas": 8777,
  "##ero": 4303,
  "imax": 17463,
  "corpus": 14151,
  "gind": 22458,
  "local": 2122,
  "100": 19962,
  "a1": 16544,
  "replicate": 15473,
  "aes": 8913,
  "##life": 9041,
  "##sch": 12014,
  "##\u0443": 546,
  "##noy": 28256,
  "lane": 11040,
  "mainframe": 15378,
  "samuel": 12898,
  "##storms": 20800,
  "fujian": 23391,
  "wisdom": 28128,
  "unweighted": 23026,
  "synchronization": 22324,
  "defects": 6878,
  "[unused97]": 98,
  "korn": 21874,
  "mhi": 27445,
  "harmon": 16337,
  "frameworks": 22031,
  "abetted": 24481,
  "antitrust": 8679,
  "cholesterol": 16938,
  "nigeria": 18209,
  "nation": 5716,
  "several": 2353,
  "orbcomm": 18367,
  "nols": 7664,
  "de": 698,
  "cros": 10311,
  "coincide": 15147,
  "graphs": 27759,
  "##ynamics": 24188,
  "echo": 17150,
  "##hares": 9777,
  "ftp": 26395,
  "##retion": 3087,
  "##istry": 7118,
  "##imus": 28574,
  "carm": 12104,
  "cannon": 24944,
  "outs": 1212,
  "personalization": 22678,
  "chemical": 3766,
  "cable": 3376,
  "saturn": 21176,
  "infectious": 11147,
  "ericsson": 17492,
  "residency": 23216,
  "##ab": 677,
  "libraries": 12634,
  "surg": 4924,
  "penetration": 7902,
  "refineries": 10187,
  "germ": 20876,
  "proposition": 13273,
  "regul": 1034,
  "##lities": 11525,
  "roman": 20566,
  "koch": 17240,
  "precip": 14725,
  "necessitating": 26225,
  "live": 6743,
  "##issancere": 21610,
  "trucking": 10652,
  "herr": 22312,
  "compromise": 9423,
  "shareowner": 19429,
  "dap": 24427,
  "23a": 15334,
  "italia": 24059,
  "flux": 22681,
  "##t": 453,
  "derby": 29853,
  "fifo": 9901,
  "jay": 11424,
  "striving": 26211,
  "ivy": 23481,
  "bought": 13411,
  "filled": 10958,
  "livingston": 23986,
  "##latin": 23357,
  "orchard": 18348,
  "##90": 22403,
  "disney": 11552,
  "##unc": 2027,
  "clc": 22382,
  "##urt": 13664,
  "##lied": 2502,
  "aster": 14061,
  "##elle": 12996,
  "inclement": 16492,
  "##oskeletal": 27385,
  "mouth": 16633,
  "hat": 13675,
  "pas": 7286,
  "dme": 17747,
  "merc": 5598,
  "gmc": 29114,
  "prps": 10821,
  "engineered": 7827,
  "persp": 9812,
  "##gc": 7492,
  "scripps": 18988,
  "relationships": 2413,
  "barrist": 12498,
  "breadth": 8681,
  "##aging": 3081,
  "##2": 473,
  "generation": 2923,
  "##dx": 24345,
  "backpl": 28819,
  "inlet": 24012,
  "##eno": 23553,
  "mopsc": 17986,
  "affymetrix": 22888,
  "treasurer": 5008,
  "hg": 19241,
  "##moil": 14023,
  "canceling": 23846,
  "gainesville": 25829,
  "s99": 25701,
  "fhfa": 14325,
  "##xy": 2628,
  "captured": 15395,
  "ultim": 2918,
  "cooler": 22568,
  "country": 4032,
  "achieving": 5413,
  "begin": 2017,
  "katz": 16507,
  "marco": 24972,
  "prepare": 7022,
  "##ild": 2166,
  "vegetable": 16449,
  "ginseng": 28871,
  "combinatorial": 29132,
  "gpi": 26341,
  "checking": 8944,
  "template": 26786,
  "##tera": 12918,
  "entries": 13330,
  "ber": 6454,
  "profession": 2722,
  "premcor": 29436,
  "conflicts": 5483,
  "distillates": 25382,
  "various": 1663,
  "nuisance": 17938,
  "masters": 10963,
  "##ico": 3266,
  "timeshare": 14838,
  "energyplus": 23615,
  "educated": 23282,
  "edwin": 19460,
  "accessed": 11608,
  "euron": 17216,
  "rehabilitation": 8318,
  "bad": 5060,
  "outbreaks": 21754,
  "compounded": 9952,
  "spectral": 22051,
  "##ross": 24281,
  "plaintiffs": 4060,
  "polices": 22699,
  "wj": 27672,
  "caus": 18583,
  "##pto": 12020,
  "repeal": 9067,
  "tl": 12410,
  "supplementing": 22437,
  "advocates": 25888,
  "telecommunications": 4029,
  "gemcitabine": 29187,
  "collateralized": 4840,
  "[UNK]": 101,
  "gardner": 16437,
  "ak": 9741,
  "thirds": 10222,
  "overly": 24364,
  "syndicate": 9737,
  "hhs": 13698,
  "quota": 10658,
  "biosimilar": 13793,
  "##eye": 19576,
  "ecd": 26734,
  "swapped": 19649,
  "oge": 21085,
  "inherited": 24900,
  "exempl": 21000,
  "##ovax": 29670,
  "uaw": 24536,
  "dissolved": 11836,
  "conner": 29632,
  "benchmarking": 16950,
  "fh": 10914,
  "educational": 6937,
  "thinly": 15399,
  "privileges": 8782,
  "gaf": 15195,
  "glax": 13459,
  "##okine": 13175,
  "##ille": 4182,
  "##csa": 23501,
  "kelso": 20653,
  "sally": 17135,
  "poor": 6246,
  "subtr": 16062,
  "sutton": 22318,
  "cluster": 14891,
  "##an": 616,
  "placements": 8820,
  "declared": 3818,
  "barbados": 20676,
  "inmarsat": 29320,
  "efc": 27508,
  "momentive": 26103,
  "veba": 17807,
  "lounge": 19711,
  "##intosh": 18200,
  "fsic": 24702,
  "laurel": 16983,
  "hubs": 15728,
  "preclud": 8042,
  "besides": 20742,
  "baked": 21711,
  "inspects": 24599,
  "resp": 936,
  "glu": 29346,
  "churn": 14360,
  "scr": 7510,
  "defining": 11201,
  "remed": 3165,
  "reconstructive": 23146,
  "pimco": 23490,
  "nonemploy": 11028,
  "##\u2153": 551,
  "trending": 18902,
  "maker": 8425,
  "search": 5543,
  "subcommittee": 22910,
  "regarding": 1976,
  "fueled": 12222,
  "derivatively": 25368,
  "ns": 7652,
  "##egra": 18980,
  "##quin": 15545,
  "importers": 19510,
  "mdeq": 27534,
  "stewards": 21563,
  "workforce": 5704,
  "oracle": 11023,
  "guard": 10076,
  "cutler": 28064,
  "lor": 8903,
  "equivalents": 2530,
  "alterations": 18216,
  "loans": 1217,
  "lilly": 11275,
  "overallot": 21572,
  "##ometry": 14787,
  "members": 2359,
  "##owner": 11973,
  "bioanaly": 29703,
  "marketing": 1750,
  "early": 2950,
  "explor": 3152,
  "been": 1091,
  "##mally": 23272,
  "terminals": 7360,
  "difficulties": 4655,
  "lark": 29282,
  "##ook": 13968,
  "200": 15300,
  "subjecting": 15834,
  "\u00b7": 195,
  "big": 7478,
  "reservoirs": 11748,
  "##opes": 13633,
  "##olog": 1215,
  "valuations": 5385,
  "apartments": 7037,
  "##anetics": 29260,
  "sawmill": 29502,
  "bcfe": 13984,
  "##jack": 15506,
  "guaranteeing": 17743,
  "impac": 20406,
  "coup": 5244,
  "##ospher": 22344,
  "comprehensively": 21217,
  "##castle": 15680,
  "scis": 20745,
  "##ophot": 27583,
  "kist": 25473,
  "flooring": 14129,
  "##ecess": 1914,
  "##amycin": 27797,
  "wider": 11762,
  "ramsey": 22830,
  "wounds": 22763,
  "lo": 911,
  "implementations": 15340,
  "tried": 19098,
  "restrictions": 2718,
  "10d": 24806,
  "physical": 4571,
  "entitles": 9459,
  "cubist": 21922,
  "involuntarily": 17899,
  "fuj": 11911,
  "similarly": 5500,
  "##alen": 29645,
  "millipore": 24128,
  "suit": 3894,
  "##ople": 18170,
  "tos": 13231,
  "cylinder": 19214,
  "envision": 18598,
  "prescribe": 11824,
  "sav": 2709,
  "vc": 15129,
  "equityholders": 28359,
  "au": 1240,
  "suggest": 11404,
  "recordings": 19550,
  "pressured": 25366,
  "perpet": 6858,
  "pork": 16093,
  "indexing": 21440,
  "##onomy": 8755,
  "resides": 17723,
  "redeterm": 16759,
  "capping": 16763,
  "peco": 8027,
  "##ersen": 7487,
  "gst": 18168,
  "paired": 16667,
  "targets": 4807,
  "gcc": 26430,
  "undertakings": 17430,
  "##week": 26608,
  "smoking": 13979,
  "##joy": 26513,
  "kelly": 12058,
  "stanadyne": 20486,
  "rests": 25687,
  "measurements": 3847,
  "rebut": 28667,
  "##clp": 15465,
  "##ijuana": 13654,
  "1x": 25800,
  "nissan": 21959,
  "mortgag": 9109,
  "grossman": 26432,
  "bail": 12474,
  "pgp": 23335,
  "mchale": 26570,
  "hilfiger": 21951,
  "preliminary": 5564,
  "parliament": 23645,
  "diarr": 21045,
  "tad": 26806,
  "##lock": 9898,
  "##oph": 3947,
  "upload": 25376,
  "rhd": 27438,
  "alleghany": 19394,
  "cession": 25093,
  "neo": 10661,
  "##emon": 28447,
  "classifications": 8877,
  "rebate": 9222,
  "\u00e6": 206,
  "pulte": 28124,
  "kad": 26083,
  "important": 3659,
  "wages": 7215,
  "coordination": 10425,
  "moment": 13182,
  "##first": 13565,
  "dosage": 10843,
  "##agic": 19497,
  "[unused74]": 75,
  "inflammation": 13853,
  "##aki": 21469,
  "aut": 2379,
  "gallon": 10307,
  "##vet": 23582,
  "##terol": 15031,
  "ranging": 3954,
  "teco": 11927,
  "nafta": 23597,
  "agron": 29816,
  "attractions": 16585,
  "nucleic": 18400,
  "stark": 11341,
  "issued": 1271,
  "jonathan": 14356,
  "taxonomy": 9107,
  "##aus": 16875,
  "dispersion": 16520,
  "israeli": 10115,
  "petrie": 27103,
  "sigma": 13994,
  "wasted": 19557,
  "sinclair": 21328,
  "fluctuate": 4978,
  "troublesho": 24918,
  "doctrine": 17505,
  "ambig": 19817,
  "lx": 22835,
  "disqualification": 21360,
  "believed": 6112,
  "dixon": 20267,
  "dtg": 29091,
  "pursu": 1507,
  "bse": 21382,
  "continuation": 6746,
  "finishing": 10938,
  "lesser": 4651,
  "abeyance": 28007,
  "selecting": 8770,
  "ceoc": 17140,
  "appropriate": 2549,
  "chill": 21904,
  "##fund": 7523,
  "ecker": 26412,
  "transformation": 11579,
  "##eton": 10703,
  "##ologix": 20950,
  "minneapolis": 11640,
  "accumulates": 25977,
  "bioequ": 17286,
  "ogden": 23234,
  "viragen": 21855,
  "enstar": 15901,
  "bacterial": 15436,
  "launching": 14206,
  "certificateholders": 11823,
  "comprom": 7824,
  "tie": 14709,
  "##oints": 3492,
  "estimations": 20080,
  "morgan": 5157,
  "##imo": 17354,
  "huff": 21482,
  "##\u00e6": 524,
  "##ivable": 28575,
  "cottage": 29821,
  "eott": 27507,
  "boule": 11740,
  "euribor": 19530,
  "##ariff": 5660,
  "ability": 1436,
  "continually": 5889,
  "territories": 7403,
  "slag": 22127,
  "zeal": 9082,
  "equivalence": 19665,
  "degrade": 24960,
  "chip": 7993,
  "gsk": 10976,
  "pamela": 26102,
  "schul": 20098,
  "fourteenth": 28248,
  "apoptosis": 25889,
  "confectionery": 26561,
  "wpi": 27345,
  "vitr": 20289,
  "recommended": 7808,
  "kat": 12683,
  "##omputer": 23303,
  "permit": 3257,
  "scientifically": 24591,
  "##ume": 17641,
  "lybrand": 14467,
  "connect": 7582,
  "indymac": 19005,
  "industrialized": 27238,
  "eight": 4486,
  "ways": 6563,
  "guarantee": 3500,
  "metall": 10753,
  "choose": 5577,
  "shack": 19201,
  "##ini": 9548,
  "##anting": 23330,
  "vom": 24755,
  "braz": 5373,
  "visc": 18810,
  "wilder": 18752,
  "##tient": 23426,
  "putting": 19519,
  "fue": 12019,
  "labs": 10563,
  "bred": 26864,
  "unassigned": 23693,
  "scientists": 11322,
  "reston": 27188,
  "chol": 27586,
  "redep": 14735,
  "renal": 12889,
  "collaborators": 6584,
  "##gt": 27817,
  "comb": 1804,
  "ozone": 11534,
  "##glass": 12801,
  "bankshares": 11301,
  "quantit": 4144,
  "jennifer": 20350,
  "##emar": 19724,
  "rele": 2367,
  "disgorgement": 13544,
  "oy": 14604,
  "excip": 28553,
  "iib": 23646,
  "##lining": 14585,
  "unbund": 11734,
  "explains": 26296,
  "##zzo": 20181,
  "unresolved": 6327,
  "trigger": 8347,
  "walt": 19992,
  "depleted": 11951,
  "t": 163,
  "kilometers": 16006,
  "nominating": 6391,
  "##icine": 26183,
  "ik": 15302,
  "dess": 18338,
  "consecutive": 5800,
  "rede": 2827,
  "struct": 3903,
  "exide": 27257,
  "##bb": 6593,
  "competencies": 13271,
  "crl": 21622,
  "##altrexone": 29978,
  "perspectives": 24983,
  "peril": 19292,
  "breaking": 23730,
  "ruin": 29373,
  "definitive": 4238,
  "perishable": 21861,
  "drug": 2419,
  "onset": 15999,
  "waive": 10112,
  "spending": 4088,
  "simon": 11063,
  "euronet": 29478,
  "technologically": 12658,
  "ratch": 22915,
  "sothe": 17800,
  "##pec": 20898,
  "disseminate": 26576,
  "##\u03c5": 586,
  "emails": 20920,
  "##urr": 934,
  "wfo": 18594,
  "##witz": 29735,
  "internally": 5536,
  "lead": 2421,
  "fraser": 28750,
  "next": 2915,
  "##omial": 13895,
  "##phia": 7781,
  "cilco": 12053,
  "us12of": 21605,
  "pult": 25918,
  "monster": 18657,
  "incre": 898,
  "##btu": 9769,
  "mechanical": 7244,
  "continued": 1595,
  "##ront": 6854,
  "drum": 24691,
  "##dy": 11891,
  "enzy": 14834,
  "##stores": 12590,
  "resignations": 23473,
  "##cane": 23477,
  "tracking": 7557,
  "faced": 10073,
  "##where": 4192,
  "passage": 9884,
  "magnes": 17584,
  "refinery": 6864,
  "triton": 17279,
  "depreciating": 22716,
  "differentiator": 29365,
  "pod": 16480,
  "undeclared": 29680,
  "declare": 6518,
  "tce": 14052,
  "jor": 23313,
  "interoperable": 26729,
  "persu": 8177,
  "missed": 19121,
  "monmouth": 24223,
  "pun": 7806,
  "gauge": 16776,
  "subsidies": 10718,
  "##echn": 1218,
  "designs": 5821,
  "telematics": 24549,
  "yan": 17685,
  "##iesel": 6192,
  "##bler": 24727,
  "##\u043f": 587,
  "theory": 18974,
  "##ochvil": 26465,
  "recalc": 15599,
  "gates": 17495,
  "acg": 25212,
  "glut": 18924,
  "na": 7009,
  "appearance": 13005,
  "cinemas": 16617,
  "intrexon": 20451,
  "overdr": 9428,
  "objectively": 18698,
  "cvr": 12067,
  "cut": 6216,
  "specialist": 11859,
  "##evaluation": 27128,
  "fortune": 11905,
  "cham": 10834,
  "bah": 16428,
  "solv": 14963,
  "atsi": 19254,
  "young": 5297,
  "digitally": 21545,
  "contends": 21350,
  "cancerous": 24239,
  "synthes": 18133,
  "perm": 3522,
  "\u0153": 215,
  "##arden": 20430,
  "outlined": 8521,
  "lands": 7467,
  "circulation": 10011,
  "locating": 13719,
  "foreclosed": 8066,
  "staar": 25297,
  "installments": 5073,
  "adjuvant": 22216,
  "glob": 14727,
  "vulnerabilities": 17313,
  "practitioner": 22460,
  "##red": 812,
  "cliffs": 19290,
  "turbine": 9515,
  "decrease": 1743,
  "cornell": 15824,
  "expend": 2076,
  "disqual": 14913,
  "##oted": 3147,
  "conservative": 11425,
  "modes": 19335,
  "vintners": 29207,
  "##ecare": 16420,
  "baf": 28742,
  "centra": 19924,
  "dk": 18588,
  "seminar": 29514,
  "attached": 6440,
  "##erman": 4387,
  "needing": 22966,
  "autol": 22783,
  "zal": 21499,
  "tyler": 17162,
  "carryforwards": 3578,
  "salaries": 4595,
  "audi": 11937,
  "statement": 1278,
  "##onetics": 24246,
  "subject": 1192,
  "caustic": 22377,
  "\u00a7": 180,
  "alpha": 9908,
  "pth": 26961,
  "tbs": 24857,
  "subsection": 15542,
  "remodel": 9708,
  "##oplatin": 27132,
  "anyone": 13264,
  "##ialysis": 18897,
  "##acqu": 28696,
  "reside": 13883,
  "frac": 9215,
  "prices": 1660,
  "ning": 24140,
  "aq": 22088,
  "ordering": 10681,
  "overfunded": 19361,
  "preced": 10223,
  "##alum": 20157,
  "davidson": 14733,
  "away": 8852,
  "noncontrib": 12458,
  "honeywell": 13678,
  "predominant": 7669,
  "dp": 8791,
  "divesting": 22524,
  "cardio": 9527,
  "neon": 14420,
  "pigments": 18255,
  "isp": 9318,
  "swift": 11297,
  "cran": 17486,
  "caith": 25175,
  "great": 2201,
  "jan": 9593,
  "##furt": 21394,
  "suc": 863,
  "alim": 28242,
  "oid": 18222,
  "##ler": 4267,
  "##rous": 26435,
  "ethan": 22794,
  "##07": 27559,
  "##amiliar": 23427,
  "founders": 10605,
  "contra": 17526,
  "analysts": 6017,
  "controls": 1977,
  "sirf": 29151,
  "veg": 9873,
  "##obank": 25301,
  "usp": 23684,
  "hurd": 19111,
  "##pike": 29586,
  "santa": 7684,
  "tenet": 20756,
  "spatial": 25765,
  "twenti": 24083,
  "##yuan": 19897,
  "cess": 10362,
  "outsourced": 8735,
  "mississip": 5284,
  "shenyang": 26942,
  "hous": 9028,
  "disregarded": 20854,
  "scb": 23410,
  "##tist": 11369,
  "prepaids": 29967,
  "housewares": 19999,
  "##ulse": 17599,
  "characterize": 16702,
  "##arant": 18197,
  "heil": 18224,
  "##ogram": 18986,
  "prosp": 2750,
  "cog": 21978,
  "mezz": 8119,
  "##eman": 9744,
  "downsizing": 17770,
  "categorizes": 21781,
  "tables": 4596,
  "selectivity": 28254,
  "##nl": 26461,
  "emphasizing": 14655,
  "scalable": 10915,
  "unreli": 18912,
  "##erc": 1109,
  "##irc": 2028,
  "quintiles": 27372,
  "seed": 8855,
  "corrugated": 14746,
  "bodies": 7545,
  "boilers": 16738,
  "bundles": 23132,
  "restraining": 20785,
  "constraints": 6911,
  "intert": 28665,
  "develo": 7835,
  "urban": 8505,
  "brentwood": 25102,
  "allstate": 12471,
  "docs": 27722,
  "##upply": 14377,
  "lion": 11805,
  "feldman": 22103,
  "polyurethane": 19634,
  "##ls": 9038,
  "melbourne": 19188,
  "ston": 17267,
  "glad": 17873,
  "misstat": 3653,
  "monterrey": 28824,
  "precursor": 26913,
  "inserted": 18850,
  "emergency": 6963,
  "oibda": 20136,
  "captions": 7546,
  "denominated": 4450,
  "clec": 17195,
  "suburbs": 27167,
  "firstcity": 22123,
  "q2": 23848,
  "refrain": 16751,
  "gatx": 16879,
  "tubes": 14677,
  "##ma": 3999,
  "froze": 25642,
  "ilec": 16735,
  "hui": 26640,
  "mdu": 23256,
  "##nington": 28596,
  "yum": 23759,
  "tampa": 9263,
  "##ium": 2021,
  "cronin": 28337,
  "baa3": 19114,
  "val": 827,
  "transdermal": 18801,
  "hipaa": 8876,
  "dise": 3863,
  "exped": 9954,
  "inform": 1090,
  "evang": 21464,
  "##central": 28550,
  "spok": 16110,
  "credited": 5658,
  "##bir": 17208,
  "cemet": 12765,
  "water": 2935,
  "responsibility": 2893,
  "attaching": 21933,
  "freshness": 27939,
  "##naire": 26214,
  "reconstituted": 29773,
  "nonpublic": 14444,
  "nev": 4179,
  "deutsche": 7427,
  "architectures": 15807,
  "di": 1268,
  "bronze": 29655,
  "driving": 9247,
  "##ulture": 20715,
  "joan": 25040,
  "synchronous": 26712,
  "succeeded": 17627,
  "schmid": 22666,
  "gaseous": 24487,
  "rhino": 19993,
  "on": 667,
  "##ases": 1220,
  "##enters": 27937,
  "arithme": 20291,
  "charity": 20397,
  "vale": 17180,
  "reclassifications": 5843,
  "earnings": 1552,
  "legislation": 3604,
  "##imens": 17797,
  "vere": 28227,
  "pear": 11480,
  "southland": 26680,
  "wisconsin": 5680,
  "unman": 20651,
  "vendor": 4751,
  "##vell": 13163,
  "19th": 29109,
  "space": 3020,
  "tsi": 18479,
  "##velo": 1011,
  "calibr": 21162,
  "cypress": 12917,
  "liens": 5463,
  "cartridge": 17806,
  "8th": 21885,
  "##istics": 3654,
  "deficit": 4263,
  "safekeeping": 21137,
  "firms": 4757,
  "procurements": 27098,
  "consultation": 8464,
  "sizeable": 27229,
  "dash": 19259,
  "potential": 1679,
  "\u27a2": 412,
  "##ounced": 19926,
  "##mina": 19017,
  "redeployed": 27217,
  "##onsolid": 4472,
  "glp": 19562,
  "fals": 24276,
  "##ear": 746,
  "hfc": 18755,
  "supervision": 4288,
  "mewbourne": 24848,
  "submar": 21578,
  "bringing": 9088,
  "evolve": 10204,
  "gindin": 22652,
  "least": 2796,
  "yellow": 12502,
  "avistar": 29597,
  "\u0138": 213,
  "recondition": 22169,
  "##pring": 18206,
  "foil": 19480,
  "supplemented": 9696,
  "undertook": 14681,
  "australian": 7594,
  "57th": 24705,
  "sbs": 15056,
  "bliley": 12393,
  "##iga": 29226,
  "##uz": 16588,
  "headed": 19520,
  "fr": 735,
  "please": 6398,
  "bul": 4070,
  "##affili": 5701,
  "##acent": 7008,
  "##ibe": 22904,
  "wildlife": 17613,
  "##istent": 8676,
  "protected": 7707,
  "mmbbls": 29152,
  "job": 7392,
  "aaa": 9922,
  "hard": 3803,
  "##\u00be": 508,
  "voc": 13200,
  "zol": 21916,
  "island": 6939,
  "nolan": 25433,
  "nfs": 22148,
  "##olesterol": 15900,
  "##ada": 2646,
  "##ancing": 4675,
  "ever": 3757,
  "inst": 2422,
  "delinquency": 7709,
  "displacement": 24889,
  "landry": 28360,
  "cirrus": 24908,
  "##oid": 5096,
  "inhibited": 26338,
  "lanham": 29193,
  "optoelectronics": 28829,
  "elapse": 25351,
  "departmental": 20016,
  "dss": 18508,
  "acquired": 1698,
  "cmf": 23511,
  "proc": 5002,
  "succeeding": 10547,
  "##unctions": 3724,
  "##azoo": 27699,
  "neder": 24675,
  "postponement": 23204,
  "gu": 1431,
  "intravenous": 14776,
  "cal": 1556,
  "hpl": 26632,
  "psa": 13395,
  "written": 2862,
  "##ender": 2505,
  "##revir": 27803,
  "medarex": 29160,
  "steelworkers": 26880,
  "mckenzie": 26660,
  "ruth": 20299,
  "neuros": 15461,
  "mediation": 13142,
  "praxair": 18767,
  "volunteer": 24079,
  "##holding": 16404,
  "resulted": 2570,
  "##graphic": 19490,
  "##reek": 6311,
  "strengths": 9407,
  "shep": 19860,
  "prairie": 16048,
  "##\u043a": 570,
  "larger": 3917,
  "##ahl": 15628,
  "intermittent": 23581,
  "vac": 3841,
  "cherry": 16725,
  "electromagnetic": 18703,
  "obsol": 6025,
  "##ually": 3416,
  "estr": 16336,
  "##arc": 10729,
  "railroad": 7741,
  "deprive": 23482,
  "golden": 7563,
  "santee": 28613,
  "contrain": 27142,
  "drey": 24993,
  "bake": 29871,
  "furnace": 15444,
  "curric": 13617,
  "prioritized": 25362,
  "presses": 19339,
  "intimate": 21838,
  "##char": 27111,
  "lynx": 25434,
  "epo": 13590,
  "countries": 2959,
  "rescission": 9622,
  "##ino": 3047,
  "disqualified": 15995,
  "\u00f7": 208,
  "gpc": 21662,
  "robotic": 17359,
  "airing": 28328,
  "subsea": 15744,
  "hj": 26736,
  "trh": 19849,
  "eldorado": 16173,
  "enl": 16671,
  "scl": 26122,
  "headwaters": 17553,
  "rsas": 16082,
  "exhaustion": 26966,
  "cul": 8384,
  "inser": 11203,
  "tends": 11558,
  "dimin": 7068,
  "bpo": 16878,
  "beazer": 25674,
  "amkor": 27135,
  "royalty": 3407,
  "sugarcane": 25507,
  "alc": 12862,
  "cfm": 25699,
  "smelting": 21798,
  "tracked": 15003,
  "settles": 20849,
  "biotherap": 21591,
  "##oblast": 26476,
  "##\u00b1": 494,
  "sheffield": 21264,
  "##crib": 1957,
  "accepted": 2414,
  "dpsc": 24937,
  "eyes": 23021,
  "##velopment": 27877,
  "hug": 20419,
  "##4": 483,
  "skechers": 26446,
  "expiration": 3658,
  "attraction": 20722,
  "hepatitis": 13226,
  "##teenth": 14516,
  "books": 6942,
  "grande": 17362,
  "remoxy": 29774,
  "ks": 11794,
  "ump": 29086,
  "kv": 13756,
  "ginnie": 15779,
  "commerce": 4633,
  "turner": 13413,
  "protect": 3505,
  "\u2020": 303,
  "vestar": 21547,
  "lod": 7710,
  "distinct": 7507,
  "dedicated": 6229,
  "xc": 25567,
  "bbb": 11224,
  "reflection": 18962,
  "mant": 26622,
  "coke": 11375,
  "##fo": 4489,
  "quotations": 7182,
  "pc": 3796,
  "erie": 16388,
  "ang": 5339,
  "perim": 21388,
  "##pointe": 28906,
  "penns": 4253,
  "##leg": 2568,
  "result": 1147,
  "entered": 1865,
  "##fusion": 28492,
  "pdf": 22667,
  "matheson": 28954,
  "following": 1175,
  "concern": 3854,
  "adjudicated": 21213,
  "siting": 17971,
  "##cast": 8510,
  "unasserted": 16796,
  "boating": 23794,
  "quarter": 1255,
  "catastroph": 13503,
  "##04": 24295,
  "service": 1299,
  "morbid": 13789,
  "contents": 7333,
  "flaws": 21368,
  "enforcement": 4292,
  "bfc": 16434,
  "darling": 27331,
  "stay": 6060,
  "depreciation": 2266,
  "warsaw": 27461,
  "argument": 14804,
  "final": 2873,
  "##2r": 29067,
  "##itude": 8491,
  "dnb": 19624,
  "diode": 20964,
  "##estin": 12170,
  "ara": 28526,
  "##ulted": 17769,
  "bmw": 22546,
  "##book": 8725,
  "hybrids": 27207,
  "kan": 14601,
  "$": 109,
  "untested": 27894,
  "vendors": 3973,
  "dail": 3998,
  "sram": 21724,
  "talon": 27407,
  "##ograp": 2842,
  "holidays": 11946,
  "##ecker": 25467,
  "##acle": 7301,
  "connectivity": 8322,
  "secur": 928,
  "##ansky": 24648,
  "jd": 15483,
  "legislatures": 14792,
  "weinberg": 22695,
  "inc": 661,
  "qsb": 14742,
  "depository": 5358,
  "erp": 10243,
  "pegas": 12281,
  "##iel": 7237,
  "##obil": 26871,
  "crude": 4078,
  "##aranteed": 21715,
  "subparag": 23101,
  "reading": 10210,
  "awareness": 7251,
  "tip": 13379,
  "quarters": 4077,
  "btg": 23096,
  "3c": 28146,
  "sts": 21266,
  "ppg": 15398,
  "edm": 24310,
  "bioequivalence": 21913,
  "##ateralized": 18680,
  "gpos": 24564,
  "##ten": 1625,
  "ali": 11219,
  "afc": 13323,
  "billings": 7226,
  "salons": 18567,
  "##001": 20260,
  "benefic": 2267,
  "ankle": 29592,
  "capsules": 14651,
  "gl": 4529,
  "murr": 12677,
  "provided": 1671,
  "##stemp": 13037,
  "stockton": 24068,
  "rotating": 21789,
  "appreciated": 19506,
  "##atan": 22734,
  "imprecision": 22616,
  "caldwell": 24344,
  "graduated": 10080,
  "##thetically": 28941,
  "morgans": 27697,
  "meristar": 22054,
  "##gow": 29384,
  "westfield": 18199,
  "berg": 10350,
  "tolerated": 13869,
  "refine": 12440,
  "outstand": 23918,
  "seagate": 18337,
  "davis": 9072,
  "reinsurers": 7763,
  "tramm": 28763,
  "biops": 17042,
  "apps": 15263,
  "boundaries": 16929,
  "##\u0441": 575,
  "##lla": 29596,
  "lori": 28255,
  "##istan": 15405,
  "influx": 26053,
  "bj": 17644,
  "noble": 10434,
  "smur": 24341,
  "##otes": 4794,
  "boxed": 27172,
  "pasteur": 25843,
  "ferro": 20011,
  "lined": 27182,
  "bolivars": 28513,
  "nu": 4679,
  "##road": 5775,
  "option": 1509,
  "developer": 7859,
  "subfac": 23248,
  "cmg": 25345,
  "predecess": 4329,
  "plastics": 7757,
  "worth": 4797,
  "##gone": 13386,
  "procured": 16297,
  "electricity": 4050,
  "killing": 22800,
  "crimes": 19909,
  "chronic": 8457,
  "calenergy": 22065,
  "brown": 7033,
  "##nik": 23897,
  "disclosed": 3711,
  "forfe": 3979,
  "jps": 22455,
  "robin": 17349,
  "educate": 14231,
  "energy": 1672,
  "waver": 28317,
  "infrastr": 3547,
  "##uar": 29025,
  "##ros": 16155,
  "##rw": 26571,
  "##tal": 1125,
  "compressed": 17220,
  "reschedule": 28287,
  "citgo": 16666,
  "options": 1325,
  "##card": 9665,
  "narrowly": 20870,
  "##\u02c9": 501,
  "rumors": 27547,
  "##uff": 15242,
  "orchestr": 28745,
  "##ulsion": 13973,
  "milwaukee": 12871,
  "chipsets": 21019,
  "gabelli": 21821,
  "##corp": 8081,
  "objective": 4451,
  "substanti": 15760,
  "cous": 23647,
  "crossroads": 21820,
  "improperly": 12071,
  "martinez": 24262,
  "aqu": 9213,
  "devote": 7003,
  "ke": 7305,
  "forefront": 23180,
  "##apore": 7326,
  "##ary": 810,
  "jb": 20736,
  "gillette": 23614,
  "our": 665,
  "presented": 2372,
  "reclassifying": 24826,
  "##autions": 12025,
  "estrogen": 23709,
  "artific": 12546,
  "##\u02da": 499,
  "hoch": 25923,
  "bss": 29377,
  "moore": 10303,
  "california": 2619,
  "insufficiency": 28394,
  "seab": 11842,
  "interfere": 11132,
  "nug": 20100,
  "avaya": 19791,
  "##dt": 27581,
  "dehydr": 21919,
  "verso": 18287,
  "towns": 11279,
  "rockefeller": 25477,
  "##roll": 3809,
  "microsemi": 29647,
  "##iders": 10398,
  "##kase": 23175,
  "citicorp": 15408,
  "foregone": 22474,
  "crs": 20229,
  "gerald": 12174,
  "layered": 27778,
  "railcar": 11089,
  "##man": 2011,
  "pinnacle": 9496,
  "substitutes": 11139,
  "liquidations": 17411,
  "msha": 24884,
  "properly": 5840,
  "ecm": 25594,
  "##undo": 22093,
  "##olla": 19133,
  "##opard": 10431,
  "vesting": 2977,
  "aco": 27340,
  "ratemaking": 10564,
  "##ocr": 16235,
  "disabled": 12748,
  "outlays": 13862,
  "manitoba": 22641,
  "dred": 15464,
  "accreted": 8678,
  "trunk": 22990,
  "##evine": 28441,
  "mash": 29604,
  "##yard": 13261,
  "walsh": 18364,
  "willow": 15481,
  "lap": 7372,
  "perr": 21750,
  "liability": 1567,
  "goodwin": 26455,
  "ewing": 29542,
  "substituted": 16815,
  "tsr": 12107,
  "tara": 23408,
  "dmr": 25015,
  "reconnaissance": 22767,
  "fried": 11257,
  "ahead": 12652,
  "scholastic": 24047,
  "redetermined": 29227,
  "##ture": 5940,
  "##ibor": 17184,
  "wux": 26048,
  "march": 1323,
  "bancfirst": 28576,
  "arnold": 14827,
  "subsid": 6985,
  "##fluid": 25219,
  "sgr": 24795,
  "##lif": 5482,
  "tropical": 15301,
  "##off": 5786,
  "pct": 15983,
  "chancell": 19615,
  "##itone": 25036,
  "complicated": 14202,
  "metals": 5601,
  "emission": 3871,
  "situated": 9194,
  "##opol": 5565,
  "nda": 6279,
  "atc": 12940,
  "given": 3097,
  "aircraft": 3779,
  "developments": 3957,
  "postage": 12708,
  "##ifying": 3643,
  "har": 4728,
  "consents": 9822,
  "6": 127,
  "crab": 26972,
  "shoreline": 28052,
  "pow": 5299,
  "aggressively": 9639,
  "cpo": 27649,
  "invern": 28815,
  "unreliable": 19197,
  "find": 4001,
  "loaded": 16061,
  "ester": 23775,
  "th": 608,
  "collectibility": 7362,
  "heading": 6549,
  "defer": 3950,
  "staff": 2887,
  "lie": 17822,
  "##burton": 17699,
  "##iran": 28777,
  "bold": 28190,
  "delegation": 20187,
  "baxalta": 24449,
  "hsi": 27197,
  "boxes": 10940,
  "##uls": 13696,
  "devoted": 10525,
  "##aim": 1477,
  "ubiqu": 21632,
  "terrain": 18098,
  "professional": 3071,
  "##atos": 26312,
  "credits": 3571,
  "allegheny": 8329,
  "sma": 24818,
  "insertion": 18874,
  "prevails": 29088,
  "##men": 12246,
  "dan": 6255,
  "repurchases": 5235,
  "carbonless": 28228,
  "[unused36]": 37,
  "enact": 6460,
  "plastic": 6844,
  "##isted": 2300,
  "guggenheim": 25439,
  "immuc": 27590,
  "heartland": 11613,
  "sokol": 28631,
  "drops": 19187,
  "hair": 11514,
  "profits": 3581,
  "symantec": 19660,
  "nv": 9615,
  "indium": 26044,
  "cft": 8724,
  "developed": 2825,
  "\u25a1": 380,
  "sons": 16184,
  "##lox": 19968,
  "##ums": 13905,
  "bankruptcy": 3247,
  "##int": 3842,
  "##bre": 12149,
  "views": 8963,
  "recognizable": 19730,
  "continuity": 10193,
  "hughes": 9454,
  "dim": 5764,
  "km": 11888,
  "her2": 21551,
  "pgc": 28863,
  "hpv": 20023,
  "elections": 11332,
  "rehabilitative": 28295,
  "##7": 482,
  "##heim": 8663,
  "cryopres": 29819,
  "boston": 5506,
  "\u0142": 214,
  "kim": 9985,
  "stero": 19697,
  "fourteen": 12840,
  "inconclusive": 22742,
  "nar": 19591,
  "pmt": 28024,
  "promoting": 10263,
  "disturbed": 28626,
  "gives": 6486,
  "counterfeiting": 25199,
  "cpt": 19902,
  "ch2": 24058,
  "custodian": 7786,
  "settlement": 2341,
  "##isbury": 19417,
  "darwin": 28085,
  "inconsist": 17963,
  "##retable": 12689,
  "##ocon": 11097,
  "redeem": 3454,
  "acknowledgement": 25864,
  "##sa": 6202,
  "cinema": 13165,
  "granting": 5824,
  "abraxas": 24803,
  "dentistry": 25505,
  "##eo": 21428,
  ">": 135,
  "chemically": 22068,
  "filters": 12153,
  "rents": 5858,
  "travelzoo": 25390,
  "howe": 26668,
  "##ystems": 8349,
  "sacks": 29457,
  "fla": 21334,
  "neuro": 21119,
  "bolivar": 23857,
  "##ext": 6941,
  "uncollateralized": 19027,
  "merg": 2089,
  "papuc": 20640,
  "culminating": 27131,
  "notes": 1060,
  "frequencies": 12973,
  "iran": 18541,
  "unlawfully": 29608,
  "landfill": 8158,
  "vict": 10440,
  "osi": 12158,
  "nanjing": 25159,
  "coast": 6028,
  "publicized": 21399,
  "lauderdale": 15784,
  "edwards": 11302,
  "gaap": 2958,
  "motiv": 7255,
  "engaged": 3389,
  "outstanding": 1333,
  "shoppes": 19534,
  "herewith": 5424,
  "pedi": 10002,
  "peruvian": 21439,
  "forwarded": 20041,
  "##ague": 11276,
  "maui": 19060,
  "ferr": 10035,
  "operations": 919,
  "meet": 2159,
  "pouch": 29569,
  "boat": 11542,
  "evenly": 15369,
  "##owa": 7041,
  "disciplines": 15913,
  "domiciled": 11082,
  "##edek": 29988,
  "bunker": 25114,
  "oec": 22574,
  "serve": 3474,
  "dtas": 29045,
  "manipulation": 14392,
  "failing": 9371,
  "trilogy": 27107,
  "##ama": 4518,
  "\u2154": 339,
  "ncs": 24327,
  "compression": 8032,
  "constitute": 5219,
  "##oon": 24592,
  "weyerhaeuser": 24824,
  "unsatisfied": 23048,
  "##asota": 23665,
  "al": 728,
  "glas": 22552,
  "recouped": 22831,
  "solving": 20916,
  "schr": 21126,
  "competing": 5376,
  "409": 15963,
  "##strom": 14343,
  "autozone": 28393,
  "waterloo": 28398,
  "interconnections": 18731,
  "##axin": 23193,
  "##ung": 6274,
  "armored": 19922,
  "nektar": 24804,
  "hdd": 24243,
  "sc": 1871,
  "bases": 5153,
  "idi": 24113,
  "cui": 28323,
  "helping": 11428,
  "##gb": 21342,
  "nord": 10582,
  "cart": 13889,
  "months": 2000,
  "half": 4025,
  "scaled": 18300,
  "ri": 11128,
  "lpl": 27969,
  "cant": 10597,
  "dame": 26845,
  "##pri": 1919,
  "browsers": 25160,
  "precedents": 27465,
  "##\u220a": 579,
  "necessary": 2276,
  "##oseal": 29699,
  "assure": 4296,
  "psychiatric": 15746,
  "minors": 26368,
  "##ombin": 12630,
  "pem": 18027,
  "##parag": 21721,
  "metrics": 7568,
  "expensed": 3925,
  "manganese": 29912,
  "\u0644": 283,
  "ov": 9474,
  "jacobson": 23588,
  "bmi": 22386,
  "graph": 5484,
  "##vue": 18094,
  "cip": 14892,
  "concerning": 3702,
  "mediaone": 27810,
  "totalling": 15803,
  "cath": 8393,
  "southfield": 29873,
  "sean": 21220,
  "##anche": 17422,
  "airtime": 18189,
  "##inoff": 16403,
  "examination": 4122,
  "insulation": 14338,
  "minimal": 6345,
  "##asant": 29339,
  "betterments": 11600,
  "supercedes": 20846,
  "whir": 21670,
  "stev": 11517,
  "trg": 24914,
  "fresno": 21346,
  "produce": 3763,
  "coffey": 23062,
  "gym": 28191,
  "unpr": 7591,
  "unin": 17130,
  "regard": 1776,
  "budgetary": 13802,
  "##ellus": 13814,
  "gateways": 17158,
  "repayment": 3940,
  "zoom": 21103,
  "boomer": 25322,
  "spencer": 19913,
  "##yers": 10715,
  "toil": 29572,
  "gics": 24958,
  "ia": 15353,
  "purse": 29428,
  "valhi": 21007,
  "princ": 1164,
  "fractures": 19772,
  "penske": 26621,
  "harrah": 18375,
  "engle": 16139,
  "napro": 25602,
  "incineration": 26408,
  "##timore": 10535,
  "indicators": 5816,
  "could": 1024,
  "accrediting": 17499,
  "standalone": 10639,
  "ctx": 29445,
  "eighteen": 11417,
  "liab": 1054,
  "##ok": 1570,
  "remit": 6470,
  "showrooms": 21218,
  "controller": 5362,
  "##ched": 11095,
  "##hang": 29230,
  "spends": 24631,
  "nrc": 8373,
  "pharmacists": 19710,
  "relinquished": 17713,
  "updated": 5876,
  "domestically": 9184,
  "getting": 20570,
  "inherently": 6631,
  "joshua": 22074,
  "talented": 14199,
  "behavior": 6919,
  "geo": 12672,
  "pepco": 6906,
  "##chi": 16274,
  "experiments": 20979,
  "hayes": 18976,
  "cookies": 18983,
  "marr": 19504,
  "electroporation": 29813,
  "keystone": 12242,
  "canargo": 25296,
  "aggregation": 12426,
  "genoty": 19757,
  "wolfc": 28555,
  "trans": 962,
  "yon": 28352,
  "wil": 5671,
  "pressures": 5765,
  "separately": 4391,
  "isle": 14619,
  "##sop": 6298,
  "\u220e": 354,
  "trips": 21967,
  "tum": 6659,
  "uso": 24257,
  "##jiang": 13699,
  "##ifty": 20400,
  "mci": 13114,
  "believing": 25221,
  "aon": 16384,
  "##lu": 3731,
  "drilled": 7717,
  "hasbro": 23756,
  "bryant": 19064,
  "afh": 22041,
  "appointed": 4512,
  "blo": 4914,
  "monroe": 13908,
  "##tex": 10399,
  "helco": 20534,
  "pra": 20118,
  "grain": 7744,
  "##imilar": 13035,
  "##hua": 13072,
  "perio": 29837,
  "mccorm": 19513,
  "##idents": 6956,
  "repatriation": 9223,
  "contributing": 7243,
  "arrest": 27152,
  "##letes": 19752,
  "smok": 10818,
  "greenwood": 20943,
  "textbooks": 19966,
  "scrubber": 23466,
  "ionis": 26425,
  "##erts": 18478,
  "turned": 17232,
  "##cape": 9962,
  "[unused63]": 64,
  "fha": 11471,
  "duck": 25711,
  "##entures": 2662,
  "intrusive": 26025,
  "tremont": 24461,
  "marion": 18777,
  "\u2612": 395,
  "control": 1105,
  "##abel": 19206,
  "morale": 24739,
  "nanopartic": 26216,
  "occup": 3583,
  "cp": 5539,
  "brack": 22660,
  "workshop": 23744,
  "numeric": 26292,
  "collections": 5785,
  "consign": 23750,
  "smg": 23056,
  "bromine": 27686,
  "\u2191": 348,
  "verint": 22786,
  "##ager": 11454,
  "conditional": 8013,
  "##ought": 3960,
  "milton": 19533,
  "aruba": 27073,
  "dosed": 23169,
  "ftrs": 25858,
  "raid": 24764,
  "maritime": 12151,
  "kensington": 29254,
  "##pres": 18684,
  "##utr": 8733,
  "cels": 27796,
  "##ithe": 19644,
  "##dic": 2415,
  "complexity": 6786,
  "hodgkin": 27210,
  "##val": 1757,
  "rainier": 29658,
  "per": 737,
  "##\u0432": 535,
  "screw": 22101,
  "shipyards": 25874,
  "##orks": 24708,
  "##rob": 18340,
  "flu": 5787,
  "consolidate": 5954,
  "eureka": 20749,
  "##2nd": 18207,
  "formerly": 4395,
  "altered": 13876,
  "##ie": 1247,
  "ligand": 18354,
  "strains": 16894,
  "fur": 1813,
  "##94": 26932,
  "implantation": 20626,
  "independence": 4615,
  "fy20": 27883,
  "##otex": 19244,
  "mang": 19255,
  "bitcoin": 18793,
  "##south": 10968,
  "benign": 24459,
  "gainful": 27122,
  "allot": 10054,
  "tornado": 15774,
  "versa": 17335,
  "niss": 25675,
  "\u20a4": 327,
  "##micro": 29216,
  "autoimmune": 15203,
  "##tec": 9656,
  "none": 2836,
  "dealings": 15328,
  "##utility": 17632,
  "accomplished": 9941,
  "nac": 12566,
  "insiders": 13033,
  "nve": 19185,
  "categor": 6612,
  "navigators": 27180,
  "concerned": 13577,
  "##hn": 10083,
  "wants": 24681,
  "bulgaria": 25405,
  "xl": 11969,
  "amg": 25784,
  "##elabs": 25763,
  "amvac": 26382,
  "##alding": 28578,
  "demand": 2082,
  "kickbacks": 27026,
  "swings": 20629,
  "disks": 20793,
  "consenting": 23727,
  "tubular": 12462,
  "peripheral": 9601,
  "##vers": 1997,
  "sigeco": 20340,
  "\u2779": 410,
  "lithium": 11998,
  "morningstar": 18645,
  "jm": 16807,
  "alberto": 22845,
  "mesquite": 22890,
  "master": 3414,
  "undue": 9949,
  "fsi": 19079,
  "fabric": 5920,
  "zhong": 14766,
  "configur": 8142,
  "sars": 7714,
  "temper": 6914,
  "amplifiers": 14882,
  "dispositive": 11318,
  "eh": 20801,
  "transparency": 9659,
  "dh": 14265,
  "braking": 24127,
  "footnote": 8104,
  "sug": 5894,
  "supportable": 17736,
  "coram": 25771,
  "longest": 20344,
  "\u0441": 267,
  "undisclosed": 15289,
  "##hal": 9370,
  "block": 5480,
  "mission": 6898,
  "preparedness": 21892,
  "##ligen": 20459,
  "##ayer": 14775,
  "outsource": 9820,
  "medium": 5692,
  "trss": 14165,
  "spansion": 19879,
  "##aho": 6861,
  "enacting": 26218,
  "compound": 6307,
  "flor": 3552,
  "frisco": 27274,
  "course": 3171,
  "fix": 1896,
  "scm": 20195,
  "epilepsy": 21941,
  "tren": 19280,
  "maximize": 6094,
  "rg": 11976,
  "afudc": 10109,
  "refiners": 16211,
  "meredith": 20968,
  "##gins": 17592,
  "deems": 8311,
  "pipes": 20990,
  "unincorporated": 19850,
  "##oli": 13313,
  "##arbonate": 25144,
  "fit": 5636,
  "along": 3874,
  "siebert": 23826,
  "illustrates": 10262,
  "seth": 28053,
  "coated": 11562,
  "point": 3478,
  "chun": 26841,
  "##ptv": 21150,
  "assets": 914,
  "castings": 15601,
  "organize": 15499,
  "portra": 29825,
  "keyword": 23448,
  "covidien": 21097,
  "qatar": 28239,
  "##aston": 24642,
  "worked": 6390,
  "##\u03ba": 520,
  "shoen": 26293,
  "bally": 11271,
  "pursuing": 6467,
  "according": 2204,
  "replication": 18462,
  "##stop": 16932,
  "surgical": 6495,
  "##fl": 12145,
  "rvs": 24678,
  "roadhouse": 24163,
  "acknowledgment": 23338,
  "##oles": 3532,
  "realloc": 12854,
  "prevailed": 24366,
  "lime": 14856,
  "wars": 15608,
  "evaluated": 3783,
  "\u220a": 353,
  "hours": 5428,
  "insurers": 5689,
  "##utations": 29175,
  "reass": 8015,
  "\u263a": 397,
  "##ecton": 23197,
  "trusteed": 26694,
  "##base": 8939,
  "grape": 19023,
  "worksite": 18162,
  "rodino": 23865,
  "orbital": 14142,
  "##dr": 2085,
  "olivier": 22496,
  "aeol": 28948,
  "vacancy": 11492,
  "contrave": 29028,
  "##alt": 8866,
  "piggyback": 17391,
  "meter": 10781,
  "maritrans": 29847,
  "cwc": 28060,
  "forced": 6219,
  "hampton": 14970,
  "intens": 9987,
  "divid": 1479,
  "fasteners": 17803,
  "##bright": 25727,
  "##aza": 6709,
  "eac": 24428,
  "known": 3012,
  "##dle": 5193,
  "tpg": 13668,
  "hereunder": 9903,
  "pellet": 26658,
  "backing": 18234,
  "conducive": 28942,
  "phd": 19438,
  "mips": 22368,
  "gluc": 10424,
  "carib": 10811,
  "nitrous": 26549,
  "disturb": 13280,
  "mirrors": 20644,
  "separations": 22285,
  "executives": 4494,
  "assignments": 10810,
  "shifting": 12533,
  "mro": 17642,
  "registry": 12866,
  "trains": 16871,
  "kent": 6083,
  "dbntc": 15998,
  "dcp": 12633,
  "hti": 26124,
  "##hd": 16135,
  "daimler": 17453,
  "officially": 20327,
  "curriculum": 14918,
  "tabulation": 29525,
  "tyson": 22411,
  "vascepa": 24403,
  "##ogy": 13960,
  "equus": 27593,
  "throughp": 8288,
  "association": 3116,
  "##45": 20002,
  "##oat": 26400,
  "operation": 2635,
  "##ycom": 27505,
  "##illard": 15702,
  "peo": 16356,
  "gecas": 27874,
  "creek": 6482,
  "traff": 5084,
  "fell": 10747,
  "facsim": 14565,
  "cockpit": 28027,
  "remission": 25878,
  "largest": 3420,
  "aberdeen": 24415,
  "tess": 19671,
  "##emed": 2651,
  "belden": 24851,
  "dearborn": 18225,
  "##insic": 5439,
  "##akis": 24438,
  "##tery": 9003,
  "disbursements": 10608,
  "riverstone": 29294,
  "argon": 23797,
  "reson": 18528,
  "vulner": 6944,
  "##bs": 2238,
  "##lementing": 5071,
  "\u2778": 409,
  "wfoe": 19032,
  "passu": 14435,
  "obstructive": 28879,
  "broc": 18819,
  "accretion": 6747,
  "bma": 16106,
  "recessions": 17781,
  "preemp": 11936,
  "handsets": 12350,
  "udr": 19508,
  "whar": 15902,
  "rheumat": 17226,
  "lord": 22653,
  "cleveland": 9995,
  "intrusions": 23835,
  "infin": 20485,
  "\u0430": 255,
  "reimbursement": 3433,
  "simplicity": 22134,
  "[unused41]": 42,
  "academy": 13305,
  "evidence": 3286,
  "gilbert": 16594,
  "links": 11433,
  "##atro": 29486,
  "sport": 12162,
  "instructors": 25605,
  "extinguished": 12494,
  "kev": 10334,
  "interpretations": 5366,
  "\u0268": 221,
  "##earch": 1849,
  "enhancing": 7768,
  "chris": 8979,
  "some": 1868,
  "##reated": 20248,
  "autonom": 19650,
  "##sville": 18863,
  "##liquid": 8414,
  "twe": 11563,
  "irwin": 18654,
  "tropicana": 14699,
  "##ency": 1499,
  "philippine": 20871,
  "streamlined": 16834,
  "##line": 3029,
  "##guan": 27715,
  "##nski": 24829,
  "establish": 1640,
  "pul": 6040,
  "commenced": 4300,
  "assembled": 10254,
  "purports": 20813,
  "alleging": 5826,
  "after": 1485,
  "recognize": 3094,
  "botan": 25788,
  "edible": 25307,
  "##areit": 13234,
  "##ule": 1959,
  "vegetables": 17059,
  "confirmatory": 22640,
  "organized": 5176,
  "##stead": 18572,
  "[unused22]": 23,
  "wagered": 28069,
  "png": 25886,
  "cautioned": 13180,
  "volcan": 18469,
  "nephr": 21398,
  "interconnects": 20362,
  "loi": 23707,
  "robo": 11692,
  "##agan": 16818,
  "wellesley": 26890,
  "cu": 10234,
  "deceased": 21681,
  "wavelengths": 27117,
  "tempered": 28442,
  "##zin": 27628,
  "##ommunications": 20788,
  "gac": 29225,
  "perman": 4457,
  "burg": 22100,
  "##br": 3349,
  "##assurance": 21319,
  "turbo": 14546,
  "mcafee": 22981,
  "place": 3095,
  "daisy": 28673,
  "centralizing": 28006,
  "vulcan": 14106,
  "imprud": 26771,
  "q1": 25187,
  "plaza": 6935,
  "dest": 28405,
  "department": 3314,
  "categorization": 17189,
  "10": 6363,
  "prompt": 5659,
  "nbc": 9970,
  "c2": 19067,
  "shang": 9339,
  "5th": 20271,
  "alagasco": 17049,
  "##onix": 20427,
  "##ecomm": 25043,
  "abstracts": 29467,
  "bol": 8471,
  "brennan": 25656,
  "##eption": 3663,
  "markups": 20161,
  "##kyo": 12880,
  "pending": 3154,
  "magn": 6366,
  "dms": 21713,
  "undr": 11826,
  "polic": 1453,
  "belle": 15720,
  "##walls": 24606,
  "singh": 25564,
  "##conn": 6014,
  "antioxidant": 28265,
  "##persons": 22102,
  "##mal": 7749,
  "scheduling": 10205,
  "sclerosis": 19386,
  "resistant": 10889,
  "nui": 29827,
  "##face": 4823,
  "movies": 13248,
  "nonclinical": 17007,
  "lakes": 9075,
  "insurer": 6611,
  "triglycer": 26763,
  "bpi": 28051,
  "nvidia": 24754,
  "delivering": 7513,
  "myr": 20924,
  "estimation": 6804,
  "diagnoses": 28577,
  "kraton": 26436,
  "wheeling": 18275,
  "##lace": 24577,
  "bg": 17494,
  "korea": 7900,
  "configurable": 26010,
  "aids": 11584,
  "bodily": 14391,
  "encompassed": 24063,
  "ret": 1369,
  "franchisees": 6532,
  "hundred": 7393,
  "hosts": 19956,
  "iot": 18652,
  "osc": 16537,
  "##ym": 9399,
  "##inating": 22907,
  "welsh": 25078,
  "cyt": 11395,
  "double": 8045,
  "theatr": 8722,
  "halt": 16145,
  "reven": 961,
  "platelets": 23318,
  "proportionate": 6827,
  "oreg": 7196,
  "geograp": 3205,
  "##cul": 17366,
  "##va": 6687,
  "exploited": 28738,
  "focuses": 7278,
  "when": 1439,
  "##osterone": 18889,
  "affiliate": 3588,
  "asserted": 6048,
  "##ocratic": 25230,
  "evidenced": 9071,
  "transportation": 3190,
  "collectively": 3826,
  "sandwich": 18306,
  "##erry": 6690,
  "\u221a": 360,
  "returnable": 27470,
  "ncb": 14820,
  "aug": 1862,
  "substantive": 7929,
  "flushing": 27726,
  "\uff4f": 442,
  "bic": 15284,
  "nch": 28589,
  "diablo": 27613,
  "pink": 11599,
  "slurry": 22043,
  "trailing": 12018,
  "continents": 25289,
  "rebuilding": 21271,
  "congestive": 28354,
  "certified": 4602,
  "incorporating": 8509,
  "dip": 8452,
  "prints": 21422,
  "newsstand": 26392,
  "contin": 1074,
  "insur": 22166,
  "##oner": 26485,
  "##more": 4094,
  "rep": 1291,
  "inorgan": 22684,
  "sich": 21458,
  "orchards": 22868,
  "preview": 26537,
  "imply": 21392,
  "##erna": 27564,
  "##\u0434": 577,
  "privile": 8269,
  "combines": 11108,
  "##opoietic": 28501,
  "cst": 23022,
  "##adin": 20042,
  "espn": 24209,
  "token": 28787,
  "centre": 12074,
  "paradise": 17477,
  "married": 23772,
  "twc": 13094,
  "core": 3398,
  "##yal": 2595,
  "special": 2202,
  "antibacter": 28571,
  "delivered": 3942,
  "contesting": 16941,
  "sanofi": 11810,
  "##all": 1119,
  "bornh": 25248,
  "exploratory": 8717,
  "##ibus": 7223,
  "mo": 1445,
  "##astic": 14673,
  "realizing": 10479,
  "##eted": 14500,
  "ablation": 17115,
  "##36": 21927,
  "##db": 18031,
  "student": 6319,
  "zyn": 27015,
  "unproved": 10136,
  "william": 4443,
  "hsd": 20137,
  "rcn": 18533,
  "prolong": 8124,
  "missour": 5958,
  "ers": 29634,
  "textainer": 28508,
  "underestim": 27869,
  "intrusion": 16079,
  "tia": 16511,
  "fabricate": 21939,
  "##ned": 3405,
  "ding": 22776,
  "diamonds": 17837,
  "adviser": 6770,
  "##idex": 22203,
  "atwood": 28503,
  "individualized": 20307,
  "hooper": 29915,
  "fare": 17425,
  "birth": 15885,
  "thrombosis": 28961,
  "singly": 26685,
  "severance": 3722,
  "liquidity": 2223,
  "pads": 17091,
  "abst": 17065,
  "##ination": 1422,
  "niagara": 13027,
  "sens": 3448,
  "serono": 22979,
  "interfered": 25766,
  "##oscopic": 20141,
  "assignor": 16477,
  "tall": 14486,
  "independently": 6449,
  "##nett": 10467,
  "fact": 1427,
  "falcon": 12249,
  "idr": 27782,
  "warren": 10936,
  "\u0192": 217,
  "downtime": 13336,
  "vodka": 28790,
  "sonoma": 20431,
  "minerals": 6387,
  "merisel": 27552,
  "ces": 11565,
  "##ified": 1368,
  "integra": 18656,
  "lifestyle": 10322,
  "ots": 6503,
  "disappro": 15845,
  "mortgage": 1695,
  "redr": 23745,
  "mono": 24814,
  "meters": 9124,
  "blizzard": 29383,
  "rigid": 13987,
  "##hes": 7847,
  "##ovascular": 21879,
  "compati": 8277,
  "forbearance": 10385,
  "swept": 29764,
  "landowner": 26908,
  "cru": 8335,
  "modestly": 17003,
  "##oche": 25316,
  "technically": 13885,
  "kimberly": 16467,
  "fitchburg": 27716,
  "maguire": 29926,
  "sis": 21999,
  "powerc": 28365,
  "honesty": 27569,
  "merch": 3132,
  "unass": 14042,
  "bellevue": 22384,
  "moving": 7173,
  "underm": 18825,
  "doctors": 14233,
  "reformulated": 26405,
  "repe": 8293,
  "powered": 10760,
  "securities": 1053,
  "hbo": 22060,
  "loops": 26274,
  "destination": 9793,
  "unintended": 19301,
  "amino": 20073,
  "calculations": 6117,
  "valued": 3625,
  "##ifications": 3511,
  "theoretically": 29268,
  "##imen": 9543,
  "brands": 4236,
  "safes": 28368,
  "incorporate": 6340,
  "magnesium": 19570,
  "woodford": 27040,
  "gables": 21289,
  "schizophren": 23608,
  "propell": 20444,
  "weapon": 25448,
  "##nam": 9704,
  "weyer": 24029,
  "joint": 2246,
  "sheff": 21009,
  "cosmetic": 10384,
  "##mento": 12882,
  "##1r": 10233,
  "cryogenic": 19764,
  "tup": 22724,
  "##ylea": 29738,
  "clerical": 16709,
  "##elling": 21210,
  "penetrate": 12070,
  "processed": 5145,
  "arbit": 5431,
  "\u0432": 257,
  "galvan": 17541,
  "acetamin": 28702,
  "ccg": 26215,
  "cablevision": 12620,
  "activation": 11421,
  "emerge": 11034,
  "##he": 2895,
  "atkinson": 28890,
  "##irco": 24210,
  "##sell": 8705,
  "##acher": 18616,
  "\u2666": 401,
  "##yps": 13580,
  "generated": 2725,
  "unjust": 12831,
  "cur": 4215,
  "observ": 10901,
  "burning": 16029,
  "domtar": 28632,
  "##edg": 1675,
  "minimization": 29748,
  "froz": 8060,
  "ministry": 10827,
  "sealed": 18025,
  "plan": 1012,
  "cogeneration": 11499,
  "gre": 7856,
  "peaks": 17456,
  "franklin": 8406,
  "purportedly": 14916,
  "imtt": 25755,
  "##ying": 1290,
  "##ping": 3106,
  "encumbr": 11861,
  "##een": 9235,
  "##isson": 24630,
  "disregard": 15097,
  "pocon": 26334,
  "messenger": 23956,
  "fragrance": 14865,
  "##sp": 1880,
  "insitu": 26177,
  "sunset": 16695,
  "dragon": 17842,
  "sp": 986,
  "##ando": 15732,
  "##cho": 29951,
  "comming": 13585,
  "flow": 1266,
  "ben": 1113,
  "##cheduled": 14263,
  "harm": 3294,
  "phases": 8000,
  "armour": 26909,
  "detach": 14824,
  "prior": 1355,
  "##ivo": 24474,
  "##etry": 13666,
  "houghton": 23058,
  "unpl": 28077,
  "##lie": 10530,
  "deflation": 16904,
  "mcne": 14287,
  "post": 2463,
  "##tam": 28158,
  "improving": 5736,
  "##tivity": 4198,
  "##ott": 4744,
  "kilovol": 28949,
  "http": 8289,
  "##\uff47": 564,
  "slm": 20488,
  "##biz": 25454,
  "utilize": 3898,
  "old": 4522,
  "heinz": 19286,
  "##amine": 12389,
  "authorize": 8283,
  "ofir": 28800,
  "concept": 7110,
  "song": 14966,
  "adherence": 11541,
  "arvin": 27488,
  "##mos": 20529,
  "niger": 16296,
  "studied": 14210,
  "singular": 26009,
  "impsat": 27280,
  "vault": 17338,
  "bankers": 7025,
  "##arman": 29034,
  "operational": 3386,
  "declined": 4755,
  "cumberland": 18117,
  "courts": 6855,
  "##anz": 19390,
  "discovered": 8274,
  "##bay": 24211,
  "ptc": 16013,
  "wwe": 24480,
  "##funding": 22232,
  "alman": 29458,
  "\u25c6": 386,
  "chilean": 20564,
  "volatilities": 11546,
  "music": 6443,
  "petersen": 25446,
  "disallowed": 13956,
  "manuals": 18725,
  "##rec": 6283,
  "##pc": 5070,
  "cher": 14649,
  "kidney": 13396,
  "uninten": 20460,
  "##eal": 6234,
  "hitachi": 17434,
  "russia": 9533,
  "integrate": 5633,
  "therapeutic": 5810,
  "adam": 15140,
  "##iser": 15475,
  "foundries": 12615,
  "##inated": 1933,
  "replace": 4996,
  "dcpsc": 27144,
  "##queous": 29494,
  "##olic": 9480,
  "qui": 12528,
  "##etitive": 13809,
  "grown": 8221,
  "##dition": 830,
  "cytogen": 25101,
  "\u03bf": 246,
  "\u2172": 346,
  "##laim": 12091,
  "seattle": 9008,
  "ritten": 25904,
  "##\u00b5": 490,
  "volt": 9847,
  "retaliation": 29808,
  "unann": 21301,
  "trim": 10286,
  "hauppauge": 28363,
  "rein": 3915,
  "##inta": 15643,
  "clothing": 12534,
  "internet": 2883,
  "suzhou": 23041,
  "acceler": 3486,
  "underwriting": 3821,
  "##mental": 1814,
  "hyperion": 19878,
  "marwick": 14508,
  "pakistan": 21950,
  "bench": 5952,
  "ilg": 28261,
  "##iors": 10557,
  "exempts": 19558,
  "respiratory": 10448,
  "##iston": 13198,
  "##entin": 27455,
  "telephones": 14974,
  "verif": 16852,
  "matched": 10216,
  "amti": 24684,
  "tallah": 27522,
  "##lass": 2987,
  "cell": 3220,
  "um": 12168,
  "protocols": 8925,
  "prime": 4171,
  "##ira": 9629,
  "applicable": 1717,
  "currency": 2146,
  "custody": 11639,
  "roaming": 11889,
  "dre": 29351,
  "nylon": 22561,
  "recalls": 9784,
  "##hood": 4638,
  "nanot": 19277,
  "sjgs": 20121,
  "##heresis": 28259,
  "matsushita": 28436,
  "kc": 14785,
  "flamm": 24906,
  "sugges": 22522,
  "##pters": 18011,
  "mineral": 3867,
  "distrib": 1257,
  "fe": 1059,
  "inhibitors": 11292,
  "cod": 2357,
  "unsec": 3374,
  "regulations": 1707,
  "##itage": 9146,
  "refrigerated": 14150,
  "parents": 13512,
  "##ance": 736,
  "##lifts": 29332,
  "legislators": 19001,
  "wage": 7962,
  "contiguous": 12931,
  "peak": 6152,
  "html": 22690,
  "presby": 29848,
  "davies": 26650,
  "##illy": 9355,
  "dsus": 19985,
  "totaled": 3086,
  "marginally": 22164,
  "mpi": 26241,
  "colleges": 13332,
  "deterior": 4219,
  "##alon": 14269,
  "cabana": 25714,
  "xto": 22300,
  "vandalism": 22289,
  "##erville": 17103,
  "payer": 13572,
  "seventeenth": 29790,
  "##anufact": 14991,
  "levels": 2224,
  "principally": 3241,
  "departures": 15018,
  "##tive": 716,
  "##osf": 29039,
  "keros": 29038,
  "##tman": 22696,
  "substitute": 7194,
  "##mobil": 16670,
  "softness": 19033,
  "dang": 24335,
  "wheat": 12137,
  "heirs": 24339,
  "aggregate": 1921,
  "mesa": 10925,
  "clos": 2062,
  "insign": 7535,
  "agre": 875,
  "casey": 21768,
  "cytosorb": 29623,
  "beliefs": 11030,
  "discom": 26144,
  "projections": 4336,
  "mfg": 22019,
  "retainers": 21720,
  "sho": 9105,
  "##erox": 15435,
  "founded": 6882,
  "inadequacy": 25269,
  "puhca": 14267,
  "prototype": 10645,
  "zadaxin": 26850,
  "computed": 3734,
  "predictably": 28241,
  "sunbelt": 22389,
  "ae": 7050,
  "administratively": 23106,
  "date": 1154,
  "bes": 16974,
  "rc": 10549,
  "antioxid": 22536,
  "headquarter": 7484,
  "##lich": 18015,
  "grill": 13551,
  "centrally": 14133,
  "spite": 19727,
  "eet": 25209,
  "aic": 10256,
  "\u043d": 263,
  "embark": 21837,
  "##etek": 17476,
  "heretofore": 22298,
  "##ham": 6341,
  "mental": 15067,
  "vigorously": 6209,
  "fres": 14861,
  "inspection": 6290,
  "unitization": 27001,
  "steele": 29673,
  "null": 22613,
  "conforming": 11131,
  "consulted": 18277,
  "remediation": 3923,
  "varieties": 17353,
  "robinson": 12687,
  "carbide": 18063,
  "reiter": 29184,
  "\u201c": 299,
  "##ece": 9927,
  "endpoint": 11001,
  "cleanu": 7240,
  "ire": 8058,
  "corrective": 6077,
  "relevance": 15961,
  "arises": 9437,
  "hotels": 4642,
  "categ": 2880,
  "drove": 16385,
  "iic": 26229,
  "gwh": 24265,
  "pass": 3164,
  "gamble": 16692,
  "mmcfd": 27536,
  "recapture": 10475,
  "roch": 11630,
  "\u0f8a": 289,
  "mineable": 26578,
  "danish": 22317,
  "financing": 1770,
  "freit": 18235,
  "##tifiable": 16644,
  "##je": 27605,
  "retroactive": 6369,
  "\u0443": 269,
  "ept": 29432,
  "uss": 19933,
  "cok": 28302,
  "coincident": 25148,
  "subcutaneous": 19599,
  "manning": 17309,
  "cb": 7188,
  "strikes": 12457,
  "fabr": 10009,
  "customized": 7404,
  "##ict": 2114,
  "glenc": 24614,
  "determinable": 5569,
  "##ns": 2778,
  "rpa": 29059,
  "contests": 18016,
  "representations": 5976,
  "expressed": 4591,
  "reinstatement": 14421,
  "stated": 3143,
  "frances": 23028,
  "registrants": 5948,
  "##cp": 5412,
  "alltel": 16597,
  "logic": 10480,
  "unionized": 13999,
  "volunte": 13245,
  "markets": 1647,
  "##avi": 19150,
  "##ourne": 13842,
  "compli": 6891,
  "maver": 25663,
  "memor": 7716,
  "practiced": 17145,
  "tunnel": 16819,
  "wings": 21312,
  "intensive": 8450,
  "##40": 11098,
  "indenture": 3713,
  "particularly": 3586,
  "[unused53]": 54,
  "csp": 13967,
  "descriptions": 11659,
  "##ept": 2726,
  "bmp": 25384,
  "unexp": 6089,
  "##ou": 651,
  "syru": 18554,
  "installations": 10289,
  "##ially": 5499,
  "freest": 10899,
  "aif": 25325,
  "cdars": 21710,
  "demutualization": 25190,
  "mike": 19683,
  "beneficial": 2444,
  "recur": 14388,
  "##jay": 29474,
  "neigh": 9201,
  "inspected": 15120,
  "parsley": 20546,
  "priced": 5878,
  "updating": 14557,
  "spark": 14931,
  "##opee": 28005,
  "fic": 15037,
  "##ading": 6118,
  "diminishing": 23115,
  "sublicensees": 22860,
  "affiliation": 10155,
  "hibernia": 28859,
  "arranger": 16186,
  "unless": 2916,
  "payload": 23227,
  "mortality": 7483,
  "##ian": 2145,
  "uve": 29752,
  "claud": 24940,
  "discrep": 21333,
  "sublicensing": 20954,
  "damp": 21719,
  "##freight": 29640,
  "artic": 4526,
  "relating": 2096,
  "profile": 6504,
  "appe": 3691,
  "coins": 11792,
  "refined": 7155,
  "inviting": 29843,
  "culmin": 20465,
  "##express": 28902,
  "##hca": 13907,
  "ariba": 25271,
  "bag": 11665,
  "weaken": 15426,
  "plans": 1649,
  "integrating": 7420,
  "mcmill": 26707,
  "[unused18]": 19,
  "##ing": 634,
  "constructing": 10578,
  "melafind": 27706,
  "##illips": 17980,
  "##au": 1327,
  "verifone": 29456,
  "diabetic": 15884,
  "##cyc": 23687,
  "bro": 2325,
  "##eptic": 26302,
  "cle": 2601,
  "marking": 14034,
  "##bile": 3427,
  "maric": 26529,
  "##ximab": 21857,
  "qspes": 26892,
  "deltacom": 25541,
  "dist": 5687,
  "dialog": 17643,
  "makeup": 21142,
  "arra": 17577,
  "push": 11463,
  "miller": 8218,
  "choosing": 15664,
  "deq": 27468,
  "rochester": 12616,
  "arre": 7170,
  "borrower": 3443,
  "contributes": 10972,
  "##bridge": 6724,
  "ee": 10716,
  "recognized": 1519,
  "deposition": 14893,
  "##aded": 8141,
  "purport": 10813,
  "mpg": 29100,
  "characterized": 6133,
  "rayon": 19342,
  "howard": 10051,
  "father": 16704,
  "prepetition": 19404,
  "hol": 6422,
  "anticipating": 15600,
  "##aby": 18886,
  "transcan": 20415,
  "##alc": 13595,
  "strike": 7977,
  "nich": 7675,
  "nsr": 13928,
  "petrol": 25484,
  "endos": 26195,
  "##berg": 5676,
  "inverness": 28872,
  "shel": 11266,
  "usso": 25866,
  "severed": 26391,
  "lan": 9814,
  "sydney": 17674,
  "mediterranean": 27376,
  "endanger": 22543,
  "citibank": 9306,
  "pigment": 18466,
  "##anol": 5607,
  "ernest": 19473,
  "dayton": 13338,
  "mma": 18173,
  "cbm": 18840,
  "##ova": 9460,
  "lim": 1143,
  "tnp": 18293,
  "##go": 2384,
  "##olec": 25284,
  "##eme": 4421,
  "charming": 26189,
  "expo": 24868,
  "exams": 27237,
  "##mination": 28357,
  "combinations": 4311,
  "voucher": 29401,
  "longstanding": 22521,
  "inconsistent": 9706,
  "controllers": 13606,
  "voyage": 15701,
  "shareholdings": 26252,
  "##xin": 15500,
  "##pore": 17975,
  "##asons": 4627,
  "tmi": 18576,
  "bonus": 3207,
  "endoscopes": 28487,
  "rpm": 17034,
  "##vant": 3261,
  "##rig": 21145,
  "istar": 29240,
  "srk": 26253,
  "inhibitor": 11373,
  "nbp": 16573,
  "contracts": 1574,
  "##ynchronous": 25343,
  "ecol": 23120,
  "ma": 1107,
  "earthqu": 7872,
  "requ": 860,
  "biovest": 22859,
  "sludge": 23916,
  "unnecess": 12872,
  "oe": 12050,
  "pico": 19343,
  "nonperformance": 8812,
  "##mill": 18998,
  "gr": 879,
  "##urn": 1467,
  "##cyte": 23657,
  "wei": 17308,
  "outp": 5710,
  "scherer": 18056,
  "\u2605": 392,
  "capt": 12240,
  "austral": 4577,
  "##aster": 3115,
  "jupiter": 20538,
  "##ife": 8449,
  "waterhouse": 14917,
  "ruby": 19293,
  "suspected": 17848,
  "ptwh": 15382,
  "thoroughbred": 20300,
  "##ala": 11624,
  "personalized": 10573,
  "verbal": 18381,
  "westbrook": 29883,
  "transitioned": 14092,
  "improbable": 20986,
  "small": 2652,
  "##licit": 11631,
  "##aper": 8932,
  "alion": 23117,
  "prem": 2147,
  "arcon": 27995,
  "licensing": 3641,
  "vitro": 12379,
  "##ks": 2324,
  "cpi": 10956,
  "brit": 16513,
  "##estration": 18064,
  "supplemental": 3616,
  "inoperable": 29628,
  "b1": 21648,
  "streams": 8851,
  "sheldon": 26580,
  "levitt": 21370,
  "look": 2785,
  "uncollectible": 5790,
  "capsule": 19583,
  "fluor": 14466,
  "twice": 10354,
  "##asting": 6356,
  "##eming": 18954,
  "lions": 25283,
  "precon": 29800,
  "lacks": 17496,
  "prejudice": 8970,
  "vouchers": 26228,
  "mand": 4055,
  "##tia": 12241,
  "weakness": 3913,
  "##azar": 29304,
  "##\u0456": 569,
  "proxies": 12238,
  "ceramics": 18073,
  "productions": 13105,
  "rail": 4562,
  "yogurt": 23422,
  "##tors": 12552,
  "vas": 12285,
  "ceres": 19465,
  "exist": 3993,
  "pest": 20235,
  "watershed": 29074,
  "ciba": 27325,
  "##zer": 6045,
  "##irm": 4467,
  "angiogenesis": 24633,
  "deduction": 5760,
  "##etics": 18415,
  "subset": 16656,
  "january": 1380,
  "ceva": 27474,
  "##ics": 2483,
  "##embers": 23255,
  "alza": 19639,
  "cutting": 9581,
  "##chlor": 19454,
  "densely": 26936,
  "##\u0455": 596,
  "##metto": 24375,
  "patriot": 9108,
  "ventas": 21006,
  "poly": 5541,
  "nhpuc": 19795,
  "inventoried": 24653,
  "alameda": 22619,
  "##coming": 20357,
  "noncompetitive": 19855,
  "\u2019": 296,
  "clause": 8237,
  "reclassified": 4273,
  "more": 1258,
  "felcor": 16181,
  "disag": 4264,
  "##verage": 1285,
  "rican": 26727,
  "charterers": 28736,
  "sell": 1503,
  "\u2713": 402,
  "verified": 12622,
  "gradually": 11536,
  "##ahy": 16916,
  "ineffective": 7776,
  "disqualifying": 22601,
  "precedes": 26524,
  "##east": 5963,
  "addition": 932,
  "geologic": 13780,
  "videot": 29483,
  "thor": 9630,
  "##iliations": 10409,
  "mlc": 27070,
  "##i": 449,
  "corr": 2629,
  "doors": 14548,
  "disallowances": 23459,
  "blanch": 29633,
  "##avision": 16826,
  "employ": 1052,
  "suites": 10184,
  "##ians": 13034,
  "matur": 1999,
  "tokens": 29182,
  "##ptible": 7358,
  "rhode": 11883,
  "footage": 10052,
  "sjg": 14851,
  "##lies": 4083,
  "perf": 9188,
  "crosstex": 22157,
  "prudence": 19002,
  "dans": 24304,
  "sapphire": 23112,
  "transforming": 23596,
  "##ester": 6501,
  "##odyne": 7760,
  "already": 5360,
  "synergy": 15042,
  "engagements": 8758,
  "mk": 12303,
  "pension": 2316,
  "clinical": 2157,
  "vivo": 14296,
  "##iatric": 14292,
  "beryl": 23610,
  "biologically": 29739,
  "##uite": 29116,
  "decid": 5904,
  "atlas": 8927,
  "speakers": 21036,
  "chap": 5027,
  "ug": 20573,
  "ischemia": 28073,
  "mpuc": 16216,
  "omx": 23609,
  "ptr": 29757,
  "nex": 2797,
  "unusually": 14143,
  "personalities": 29902,
  "escalators": 25426,
  "mixed": 8605,
  "##\u00ac": 555,
  "versatile": 21741,
  "tube": 11743,
  "reinsurance": 3517,
  "\u25ab": 382,
  "dairy": 10157,
  "##uting": 4883,
  "accel": 23285,
  "brownsville": 27612,
  "write": 3318,
  "sequa": 25123,
  "upwards": 28061,
  "gins": 22590,
  "sun": 4580,
  "potato": 18389,
  "##ophies": 26985,
  "##tine": 4932,
  "cult": 7261,
  "wet": 9647,
  "marina": 12713,
  "tested": 5648,
  "eddie": 25702,
  "outcome": 3606,
  "parsons": 24978,
  "insom": 27748,
  "##align": 26554,
  "supr": 6562,
  "intangibles": 4392,
  "surcharges": 11476,
  "oriental": 20170,
  "vect": 13715,
  "confisc": 25691,
  "precipitation": 23271,
  "kid": 10701,
  "njr": 25129,
  "retrofitting": 27584,
  "fhlbb": 20258,
  "hoffman": 16603,
  "paging": 13848,
  "roll": 5772,
  "cdma": 14437,
  "chambers": 16946,
  "appealing": 15000,
  "rho": 29220,
  "kendall": 20056,
  "profiling": 21868,
  "advant": 3495,
  "activity": 2546,
  "plains": 9328,
  "dsp": 14285,
  "narco": 21684,
  "range": 2657,
  "##under": 5389,
  "certainty": 6605,
  "holl": 10637,
  "kg": 11306,
  "\u00b2": 190,
  "##eral": 867,
  "locked": 18614,
  "misappropriated": 17840,
  "suitable": 5256,
  "quicksilver": 24201,
  "adopts": 16968,
  "##agh": 23467,
  "kevin": 10600,
  "humana": 21030,
  "laminated": 21043,
  "lai": 27987,
  "recurring": 4018,
  "[unused45]": 46,
  "biologics": 10335,
  "translating": 15863,
  "microb": 15802,
  "chattel": 28444,
  "##itronics": 29347,
  "##echnology": 5996,
  "kickback": 8607,
  "caruso": 29071,
  "carrols": 23768,
  "seamlessly": 18648,
  "fortress": 12503,
  "##uy": 17815,
  "continuously": 7413,
  "ramping": 29746,
  "pbc": 25421,
  "augmented": 17455,
  "obligatory": 29552,
  "allegations": 6296,
  "olymp": 12156,
  "lad": 10592,
  "commentary": 20131,
  "jvs": 28223,
  "astra": 25383,
  "edc": 16116,
  "dynamically": 23008,
  "\u00df": 205,
  "advanced": 3762,
  "h": 151,
  "arthr": 22200,
  "##whel": 27230,
  "epitheli": 28956,
  "loses": 19276,
  "richland": 24076,
  "hurr": 6462,
  "lady": 20371,
  "ucb": 17306,
  "tendency": 24771,
  "microw": 9919,
  "deliverables": 7520,
  "##plp": 21287,
  "herc": 12060,
  "translational": 28758,
  "president": 1677,
  "##tainment": 4090,
  "hereunto": 25786,
  "prospects": 4304,
  "##ath": 3366,
  "easement": 17489,
  "zhang": 14685,
  "touch": 10634,
  "miners": 22229,
  "wilm": 9642,
  "superseded": 14145,
  "embry": 22729,
  "prove": 6637,
  "miscellaneous": 7309,
  "receivable": 2131,
  "wyndham": 15381,
  "lance": 21708,
  "hmos": 15211,
  "mount": 11615,
  "hose": 23757,
  "##esis": 8109,
  "evaluates": 4904,
  "kings": 13502,
  "prob": 2538,
  "neighbor": 9345,
  "maturing": 6473,
  "ferah": 25191,
  "haley": 23356,
  "resume": 12365,
  "audio": 6986,
  "remedi": 6987,
  "vard": 29947,
  "oceanic": 27422,
  "##adata": 20448,
  "\u2714": 403,
  "triv": 26261,
  "runoff": 15264,
  "toy": 10975,
  "symp": 9169,
  "tracing": 26097,
  "##umi": 28082,
  "ich": 22378,
  "moscow": 21473,
  "eqr": 24800,
  "sybase": 24319,
  "urs": 22633,
  "genome": 16250,
  "milestones": 5776,
  "##omas": 5178,
  "fragmentation": 28224,
  "exceptional": 13103,
  "congestion": 14809,
  "coordinates": 18495,
  "##sc": 4909,
  "ventric": 20403,
  "strengthened": 11402,
  "announce": 17667,
  "pennzoil": 24517,
  "rosen": 12130,
  "##tiki": 28532,
  "garr": 20867,
  "radiation": 8997,
  "##echanical": 20078,
  "oversees": 11002,
  "exchanges": 5519,
  "signaling": 14032,
  "afm": 23884,
  "##atric": 8945,
  "mills": 7736,
  "friction": 18431,
  "##arket": 9998,
  "only": 1936,
  "enck": 26481,
  "petrobras": 29507,
  "financed": 5494,
  "emulsion": 23708,
  "##rose": 16820,
  "issuable": 5240,
  "bourne": 20524,
  "provider": 3801,
  "pir": 17956,
  "swanson": 21799,
  "diagnostics": 8059,
  "calor": 25850,
  "reop": 15212,
  "aim": 6606,
  "seams": 28836,
  "supplies": 4003,
  "##\u1d5e": 593,
  "twenty": 5780,
  "bam": 17446,
  "meas": 1523,
  "##eek": 14971,
  "dal": 12624,
  "securitiz": 4024,
  "##rock": 9526,
  "##haven": 18081,
  "informational": 13603,
  "simi": 26715,
  "viet": 15684,
  "##vic": 22015,
  "homecare": 23160,
  "9b": 6485,
  "propulsion": 18786,
  "likelihood": 4979,
  "hdl": 27700,
  "airgas": 13108,
  "breakeven": 21081,
  "unst": 14959,
  "absorb": 6697,
  "downhole": 22415,
  "pfo": 24177,
  "impracticable": 14793,
  "kur": 18817,
  "coagulation": 27074,
  "##eph": 28921,
  "mention": 12265,
  "mcnam": 28820,
  "benefiting": 16893,
  "electrodes": 17987,
  "##aughton": 23310,
  "##app": 7089,
  "questar": 11059,
  "mcclain": 29359,
  "depending": 3624,
  "herald": 24793,
  "##log": 4340,
  "applying": 4906,
  "aetna": 15229,
  "discontinuation": 12185,
  "##itzer": 8337,
  "##heon": 24116,
  "##amco": 28657,
  "thailand": 11022,
  "##bert": 4163,
  "roof": 9786,
  "##oduc": 10420,
  "##ipment": 1487,
  "cooperated": 22649,
  "charles": 6715,
  "smo": 13560,
  "leach": 9292,
  "woodlands": 16994,
  "heavily": 7320,
  "##antic": 5368,
  "##omm": 2650,
  "competency": 19783,
  "ssb": 17900,
  "board": 1252,
  "threats": 9233,
  "vonage": 22843,
  "unclaimed": 20831,
  "qd": 27955,
  "richardson": 14999,
  "##oline": 6437,
  "sji": 19845,
  "tar": 9310,
  "gig": 12068,
  "unpredictable": 8390,
  "ramp": 10808,
  "counterpar": 3411,
  "midamerican": 8257,
  "conferences": 12913,
  "dispute": 6922,
  "##olo": 16833,
  "conversion": 2547,
  "bowl": 26419,
  "vogtle": 12129,
  "attrition": 10897,
  "repatriated": 13458,
  "##wor": 5548,
  "pairs": 22227,
  "##omb": 8024,
  "cardholder": 17575,
  "things": 2978,
  "reinsurer": 9759,
  "virtue": 8615,
  "grupo": 17459,
  "intervals": 9944,
  "contracted": 6172,
  "consisted": 3409,
  "novastar": 27284,
  "allegation": 20623,
  "gsaa": 28905,
  "tissues": 12345,
  "superstores": 16431,
  "carry": 2580,
  "##belt": 19824,
  "hedged": 4698,
  "jl": 19750,
  "scarcity": 25347,
  "supers": 20212,
  "lignite": 17555,
  "directive": 9295,
  "medis": 25751,
  "fictitious": 29930,
  "tightly": 22662,
  "marquette": 26689,
  "##bet": 25693,
  "horne": 27858,
  "corrosion": 14393,
  "affirm": 6426,
  "helms": 29292,
  "##nas": 14777,
  "barg": 4917,
  "rear": 20457,
  "exacting": 29997,
  "\uffe1": 445,
  "##din": 23388,
  "koll": 27717,
  "obligated": 4441,
  "rih": 25566,
  "nonrenewal": 29519,
  "hr": 9557,
  "oceans": 29085,
  "unreasonable": 15270,
  "hybr": 7609,
  "##anium": 7494,
  "eaf": 26139,
  "##arter": 1195,
  "##omers": 21907,
  "trip": 7772,
  "##pal": 17265,
  "lsi": 18829,
  "accomplishments": 20475,
  "festiv": 20656,
  "invoices": 10202,
  "lessen": 16947,
  "ebay": 18084,
  "quin": 17917,
  "ventures": 3688,
  "grantor": 11110,
  "se": 835,
  "zam": 26205,
  "##chool": 29492,
  "earnout": 12531,
  "irreg": 14038,
  "campus": 8929,
  "disadvantage": 8902,
  "joins": 27368,
  "mice": 16421,
  "db": 9045,
  "lessees": 7515,
  "[unused15]": 16,
  "contempl": 5326,
  "milan": 21345,
  "hob": 17605,
  "monoline": 25781,
  "predictions": 13058,
  "unex": 5174,
  "sides": 21236,
  "topic": 3705,
  "canandaigua": 21294,
  "arrow": 12288,
  "remanufact": 15411,
  "t1": 20454,
  "impedi": 20535,
  "optimizing": 13278,
  "emerald": 19257,
  "abandon": 5574,
  "delmarva": 26318,
  "##99": 15292,
  "borrowing": 3424,
  "nonconvertible": 23258,
  "##ocare": 20046,
  "defense": 4743,
  "##vs": 10343,
  "untrue": 10871,
  "pounds": 8074,
  "villages": 28452,
  "obsolete": 6030,
  "corrob": 9091,
  "evaluation": 2528,
  "duplex": 26808,
  "head": 3018,
  "antif": 19959,
  "chang": 980,
  "inflam": 9365,
  "bottoms": 29880,
  "prophyl": 22563,
  "thus": 4270,
  "bunting": 27011,
  "##enders": 3502,
  "presidential": 15805,
  "findings": 8480,
  "##ving": 1697,
  "organizational": 6805,
  "aligned": 11446,
  "subchapter": 15197,
  "malaria": 29144,
  "rech": 12901,
  "##ounge": 19199,
  "prorated": 13015,
  "impound": 16767,
  "unfairly": 29214,
  "indeterminable": 27404,
  "motient": 23853,
  "dbm": 29955,
  "advance": 3834,
  "##omon": 12438,
  "hockey": 21606,
  "fiscal": 1088,
  "##sm": 22944,
  "pcrbs": 29163,
  "vix": 24913,
  "crack": 16060,
  "fico": 11767,
  "steering": 14602,
  "##bone": 15294,
  "spas": 18180,
  "pell": 19712,
  "desc": 22962,
  "audible": 27184,
  "rolls": 15917,
  "practition": 12807,
  "lif": 5510,
  "legal": 1956,
  "quantitatively": 27361,
  "unsubordinated": 18792,
  "ffca": 21356,
  "administrators": 10998,
  "comdisco": 24957,
  "\u3011": 422,
  "weighed": 25841,
  "flaw": 29900,
  "puct": 13397,
  "##form": 858,
  "##center": 17858,
  "decades": 13401,
  "princeton": 13676,
  "pools": 7213,
  "reach": 3608,
  "##ifi": 15997,
  "incapacity": 26299,
  "glaxosmith": 16589,
  "dennis": 10666,
  "stra": 3186,
  "##ered": 4548,
  "acknowledged": 15390,
  "synnex": 29963,
  "thermadyne": 25609,
  "recording": 5706,
  "village": 8633,
  "externally": 13093,
  "disorders": 9465,
  "##th": 683,
  "cannabino": 24370,
  "##ills": 3845,
  "##guard": 16456,
  "ies": 17094,
  "##eries": 6759,
  "##ulg": 5332,
  "waiving": 22053,
  "device": 4111,
  "alliant": 8790,
  "rainfall": 21817,
  "mga": 28109,
  "tam": 9943,
  "pitney": 23386,
  "strauss": 21676,
  "##ita": 7745,
  "zhao": 20160,
  "differed": 13299,
  "telephony": 9430,
  "##emption": 2974,
  "renmin": 11444,
  "disposition": 3089,
  "dw": 11305,
  "encompassing": 15697,
  "federal": 1396,
  "tate": 25629,
  "domiciliary": 25025,
  "net2": 24745,
  "##izations": 2889,
  "##alay": 23299,
  "band": 6851,
  "bicycle": 25949,
  "cargill": 17502,
  "crusader": 23447,
  "direction": 6560,
  "\u00b6": 194,
  "residences": 11220,
  "kfc": 21707,
  "appli": 9308,
  "pullen": 22585,
  "jpmorgan": 8430,
  "disallowance": 14382,
  "invis": 21355,
  "indeb": 2755,
  "respect": 1830,
  "announcements": 8483,
  "bread": 8185,
  "detects": 29804,
  "merging": 13880,
  "meier": 29453,
  "bailey": 14937,
  "finn": 24869,
  "transdigm": 19859,
  "impur": 21651,
  "downturns": 8531,
  "quantify": 11071,
  "##ca": 4501,
  "services": 1007,
  "shar": 811,
  "recorder": 22988,
  "##emes": 15906,
  "donations": 21443,
  "subscriptions": 7508,
  "norwe": 17231,
  "food": 3149,
  "responds": 20761,
  "##imatrix": 18820,
  "barney": 12969,
  "kle": 10996,
  "charm": 22714,
  "serious": 5887,
  "primarily": 1262,
  "shared": 5801,
  "gabri": 22603,
  "##ancin": 27110,
  "performing": 3580,
  "newhall": 29135,
  "clifford": 20633,
  "quotation": 9518,
  "dispar": 13602,
  "imbalances": 14801,
  "##porter": 15872,
  "pioneer": 9043,
  "headquartered": 7616,
  "tand": 11286,
  "nonregulated": 13873,
  "fsp": 5571,
  "scho": 4448,
  "unchanged": 8401,
  "league": 14664,
  "rsv": 19494,
  "##alo": 11930,
  "subjected": 9466,
  "##bach": 16582,
  "tim": 1019,
  "fringe": 13193,
  "1st": 9219,
  "volume": 2658,
  "osteoporosis": 18441,
  "##inet": 12659,
  "incurrence": 7798,
  "maturities": 3224,
  "differentiating": 21118,
  "higgins": 23163,
  "enog": 17705,
  "conocoph": 18069,
  "brien": 16323,
  "reuse": 18926,
  "##phi": 12026,
  "exclusions": 12684,
  "[unused13]": 14,
  "pioneered": 22459,
  "fts": 20259,
  "liquids": 7588,
  "italy": 8151,
  "kill": 18747,
  "insulating": 24424,
  "warehouses": 10061,
  "dekalb": 27567,
  "nationstar": 23773,
  "bentley": 23397,
  "cartil": 23629,
  "endow": 19080,
  "marcum": 20217,
  "cartridges": 18061,
  "##olone": 25744,
  "forty": 9832,
  "anomaly": 26268,
  "lester": 25801,
  "priv": 2093,
  "exits": 24948,
  "arithmetic": 20476,
  "floor": 5158,
  "nit": 17814,
  "prohibition": 7785,
  "digitiz": 29137,
  "##star": 4923,
  "eu": 6955,
  "dak": 7756,
  "deleted": 19593,
  "spouses": 17972,
  "grie": 24987,
  "##annett": 20908,
  "disbursement": 13528,
  "seats": 13511,
  "dwr": 19620,
  "neutr": 10065,
  "subserv": 14116,
  "optionee": 9947,
  "##ided": 28152,
  "farr": 21668,
  "questionnaire": 26473,
  "knew": 16159,
  "sls": 26582,
  "juris": 2993,
  "colom": 11893,
  "fif": 4307,
  "vang": 14169,
  "workover": 13239,
  "subp": 10386,
  "multid": 18502,
  "chapter": 5352,
  "immunoassay": 24154,
  "forma": 3727,
  "##tsch": 24274,
  "distributorship": 24326,
  "thrombin": 27786,
  "scottsdale": 16900,
  "##\u0644": 601,
  "landstar": 24420,
  "radar": 15476,
  "albemarle": 24343,
  "danville": 29286,
  "tenth": 10911,
  "##took": 14646,
  "expand": 2807,
  "wink": 22196,
  "clecs": 18893,
  "abr": 10040,
  "seacor": 22608,
  "pushed": 20249,
  "hawk": 12333,
  "##vest": 4557,
  "unadjusted": 9226,
  "geological": 8325,
  "cater": 9959,
  "specialization": 24195,
  "##tin": 666,
  "c3": 18075,
  "cemetery": 12774,
  "##tail": 5407,
  "tomography": 25620,
  "unenforceability": 22117,
  "zealand": 9126,
  "til": 20238,
  "restatements": 16102,
  "moores": 29574,
  "biom": 6509,
  "joway": 28814,
  "contain": 1922,
  "dealt": 29068,
  "stadium": 18627,
  "suppli": 2198,
  "distill": 9029,
  "##lene": 17818,
  "ace": 7156,
  "boeh": 21202,
  "discontinued": 3038,
  "greenfield": 17160,
  "##gs": 5947,
  "lends": 24682,
  "adoles": 25957,
  "retirement": 2453,
  "##acion": 20666,
  "inefficient": 18955,
  "growth": 1828,
  "ceco": 29090,
  "acquisitions": 2071,
  "cavity": 21338,
  "rosa": 24842,
  "hock": 17396,
  "exchange": 1293,
  "hos": 6520,
  "loeb": 27867,
  "fluorescent": 22373,
  "disinf": 17552,
  "daimlerchr": 22147,
  "implemented": 4064,
  "biomarin": 25838,
  "conveniently": 23671,
  "disburs": 8653,
  "cares": 29043,
  "admitting": 20811,
  "irp": 17786,
  "doubletree": 24131,
  "onto": 11890,
  "kern": 17117,
  "##oke": 7875,
  "tti": 26264,
  "mmcf": 11381,
  "stresses": 25624,
  "governments": 5901,
  "neal": 13637,
  "guarantees": 3760,
  "king": 4367,
  "briefly": 24744,
  "bmo": 20135,
  "ancillary": 7601,
  "empire": 11705,
  "##ochemical": 8637,
  "publications": 8222,
  "arrangers": 21100,
  "civ": 4089,
  "dividend": 2569,
  "tex": 2753,
  "appreciation": 4658,
  "ongoing": 3077,
  "##\u03c3": 591,
  "##vine": 11122,
  "lucky": 21540,
  "factoring": 11642,
  "unions": 7680,
  "mund": 23287,
  "received": 1759,
  "tablets": 10614,
  "tests": 4189,
  "computer": 3320,
  "tumble": 25414,
  "nhr": 27865,
  "cll": 26031,
  "##oxing": 29014,
  "interce": 27614,
  "gi": 10902,
  "##uo": 21446,
  "jafra": 27538,
  "zha": 18694,
  "##zoil": 24452,
  "alternatives": 5815,
  "##manship": 15870,
  "syl": 17155,
  "tidel": 22070,
  "bedroom": 20725,
  "pant": 28275,
  "ally": 16405,
  "dumping": 18455,
  "##utili": 13203,
  "enc": 3515,
  "spun": 15874,
  "therefor": 15356,
  "sterilization": 18696,
  "##ne": 2960,
  "jordan": 14216,
  "##amps": 21869,
  "raton": 18440,
  "##zhou": 11048,
  "spaces": 12255,
  "##one": 2029,
  "##soft": 14103,
  "ideal": 15188,
  "cases": 3114,
  "user": 4629,
  "##ib": 778,
  "protracted": 15430,
  "controlling": 4325,
  "##ires": 9935,
  "curtailing": 23622,
  "proceedings": 2574,
  "##fall": 12396,
  "mayor": 26751,
  "solu": 15978,
  "capitalizable": 23252,
  "thermal": 7951,
  "reb": 5034,
  "stow": 28951,
  "reform": 4447,
  "paul": 6164,
  "factual": 10884,
  "tonne": 22688,
  "belt": 15791,
  "bookings": 11747,
  "agm": 20108,
  "established": 2161,
  "animation": 18580,
  "##loyds": 29360,
  "fulfilled": 10301,
  "mail": 5177,
  "eaton": 13029,
  "lbi": 24506,
  "impeded": 27300,
  "##dorf": 20823,
  "nymex": 9762,
  "matric": 29913,
  "cafe": 14511,
  "restricted": 2064,
  "ammonium": 25304,
  "subpop": 29989,
  "car": 2458,
  "bloom": 11845,
  "##28": 18733,
  "bookrun": 23050,
  "searching": 18457,
  "helps": 8792,
  "cathay": 29722,
  "##ot": 1081,
  "utili": 1978,
  "##ev": 5587,
  "subscription": 4826,
  "sentinel": 21947,
  "prsus": 22791,
  "##uns": 10546,
  "projecting": 14852,
  "apsc": 18619,
  "dx": 13773,
  "increments": 10165,
  "quicker": 25917,
  "boardwalk": 17302,
  "igra": 28497,
  "barron": 26592,
  "unan": 5678,
  "ebit": 3575,
  "profitably": 9242,
  "protective": 9322,
  "gent": 14798,
  "accumulated": 2559,
  "far": 6712,
  "##idge": 3977,
  "residual": 4973,
  "galvanizing": 23125,
  "remedies": 6821,
  "##ucca": 28919,
  "man": 803,
  "broom": 29901,
  "vanc": 12542,
  "dayrate": 24912,
  "upcoming": 13153,
  "determines": 4509,
  "defended": 20201,
  "hahn": 26146,
  "of": 621,
  "affirmative": 7579,
  "nonperforming": 6817,
  "##times": 7264,
  "church": 11851,
  "##ocyte": 18516,
  "from": 754,
  "favor": 2720,
  "milli": 13650,
  "gbs": 29995,
  "sad": 16902,
  "therapies": 6819,
  "##aint": 14332,
  "unlever": 26226,
  "instructor": 22841,
  "burd": 8377,
  "rfs": 13892,
  "reply": 17051,
  "differing": 9535,
  "deregulation": 11416,
  "sustainability": 13583,
  "lay": 6647,
  "reex": 14452,
  "##pi": 4103,
  "interle": 29481,
  "##ining": 2371,
  "respected": 20752,
  "financings": 5983,
  "##olves": 18832,
  "allscripts": 23791,
  "polycom": 24264,
  "perceptions": 12500,
  "ton": 6565,
  "pso": 15026,
  "disposables": 19920,
  "##ocl": 16730,
  "##ematics": 24041,
  "centennial": 14313,
  "lgp": 29993,
  "msa": 11595,
  "fost": 17565,
  "##dl": 25542,
  "identically": 21086,
  "fellowship": 29695,
  "##quential": 23257,
  "sees": 29409,
  "chees": 24930,
  "ensure": 3421,
  "##adian": 4015,
  "femin": 27671,
  "rest": 2022,
  "ova": 28293,
  "kept": 13781,
  "tighten": 25188,
  "antibiotic": 16257,
  "abnor": 10762,
  "blum": 20352,
  "intralata": 28559,
  "##repid": 29750,
  "ivillage": 23332,
  "supervises": 20269,
  "##oster": 15482,
  "cola": 11374,
  "uhs": 21096,
  "annually": 3284,
  "##aldehyde": 26474,
  "stricter": 12948,
  "parc": 9538,
  "operationally": 21800,
  "theore": 16890,
  "eugene": 14373,
  "##aining": 3306,
  "co2": 9228,
  "investigation": 4590,
  "idle": 11294,
  "lewis": 11145,
  "chea": 25780,
  "##earns": 13378,
  "winston": 16775,
  "ehr": 15985,
  "fear": 21872,
  "##fill": 4681,
  "societal": 29386,
  "##bound": 9857,
  "supervise": 13850,
  "jwh": 19679,
  "##itter": 19714,
  "advers": 16726,
  "strand": 19851,
  "transplants": 27754,
  "##oca": 10466,
  "##umm": 1738,
  "revpar": 14576,
  "\u25cf": 389,
  "summarizes": 3712,
  "##nessee": 6167,
  "##bots": 22728,
  "irrespective": 13534,
  "project": 2509,
  "flavors": 16140,
  "plate": 10182,
  "undivided": 9598,
  "nether": 7880,
  "endosc": 14719,
  "##hertz": 26541,
  "gmdb": 19470,
  "reh": 6455,
  "bluetooth": 21508,
  "hairc": 26366,
  "spouse": 9940,
  "4th": 13260,
  "bsm": 27058,
  "##way": 2851,
  "uses": 3269,
  "tb": 13265,
  "prevention": 5600,
  "inches": 16535,
  "evan": 23670,
  "##ahn": 10179,
  "ie": 20003,
  "informally": 26301,
  "##anser": 29469,
  "archive": 24233,
  "phen": 13755,
  "cicero": 28009,
  "bloomington": 25759,
  "##chex": 29053,
  "shareholder": 3226,
  "utilizes": 5532,
  "diodes": 19345,
  "borrowings": 2332,
  "alleviated": 28182,
  "reallocated": 18464,
  "consistent": 3169,
  "designers": 13009,
  "spare": 10149,
  "albeit": 27948,
  "pfsweb": 28000,
  "wein": 14494,
  "pier": 10232,
  "debilitating": 23803,
  "asser": 3962,
  "nucleos": 26997,
  "frames": 12884,
  "collective": 5469,
  "kyle": 28074,
  "coltec": 26867,
  "modeled": 16071,
  "##losure": 13953,
  "notic": 8129,
  "witt": 27622,
  "continuous": 5807,
  "carriers": 4478,
  "immun": 5744,
  "counterfe": 15996,
  "hong": 6183,
  "nabors": 22106,
  "eversource": 14221,
  "des": 1178,
  "##cope": 29842,
  "promise": 15549,
  "memb": 2334,
  "humid": 23210,
  "tit": 3074,
  "siebel": 23814,
  "calendar": 3932,
  "scal": 7491,
  "geoff": 20830,
  "taken": 3346,
  "esa": 17448,
  "suspending": 14580,
  "endometr": 27136,
  "jeopardized": 23402,
  "gloves": 20894,
  "quar": 24387,
  "noncontrolling": 5051,
  "exclude": 6538,
  "crock": 24066,
  "ambass": 20117,
  "baking": 22423,
  "outages": 8953,
  "distiller": 23751,
  "stoppage": 12936,
  "fault": 10295,
  "substations": 17587,
  "##payments": 16774,
  "shutdown": 10583,
  "jin": 13542,
  "appreciates": 21694,
  "construct": 7499,
  "deferred": 1466,
  "##onson": 20068,
  "##dm": 18635,
  "credentialing": 27988,
  "lotus": 19311,
  "appraiser": 14353,
  "microsoft": 7700,
  "wuxi": 26946,
  "##1000": 27870,
  "##earo": 28773,
  "adc": 13218,
  "proof": 10008,
  "##ylated": 28603,
  "stolen": 17960,
  "suez": 21571,
  "##air": 872,
  "malone": 15422,
  "cores": 16629,
  "hitech": 17625,
  "##emont": 10360,
  "inner": 16310,
  "##function": 16557,
  "usa": 4748,
  "him": 5868,
  "jurisdiction": 4624,
  "##check": 24954,
  "quartz": 14920,
  "mitsu": 13730,
  "aflac": 18702,
  "##ward": 1950,
  "oz": 9299,
  "smepa": 24504,
  "telos": 27044,
  "explore": 8528,
  "chiqu": 28925,
  "refco": 28849,
  "##fect": 24781,
  "##gi": 7064,
  "mmb": 21303,
  "jolla": 27639,
  "fastest": 14773,
  "asth": 16335,
  "twin": 13484,
  "##ally": 2562,
  "newfield": 25646,
  "nuis": 17867,
  "##fare": 8814,
  "##ect": 690,
  "sustain": 3968,
  "announces": 20233,
  "philippines": 11042,
  "##ourc": 1573,
  "reference": 1504,
  "##asco": 14304,
  "pe": 2881,
  "undiscounted": 4782,
  "mafco": 21318,
  "survivor": 18233,
  "unlimited": 8875,
  "settling": 10790,
  "metrocall": 25226,
  "arca": 12990,
  "##chap": 14961,
  "##avo": 16761,
  "stored": 8870,
  "applies": 4774,
  "debits": 25278,
  "magnets": 27696,
  "len": 13344,
  "inflamm": 9417,
  "oxidation": 24760,
  "eye": 9102,
  "##uras": 22244,
  "debt": 1214,
  "credco": 19310,
  "laboratory": 5159,
  "lowest": 6075,
  "measur": 2423,
  "##enne": 17033,
  "connectors": 15714,
  "renters": 29844,
  "gmib": 21779,
  "contemporaneously": 16992,
  "efficacy": 5603,
  "cisco": 12015,
  "ad": 719,
  "prolonged": 8517,
  "shutting": 27611,
  "tortious": 20167,
  "stere": 18065,
  "harry": 13586,
  "tesla": 27444,
  "rancho": 17735,
  "##weed": 24208,
  "integrations": 20976,
  "amper": 29265,
  "tpe": 14401,
  "officemax": 21898,
  "##uca": 20140,
  "faster": 8061,
  "regularly": 5042,
  "jw": 25571,
  "mccormick": 21783,
  "dbl": 26645,
  "recs": 19072,
  "reestablish": 27516,
  "ger": 10071,
  "inappropri": 25617,
  "anat": 15738,
  "##feasance": 19456,
  "coastal": 10117,
  "systems": 1644,
  "misrepresent": 10389,
  "##inders": 15063,
  "##advis": 16374,
  "hispan": 14980,
  "toxin": 29113,
  "seminole": 26935,
  "polym": 28878,
  "mgp": 10403,
  "denials": 21410,
  "oasis": 17734,
  "maytag": 27279,
  "fka": 29793,
  "sher": 12056,
  "##tation": 23923,
  "voya": 23935,
  "bp": 7248,
  "celgene": 14906,
  "writes": 13671,
  "entrepreneurial": 18217,
  "changing": 4217,
  "inkjet": 19230,
  "jeff": 6425,
  "yuan": 15494,
  "##ophos": 27582,
  "##ity": 700,
  "financial": 740,
  "adams": 10727,
  "fossil": 9276,
  "circulating": 23205,
  "pickup": 21552,
  "fuller": 16783,
  "##lett": 10688,
  "##acy": 2676,
  "resc": 7098,
  "elk": 12524,
  "asics": 19903,
  "downstream": 12417,
  "brass": 16063,
  "inconsistencies": 21205,
  "law": 1321,
  "landf": 11064,
  "abstain": 26483,
  "bit": 10023,
  "##ervices": 14443,
  "loyal": 7624,
  "bras": 15580,
  "incentive": 2158,
  "central": 4027,
  "compliant": 7536,
  "idt": 13863,
  "southmark": 26683,
  "dealers": 4081,
  "##uch": 4713,
  "##ages": 1863,
  "lafayette": 17133,
  "flavor": 12569,
  "##upp": 11691,
  "chains": 8308,
  "rouse": 28901,
  "rid": 14658,
  "idling": 24742,
  "##rim": 7862,
  "admiral": 20751,
  "leverage": 3537,
  "regions": 4850,
  "css": 20216,
  "sak": 19336,
  "syn": 4372,
  "gp": 5711,
  "inks": 20133,
  "ms": 3246,
  "authors": 20411,
  "##end": 766,
  "pentair": 26051,
  "onsite": 15752,
  "k": 154,
  "audiences": 13527,
  "xian": 28979,
  "stressed": 25170,
  "douglas": 8243,
  "nameplate": 20338,
  "courier": 17056,
  "disaggregation": 18798,
  "posed": 16721,
  "prodigy": 26952,
  "oce": 7853,
  "par": 776,
  "##esta": 17535,
  "##amm": 8617,
  "aggressive": 6875,
  "##tinguished": 10308,
  "shirts": 18660,
  "hosiery": 27289,
  "tuition": 12290,
  "mbia": 12352,
  "questions": 8874,
  "\u2500": 375,
  "correspondent": 9681,
  "amce": 25724,
  "entail": 9488,
  "##hill": 12098,
  "rescue": 18361,
  "depths": 16389,
  "nanotechnology": 24527,
  "america": 2512,
  "restoration": 6960,
  "parenthe": 28170,
  "methodologies": 6254,
  "accred": 6138,
  "##thing": 8380,
  "mask": 16758,
  "normalized": 15556,
  "##apor": 6528,
  "##sex": 11786,
  "lawyer": 23086,
  "kd": 20145,
  "drawdown": 16611,
  "midwestern": 15854,
  "intellect": 2832,
  "troubled": 7640,
  "cooperation": 10068,
  "mud": 17916,
  "goes": 17923,
  "exposing": 16542,
  "##rick": 8135,
  "substituting": 29950,
  "telewest": 25312,
  "unacceptable": 13416,
  "transgenic": 25661,
  "##gm": 21033,
  "farrell": 24669,
  "##osta": 25519,
  "logan": 16307,
  "##ights": 1593,
  "##mate": 5893,
  "maximums": 26980,
  "due": 1117,
  "travelport": 21858,
  "calcul": 3672,
  "##lements": 4566,
  "strat": 11052,
  "asic": 18198,
  "modifications": 5406,
  "revers": 4359,
  "suggested": 12476,
  "recharge": 16911,
  "adjunct": 18530,
  "inducing": 25361,
  "mcguire": 24034,
  "##ulative": 2849,
  "monro": 12712,
  "severities": 21579,
  "##ebok": 23887,
  "bep": 24735,
  "##ultural": 27889,
  "added": 3895,
  "\u2660": 398,
  "impacting": 7598,
  "prospective": 4422,
  "listed": 3217,
  "middletown": 23217,
  "##ker": 6335,
  "pars": 13703,
  "instructional": 18640,
  "##ividual": 2100,
  "##icals": 20684,
  "cooperating": 14478,
  "naec": 23342,
  "composition": 5461,
  "phenomen": 21028,
  "hawaii": 8641,
  "diff": 1372,
  "domes": 2948,
  "sonat": 25912,
  "eso": 17027,
  "##etes": 8973,
  "papp": 25676,
  "radios": 12970,
  "du": 3373,
  "##\u215e": 527,
  "commercialization": 4446,
  "interdep": 24115,
  "titled": 8732,
  "lawson": 21472,
  "evers": 13391,
  "##mere": 27244,
  "##speed": 26669,
  "endocrin": 29557,
  "sfr": 25857,
  "inacc": 8017,
  "derecognition": 12587,
  "##herst": 26284,
  "frustrate": 25606,
  "sumit": 15753,
  "##ecutive": 5781,
  "latent": 24451,
  "spirits": 14132,
  "sdn": 20598,
  "billed": 4784,
  "juno": 25272,
  "gli": 18555,
  "sprink": 25819,
  "bulletin": 5452,
  "wed": 24393,
  "narr": 6638,
[...]
