{
  "riders": 8195,
  "rustic": 27471,
  "archaic": 19261,
  "[unused585]": 590,
  "##itor": 15660,
  "##tive": 6024,
  "vibe": 21209,
  "shocked": 7135,
  "\u1d9c": 1511,
  "homemade": 25628,
  "silenced": 25030,
  "five": 2274,
  "[unused676]": 681,
  "\u2605": 1620,
  "atlanta": 5865,
  "bulldogs": 15120,
  "##ical": 7476,
  "\u51fa": 1774,
  "compute": 24134,
  "flashbacks": 28945,
  "##power": 11452,
  "##written": 15773,
  "shoulders": 4065,
  "superiority": 19113,
  "##nagar": 14346,
  "##\u10dc": 29985,
  "mcmahon": 17741,
  "1665": 27676,
  "fleeing": 14070,
  "##ege": 24746,
  "##ungen": 23239,
  "bulls": 12065,
  "spell": 6297,
  "expect": 5987,
  "dynamics": 10949,
  "1928": 4662,
  "raises": 13275,
  "ferrari": 13632,
  "midsummer": 28171,
  "willing": 5627,
  "rai": 15547,
  "##\u201c": 30058,
  "armistice": 19125,
  "warlord": 16579,
  "petroleum": 11540,
  "accurately": 14125,
  "##rda": 13639,
  "[unused856]": 861,
  "magistrate": 14351,
  "southland": 29121,
  "##\u099a": 29892,
  "rectory": 24606,
  "european": 2647,
  "assassination": 10102,
  "##of": 11253,
  "thom": 19438,
  "lesions": 22520,
  "precedence": 23359,
  "##\u03b8": 29725,
  "##cie": 23402,
  "jerry": 6128,
  "volcanic": 10942,
  "##zek": 24506,
  "peruvian": 15432,
  "keynes": 22152,
  "loud": 5189,
  "##iq": 18515,
  "\u300d": 1642,
  "wielding": 26974,
  "shadows": 6281,
  "responsive": 26651,
  "regatta": 26848,
  "discrete": 16246,
  "##rk": 8024,
  "assassinate": 25683,
  "swindon": 22350,
  "revived": 10570,
  "lattice": 17779,
  "cretaceous": 18122,
  "regional": 3164,
  "obscene": 27744,
  "tag": 6415,
  "[unused603]": 608,
  "cranes": 27083,
  "croatian": 7963,
  "brushed": 7765,
  "glowing": 10156,
  "sun": 3103,
  "splash": 17624,
  "cartoonist": 19659,
  "##inal": 13290,
  "hydrogen": 9732,
  "stepfather": 21481,
  "view": 3193,
  "pieter": 23759,
  "manfred": 19149,
  "genocide": 14052,
  "##ette": 7585,
  "\uff1f": 1994,
  "horned": 26808,
  "holm": 28925,
  "munitions": 21061,
  "several": 2195,
  "##iform": 22631,
  "safety": 3808,
  "17th": 5550,
  "sock": 28407,
  "injured": 5229,
  "capitalist": 19640,
  "developmental": 13908,
  "permitting": 24523,
  "lifeless": 22185,
  "unfolded": 23959,
  "hunters": 9624,
  "\u026f": 1122,
  "dinners": 29236,
  "##vc": 25465,
  "production": 2537,
  "gaul": 26522,
  "##holm": 18884,
  "courtship": 28592,
  "outstanding": 5151,
  "rape": 9040,
  "ferries": 20157,
  "108": 10715,
  "benji": 27231,
  "boom": 8797,
  "tak": 27006,
  "teased": 13074,
  "##\u7684": 30442,
  "immersion": 27013,
  "dex": 20647,
  "##:": 29627,
  "##att": 19321,
  "harder": 6211,
  "obviously": 5525,
  "1847": 9176,
  "commissioner": 5849,
  "dolphin": 17801,
  "##ov": 4492,
  "clock": 5119,
  "ft": 3027,
  "ask": 3198,
  "jj": 29017,
  "[unused144]": 149,
  "figure": 3275,
  "onboard": 27120,
  "cat": 4937,
  "dear": 6203,
  "surfer": 27747,
  "##lana": 16695,
  "tucking": 25056,
  "paddington": 26318,
  "christ": 4828,
  "##ir": 4313,
  "crash": 5823,
  "windshield": 19521,
  "##ring": 4892,
  "[unused956]": 961,
  "excavation": 16456,
  "mormon": 15111,
  "parallels": 18588,
  "hopes": 8069,
  "global": 3795,
  "motivated": 12774,
  "beetles": 14538,
  "[unused991]": 996,
  "graffiti": 17990,
  "[unused236]": 241,
  "terminal": 5536,
  "##om": 5358,
  "\u0638": 1287,
  "##hesion": 21471,
  "milky": 21582,
  "loyalist": 23414,
  "basically": 10468,
  "##nessy": 25441,
  "[unused325]": 330,
  "sami": 17015,
  "anticipating": 26481,
  "ieee": 15368,
  "concentrate": 10152,
  "specializes": 16997,
  "australian": 2827,
  "clients": 7846,
  "boxes": 8378,
  "appropriations": 22713,
  "amazed": 15261,
  "eighth": 5964,
  "statements": 8635,
  "##point": 8400,
  "queensland": 5322,
  "##uven": 27346,
  "confinement": 21551,
  "georgian": 9166,
  "[unused538]": 543,
  "questions": 3980,
  "manipulate": 17708,
  "cheek": 5048,
  "##ntial": 19909,
  "##chee": 25923,
  "own": 2219,
  "reports": 4311,
  "coupe": 15130,
  "##guide": 28582,
  "arnold": 7779,
  "leningrad": 15930,
  "[unused95]": 96,
  "##ini": 5498,
  "house": 2160,
  "##riding": 21930,
  "group": 2177,
  "\u0634": 1283,
  "to": 2000,
  "atoll": 22292,
  "belongs": 7460,
  "urge": 9075,
  "##mute": 26746,
  "rainforest": 18951,
  "burton": 9658,
  "ethiopian": 15101,
  "deported": 17929,
  "crank": 27987,
  "hillside": 18573,
  "sidekick": 29240,
  "fertile": 14946,
  "lyndon": 23037,
  "ignore": 8568,
  "discuss": 6848,
  "[unused815]": 820,
  "payroll": 26854,
  "[unused264]": 269,
  "picturesque": 23273,
  "weekday": 16904,
  "compounds": 10099,
  "##fles": 28331,
  "order": 2344,
  "pleading": 16418,
  "[unused314]": 319,
  "surround": 15161,
  "shave": 27545,
  "lancashire": 9638,
  "mandir": 22700,
  "northeastern": 8763,
  "toll": 9565,
  "##\u961d": 30496,
  "##oping": 17686,
  "valerie": 14264,
  "##egan": 20307,
  "##aldi": 24657,
  "##\u7af9": 30459,
  "[unused114]": 119,
  "cupping": 25076,
  "scare": 12665,
  "adjust": 14171,
  "archaeologist": 18821,
  "suppose": 6814,
  "enzo": 26218,
  "##boards": 15271,
  "[unused908]": 913,
  "faster": 5514,
  "beef": 12486,
  "##ility": 15148,
  "##nent": 21576,
  "hid": 11041,
  "reached": 2584,
  "attendees": 19973,
  "decrease": 9885,
  "judo": 19083,
  "comet": 15699,
  "scroll": 17186,
  "oz": 11472,
  "release": 2713,
  "coyote": 20457,
  "mick": 10872,
  "\u09a3": 1361,
  "waldo": 28806,
  "balance": 5703,
  "necessarily": 9352,
  "[unused593]": 598,
  "\u9752": 1975,
  "rankings": 10385,
  "tolerance": 13986,
  "##ulent": 27581,
  "curry": 15478,
  "send": 4604,
  "##can": 9336,
  "tunnel": 5234,
  "kayla": 26491,
  "individuals": 3633,
  "##aran": 20486,
  "oriental": 11481,
  "elaborate": 9603,
  "packaging": 14793,
  "controlling": 9756,
  "269": 25717,
  "##l": 2140,
  "1701": 26059,
  "framework": 7705,
  "poetic": 13805,
  "stephanie": 11496,
  "##osing": 18606,
  "[unused704]": 709,
  "##\u062b": 29818,
  "expressway": 11720,
  "##bers": 17198,
  "infancy": 22813,
  "[unused530]": 535,
  "foraging": 26912,
  "diagnosed": 11441,
  "pose": 13382,
  "convince": 8054,
  "mani": 23624,
  "##\u027e": 29692,
  "##nnis": 27803,
  "regaining": 28657,
  "cryptic": 26483,
  "heck": 17752,
  "trams": 19216,
  "defected": 26330,
  "berman": 29482,
  "##genic": 16505,
  "cheltenham": 18763,
  "metabolism": 18089,
  "smoothing": 27045,
  "stirred": 13551,
  "bilateral": 17758,
  "##gni": 29076,
  "excuse": 8016,
  "##tula": 28970,
  "horseshoe": 23449,
  "consumption": 8381,
  "advisor": 8619,
  "screen": 3898,
  "##xious": 25171,
  "occurring": 10066,
  "rivalry": 10685,
  "sperm": 18047,
  "##posed": 19155,
  "contests": 15795,
  "keen": 10326,
  "reasoning": 13384,
  "sanford": 21153,
  "leave": 2681,
  "[unused557]": 562,
  "##cle": 14321,
  "polish": 3907,
  "##tc": 13535,
  "rainer": 28035,
  "wrist": 7223,
  "[unused576]": 581,
  "grumbled": 17030,
  "##ong": 5063,
  "does": 2515,
  "pass": 3413,
  "prasad": 17476,
  "sockets": 27540,
  "gough": 29124,
  "compressed": 16620,
  "##\u308d": 30215,
  "huang": 15469,
  "1872": 7572,
  "##gun": 12734,
  "\u02e4": 1154,
  "lindsay": 12110,
  "1995": 2786,
  "moods": 27824,
  "undertaken": 10607,
  "faults": 19399,
  "[unused790]": 795,
  "scandal": 9446,
  "mutant": 15527,
  "load": 7170,
  "massacre": 9288,
  "##\u5fb7": 30374,
  "activate": 20544,
  "##holders": 17794,
  "facades": 28708,
  "revisited": 24354,
  "armagh": 24678,
  "arctic": 10162,
  "semantic": 21641,
  "oaxaca": 26923,
  "[unused56]": 57,
  "tina": 11958,
  "hubert": 15346,
  "player": 2447,
  "marek": 29318,
  "humanities": 11406,
  "facilitates": 27777,
  "viral": 13434,
  "\u09a1": 1360,
  "\u672c": 1876,
  "\u026a": 1119,
  "##vb": 26493,
  "\u00a5": 1071,
  "tay": 28117,
  "harley": 13653,
  "\u03b7": 1161,
  "playable": 16854,
  "unfair": 15571,
  "protesters": 13337,
  "##mons": 16563,
  "qing": 13282,
  "katy": 17870,
  "knock": 7324,
  "kings": 5465,
  "albion": 13392,
  "newer": 10947,
  "perkins": 13601,
  "brno": 28634,
  "dominate": 16083,
  "##tty": 15353,
  "greer": 25939,
  "expressive": 22570,
  "wetland": 22217,
  "obsession": 17418,
  "clapping": 27104,
  "thinks": 6732,
  "expedition": 5590,
  "##page": 13704,
  "##ural": 11137,
  "offs": 12446,
  "bangalore": 14022,
  "##itte": 27100,
  "chopra": 28826,
  "[MASK]": 103,
  "mets": 15253,
  "stricken": 16654,
  "steadily": 11328,
  "##\u533a": 30308,
  "##ata": 6790,
  "##tered": 14050,
  "##olio": 29401,
  "murderer": 13422,
  "meyrick": 15228,
  "##omi": 20936,
  "##e": 2063,
  "suffrage": 15178,
  "mcgrath": 23220,
  "dock": 8946,
  "tune": 8694,
  "israelis": 28363,
  "buildings": 3121,
  "disgust": 12721,
  "reduce": 5547,
  "##udes": 22087,
  "##\u25cf": 30146,
  "baronet": 8693,
  "##\u0921": 29857,
  "galileo": 21514,
  "entry": 4443,
  "socialist": 6102,
  "##wife": 19993,
  "mammoth": 23714,
  "ours": 14635,
  "##rting": 24097,
  "deceased": 10181,
  "##\u30ce": 30243,
  "measurements": 11702,
  "inquiries": 27050,
  "\u05e4": 1261,
  "isabel": 11648,
  "##lok": 29027,
  "breaths": 12938,
  "##\u7f8e": 30461,
  "caring": 11922,
  "##hone": 27406,
  "tempting": 23421,
  "anthropology": 12795,
  "reformer": 24767,
  "jim": 3958,
  "processed": 13995,
  "1634": 28502,
  "##\u10e0": 29987,
  "##lase": 25002,
  "jain": 17136,
  "translations": 11913,
  "commonly": 4141,
  "reappeared": 23040,
  "anymore": 4902,
  "vault": 11632,
  "##ison": 10929,
  "congressman": 12295,
  "\u10d5": 1443,
  "berg": 15214,
  "ellie": 10707,
  "earrings": 27212,
  "tu": 10722,
  "khmer": 19472,
  "coloured": 11401,
  "intends": 18754,
  "refusing": 11193,
  "##\u6c35": 30420,
  "accountability": 17842,
  "148": 16459,
  "arches": 13540,
  "motors": 9693,
  "offense": 10048,
  "\u00b7": 1087,
  "##gley": 22971,
  "bain": 28477,
  "halfway": 8576,
  "grassy": 22221,
  "honor": 3932,
  "expeditionary": 15372,
  "shipyard": 13858,
  "supervisory": 26653,
  "uncanny": 28953,
  "tore": 9538,
  "wavy": 23098,
  "plymouth": 10221,
  "enemies": 6716,
  "nt": 23961,
  "exceptional": 11813,
  "cope": 11997,
  "maru": 26280,
  "##mill": 19912,
  "ivy": 7768,
  "##tsk": 29064,
  "##nc": 12273,
  "affecting": 12473,
  "1890s": 13678,
  "prolific": 12807,
  "inning": 12994,
  "wounded": 5303,
  "parent": 6687,
  "kidnap": 22590,
  "becky": 14407,
  "laying": 10201,
  "bodyguard": 16174,
  "##op": 7361,
  "outlet": 13307,
  "##aru": 15728,
  "crimes": 6997,
  "demands": 7670,
  "network": 2897,
  "##cker": 9102,
  "simi": 28684,
  "##\u884c": 30471,
  "kang": 16073,
  "##icle": 25128,
  "\u30c4": 1712,
  "broke": 3631,
  "berries": 22681,
  "homosexuality": 15949,
  "mining": 5471,
  "elmer": 21464,
  "##lad": 27266,
  "buffalo": 6901,
  "sense": 3168,
  "##hausen": 13062,
  "lyon": 10241,
  "restroom": 28249,
  "##ates": 8520,
  "##ack": 8684,
  "engined": 21235,
  "ska": 24053,
  "gould": 14913,
  "add": 5587,
  "averaged": 11398,
  "grammy": 8922,
  "yemen": 13968,
  "##12": 12521,
  "instructors": 19922,
  "magma": 28933,
  "1778": 16331,
  "##oma": 9626,
  "disagreed": 18335,
  "[unused732]": 737,
  "disposition": 22137,
  "[unused611]": 616,
  "captured": 4110,
  "positioning": 19120,
  "filtering": 22910,
  "martins": 19953,
  "environment": 4044,
  "mccain": 19186,
  "rt": 19387,
  "vikings": 13468,
  "##\u0456": 29760,
  "[unused801]": 806,
  "1841": 9840,
  "##ski": 5488,
  "12th": 5940,
  "periodically": 18043,
  "june": 2238,
  "[unused917]": 922,
  "myles": 27056,
  "prep": 17463,
  "akira": 21616,
  "tiny": 4714,
  "slamming": 15209,
  "##\u0e17": 29948,
  "87": 6584,
  "##oj": 29147,
  "examinations": 14912,
  "aldo": 28163,
  "adjusted": 10426,
  "bolts": 19947,
  "donegal": 25415,
  "gospel": 8036,
  "pillow": 10005,
  "##usa": 10383,
  "multiplication": 24856,
  "beers": 18007,
  "wehrmacht": 23443,
  "##wad": 26016,
  "drinking": 5948,
  "reprised": 22598,
  "[unused567]": 572,
  "songs": 2774,
  "preparatory": 13485,
  "learn": 4553,
  "intercepted": 16618,
  "boar": 24187,
  "##pton": 15857,
  "jana": 23341,
  "denying": 16039,
  "dare": 8108,
  "blade": 6085,
  "##urized": 28405,
  "cheerleading": 25721,
  "missouri": 5284,
  "pathology": 19314,
  "##hopper": 27330,
  "demons": 7942,
  "##\u09b6": 29910,
  "lastly": 22267,
  "system": 2291,
  "##umble": 26607,
  "institut": 17126,
  "ousted": 28368,
  "gallo": 25624,
  "##uration": 18924,
  "boiler": 15635,
  "physical": 3558,
  "lightly": 8217,
  "##ule": 9307,
  "##ulating": 10924,
  "##id": 3593,
  "shatter": 27271,
  "slalom": 19617,
  "\u5f35": 1844,
  "discussing": 10537,
  "shields": 11824,
  "interned": 26345,
  "accordance": 10388,
  "brook": 9566,
  "abbas": 17532,
  "stirling": 15597,
  "kerr": 14884,
  "yards": 4210,
  "shrub": 15751,
  "academics": 15032,
  "acheron": 21427,
  "strait": 11195,
  "##case": 18382,
  "\u7701": 1920,
  "com": 4012,
  "##ucci": 16835,
  "lies": 3658,
  "interim": 9455,
  "mused": 22335,
  "brows": 11347,
  "positioned": 10959,
  "warehouses": 23319,
  "abc": 5925,
  "multinational": 20584,
  "sings": 10955,
  "[unused31]": 32,
  "stagecoach": 26025,
  "ortega": 25859,
  "twins": 8178,
  "1916": 4947,
  "favors": 21191,
  "differed": 19541,
  "milne": 24377,
  "sentiment": 15792,
  "odisha": 21874,
  "outpost": 21080,
  "tobago": 17247,
  "mute": 20101,
  "painting": 4169,
  "fullback": 21803,
  "stock": 4518,
  "sikhs": 26697,
  "kai": 11928,
  "armed": 4273,
  "injury": 4544,
  "##on": 2239,
  "epidemic": 16311,
  "##analysis": 25902,
  "redwood": 27552,
  "consumer": 7325,
  "novelty": 21160,
  "##pc": 15042,
  "##ouse": 15441,
  "[unused513]": 518,
  "elevation": 6678,
  "billy": 5006,
  "covert": 19813,
  "##cot": 24310,
  "enabled": 9124,
  "affirmed": 19768,
  "##nga": 13807,
  "notions": 21951,
  "##hora": 16977,
  "[unused239]": 244,
  "different": 2367,
  "scripted": 22892,
  "salzburg": 18369,
  "associated": 3378,
  "value": 3643,
  "##gging": 12588,
  "mutually": 20271,
  "sweetness": 23210,
  "##lled": 11001,
  "1742": 25704,
  "scratched": 15047,
  "bury": 11010,
  "organizer": 19012,
  "rush": 5481,
  "gameplay": 11247,
  "austrian": 6161,
  "disadvantage": 20502,
  "203": 18540,
  "talk": 2831,
  "andrew": 4080,
  "indefinitely": 20733,
  "##ades": 18673,
  "##eiro": 17166,
  "forgot": 9471,
  "wealthy": 7272,
  "[unused412]": 417,
  "baptized": 19775,
  "opposite": 4500,
  "##gm": 21693,
  "been": 2042,
  "disappearance": 13406,
  "\u0459": 1215,
  "##riz": 21885,
  "coded": 22402,
  "hostages": 19323,
  "marianne": 19887,
  "transitioned": 23946,
  "grit": 24842,
  "##\u00fe": 29670,
  "gains": 12154,
  "pretoria": 25366,
  "##\u6587": 30387,
  "hires": 28208,
  "linguist": 22978,
  "##bbe": 19473,
  "##\u110f": 30002,
  "consortium": 12360,
  "/": 1013,
  "vaults": 28658,
  "zodiac": 28501,
  "##cene": 17968,
  "##ead": 13775,
  "quarries": 27069,
  "solve": 9611,
  "jet": 6892,
  "##lani": 21141,
  "##ore": 5686,
  "inexpensive": 23766,
  "harmonica": 16527,
  "intense": 6387,
  "interesting": 5875,
  "##iness": 9961,
  "artwork": 8266,
  "observation": 8089,
  "dowry": 29603,
  "glare": 10982,
  "detailed": 6851,
  "wandering": 13071,
  "college": 2267,
  "[unused413]": 418,
  "760": 24643,
  "##nai": 26416,
  "audio": 5746,
  "abolitionist": 29554,
  "passing": 4458,
  "rail": 4334,
  "rodriguez": 9172,
  "441": 28015,
  "undergoes": 29129,
  "trademark": 11749,
  "1656": 28434,
  "aroma": 23958,
  "[unused689]": 694,
  "1965": 3551,
  "diamond": 6323,
  "##by": 3762,
  "##ovic": 9142,
  "derive": 18547,
  "triassic": 29529,
  "116": 12904,
  "[unused788]": 793,
  "renegade": 28463,
  "teaches": 12011,
  "macro": 26632,
  "restrain": 28467,
  "stare": 6237,
  "sudbury": 26487,
  "boosted": 28043,
  "slam": 9555,
  "##ning": 5582,
  "##42": 20958,
  "##gpur": 25758,
  "##lav": 14973,
  "absorbing": 20998,
  "betty": 9306,
  "discovering": 13648,
  "##lkirk": 23913,
  "mayoral": 23578,
  "[unused378]": 383,
  "pep": 27233,
  "##rella": 21835,
  "waking": 12447,
  "unauthorized": 24641,
  "currents": 14731,
  "snort": 26759,
  "##scoe": 28147,
  "personality": 6180,
  "indicator": 17245,
  "rods": 19485,
  "til": 18681,
  "##heim": 8049,
  "transmitters": 26288,
  "midnight": 7090,
  "papacy": 25097,
  "implemented": 7528,
  "beams": 13110,
  "rover": 13631,
  "##avio": 28471,
  "`": 1036,
  "stint": 12116,
  "##\u057e": 29782,
  "elastic": 21274,
  "doha": 26528,
  "##tream": 25379,
  "liberal": 4314,
  "verdi": 20580,
  "bjp": 24954,
  "1854": 8421,
  "barnes": 9957,
  "surfing": 19967,
  "access": 3229,
  "filmfare": 25648,
  "plank": 24000,
  "performers": 9567,
  "murmurs": 22888,
  "downhill": 19448,
  "adventures": 7357,
  "costello": 21015,
  "\u2012": 1515,
  "canals": 17263,
  "correctly": 11178,
  "baton": 15302,
  "vines": 16702,
  "##lles": 20434,
  "cooled": 12981,
  "##eld": 14273,
  "trunks": 20509,
  "actors": 5889,
  "treats": 18452,
  "was": 2001,
  "##belle": 25766,
  "domes": 26193,
  "##ieg": 28872,
  "concussion": 23159,
  "winner": 3453,
  "detrimental": 29172,
  "\u0e27": 1419,
  "informant": 28694,
  "1977": 3355,
  "freeze": 13184,
  "eras": 28500,
  "marine": 3884,
  "firmly": 7933,
  "hmm": 17012,
  "9": 1023,
  "cuisine": 12846,
  "stayed": 4370,
  "##ntal": 15758,
  "##ending": 18537,
  "[unused823]": 828,
  "secured": 7119,
  "back": 2067,
  "##tsky": 26824,
  "##md": 26876,
  "##emon": 26941,
  "after": 2044,
  "sienna": 20210,
  "[unused955]": 960,
  "housed": 7431,
  "##thi": 15222,
  "trio": 7146,
  "licensing": 13202,
  "provide": 3073,
  "rowe": 20538,
  "terrorism": 10130,
  "silly": 10021,
  "##minated": 26972,
  "commentary": 8570,
  "##anian": 26032,
  "matthews": 12351,
  "mei": 19734,
  "##\u00b5": 29659,
  "##\u2099": 19110,
  "conserved": 19995,
  "\u2075": 1539,
  "attacking": 7866,
  "consisted": 5031,
  "musica": 21137,
  "kissing": 7618,
  "maze": 15079,
  "[unused683]": 688,
  "lions": 7212,
  "affiliation": 12912,
  "illustrate": 19141,
  "mystic": 17477,
  "mainline": 20575,
  "##\u060c": 29814,
  "entities": 11422,
  "detention": 12345,
  "stoke": 13299,
  "similarly": 6660,
  "muffled": 15783,
  "senate": 4001,
  "##dre": 16200,
  "kylie": 9008,
  "wireless": 9949,
  "##yse": 23274,
  "truth": 3606,
  "wave": 4400,
  "bois": 19651,
  "coherent": 18920,
  "##strel": 26877,
  "transmitter": 11659,
  "ravine": 23188,
  "mellon": 22181,
  "highlighting": 20655,
  "helena": 10269,
  "begin": 4088,
  "approved": 4844,
  "vice": 3580,
  "##\u1d56": 30040,
  "##ver": 6299,
  "\u30af": 1702,
  "absent": 9962,
  "##ud": 6784,
  "operations": 3136,
  "rebelled": 25183,
  "vp": 21210,
  "file": 5371,
  "##j": 3501,
  "##kaya": 20718,
  "mentoring": 29192,
  "bartender": 15812,
  "bio": 16012,
  "constraint": 27142,
  "asiatic": 23983,
  "##nail": 25464,
  "waist": 5808,
  "susquehanna": 26361,
  "temperance": 23372,
  "modeled": 14440,
  "differentiated": 24374,
  "naomi": 12806,
  "##sund": 25168,
  "estranged": 24211,
  "13th": 6122,
  "memories": 5758,
  "hiroshima": 20168,
  "education": 2495,
  "##hold": 12640,
  "values": 5300,
  "groom": 18087,
  "mention": 5254,
  "[unused773]": 778,
  "[unused292]": 297,
  "algorithm": 9896,
  "##\u03bd": 16177,
  "[unused356]": 361,
  "pasha": 14292,
  "tom": 3419,
  "[unused33]": 34,
  "asturias": 26798,
  "herbal": 27849,
  "pol": 14955,
  "doubling": 19383,
  "temper": 12178,
  "spilled": 13439,
  "alabama": 6041,
  "##vill": 26548,
  "36": 4029,
  "foreigner": 29524,
  "density": 4304,
  "ibrahim": 13477,
  "fremont": 22550,
  "jeanne": 14537,
  "humour": 17211,
  "herd": 14906,
  "1732": 27582,
  "##tyle": 27983,
  "swell": 18370,
  "aus": 17151,
  "##fat": 27753,
  "sabha": 11200,
  "randolph": 13031,
  "##ili": 18622,
  "photograph": 9982,
  "bonus": 6781,
  "glover": 20012,
  "otherwise": 4728,
  "counselor": 17220,
  "measured": 7594,
  "montenegro": 13018,
  "sy": 25353,
  "become": 2468,
  "deities": 17091,
  "pie": 11345,
  "campuses": 13696,
  "rightful": 27167,
  "##)": 29620,
  "invasive": 17503,
  "##yre": 16363,
  "##ko": 3683,
  "advertised": 17099,
  "honourable": 17164,
  "##ologies": 20792,
  "many": 2116,
  "signing": 6608,
  "behalf": 6852,
  "payments": 10504,
  "inappropriate": 15884,
  "##dm": 22117,
  "[unused768]": 773,
  "h\u2082o": 24833,
  "mercury": 8714,
  "##arty": 23871,
  "colchester": 20115,
  "persuade": 13984,
  "[unused659]": 664,
  "##\u05d4": 29128,
  "satire": 18312,
  "austin": 5899,
  "##hend": 22342,
  "invitations": 29492,
  "inspect": 22459,
  "bishops": 8414,
  "sql": 29296,
  "amazon": 9733,
  "motion": 4367,
  "landings": 16805,
  "##vard": 25911,
  "eastenders": 28936,
  "adding": 5815,
  "##\u110b": 29999,
  "##mium": 27759,
  "fake": 8275,
  "1659": 28288,
  "##coming": 18935,
  "##pts": 22798,
  "pcs": 27019,
  "island": 2479,
  "nobody": 6343,
  "\u8449": 1943,
  "undertake": 16617,
  "crew": 3626,
  "struck": 4930,
  "severn": 24753,
  "jewish": 3644,
  "platinum": 8899,
  "commented": 7034,
  "asset": 11412,
  "palatine": 22202,
  "genius": 11067,
  "unofficially": 29322,
  "manifestation": 24491,
  "##feit": 21156,
  "1666": 27407,
  "settlement": 4093,
  "##mian": 20924,
  "mine": 3067,
  "##orted": 15613,
  "mail": 5653,
  "##blood": 26682,
  "clouded": 26761,
  "##eller": 24038,
  "pull": 4139,
  "very": 2200,
  "confederates": 24627,
  "##nated": 23854,
  "\u04cf": 1218,
  "technology": 2974,
  "suits": 11072,
  "electron": 10496,
  "grips": 24758,
  "heavens": 17223,
  "ones": 3924,
  "sister": 2905,
  "##zai": 25290,
  "fir": 21554,
  "daryl": 22514,
  "rana": 22175,
  "##tosis": 25950,
  "tighten": 21245,
  "lux": 28359,
  "manages": 9020,
  "1812": 9842,
  "isis": 18301,
  "capt": 14408,
  "##rbin": 27366,
  "\u00a4": 1070,
  "rochelle": 25649,
  "##ining": 24002,
  "attack": 2886,
  "transition": 6653,
  "cohen": 9946,
  "rise": 4125,
  "victory": 3377,
  "1713": 27016,
  "valuable": 7070,
  "##ech": 15937,
  "superiors": 22983,
  "##\u091c": 29855,
  "\u0dcf": 1408,
  "cleared": 5985,
  "relating": 8800,
  "nfc": 22309,
  "reunite": 25372,
  "[unused96]": 97,
  "blanca": 27538,
  "icon": 12696,
  "##urgent": 27176,
  "airlines": 7608,
  "\u208e": 1559,
  "artist": 3063,
  "##shu": 14235,
  "posted": 6866,
  "throbbed": 27714,
  "einstein": 15313,
  "creed": 16438,
  "parramatta": 22820,
  "coaches": 7850,
  "author": 3166,
  "dawned": 27702,
  "organ": 5812,
  "profits": 11372,
  "##tions": 9285,
  "[unused286]": 291,
  "##his": 24158,
  "vin": 19354,
  "##eno": 16515,
  "barre": 23189,
  "evicted": 25777,
  "verified": 20119,
  "venues": 9356,
  "devote": 23313,
  "##eur": 11236,
  "brigadier": 9900,
  "relied": 13538,
  "adjutant": 20690,
  "compositions": 9265,
  "\u0575": 1230,
  "##vac": 24887,
  "arranging": 19018,
  "hangs": 17991,
  "##\u5b9a": 30348,
  "solution": 5576,
  "hawk": 9881,
  "##use": 8557,
  "issuing": 15089,
  "intellectuals": 17412,
  "lead": 2599,
  "webber": 19861,
  "sands": 13457,
  "korea": 4420,
  "[unused134]": 139,
  "##sation": 26652,
  "concept": 4145,
  "feng": 19004,
  "cyber": 16941,
  "publicity": 11845,
  "##tting": 13027,
  "\u2218": 1599,
  "##ply": 22086,
  "batman": 8942,
  "heaving": 23907,
  "hillary": 18520,
  "attachment": 14449,
  "point": 2391,
  "broncos": 14169,
  "organisations": 8593,
  "bedford": 12003,
  "malabar": 28785,
  "researchers": 6950,
  "evenly": 18030,
  "\u6b4c": 1886,
  "270": 13756,
  "cowboys": 11666,
  "##gist": 24063,
  "##type": 13874,
  "cluster": 9324,
  "schumann": 29448,
  "invest": 15697,
  "##zard": 26154,
  "peculiar": 14099,
  "confidential": 18777,
  "##omorphic": 28503,
  "##\u0445": 29750,
  "clans": 16411,
  "vince": 12159,
  "##alla": 25425,
  "fat": 6638,
  "searching": 6575,
  "palestinians": 21524,
  "interested": 4699,
  "ironic": 19313,
  "churches": 5231,
  "repay": 24565,
  "wounds": 8710,
  "golfer": 20601,
  "\u00a31": 14534,
  "cut": 3013,
  "520": 19611,
  "recorder": 14520,
  "affinity": 16730,
  "chevalier": 22019,
  "offered": 3253,
  "\u306e": 1671,
  "bentley": 15988,
  "diva": 25992,
  "mohawk": 22338,
  "interventions": 19388,
  "[unused707]": 712,
  "humidity": 18213,
  "bellevue": 26756,
  "economical": 21791,
  "pill": 17357,
  "surname": 11988,
  "georgie": 20280,
  "##sam": 21559,
  "landfall": 21042,
  "dismissing": 28913,
  "siberian": 21822,
  "raid": 8118,
  "heating": 10808,
  "aeronautics": 27459,
  "blunt": 14969,
  "colorful": 14231,
  "##herton": 27949,
  "contrast": 5688,
  "maestro": 25270,
  "virgil": 17270,
  "worth": 4276,
  "##gned": 19225,
  "stories": 3441,
  "tammy": 19971,
  "demise": 13614,
  "universal": 5415,
  "shrugged": 6345,
  "unable": 4039,
  "caracas": 21675,
  "reynolds": 9579,
  "ironically": 18527,
  "barr": 19820,
  "##rman": 14515,
  "van": 3158,
  "cards": 5329,
  "##unciation": 24101,
  "domain": 5884,
  "annals": 16945,
  "\u611b": 1853,
  "wavelength": 19934,
  "fingered": 28842,
  "[unused348]": 353,
  "##lov": 14301,
  "xx": 22038,
  "claremont": 23716,
  "hog": 27589,
  "ruled": 5451,
  "bao": 25945,
  "garry": 21507,
  "\u0f66": 1436,
  "##von": 17789,
  "sectors": 11105,
  "[unused847]": 852,
  "dolphins": 13600,
  "nationalists": 17934,
  "mentions": 9704,
  "cube": 14291,
  "##\u30c1": 30236,
  "piers": 16067,
  "##far": 14971,
  "1819": 12552,
  "1949": 4085,
  "pays": 12778,
  "vi": 6819,
  "mart": 20481,
  "penis": 19085,
  "crept": 13147,
  "tightly": 7371,
  "primera": 14837,
  "franchises": 22506,
  "nuts": 12264,
  "characterization": 23191,
  "highways": 10292,
  "than": 2084,
  "baseman": 18038,
  "\u5341": 1783,
  "pierced": 16276,
  "purchasing": 13131,
  "shipment": 22613,
  "motifs": 17366,
  "10th": 6049,
  "dub": 12931,
  "judicial": 8268,
  "ellis": 8547,
  "fraudulent": 27105,
  "farmland": 16439,
  "delgado": 26532,
  "1942": 3758,
  "[unused604]": 609,
  "period": 2558,
  "witch": 6965,
  "256": 17273,
  "afl": 10028,
  "streaked": 21276,
  "cells": 4442,
  "\u2ea9": 1632,
  "onion": 20949,
  "exchanging": 25620,
  "superstar": 18795,
  "surrendered": 10795,
  "[unused452]": 457,
  "[unused307]": 312,
  "##nched": 19282,
  "benfica": 26542,
  "accustomed": 17730,
  "misery": 14624,
  "mainz": 19876,
  "revue": 17480,
  "bmg": 24499,
  "saturn": 14784,
  "crambidae": 21585,
  "ax": 22260,
  "accommodations": 26167,
  "spike": 9997,
  "testimony": 10896,
  "terminus": 7342,
  "##hampton": 21946,
  "whether": 3251,
  "byzantine": 8734,
  "##\u3008": 30163,
  "dealer": 11033,
  "surrounding": 4193,
  "##ych": 17994,
  "links": 6971,
  "sniffed": 18013,
  "hoffmann": 24437,
  "robb": 26211,
  "jam": 9389,
  "lie": 4682,
  "##so": 6499,
  "dispute": 7593,
  "##mbe": 18552,
  "\u05dc": 1253,
  "angela": 10413,
  "cleveland": 6044,
  "stretching": 10917,
  "potent": 16834,
  "dresser": 16641,
  "##\u7248": 30433,
  "\u3088": 1684,
  "\u4e8b": 1751,
  "preacher": 14512,
  "\u7684": 1916,
  "october": 2255,
  "sindh": 20284,
  "denote": 19090,
  "packs": 15173,
  "294": 28135,
  "alleviate": 24251,
  "contend": 27481,
  "##kker": 23793,
  "##tor": 4263,
  "##\u4e00": 30266,
  "picked": 3856,
  "##yme": 25219,
  "sanctions": 17147,
  "##\u063a": 29831,
  "##marine": 21966,
  "anarchy": 26395,
  "ley": 25866,
  "lesser": 8276,
  "[unused430]": 435,
  "lewis": 4572,
  "##\u1d47": 30033,
  "interpreting": 25455,
  "##genase": 28835,
  "276": 25113,
  "tod": 28681,
  "surprise": 4474,
  "[unused778]": 783,
  "insignificant": 27018,
  "atop": 10234,
  "door": 2341,
  "outlawed": 29131,
  "signals": 7755,
  "stick": 6293,
  "liang": 16982,
  "pulmonary": 21908,
  "bride": 8959,
  "slavery": 8864,
  "atkinson": 18646,
  "nos": 16839,
  "proclamation": 16413,
  "radicals": 23618,
  "1816": 12357,
  "expansion": 4935,
  "stopping": 7458,
  "existent": 25953,
  "lecture": 8835,
  "282": 26267,
  "dunlop": 27458,
  "[unused431]": 436,
  "kassel": 27884,
  "syria": 7795,
  "planted": 8461,
  "humiliation": 21171,
  "providers": 11670,
  "paddle": 20890,
  "cremated": 28376,
  "necessary": 4072,
  "mood": 6888,
  "##right": 15950,
  "diameter": 6705,
  "brightened": 28996,
  "director": 2472,
  "fable": 28458,
  "highness": 17114,
  "assembled": 9240,
  "wig": 24405,
  "cooperation": 6792,
  "##metric": 12589,
  "bop": 29432,
  "paxton": 27765,
  "\u0644": 1294,
  "residential": 5647,
  "##it": 4183,
  "18": 2324,
  "weighted": 18215,
  "felipe": 17095,
  "christensen": 24189,
  "darkened": 13755,
  "margot": 29210,
  "##ssi": 18719,
  "pharmacy": 13882,
  "staggering": 26233,
  "##sner": 20479,
  "hui": 17504,
  "textile": 12437,
  "kellogg": 26129,
  "quay": 21048,
  "##wehr": 27156,
  "brock": 13899,
  "##\u02e4": 29719,
  "stalls": 19753,
  "boxed": 27554,
  "expressing": 14026,
  "outrage": 19006,
  "sustainability": 15169,
  "obscure": 14485,
  "feed": 5438,
  "sgt": 17001,
  "conducting": 9283,
  "##oni": 10698,
  "slang": 21435,
  "rented": 12524,
  "##\u9547": 30492,
  "261": 24441,
  "##kind": 18824,
  "##rard": 25561,
  "fiance": 19154,
  "robyn": 28047,
  "1752": 24736,
  "assume": 7868,
  "lifted": 4196,
  "division": 2407,
  "##shi": 6182,
  "genoa": 15771,
  "blushed": 19370,
  "##thor": 27844,
  "netting": 26909,
  "hurdles": 18608,
  "hines": 25445,
  "jungle": 8894,
  "flavour": 28126,
  "confuse": 28679,
  "akin": 17793,
  "hara": 18820,
  "organizes": 22013,
  "grabs": 13273,
  "bp": 17531,
  "communication": 4807,
  "ping": 17852,
  "appeals": 9023,
  "##hian": 14204,
  "shirts": 11344,
  "mayhem": 26865,
  "shaft": 9093,
  "remake": 12661,
  "##minster": 24431,
  "gary": 5639,
  "1868": 7582,
  "paid": 3825,
  "embarrassment": 14325,
  "protege": 28567,
  "circled": 14867,
  "##\u05e2": 29805,
  "##hony": 27629,
  "rs": 12667,
  "peerage": 18760,
  "cardboard": 19747,
  "automatic": 6882,
  "approached": 5411,
  "hardship": 26479,
  "drained": 11055,
  "reliefs": 27670,
  "miners": 11257,
  "##ico": 11261,
  "ritter": 23168,
  "grin": 5861,
  "##lized": 28931,
  "whatever": 3649,
  "##arat": 25879,
  "gps": 14658,
  "henrik": 18745,
  "vowels": 15260,
  "bold": 7782,
  "stumbled": 9845,
  "##\u3078": 30201,
  "needles": 17044,
  "begged": 12999,
  "##rdial": 25070,
  "cairns": 21731,
  "[unused434]": 439,
  "wallace": 7825,
  "##mins": 21266,
  "corruption": 7897,
  "hans": 7003,
  "##\u767d": 30441,
  "sylvie": 26009,
  "philharmonic": 12355,
  "vale": 10380,
  "[unused208]": 213,
  "##ax": 8528,
  "distribution": 4353,
  "accompany": 12673,
  "look": 2298,
  "[unused112]": 117,
  "trunk": 8260,
  "##\u5341": 30309,
  "##ept": 23606,
  "invertebrates": 25700,
  "fatalities": 20871,
  "chiefly": 15897,
  "vlad": 19163,
  "##-": 29624,
  "arrested": 4727,
  "lashes": 16008,
  "##ments": 8163,
  "bree": 21986,
  "mao": 15158,
  "vessels": 6470,
  "##dl": 19422,
  "##ndi": 16089,
  "406": 27433,
  "##zzo": 12036,
  "distributions": 20611,
  "organisms": 11767,
  "errors": 10697,
  "rebuild": 14591,
  "##ham": 3511,
  "als": 25520,
  "##ill": 8591,
  "racehorse": 25068,
  "chariot": 23507,
  "serie": 8668,
  "##nology": 21020,
  "pajamas": 27621,
  "formation": 4195,
  "mourning": 16236,
  "[unused712]": 717,
  "##au": 4887,
  "hawthorn": 21671,
  "rudy": 18254,
  "##obe": 20891,
  "que": 10861,
  "ships": 3719,
  "upwards": 14873,
  "terry": 6609,
  "realized": 3651,
  "starvation": 22611,
  "premier": 4239,
  "organism": 15923,
  "cao": 12966,
  "flower": 6546,
  "mammals": 11993,
  "posture": 16819,
  "crossed": 4625,
  "\u0dbd": 1406,
  "allied": 6035,
  "crouch": 21676,
  "autumn": 7114,
  "affection": 12242,
  "##ant": 4630,
  "[unused794]": 799,
  "##fo": 14876,
  "antioch": 19078,
  "cid": 28744,
  "##nikov": 22576,
  "##rigue": 27611,
  "whimpered": 26184,
  "##cycle": 23490,
  "##gens": 21230,
  "horatio": 27752,
  "orchard": 15623,
  "angola": 13491,
  "unpredictable": 21446,
  "astronomy": 12799,
  "##inator": 23207,
  "universities": 5534,
  "edmonton": 10522,
  "grunt": 20696,
  "cochin": 28982,
  "sketches": 12741,
  "[unused321]": 326,
  "tons": 6197,
  "emanuel": 21135,
  "forster": 21316,
  "bertrand": 20586,
  "boulder": 13264,
  "lucinda": 28261,
  "##ye": 6672,
  "singular": 13048,
  "##active": 19620,
  "flatly": 24295,
  "explaining": 9990,
  "emperors": 19655,
  "carriage": 9118,
  "closer": 3553,
  "##used": 13901,
  "\u5f73": 1845,
  "apex": 13450,
  "foreman": 18031,
  "##\u02e2": 29717,
  "koln": 28306,
  "payload": 18093,
  "ist": 21541,
  "\u0447": 1202,
  "substrates": 23725,
  "49th": 25726,
  "utter": 14395,
  "##bread": 27035,
  "case": 2553,
  "comfortable": 6625,
  "##ajan": 28869,
  "holster": 29447,
  "connell": 17199,
  "nothing": 2498,
  "commemorates": 25530,
  "##ci": 6895,
  "##vr": 19716,
  "##aina": 27971,
  "muslim": 5152,
  "libel": 26201,
  "thanks": 4283,
  "every": 2296,
  "knowing": 4209,
  "worst": 5409,
  "feminism": 20050,
  "##\u2084": 17004,
  "reminds": 15537,
  "forward": 2830,
  "gulf": 6084,
  "enchanted": 22454,
  "illustrates": 24899,
  "twist": 9792,
  "preserved": 6560,
  "connectivity": 20831,
  "famously": 18172,
  "couple": 3232,
  "lean": 8155,
  "stables": 16232,
  "waitress": 13877,
  "phylogenetic": 23192,
  "bugs": 12883,
  "cooks": 26929,
  "traditionally": 6964,
  "dimensional": 8789,
  "kill": 3102,
  "alto": 10766,
  "foley": 17106,
  "##mat": 18900,
  "wired": 17502,
  "##urance": 25863,
  "##otho": 29288,
  "##rai": 14995,
  "grimaced": 19014,
  "pagan": 14318,
  "##mad": 25666,
  "grunted": 14922,
  "[unused758]": 763,
  "theologians": 29013,
  "##\u0430": 10260,
  "##\u27e9": 30156,
  "superliga": 25922,
  "##enne": 24336,
  "proteins": 8171,
  "guise": 21980,
  "neighbor": 11429,
  "implementations": 24977,
  "struggles": 11785,
  "hitler": 8042,
  "coping": 27520,
  "##sse": 11393,
  "stomped": 21918,
  "##paper": 23298,
  "cornered": 25878,
  "##wart": 18367,
  "bane": 25163,
  "nc": 13316,
  "intensely": 20531,
  "911": 19989,
  "##ee": 4402,
  "turk": 22883,
  "xml": 20950,
  "cancelled": 8014,
  "possessed": 8679,
  "glucose": 18423,
  "##lowe": 27663,
  "beak": 23525,
  "wing": 3358,
  "advancing": 10787,
  "medalist": 12968,
  "[unused389]": 394,
  "blackout": 26717,
  "##ello": 15350,
  "hiding": 6318,
  "defender": 8291,
  "\u201a": 1522,
  "plc": 15492,
  "recipients": 15991,
  "sparks": 12300,
  "volunteers": 7314,
  "restricting": 26996,
  "kade": 26159,
  "refrigerator": 18097,
  "bud": 13007,
  "causeway": 23336,
  "eighteen": 7763,
  "curtains": 14694,
  "astonished": 22741,
  "classed": 27811,
  "daze": 28918,
  "##lete": 25890,
  "##\u02b8": 29710,
  "missing": 4394,
  "jurisdictions": 17370,
  "nursing": 8329,
  "rave": 23289,
  "##\u09c0": 29916,
  "confirmation": 13964,
  "##via": 9035,
  "annie": 8194,
  "handling": 8304,
  "ducks": 14875,
  "callum": 15229,
  "22nd": 13816,
  "tasha": 25448,
  "1917": 4585,
  "joaquin": 16877,
  "utah": 6646,
  "favorable": 11119,
  "skills": 4813,
  "##lab": 20470,
  "##\u0bbf": 29932,
  "phenomenon": 9575,
  "##bham": 25522,
  "maxwell": 10691,
  "awarded": 3018,
  "rubble": 17538,
  "anchors": 24674,
  "partners": 5826,
  "bethany": 16559,
  "humor": 8562,
  "mckenzie": 18506,
  "computers": 7588,
  "showtime": 23811,
  "##woman": 10169,
  "##bber": 29325,
  "calais": 23116,
  "bathing": 17573,
  "unlike": 4406,
  "eased": 10987,
  "imprisoned": 8580,
  "libya": 12917,
  "bathed": 24614,
  "fortune": 7280,
  "hillsborough": 29330,
  "integer": 16109,
  "undefeated": 15188,
  "brains": 14332,
  "ruthless": 18101,
  "remains": 3464,
  "anticipation": 11162,
  "incorporation": 16935,
  "gentleman": 10170,
  "##\u0263": 29683,
  "represented": 3421,
  "york": 2259,
  "killed": 2730,
  "gibraltar": 12272,
  "##relli": 22948,
  "economic": 3171,
  "muscled": 24909,
  "settler": 18556,
  "suppression": 16341,
  "picks": 11214,
  "##fication": 10803,
  "consuming": 15077,
  "weekdays": 19759,
  "hadn": 2910,
  "sept": 17419,
  "crazed": 28343,
  "claudius": 25017,
  "yank": 23178,
  "##ny": 4890,
  "\u11bc": 1489,
  "##asi": 21369,
  "##makers": 12088,
  "##mura": 16069,
  "##iciencies": 28227,
  "spherical": 18970,
  "[unused137]": 142,
  "reece": 24227,
  "wiping": 14612,
  "kilometers": 7338,
  "elementary": 4732,
  "ranks": 6938,
  "##routed": 25849,
  "devils": 13664,
  "residents": 3901,
  "assassin": 12025,
  "brood": 25565,
  "garrett": 9674,
  "slipping": 11426,
  "bathurst": 21897,
  "153": 16710,
  "##\u2098": 30096,
  "lent": 15307,
  "##word": 18351,
  "dos": 9998,
  "yelling": 13175,
  "things": 2477,
  "crude": 13587,
  "\u660e": 1865,
  "knowledge": 3716,
  "finished": 2736,
  "macedonian": 13037,
  "apparently": 4593,
  "libraries": 8860,
  "colon": 16844,
  "blazing": 17162,
  "aubrey": 18961,
  "floyd": 12305,
  "\u2265": 1609,
  "jar": 15723,
  "exclaimed": 12713,
  "family": 2155,
  "##elis": 29282,
  "[unused912]": 917,
  "sundance": 20140,
  "interrupt": 17938,
  "columns": 7753,
  "##kie": 11602,
  "[unused551]": 556,
  "dignitaries": 27960,
  "realistic": 12689,
  "68": 6273,
  "stopped": 3030,
  "troubles": 13460,
  "attacks": 4491,
  "franks": 21310,
  "tempo": 13657,
  "tight": 4389,
  "elliot": 11759,
  "glossy": 19504,
  "selma": 28112,
  "rose": 3123,
  "poland": 3735,
  "scrutiny": 17423,
  "limb": 15291,
  "granting": 15080,
  "mad": 5506,
  "strategic": 6143,
  "asbestos": 29191,
  "justify": 16114,
  "especially": 2926,
  "##evic": 17726,
  "840": 28122,
  "allah": 16455,
  "otago": 21831,
  "portions": 8810,
  "##ey": 3240,
  "giorgio": 17697,
  "190": 11827,
  "\u516b": 1771,
  "usl": 22448,
  "##\u0bb5": 29930,
  "torah": 16297,
  "accessed": 11570,
  "\u0252": 1111,
  "polgara": 27041,
  "mclaren": 18590,
  "grown": 4961,
  "mondays": 28401,
  "##\u02be": 29713,
  "businesses": 5661,
  "selecting": 17739,
  "fresco": 26991,
  "navy": 3212,
  "##aca": 19629,
  "##lk": 13687,
  "##nik": 8238,
  "##deh": 25383,
  "archaeological": 7611,
  "ottomans": 17774,
  "triangular": 14023,
  "##ows": 15568,
  "wii": 16568,
  "mingled": 25959,
  "##gami": 26517,
  "##kshi": 27488,
  "strikes": 9326,
  "romani": 23982,
  "noah": 7240,
  "##nch": 12680,
  "##orescence": 20030,
  "##chman": 19944,
  "evade": 26399,
  "steered": 23424,
  "straighten": 28568,
  "chemist": 15535,
  "##ch": 2818,
  "telephone": 7026,
  "murdered": 7129,
  "squeeze": 11025,
  "##text": 18209,
  "m\u00b3": 14241,
  "630": 23609,
  "##mmon": 24521,
  "billed": 14843,
  "latvia": 12429,
  "tearing": 13311,
  "##umb": 25438,
  "##nous": 18674,
  "leather": 5898,
  "tally": 19552,
  "disappeared": 5419,
  "[unused800]": 805,
  "##\u1174": 30018,
  "topping": 22286,
  "##bles": 13510,
  "consolidate": 24939,
  "honda": 11990,
  "##\u0965": 29881,
  "##bria": 21556,
  "barlow": 17803,
  "openly": 10132,
  "##etic": 16530,
  "hub": 9594,
  "117": 12567,
  "sewer": 22365,
  "orr": 26914,
  "fe": 10768,
  "antennae": 28624,
  "\u30a2": 1693,
  "axel": 18586,
  "assemblies": 17720,
  "staffed": 21121,
  "##\u5927": 30336,
  "formulated": 19788,
  "[unused396]": 401,
  "[unused489]": 494,
  "wedge": 17632,
  "manny": 16320,
  "popcorn": 24593,
  "##lie": 8751,
  "offerings": 14927,
  "connector": 19400,
  "ideally": 28946,
  "maneuver": 17519,
  "treasure": 8813,
  "with": 2007,
  "aggravated": 25817,
  "notion": 9366,
  "bengals": 23227,
  "fly": 4875,
  "johns": 11545,
  "unarmed": 23206,
  "[unused343]": 348,
  "croats": 26222,
  "owen": 7291,
  "havana": 15278,
  "originally": 2761,
  "##kh": 10023,
  "##uve": 22909,
  "handsome": 8502,
  "churchill": 10888,
  "##logie": 27095,
  "returned": 2513,
  "mercer": 13081,
  "endured": 16753,
  "armada": 25306,
  "nissan": 16509,
  "[unused272]": 277,
  "olympic": 4386,
  "slabs": 28761,
  "sulawesi": 29078,
  "[unused342]": 347,
  "##aldo": 27318,
  "1801": 12410,
  "uninhabited": 24749,
  "ruiz": 18773,
  "soviets": 15269,
  "financed": 13790,
  "##eptive": 22048,
  "ox": 23060,
  "reside": 13960,
  "##mail": 21397,
  "ki": 11382,
  "recipe": 17974,
  "##ki": 3211,
  "factors": 5876,
  "##\u2010": 30048,
  "\u793a": 1923,
  "##ard": 4232,
  "hopkins": 10239,
  "##olin": 18861,
  "michel": 8709,
  "##\u0440": 16856,
  "locker": 12625,
  "pr": 10975,
  "[unused370]": 375,
  "##js": 22578,
  "##\u0259": 29681,
  "argue": 7475,
  "sciences": 4163,
  "chancellor": 7306,
  "##\u1d43": 30032,
  "android": 11924,
  "##bed": 8270,
  "sixties": 22651,
  "previous": 3025,
  "allegations": 9989,
  "obsessed": 15896,
  "cognition": 26497,
  "alma": 11346,
  "stubborn": 14205,
  "sized": 7451,
  "pascal": 17878,
  "handy": 18801,
  "investments": 10518,
  "uploaded": 21345,
  "delivered": 5359,
  "##cta": 25572,
  "evaluated": 16330,
  "titanium": 23431,
  "##orro": 29459,
  "integrated": 6377,
  "participant": 13180,
  "vedic": 25824,
  "##\u043f": 29746,
  "electronic": 4816,
  "reduction": 7312,
  "concordia": 24982,
  "milwaukee": 9184,
  "lombardy": 27728,
  "erebidae": 25875,
  "\u09ac": 1368,
  "##\u5ba3": 30349,
  "##rm": 10867,
  "banging": 22255,
  "satan": 16795,
  "##\u0569": 29771,
  "pennant": 22690,
  "chi": 9610,
  "mckenna": 21749,
  "lamps": 14186,
  "babu": 20948,
  "ang": 17076,
  "##sol": 19454,
  "miniatures": 28615,
  "untitled": 24819,
  "##liche": 27412,
  "guardians": 14240,
  "fists": 10006,
  "practised": 20439,
  "allowance": 21447,
  "elder": 6422,
  "repertory": 21099,
  "confluence": 13693,
  "hc": 16731,
  "1643": 25534,
  "##ssar": 25556,
  "immersed": 26275,
  "shutter": 28180,
  "1944": 3646,
  "hellenic": 23122,
  "coughing": 21454,
  "guts": 18453,
  "landscaping": 28404,
  "differentiate": 21032,
  "nationally": 9582,
  "madness": 12013,
  "pi": 14255,
  "##ntino": 25318,
  "excitedly": 23885,
  "weren": 4694,
  "authorised": 19256,
  "sofa": 10682,
  "catastrophic": 23546,
  "underwater": 11564,
  "awarding": 21467,
  "\u1100": 1455,
  "starr": 14330,
  "relieved": 7653,
  "south": 2148,
  "sell": 5271,
  "251": 22582,
  "hearing": 4994,
  "rebecca": 9423,
  "thomson": 11161,
  "marvin": 13748,
  "##adia": 25205,
  "appreciate": 9120,
  "##bro": 12618,
  "contestants": 10584,
  "##cased": 28969,
  "menacing": 24060,
  "ongoing": 7552,
  "minute": 3371,
  "cpc": 28569,
  "releasing": 8287,
  "alarmed": 19260,
  "employs": 13495,
  "slacks": 27786,
  "paige": 17031,
  "infinity": 15579,
  "juan": 5348,
  "##\u677e": 30406,
  "ecole": 12431,
  "bosnia": 9562,
  "asserting": 27644,
  "condensed": 25011,
  "##\u0e15": 29947,
  "ali": 4862,
  "bedside": 19475,
  "johansson": 26447,
  "##graphic": 14773,
  "scene": 3496,
  "regained": 11842,
  "retained": 6025,
  "dividing": 16023,
  "pedro": 7707,
  "watson": 7908,
  "martyrs": 18945,
  "evolution": 6622,
  "consult": 23363,
  "preventing": 10723,
  "rainfall": 10101,
  "sts": 8541,
  "##tten": 25970,
  "demolition": 12451,
  "armoured": 11104,
  "sep": 19802,
  "grossed": 17500,
  "mayfield": 27224,
  "##ars": 11650,
  "##cede": 22119,
  "monastery": 6408,
  "modification": 14080,
  "teatro": 16038,
  "coasts": 20266,
  "##land": 3122,
  "ak": 17712,
  "##het": 27065,
  "sobbing": 20040,
  "[unused904]": 909,
  "monkey": 10608,
  "elusive": 26475,
  "stakeholders": 22859,
  "tricked": 24929,
  "lured": 26673,
  "palo": 24326,
  "snarled": 15022,
  "guitars": 7334,
  "uk": 2866,
  "##ado": 9365,
  "[unused876]": 881,
  "[unused205]": 210,
  "undone": 25757,
  "scents": 29254,
  "hasty": 27151,
  "domingo": 15586,
  "swelled": 21851,
  "##swick": 27720,
  "lyricist": 19489,
  "calvin": 11130,
  "glorious": 14013,
  "insulin": 22597,
  "possession": 6664,
  "prints": 11204,
  "lydia": 14076,
  "davy": 23255,
  "prices": 7597,
  "richter": 20105,
  "##ario": 16843,
  "overlooking": 12549,
  "editors": 10195,
  "[unused195]": 200,
  "[unused209]": 214,
  "sincerely": 25664,
  "##sb": 19022,
  "daytime": 12217,
  "##kon": 19648,
  "defeat": 4154,
  "americas": 10925,
  "##skaya": 23070,
  "iqbal": 28111,
  "cl": 18856,
  "hounds": 27772,
  "designate": 24414,
  "rappers": 28257,
  "\u2089": 1556,
  "##iferous": 23930,
  "274": 25586,
  "scratching": 20291,
  "##~": 29643,
  "ed": 3968,
  "managers": 10489,
  "fame": 4476,
  "filippo": 28669,
  "differ": 11234,
  "##stan": 12693,
  "reservations": 17829,
  "\u5927": 1810,
  "##\u3051": 30180,
  "nee": 7663,
  "avoidance": 24685,
  "thrusts": 25842,
  "\u5fc3": 1849,
  "appalachian": 19682,
  "terrain": 9291,
  "\u2011": 1514,
  "wanna": 10587,
  "publisher": 6674,
  "strangled": 21384,
  "instructions": 8128,
  "skopje": 29255,
  "methane": 24481,
  "##zing": 6774,
  "12": 2260,
  "sap": 20066,
  "##\u03c5": 29735,
  "echo": 9052,
  "defeating": 6324,
  "480": 17295,
  "panels": 9320,
  "crimea": 21516,
  "seventeen": 9171,
  "##oll": 14511,
  "##chen": 8661,
  "regime": 6939,
  "##elt": 20042,
  "\u0baa": 1388,
  "nepali": 23418,
  "stanley": 6156,
  "wasting": 18313,
  "language": 2653,
  "tufts": 25252,
  "shore": 5370,
  "cradled": 23774,
  "parentheses": 27393,
  "julio": 15090,
  "incarnation": 15715,
  "##ater": 24932,
  "doctorate": 8972,
  "33": 3943,
  "tones": 12623,
  "gillespie": 21067,
  "qualification": 8263,
  "connected": 4198,
  "sorority": 27600,
  "rendezvous": 20558,
  "foundation": 3192,
  "mastery": 26364,
  "affirmative": 27352,
  "intellect": 24823,
  "\u4e0b": 1743,
  "##arion": 27548,
  "##ogical": 20734,
  "[unused673]": 678,
  "elemental": 19529,
  "30": 2382,
  "spinning": 9419,
  "astros": 22058,
  "morphology": 19476,
  "1611": 28769,
  "racer": 14878,
  "baltic": 11275,
  "##ght": 13900,
  "cary": 20533,
  "buren": 29470,
  "##nco": 15305,
  "agreed": 3530,
  "##ying": 14147,
  "playing": 2652,
  "secrecy": 20259,
  "blended": 19803,
  "hilt": 21184,
  "squeak": 29552,
  "##\u0636": 29827,
  "bureau": 4879,
  "##fide": 20740,
  "##bo": 5092,
  "jeffrey": 10799,
  "##lay": 8485,
  "eng": 25540,
  "alliances": 21277,
  "purchases": 17402,
  "elsewhere": 6974,
  "battleships": 21327,
  "##channel": 26058,
  "entirety": 15700,
  "link": 4957,
  "kidding": 12489,
  "outskirts": 12730,
  "his": 2010,
  "inactive": 16389,
  "flu": 19857,
  "stop": 2644,
  "crypt": 19888,
  "stephens": 15037,
  "awaited": 19605,
  "adopt": 11092,
  "columnist": 13317,
  "pointedly": 28713,
  "\u5f8c": 1846,
  "cpi": 28780,
  "[unused29]": 30,
  "atm": 27218,
  "##berman": 23991,
  "boise": 23193,
  "gerry": 14926,
  "spear": 12341,
  "##bound": 15494,
  "calculations": 16268,
  "diffusion": 19241,
  "1708": 27337,
  "[unused416]": 421,
  "frontman": 21597,
  "vertex": 19449,
  "cal": 10250,
  "transatlantic": 26617,
  "##\u0995": 29889,
  "barbarians": 28056,
  "lou": 10223,
  "anthropologist": 21571,
  "\u03b9": 1163,
  "strap": 16195,
  "zhejiang": 26805,
  "stipulated": 25729,
  "pods": 26723,
  "attendants": 26727,
  "az": 17207,
  "blasted": 18461,
  "174": 19492,
  "450": 10332,
  "##esses": 26636,
  "##52": 25746,
  "whereas": 6168,
  "##gny": 19393,
  "##pipe": 24548,
  "theft": 11933,
  "heidelberg": 16793,
  "##gga": 23033,
  "\u0e19": 1413,
  "leicester": 11258,
  "pedestrians": 24946,
  "fiesta": 24050,
  "homage": 14822,
  "reasoned": 24557,
  "tad": 18819,
  "##vili": 21661,
  "sucks": 19237,
  "\u9999": 1979,
  "doctors": 7435,
  "descriptions": 13271,
  "teachers": 5089,
  "enables": 12939,
  "stadion": 20756,
  "##rium": 18802,
  "warrant": 10943,
  "adrian": 7918,
  "ufo": 24321,
  "consulting": 10552,
  "\u0f51": 1428,
  "composers": 9929,
  "testified": 14914,
  "##lists": 27103,
  "##stones": 29423,
  "appointments": 14651,
  "[unused972]": 977,
  "plug": 13354,
  "##ail": 12502,
  "scheduled": 5115,
  "tenants": 14665,
  "protected": 5123,
  "teasing": 12216,
  "uncles": 27328,
  "presenter": 10044,
  "drawing": 5059,
  "2nd": 3416,
  "peak": 4672,
  "flushed": 12953,
  "observatory": 9970,
  "blown": 10676,
  "beginning": 2927,
  "commenced": 8420,
  "devi": 14386,
  "barbados": 16893,
  "considering": 6195,
  "dice": 18740,
  "##cat": 11266,
  "miserable": 13736,
  "aid": 4681,
  "comics": 5888,
  "protects": 18227,
  "web": 4773,
  "jokes": 13198,
  "rn": 29300,
  "mexico": 3290,
  "brisk": 28022,
  "##lip": 15000,
  "charley": 20430,
  "keyboardist": 20173,
  "##ivity": 7730,
  "jared": 8334,
  "##br": 19892,
  "stocked": 24802,
  "##vara": 24516,
  "##fk": 24316,
  "##oda": 13390,
  "##sive": 12742,
  "bubbles": 17255,
  "holstein": 18864,
  "and": 1998,
  "union": 2586,
  "tamara": 21772,
  "\u5bfa": 1827,
  "##\u6708": 30398,
  "##qual": 26426,
  "initiating": 26616,
  "incomes": 29373,
  "##uet": 23361,
  "\u2078": 1542,
  "1738": 28009,
  "household": 4398,
  "##holes": 19990,
  "decks": 19963,
  "\u72ac": 1908,
  "\u5343": 1784,
  "##wan": 7447,
  "finds": 4858,
  "romance": 7472,
  "montgomery": 8482,
  "transcribed": 26223,
  "beethoven": 15461,
  "\u02b7": 1143,
  "wheeled": 17320,
  "disgusting": 19424,
  "memorial": 3986,
  "bowing": 26690,
  "bleak": 21657,
  "coins": 7824,
  "##litz": 24725,
  "[unused688]": 693,
  "stride": 18045,
  "separate": 3584,
  "wright": 6119,
  "artemis": 19063,
  "dna": 6064,
  "ing": 13749,
  "roadside": 25131,
  "expectations": 10908,
  "malacca": 28481,
  "[unused535]": 540,
  "kids": 4268,
  "ai": 9932,
  "extending": 8402,
  "\u6709": 1873,
  "viewers": 7193,
  "##ruff": 26919,
  "##hong": 19991,
  "ankle": 10792,
  "joachim": 17286,
  "pilgrimage": 14741,
  "jia": 25871,
  "leap": 11679,
  "##linson": 25051,
  "##sberg": 11711,
  "debris": 11385,
  "into": 2046,
  "great": 2307,
  "[unused468]": 473,
  "##yne": 9654,
  "known": 2124,
  "guyana": 18786,
  "plantation": 10065,
  "sumatra": 18262,
  "peck": 18082,
  "blacks": 10823,
  "[unused506]": 511,
  "cecil": 11978,
  "##rix": 17682,
  "1838": 9931,
  "trench": 14185,
  "tommy": 6838,
  "[unused764]": 769,
  "crumpled": 19814,
  "aromatic": 25496,
  "highland": 10983,
  "cochrane": 22329,
  "gee": 20277,
  "hypothetical": 25613,
  "rotting": 22005,
  "piston": 16733,
  "media": 2865,
  "twitched": 16767,
  "discretion": 19258,
  "##sume": 23545,
  "1935": 4437,
  "tasked": 13487,
  "deny": 9772,
  "conserve": 27749,
  "\u9762": 1976,
  "contributors": 16884,
  "effortlessly": 29483,
  "##erved": 25944,
  "##\u0635": 29826,
  "##ntes": 17340,
  "##liner": 20660,
  "##scu": 28817,
  "##logic": 27179,
  "viking": 12886,
  "discussions": 10287,
  "sony": 8412,
  "john": 2198,
  "[unused499]": 504,
  "argued": 5275,
  "croft": 28983,
  "vow": 19076,
  "1970s": 3955,
  "xiii": 15031,
  "executive": 3237,
  "stevenson": 13636,
  "##urne": 21737,
  "sofie": 26359,
  "sergeant": 6722,
  "main": 2364,
  "##apa": 22068,
  "slade": 18048,
  "engraved": 16328,
  "ceremonies": 10912,
  "waters": 5380,
  "haji": 28174,
  "helmets": 22674,
  "##qa": 19062,
  "##cina": 28748,
  "bond": 5416,
  "sensors": 13907,
  "monica": 9018,
  "2012": 2262,
  "faulty": 28927,
  "##ram": 6444,
  "lump": 15116,
  "automation": 19309,
  "stray": 15926,
  "##vance": 21789,
  "pseudo": 18404,
  "meyer": 11527,
  "nancy": 7912,
  "graduating": 6800,
  "nineteenth": 9137,
  "matteo": 24713,
  "pebbles": 28962,
  "hop": 6154,
  "fulbright": 26695,
  "nights": 6385,
  "punish": 16385,
  "floated": 13715,
  "diversity": 8906,
  "unpopular": 19657,
  "1629": 27882,
  "hermann": 12224,
  "##mbo": 13344,
  "elise": 14251,
  "feel": 2514,
  "affairs": 3821,
  "##cko": 19665,
  "designs": 5617,
  "killers": 15978,
  "##yler": 20853,
  "##eber": 22669,
  "##ute": 10421,
  "governmental": 10605,
  "1736": 28192,
  "morrison": 9959,
  "flexibility": 16991,
  "knocked": 6573,
  "hampton": 11615,
  "##\u09bf": 29915,
  "tackles": 10455,
  "##kov": 7724,
  "issues": 3314,
  "help": 2393,
  "corinne": 26879,
  "burke": 9894,
  "##ctric": 22601,
  "1950s": 4856,
  "emile": 17127,
  "jing": 21536,
  "logging": 15899,
  "emissions": 11768,
  "voted": 5444,
  "##\u110c": 30000,
  "\u6211": 1855,
  "##ken": 7520,
  "##hoot": 23416,
  "eton": 21687,
  "##gau": 20420,
  "inwardly": 28710,
  "serpent": 16517,
  "airspace": 29357,
  "hearst": 25419,
  "plea": 14865,
  "##\u0637": 29828,
  "##ents": 11187,
  "como": 18609,
  "retrieved": 5140,
  "weekend": 5353,
  "anglo": 7819,
  "doubts": 13579,
  "noctuidae": 24893,
  "hungarian": 5588,
  "orphan": 18211,
  "intro": 17174,
  "du": 4241,
  "shattered": 10909,
  "mini": 7163,
  "##stra": 20528,
  "##ija": 14713,
  "stuck": 5881,
  "bargain": 17113,
  "productions": 5453,
  "initiated": 7531,
  "lauderdale": 23520,
  "gp": 14246,
  "1790": 13393,
  "##bu": 8569,
  "expected": 3517,
  "particle": 10811,
  "plaintiff": 20579,
  "##alic": 27072,
  "##ings": 8613,
  "lacks": 14087,
  "amelia": 11556,
  "cooper": 6201,
  "pre": 3653,
  "##oke": 11045,
  "##qu": 28940,
  "code": 3642,
  "##gre": 17603,
  "cub": 21987,
  "\u0e21": 1415,
  "##kel": 11705,
  "gauge": 7633,
  "hey": 4931,
  "1570": 28881,
  "percival": 27832,
  "tucson": 17478,
  "golf": 5439,
  "playoff": 7808,
  "specialized": 7772,
  "fulfilled": 16829,
  "disturbance": 16915,
  "##gar": 6843,
  "1675": 27194,
  "hammering": 27883,
  "examining": 12843,
  "gravitational": 19790,
  "wedding": 5030,
  "##otto": 23052,
  "butter": 12136,
  "alexandra": 10481,
  "backdrop": 18876,
  "griffin": 9258,
  "anomaly": 28685,
  "verses": 11086,
  "supposed": 4011,
  "sculptures": 10801,
  "faltered": 26015,
  "57": 5401,
  "##ngen": 25997,
  "bother": 8572,
  "davey": 20436,
  "##\u0f62": 29970,
  "mons": 29408,
  "letterman": 26593,
  "cyrus": 16123,
  "predator": 15267,
  "truly": 5621,
  "##rath": 27362,
  "influenza": 24442,
  "patrick": 4754,
  "somber": 28587,
  "softness": 27012,
  "sighted": 19985,
  "durham": 9296,
  "procedures": 8853,
  "[unused494]": 499,
  "##dial": 27184,
  "saskatoon": 25447,
  "##ior": 25346,
  "vans": 21994,
  "##gos": 12333,
  "##ately": 28239,
  "mustard": 23187,
  "trumpets": 26506,
  "buckinghamshire": 21712,
  "margarita": 24570,
  "stops": 6762,
  "fang": 15197,
  "##nage": 27031,
  "bends": 23394,
  "theo": 14833,
  "immune": 11311,
  "##biotic": 26591,
  "hiatus": 14221,
  "sigma": 13201,
  "emancipation": 22656,
  "##light": 7138,
  "\u6c5f": 1897,
  "temeraire": 23611,
  "mathematicians": 29374,
  "verb": 12034,
  "operas": 14281,
  "\u2088": 1555,
  "ty": 5939,
  "carp": 29267,
  "mouth": 2677,
  "mighty": 10478,
  "resemblance": 14062,
  "\u0f62": 1434,
  "[unused772]": 777,
  "jade": 12323,
  "sloane": 17558,
  "hua": 23064,
  "satirical": 17251,
  "introductory": 23889,
  "hiroshi": 26882,
  "larger": 3469,
  "##ffle": 18142,
  "italia": 13052,
  "inuit": 25179,
  "innings": 7202,
  "described": 2649,
  "hesitation": 13431,
  "somme": 25158,
  "expansive": 25145,
  "marriages": 12743,
  "##cheon": 28099,
  "sic": 14387,
  "alexei": 21219,
  "observed": 5159,
  "trieste": 25199,
  "madman": 28441,
  "quaker": 18844,
  "perched": 17335,
  "living": 2542,
  "##mum": 27147,
  "mysore": 20761,
  "civic": 8388,
  "symphonic": 18957,
  "ministers": 7767,
  "##hum": 28600,
  "statewide": 13486,
  "throw": 5466,
  "operator": 6872,
  "surgery": 5970,
  "\u0940": 1342,
  "title": 2516,
  "aquarium": 18257,
  "annual": 3296,
  "[unused493]": 498,
  "insights": 20062,
  "lip": 5423,
  "##hor": 16368,
  "##rily": 11272,
  "applicants": 17362,
  "snout": 17291,
  "cherry": 9115,
  "\u0bb3": 1393,
  "##\u5206": 30301,
  "##dad": 14697,
  "treasures": 17605,
  "##cky": 17413,
  "leapt": 13920,
  "intelligence": 4454,
  "handkerchief": 23975,
  "comparison": 7831,
  "\u02be": 1147,
  "implied": 13339,
  "welles": 23447,
  "gone": 2908,
  "baseline": 26163,
  "lady": 3203,
  "morally": 28980,
  "streamed": 18498,
  "##uising": 28580,
  "felony": 24648,
  "reactive": 22643,
  "surrounds": 20626,
  "suitcase": 15940,
  "nassau": 14646,
  "##group": 17058,
  "151": 16528,
  "dona": 24260,
  "pavement": 14271,
  "[unused983]": 988,
  "cozy": 26931,
  "frankly": 19597,
  "sipped": 17735,
  "democratic": 3537,
  "fortunate": 19590,
  "cummings": 20750,
  "volumes": 6702,
  "drugs": 5850,
  "joints": 17651,
  "planner": 24555,
  "core": 4563,
  "clayton": 11811,
  "swung": 7671,
  "trainee": 26758,
  "marquis": 13410,
  "entertainment": 4024,
  "twists": 21438,
  "clouds": 8044,
  "marriage": 3510,
  "calls": 4455,
  "neolithic": 19061,
  "annoyed": 11654,
  "accepted": 3970,
  "sg": 22214,
  "benefactor": 27398,
  "knight": 5000,
  "##list": 9863,
  "themes": 6991,
  "glared": 9400,
  "\u58eb": 1807,
  "##\u0628\u0627\u062f": 25799,
  "[unused767]": 772,
  "##ishing": 21837,
  "distances": 12103,
  "dorchester": 27252,
  "scandals": 29609,
  "[unused722]": 727,
  "magnum": 19691,
  "partisans": 20762,
  "highway": 3307,
  "qaeda": 18659,
  "appendix": 22524,
  "damaged": 5591,
  "slip": 7540,
  "pressing": 7827,
  "##nger": 11392,
  "\u00df": 1096,
  "##onia": 12488,
  "tracts": 22069,
  "reintroduced": 28263,
  "newly": 4397,
  "thinkers": 24762,
  "##\u1173": 30017,
  "widened": 8723,
  "cured": 21391,
  "slaves": 7179,
  "download": 8816,
  "##roup": 22107,
  "quartz": 20971,
  "##itarian": 25691,
  "hope": 3246,
  "desires": 14714,
  "ducked": 13781,
  "sum": 7680,
  "\u03bf": 1169,
  "54": 5139,
  "##glio": 29480,
  "troops": 3629,
  "boiling": 16018,
  "##ash": 11823,
  "mohammed": 12619,
  "stems": 12402,
  "##ron": 4948,
  "colt": 9110,
  "##.": 29625,
  "1964": 3546,
  "##fare": 17883,
  "building": 2311,
  "crocodile": 21843,
  "accommodated": 28959,
  "gemini": 21424,
  "galleries": 11726,
  "liturgy": 21176,
  "mussolini": 22554,
  "prayed": 14283,
  "restraints": 28054,
  "touch": 3543,
  "breath": 3052,
  "336": 27954,
  "rudd": 25298,
  "situations": 8146,
  "admiration": 17005,
  "conditioned": 22442,
  "given": 2445,
  "wurttemberg": 16346,
  "dialogues": 22580,
  "unlawful": 22300,
  "##\u2202": 30120,
  "surviving": 6405,
  "trooper": 28224,
  "sensing": 13851,
  "##gy": 6292,
  "connect": 7532,
  "edmond": 21773,
  "ferrara": 28635,
  "metaphysical": 29081,
  "lack": 3768,
  "devil": 6548,
  "frogs": 17582,
  "adolph": 28564,
  "prospect": 9824,
  "yells": 22114,
  "lucille": 28016,
  "themed": 11773,
  "##tus": 5809,
  "blur": 14819,
  "wentworth": 20572,
  "polite": 13205,
  "light": 2422,
  "nur": 27617,
  "##sier": 20236,
  "classmate": 23175,
  "evacuated": 13377,
  "happier": 19366,
  "emails": 22028,
  "concerning": 7175,
  "puebla": 27452,
  "staunch": 26355,
  "humanitarian": 11470,
  "westward": 15165,
  "futuristic": 28971,
  "consider": 5136,
  "hague": 14575,
  "tessa": 13167,
  "poe": 18922,
  "heights": 7535,
  "pulsed": 24107,
  "advantage": 5056,
  "lockheed": 17646,
  "patience": 11752,
  "inactivated": 15663,
  "262": 21950,
  "genevieve": 20245,
  "rayon": 26810,
  "knesset": 27899,
  "tony": 4116,
  "deportivo": 23696,
  "sant": 15548,
  "loyal": 8884,
  "fide": 26000,
  "##51": 22203,
  "zombie": 11798,
  "##ayo": 28852,
  "ferris": 23202,
  "##\u21d2": 30119,
  "[unused716]": 721,
  "delay": 8536,
  "myself": 2870,
  "complain": 17612,
  "seminar": 18014,
  "feeling": 3110,
  "aden": 16298,
  "flicking": 26259,
  "migrating": 28636,
  "##\u3075": 30200,
  "##space": 23058,
  "declines": 26451,
  "##\u2044": 30070,
  "carrier": 6839,
  "football": 2374,
  "[unused43]": 44,
  "militia": 8396,
  "operation": 3169,
  "thru": 27046,
  "vortex": 23463,
  "##llus": 20159,
  "grandpa": 15310,
  "ape": 23957,
  "revolutionaries": 24517,
  "obesity": 24552,
  "sharks": 12004,
  "##tes": 4570,
  "infrastructure": 6502,
  "1727": 25350,
  "[unused273]": 278,
  "ambition": 16290,
  "fiancee": 19455,
  "\u0bbe": 1395,
  "##ada": 8447,
  "lines": 3210,
  "cable": 5830,
  "embryo": 28086,
  "possessive": 22105,
  "messages": 7696,
  "mistaken": 13534,
  "aw": 22091,
  "duane": 27319,
  "##gren": 13565,
  "[unused841]": 846,
  "bedroom": 5010,
  "\u5b50": 1816,
  "grover": 25242,
  "superhuman": 27061,
  "omitted": 16647,
  "venom": 15779,
  "##moral": 22049,
  "romania": 6339,
  "[unused888]": 893,
  "antagonist": 17379,
  "##very": 27900,
  "\u028c": 1134,
  "crowns": 24364,
  "##gation": 12540,
  "[unused319]": 324,
  "strides": 22215,
  "leonid": 27316,
  "ward": 4829,
  "breast": 7388,
  "##fs": 10343,
  "jewellery": 21545,
  "beliefs": 9029,
  "honorary": 5756,
  "##drome": 29171,
  "##toy": 29578,
  "cinemas": 19039,
  "570": 24902,
  "##jar": 16084,
  "summons": 24814,
  "fellowships": 27298,
  "winter": 3467,
  "##ray": 9447,
  "bulging": 27569,
  "1857": 8204,
  "##iensis": 27806,
  "1779": 17616,
  "bias": 13827,
  "[unused393]": 398,
  "buenos": 9204,
  "steiner": 21264,
  "footballers": 27784,
  "##\u592a": 30338,
  "stinging": 22748,
  "alternate": 6585,
  "##sa": 3736,
  "##omic": 22026,
  "madagascar": 11934,
  "viola": 10482,
  "##\u2228": 30130,
  "swollen": 13408,
  "disturb": 22995,
  "aged": 4793,
  "honolulu": 16598,
  "tasting": 18767,
  "stemmed": 27674,
  "##sdale": 15145,
  "arresting": 28427,
  "pale": 5122,
  "##+": 29622,
  "theme": 4323,
  "menace": 19854,
  "be": 2022,
  "wan": 14071,
  "[unused544]": 549,
  "##los": 10483,
  "incoming": 14932,
  "shandong": 25768,
  "[unused246]": 251,
  "chestnut": 15655,
  "##\u02b0": 29706,
  "skye": 16590,
  "ballard": 21896,
  "excerpts": 24962,
  "calculating": 20177,
  "arabia": 9264,
  "##unda": 18426,
  "##onne": 18256,
  "gesellschaft": 27482,
  "rearview": 28726,
  "loads": 15665,
  "[unused988]": 993,
  "gardner": 11764,
  "morgan": 5253,
  "clerks": 26706,
  "td": 14595,
  "miller": 4679,
  "##erine": 24226,
  "include": 2421,
  "jockey": 13989,
  "lovers": 10205,
  "con": 9530,
  "vector": 9207,
  "musicals": 20103,
  "brooklyn": 6613,
  "##hp": 22269,
  "probably": 2763,
  "toned": 27604,
  "##iv": 12848,
  "specialty": 12233,
  "protein": 5250,
  "comparable": 12435,
  "amalgamation": 21968,
  "flood": 7186,
  "translation": 5449,
  "\u1172": 1480,
  "czechoslovak": 21282,
  "climbed": 6589,
  "ensuring": 12725,
  "everywhere": 7249,
  "harbour": 7440,
  "gavin": 9448,
  "dealers": 16743,
  "favorite": 5440,
  "platform": 4132,
  "sexual": 4424,
  "rank": 4635,
  "macy": 20914,
  "##bolt": 22803,
  "kabul": 21073,
  "positions": 4460,
  "##economic": 23035,
  "georgia": 4108,
  "nevertheless": 6600,
  "fen": 21713,
  "##cano": 23803,
  "enthusiastic": 14727,
  "silicon": 13773,
  "##rao": 25667,
  "faculty": 4513,
  "willis": 12688,
  "##ders": 13375,
  "liga": 8018,
  "wells": 7051,
  "scored": 3195,
  "berger": 16758,
  "founding": 4889,
  "defined": 4225,
  "carriers": 11363,
  "jane": 4869,
  "von": 3854,
  "##rod": 14127,
  "sometimes": 2823,
  "wasps": 23146,
  "toe": 11756,
  "##\u062f": 15394,
  "unlocked": 14058,
  "amendment": 7450,
  "hand": 2192,
  "baccalaureate": 27802,
  "br": 7987,
  "performing": 4488,
  "\u2086": 1553,
  "arbitrary": 15275,
  "triad": 25355,
  "gathering": 7215,
  "culture": 3226,
  "##wed": 15557,
  "hardcore": 13076,
  "\u0996": 1354,
  "discovers": 9418,
  "aging": 12520,
  "underwent": 9601,
  "[unused460]": 465,
  "davenport": 16273,
  "basement": 8102,
  "ached": 15043,
  "enjoyment": 20195,
  "bundle": 14012,
  "\uff0e": 1991,
  "##cum": 24894,
  "separated": 5459,
  "fifteenth": 16249,
  "[unused355]": 360,
  "##esian": 25253,
  "##wley": 20609,
  "tendency": 11765,
  "gladstone": 21765,
  "asian": 4004,
  "via": 3081,
  "##rned": 21119,
  "37": 4261,
  "adjunct": 20621,
  "##50": 12376,
  "heartbreak": 27724,
  "[unused216]": 221,
  "clawed": 22544,
  "betsy": 22396,
  "civilian": 6831,
  "growling": 22413,
  "somali": 16831,
  "viva": 20022,
  "\u02bf": 1148,
  "303": 19988,
  "arena": 5196,
  "team": 2136,
  "anthem": 11971,
  "cottage": 9151,
  "cursing": 19752,
  "##roud": 21332,
  "levin": 20206,
  "newcomer": 16866,
  "##\u05e0": 29803,
  "missy": 25019,
  "##jic": 25008,
  "determines": 16463,
  "internationally": 7587,
  "brand": 4435,
  "edinburgh": 5928,
  "mosques": 21922,
  "##\u110a": 29998,
  "listener": 19373,
  "bruno": 10391,
  "crow": 11465,
  "societe": 18341,
  "strawberry": 16876,
  "chance": 3382,
  "preparation": 7547,
  "officer": 2961,
  "obtaining": 11381,
  "mum": 12954,
  "stroll": 27244,
  "intervention": 8830,
  "testify": 19919,
  "juliet": 13707,
  "gnu": 27004,
  "husky": 18758,
  "marlene": 26921,
  "##asco": 28187,
  "operate": 5452,
  "##nable": 22966,
  "reunited": 11653,
  "cleanup": 27686,
  "narration": 21283,
  "breuning": 18177,
  "riga": 17557,
  "save": 3828,
  "##uity": 18518,
  "##acio": 21361,
  "championships": 3219,
  "principles": 6481,
  "##90": 21057,
  "dwellers": 28857,
  "\u0448": 1203,
  "##logical": 9966,
  "##liness": 20942,
  "denominations": 17384,
  "wondering": 6603,
  "mare": 11941,
  "jumping": 8660,
  "[unused298]": 303,
  "teacher": 3836,
  "yep": 15624,
  "ambitious": 12479,
  "husband": 3129,
  "outlying": 25376,
  "flanking": 24958,
  "dissatisfied": 25956,
  "##elli": 13348,
  "##ots": 12868,
  "float": 14257,
  "virtual": 7484,
  "nickel": 15519,
  "stemming": 29217,
  "david": 2585,
  "[unused185]": 190,
  "sandstone": 11694,
  "vietnam": 5148,
  "dots": 14981,
  "\u2609": 1622,
  "registrar": 24580,
  "idea": 2801,
  "tissues": 14095,
  "program": 2565,
  "picnic": 12695,
  "##\u0458": 29761,
  "##xon": 22500,
  "subset": 16745,
  "##na": 2532,
  "sarah": 4532,
  "folly": 26272,
  "[unused255]": 260,
  "##kur": 18569,
  "muzzle": 17750,
  "press": 2811,
  "103": 9800,
  "drenched": 25265,
  "jacqueline": 17551,
  "brig": 16908,
  "[unused745]": 750,
  "##iu": 17922,
  "##und": 8630,
  "statue": 6231,
  "allie": 16944,
  "##\u03bf\u03c5": 26789,
  "operatic": 22534,
  "refers": 5218,
  "upgrades": 18739,
  "manufactures": 22027,
  "westwood": 21730,
  "196": 20035,
  "galactic": 21375,
  "pennsylvania": 3552,
  "outline": 12685,
  "find": 2424,
  "journal": 3485,
  "producing": 5155,
  "gamer": 27911,
  "systems": 3001,
  "nehru": 23556,
  "flex": 23951,
  "hackett": 28630,
  "singapore": 5264,
  "receive": 4374,
  "##tell": 23567,
  "munich": 7469,
  "##\u043c": 29745,
  "biggest": 5221,
  "wolf": 4702,
  "##wani": 29092,
  "##eem": 21564,
  "##zyn": 23749,
  "armour": 12371,
  "defeated": 3249,
  "\u2116": 1578,
  "##rral": 24988,
  "laughs": 11680,
  "##nberger": 28825,
  "spitting": 24307,
  "340": 16029,
  "\u10d8": 1445,
  "##tino": 25690,
  "staring": 4582,
  "jaenelle": 20757,
  "folder": 19622,
  "sarcastic": 22473,
  "##ota": 17287,
  "##\u1103": 29993,
  "260": 13539,
  "##brick": 25646,
  "thumbs": 16784,
  "editing": 9260,
  "creator": 8543,
  "rebel": 8443,
  "indianapolis": 9506,
  "experimentation": 21470,
  "denmark": 5842,
  "baylor": 23950,
  "cisco": 26408,
  "##raf": 27528,
  "##wa": 4213,
  "peninsula": 6000,
  "hms": 7220,
  "northbound": 20055,
  "##cs": 6169,
  "##\u1100": 29991,
  "##\u0252": 29678,
  "ict": 25891,
  "\u094b": 1343,
  "turning": 3810,
  "scots": 12196,
  "##zza": 20715,
  "licking": 17033,
  "casinos": 27300,
  "fae": 17282,
  "panted": 28149,
  "##\u30ad": 30227,
  "gregor": 16973,
  "291": 27173,
  "tinted": 25577,
  "showing": 4760,
  "##pala": 19636,
  "weep": 27874,
  "##\u2116": 30106,
  "[unused135]": 140,
  "gal": 14891,
  "departed": 7745,
  "largest": 2922,
  "1802": 13515,
  "##\u4f0a": 30288,
  "strands": 14119,
  "wall": 2813,
  "##let": 7485,
  "\u09b8": 1376,
  "\u2010": 1513,
  "207": 19843,
  "blankly": 26344,
  "token": 19204,
  "initials": 20381,
  "##hoe": 14490,
  "signature": 8085,
  "##aer": 27867,
  "spaghetti": 26666,
  "nana": 17810,
  "symphony": 6189,
  "kathleen": 14559,
  "tenderly": 26596,
  "[unused210]": 215,
  "##umatic": 25360,
  "##dler": 21222,
  "sweets": 26844,
  "##culture": 14561,
  "wichita": 18614,
  "silk": 6953,
  "transfers": 15210,
  "##tory": 7062,
  "vinegar": 29387,
  "renewable": 13918,
  "##atter": 20097,
  "crippled": 24433,
  "agatha": 23863,
  "##rose": 13278,
  "marrow": 24960,
  "##ulia": 20922,
  "allen": 5297,
  "sar": 18906,
  "##\u0642": 29834,
  "intent": 7848,
  "wcw": 24215,
  "showed": 3662,
  "booster": 23715,
  "kan": 22827,
  "peeling": 28241,
  "listings": 26213,
  "amplified": 26986,
  "decades": 5109,
  "##22": 19317,
  "glittering": 20332,
  "requirement": 9095,
  "##\u65b0": 30388,
  "reduces": 13416,
  "distinguishing": 20852,
  "hale": 13084,
  "fist": 7345,
  "wound": 6357,
  "##gler": 17420,
  "##\u057a": 29780,
  "bundesliga": 14250,
  "interfere": 15115,
  "meanwhile": 5564,
  "\u00ac": 1078,
  "trivial": 20610,
  "schoolhouse": 26301,
  "stem": 7872,
  "announces": 17472,
  "executives": 12706,
  "willingly": 18110,
  "hoover": 17443,
  "entries": 10445,
  "can": 2064,
  "how": 2129,
  "##chon": 24561,
  "panel": 5997,
  "##lang": 25023,
  "origins": 7321,
  "acacia": 24766,
  "falkland": 25257,
  "librarian": 13850,
  "steady": 6706,
  "conveyed": 21527,
  "subcommittee": 18052,
  "##\u9053": 30483,
  "mc": 11338,
  "bankrupt": 17482,
  "olsen": 18997,
  "coefficients": 21374,
  "iowa": 5947,
  "##bas": 22083,
  "harvey": 7702,
  "##ole": 9890,
  "shuffled": 18764,
  "fathers": 11397,
  "standardized": 16367,
  "dortmund": 23912,
  "autobiography": 10828,
  "##tania": 21013,
  "##hering": 22658,
  "everything": 2673,
  "conflicting": 19326,
  "##raus": 25965,
  "instincts": 16160,
  "kendra": 13812,
  "patrol": 6477,
  "penalties": 12408,
  "gangster": 20067,
  "##plify": 28250,
  "muse": 18437,
  "##dus": 17619,
  "##\u0438\u0438": 15414,
  "limited": 3132,
  "##yer": 10532,
  "##\u65b9": 30389,
  "[unused871]": 876,
  "transcript": 24051,
  "cab": 9298,
  "both": 2119,
  "bourgeois": 22846,
  "identification": 8720,
  "perception": 10617,
  "##lma": 19145,
  "1700": 16601,
  "irregularities": 28868,
  "compose": 17202,
  "##sed": 6924,
  "elisabeth": 12877,
  "streaming": 11058,
  "comparing": 13599,
  "downs": 12482,
  "noisy": 20810,
  "resonance": 17011,
  "##stadt": 21543,
  "believer": 24591,
  "##cured": 19405,
  "hazel": 14015,
  "##ains": 28247,
  "cinder": 29399,
  "destructive": 15615,
  "##rius": 13245,
  "##ann": 11639,
  "bilbao": 25427,
  "aerospace": 13395,
  "upgrading": 25925,
  "curse": 8364,
  "malone": 16321,
  "##pate": 17585,
  "[unused511]": 516,
  "neatly": 15981,
  "montreal": 5548,
  "abundant": 12990,
  "blinded": 20641,
  "##pper": 18620,
  "frederick": 5406,
  "moments": 5312,
  "2003": 2494,
  "##iff": 13355,
  "stress": 6911,
  "validation": 27354,
  "\u21cc": 1590,
  "deaths": 6677,
  "##arding": 29154,
  "holloway": 20977,
  "female": 2931,
  "pornographic": 26932,
  "immature": 26838,
  "dvd": 4966,
  "crushed": 10560,
  "##lift": 18412,
  "##nary": 24041,
  "conscience": 13454,
  "##hema": 28433,
  "inches": 5282,
  "warlock": 28861,
  "##oss": 15094,
  "arrow": 8612,
  "curious": 8025,
  "rescuing": 23659,
  "exposition": 13080,
  "halt": 9190,
  "omar": 13192,
  "deteriorated": 20111,
  "[unused791]": 796,
  "progressed": 12506,
  "grouped": 15131,
  "jasmine": 14032,
  "##lby": 14510,
  "countryside": 10833,
  "despair": 13905,
  "##ric": 7277,
  "blazed": 25590,
  "##dale": 5634,
  "##y": 2100,
  "when": 2043,
  "prisoners": 5895,
  "jason": 4463,
  "instead": 2612,
  "wolverhampton": 20085,
  "learners": 26262,
  "porn": 22555,
  "1813": 12169,
  "##arable": 25236,
  "nyu": 27935,
  "curator": 13023,
  "##\u03b7\u03c2": 29155,
  "depictions": 20818,
  "clair": 17936,
  "##tel": 9834,
  "yates": 20356,
  "##ctions": 22014,
  "##ower": 25114,
  "nestled": 22704,
  "looked": 2246,
  "bailey": 8925,
  "print": 6140,
  "nostrils": 15325,
  "##hog": 25852,
  "desirable": 16166,
  "##\u6238": 30383,
  "##rga": 28921,
  "##uch": 10875,
  "theodor": 21448,
  "sawmill": 24744,
  "suzuki": 14278,
  "##rton": 11715,
  "napoleonic": 18813,
  "bound": 5391,
  "embracing": 23581,
  "##ddle": 20338,
  "forums": 21415,
  "sins": 15516,
  "sega": 16562,
  "1793": 12387,
  "##\u0291": 29703,
  "scotia": 9676,
  "calder": 19347,
  "tibetan": 11953,
  "##cos": 13186,
  "intend": 13566,
  "[unused326]": 331,
  "heat": 3684,
  "papa": 13008,
  "bohemian": 18063,
  "##dae": 6858,
  "remark": 17674,
  "rebirth": 22785,
  "colton": 21000,
  "##eurs": 26744,
  "phantom": 11588,
  "diabetes": 14671,
  "roy": 6060,
  "disciplines": 12736,
  "##sett": 21678,
  "##ital": 18400,
  "mccall": 25790,
  "solemnly": 26294,
  "correspondence": 11061,
  "modest": 10754,
  "pal": 14412,
  "##orin": 28741,
  "resurrected": 23053,
  "consultancy": 24853,
  "giuseppe": 12574,
  "##day": 10259,
  "suburbs": 9435,
  "congestion": 20176,
  "paz": 18183,
  "cw": 19296,
  "[unused799]": 804,
  "interred": 13917,
  "radios": 22229,
  "wilkinson": 16237,
  "fraternity": 13577,
  "accidental": 17128,
  "across": 2408,
  "relax": 9483,
  "fascination": 18987,
  "##eses": 23072,
  "##\u00bc": 29664,
  "opera": 3850,
  "mohan": 18529,
  "appearing": 6037,
  "rockets": 12496,
  "neumann": 22860,
  "\u25cf": 1619,
  "blackmail": 25044,
  "##lub": 27959,
  "disclosed": 21362,
  "had": 2018,
  "##dier": 24612,
  "##ie": 2666,
  "##nesian": 20281,
  "tested": 7718,
  "brody": 19631,
  "[unused618]": 623,
  "chinese": 2822,
  "migrant": 20731,
  "institutions": 4896,
  "##kill": 15872,
  "bernardo": 21175,
  "gazette": 11391,
  "plenty": 7564,
  "ballad": 11571,
  "responsibilities": 10198,
  "auto": 8285,
  "province": 2874,
  "pride": 6620,
  "##ily": 6588,
  "fifty": 5595,
  "##gies": 17252,
  "meeting": 3116,
  "decline": 6689,
  "annum": 28907,
  "188": 19121,
  "\uff1a": 1993,
  "generator": 13103,
  "##ine": 3170,
  "dependence": 18642,
  "xu": 15990,
  "empires": 23560,
  "intercontinental": 18725,
  "examples": 4973,
  "atrocities": 23482,
  "reddy": 18998,
  "norway": 5120,
  "tatiana": 22725,
  "curl": 15390,
  "recall": 9131,
  "messed": 18358,
  "blocked": 8534,
  "##\u30e3": 30254,
  "nodes": 14164,
  "comeback": 12845,
  "failures": 15428,
  "##ight": 18743,
  "rests": 16626,
  "rune": 23276,
  "osborne": 16732,
  "nocturnal": 23789,
  "grams": 20372,
  "##wski": 10344,
  "momma": 23603,
  "[unused475]": 480,
  "pins": 16300,
  "[unused554]": 559,
  "antibiotics": 24479,
  "##lynn": 27610,
  "insurgency": 23939,
  "prescription": 20422,
  "##rock": 16901,
  "paula": 13723,
  "70th": 26934,
  "battles": 7465,
  "reckless": 18555,
  "philosopher": 9667,
  "diesel": 7937,
  "sky": 3712,
  "deacon": 14845,
  "loans": 10940,
  "\u2282": 1610,
  "stamps": 12133,
  "loren": 28779,
  "meaning": 3574,
  "##sti": 16643,
  "girlfriend": 6513,
  "joyah": 27098,
  "cleaned": 12176,
  "##kat": 24498,
  "kashmir": 13329,
  "craters": 27561,
  "1016": 28707,
  "colder": 21399,
  "illuminating": 27816,
  "elbows": 13690,
  "vienna": 6004,
  "tatum": 25913,
  "[unused769]": 774,
  "camping": 13215,
  "##hi": 4048,
  "measures": 5761,
  "\u4ee3": 1760,
  "pasta": 24857,
  "##llins": 26655,
  "charity": 5952,
  "gunther": 19384,
  "rotten": 11083,
  "volatile": 20606,
  "marching": 10998,
  "ecclesiastical": 12301,
  "rubbed": 7503,
  "jessie": 10934,
  "garment": 19002,
  "heightened": 21106,
  "roofed": 26080,
  "yeast": 21957,
  "hitch": 27738,
  "##lice": 13231,
  "##rip": 29443,
  "firing": 7493,
  "pianos": 27864,
  "resembling": 15525,
  "collects": 17427,
  "hr": 17850,
  "intricate": 17796,
  "##jer": 20009,
  "magnesium": 24983,
  "kruger": 27823,
  "##tropical": 25528,
  "##iani": 25443,
  "acquire": 9878,
  "##elial": 24587,
  "stationed": 8895,
  "torso": 15190,
  "##uto": 16161,
  "\u91ce": 1963,
  "prc": 26141,
  "##tec": 26557,
  "2d": 14134,
  "flashlight": 15257,
  "670": 25535,
  "colombia": 7379,
  "tomorrow": 4826,
  "casually": 13217,
  "lords": 8140,
  "##fera": 27709,
  "whitehead": 23257,
  "##fe": 7959,
  "cologne": 10918,
  "friction": 15012,
  "whale": 13156,
  "42": 4413,
  "glitter": 27566,
  "bash": 24234,
  "orphaned": 27093,
  "relegated": 7049,
  "judith": 12924,
  "1904": 5692,
  "\u05e1": 1258,
  "locality": 10246,
  "bolshevik": 24477,
  "clothing": 5929,
  "[unused870]": 875,
  "##link": 13767,
  "idiots": 28781,
  "swat": 25414,
  "[": 1031,
  "##rdi": 17080,
  "songwriting": 14029,
  "mavericks": 28330,
  "finance": 5446,
  "\u5ddd": 1835,
  "corresponded": 27601,
  "noted": 3264,
  "jalan": 28410,
  "ragged": 14202,
  "chuckled": 10252,
  "laced": 17958,
  "highest": 3284,
  "skaters": 24789,
  "purdue": 19749,
  "[unused45]": 46,
  "1605": 28202,
  "zee": 23727,
  "exercising": 28428,
  "orphanage": 18504,
  "becker": 15309,
  "uhf": 20131,
  "cuckoo": 29010,
  "angeles": 3349,
  "sound": 2614,
  "tighter": 12347,
  "peas": 26072,
  "reykjavik": 28559,
  "\u6708": 1872,
  "blackish": 22032,
  "quoting": 27394,
  "invariant": 23915,
  "dissolve": 21969,
  "93": 6109,
  "\u0923": 1322,
  "lew": 24992,
  "injuring": 22736,
  "comments": 7928,
  "goblin": 22639,
  "##ley": 3051,
  "##ured": 12165,
  "[unused41]": 42,
  "##uh": 27225,
  "\u062d": 1276,
  "vineyard": 18621,
  "defendant": 13474,
  "java": 9262,
  "choir": 6596,
  "thus": 2947,
  "restraining": 28285,
  "widowed": 22874,
  "host": 3677,
  "breathing": 5505,
  "[unused395]": 400,
  "boarded": 17383,
  "moderator": 29420,
  "1723": 26621,
  "deteriorating": 28440,
  "incidence": 18949,
  "corsica": 27047,
  "[unused500]": 505,
  "gliding": 20292,
  "learned": 4342,
  "routinely": 19974,
  "practicing": 12560,
  "[unused14]": 15,
  "suggestion": 10293,
  "recounts": 23412,
  "durban": 25040,
  "frequencies": 13139,
  "##erative": 25284,
  "*": 1008,
  "reigns": 23481,
  "\u03c3": 1173,
  "candi": 27467,
  "boys": 3337,
  "waterway": 23668,
  "farmer": 7500,
  "ravaged": 25537,
  "wires": 14666,
  "socialism": 14649,
  "weaken": 23021,
  "robust": 15873,
  "emperor": 3750,
  "scala": 26743,
  "cabins": 20321,
  "##\u5b97": 30347,
  "##\u30d5": 30246,
  "digging": 10443,
  "obstruction": 27208,
  "suggested": 4081,
  "##ldon": 19932,
  "slower": 12430,
  "candace": 22905,
  "##row": 10524,
  "olaf": 20514,
  "stating": 5517,
  "levi": 11902,
  "persians": 27229,
  "inward": 20546,
  "otter": 22279,
  "aziz": 21196,
  "caf": 24689,
  "##ified": 7810,
  "sunday": 4465,
  "leafs": 21349,
  "fused": 19660,
  "##\u05db": 29798,
  "fingertips": 12206,
  "professors": 12655,
  "vision": 4432,
  "off": 2125,
  "bennett": 8076,
  "gulped": 25411,
  "license": 6105,
  "leaders": 4177,
  "hunting": 5933,
  "##neuve": 28104,
  "[unused582]": 587,
  "eye": 3239,
  "mcleod": 25363,
  "grimm": 24287,
  "thoughtfully": 19897,
  "estrada": 26482,
  "tournament": 2977,
  "gospels": 24131,
  "edition": 3179,
  "therapist": 19294,
  "arguments": 9918,
  "[unused380]": 385,
  "reich": 14365,
  "##mur": 20136,
  "##rop": 18981,
  "bony": 22678,
  "##werk": 29548,
  "##utus": 23998,
  "\u2206": 1594,
  "1912": 4878,
  "marge": 25532,
  "##kovsky": 23829,
  "##rch": 11140,
  "dukes": 16606,
  "##isi": 17417,
  "series": 2186,
  "shoes": 6007,
  "madeira": 27309,
  "fresh": 4840,
  "[unused980]": 985,
  "napier": 21320,
  "clive": 14675,
  "##dern": 25888,
  "geologist": 21334,
  "fender": 19028,
  "notebook": 14960,
  "pere": 23976,
  "##\u2218": 30126,
  "express": 4671,
  "doctoral": 11316,
  "programmed": 16984,
  "[unused464]": 469,
  "restaurants": 7884,
  "##\u3064": 30190,
  "##mal": 9067,
  "telecom": 18126,
  "bernstein": 18862,
  "mfa": 26913,
  "alpine": 10348,
  "##tenberg": 21806,
  "demonic": 23170,
  "implementation": 7375,
  "##rgos": 22280,
  "##ality": 23732,
  "##sel": 11246,
  "ik": 20912,
  "fielded": 20988,
  "clutching": 14197,
  "india": 2634,
  "forte": 24898,
  "flint": 13493,
  "goodnight": 22708,
  "barefoot": 22985,
  "tattoo": 11660,
  "lips": 2970,
  "altitudes": 21973,
  "normally": 5373,
  "compliance": 12646,
  "lafayette": 14425,
  "##cule": 21225,
  "promoting": 7694,
  "pilgrim": 21214,
  "malaya": 19979,
  "\u76f8": 1919,
  "##zaki": 18637,
  "gorge": 14980,
  "##ifolia": 29244,
  "##go": 3995,
  "replacing": 6419,
  "parade": 7700,
  "[unused442]": 447,
  "##amy": 24079,
  "elevated": 8319,
  "verse": 7893,
  "\u2091": 1561,
  "vibrant": 17026,
  "clapped": 18310,
  "survivors": 8643,
  "slovakia": 10991,
  "losers": 23160,
  "virginia": 3448,
  "ammunition": 9290,
  "rift": 16931,
  "defensive": 5600,
  "inflated": 29561,
  "pitted": 25895,
  "##yp": 22571,
  "\u026c": 1121,
  "julia": 6423,
  "[unused723]": 728,
  "withdrawing": 21779,
  "rhymes": 24468,
  "petals": 15829,
  "##\u201d": 30059,
  "depth": 5995,
  "[unused515]": 520,
  "##uld": 21285,
  "formula": 5675,
  "disapproval": 21406,
  "##kota": 27380,
  "pardon": 14933,
  "petition": 9964,
  "snakes": 12971,
  "trim": 12241,
  "dieter": 27976,
  "document": 6254,
  "[unused910]": 915,
  "jaguars": 24017,
  "ca": 6187,
  "##=": 29630,
  "tuesday": 9857,
  "slices": 25609,
  "outgoing": 22011,
  "persecution": 14522,
  "prosecution": 11537,
  "##etto": 20082,
  "##gnan": 28207,
  "wide": 2898,
  "##\u00f7": 29669,
  "##zziness": 29212,
  "kowalski": 28874,
  "workshop": 8395,
  "##\u06a9": 29841,
  "inflammatory": 20187,
  "bombing": 8647,
  "grade": 3694,
  "1948": 3882,
  "subsidiaries": 20178,
  "domino": 23968,
  "[unused126]": 131,
  "orton": 25161,
  "dalton": 12413,
  "mistakes": 12051,
  "lingered": 17645,
  "##\u5fc3": 30375,
  "\u300c": 1641,
  "backing": 5150,
  "fail": 8246,
  "chancel": 16482,
  "presley": 17229,
  "[unused743]": 748,
  "##otte": 28495,
  "complaints": 10821,
  "plots": 14811,
  "rifles": 9494,
  "prompt": 25732,
  "waves": 5975,
  "fully": 3929,
  "instrumentation": 16015,
  "paris": 3000,
  "induced": 10572,
  "[unused808]": 813,
  "shortly": 3859,
  "lynch": 11404,
  "shifted": 5429,
  "##gin": 11528,
  "##mba": 11201,
  "##lar": 8017,
  "growled": 8881,
  "stool": 14708,
  "writhing": 26185,
  "currency": 9598,
  "religious": 3412,
  "times": 2335,
  "behold": 27541,
  "tequila": 26791,
  "erosion": 14173,
  "marking": 10060,
  "emptied": 21764,
  "##erving": 25164,
  "\u21c4": 1589,
  "##udged": 27066,
  "qu": 24209,
  "cbe": 15852,
  "##\u0bc7": 29934,
  "tarzan": 24566,
  "##roy": 13238,
  "ja": 14855,
  "germanic": 15139,
  "sociological": 24846,
  "##\u2091": 30090,
  "rancho": 18123,
  "dmitri": 28316,
  "##ific": 18513,
  "accelerate": 23306,
  "##dr": 13626,
  "##ril": 15928,
  "beacon": 14400,
  "cpu": 17368,
  "cyclic": 23750,
  "formed": 2719,
  "wept": 24966,
  "steven": 7112,
  "fukuoka": 26998,
  "1560": 29185,
  "compact": 9233,
  "indy": 18214,
  "urging": 14328,
  "runways": 24578,
  "paisley": 23321,
  "[unused967]": 972,
  "##roller": 26611,
  "memoirs": 13251,
  "right": 2157,
  "frantically": 16460,
  "ingredient": 21774,
  "borg": 28709,
  "status": 3570,
  "archers": 23118,
  "\u2113": 1577,
  "stockton": 19161,
  "1844": 9730,
  "buckingham": 17836,
  "\u3084": 1682,
  "\u6ca2": 1898,
  "##\u3044": 30173,
  "terre": 25170,
  "##how": 14406,
  "grassroots": 23299,
  "rey": 12569,
  "##lean": 20898,
  "habit": 10427,
  "rr": 25269,
  "\u044d": 1208,
  "sunset": 10434,
  "##lla": 4571,
  "opinion": 5448,
  "##bill": 24457,
  "1b": 26314,
  "discharged": 14374,
  "behave": 16582,
  "##rice": 17599,
  "mock": 12934,
  "200": 3263,
  "comes": 3310,
  "youths": 19634,
  "cuff": 26450,
  "representative": 4387,
  "patterson": 12424,
  "premise": 18458,
  "grounds": 5286,
  "among": 2426,
  "shocks": 28215,
  "##osition": 19234,
  "[unused690]": 695,
  "##ience": 13684,
  "##sable": 19150,
  "adequately": 23613,
  "requested": 7303,
  "lakes": 6597,
  "[unused645]": 650,
  "khan": 4967,
  "mechanical": 6228,
  "sweating": 18972,
  "deficit": 15074,
  "implement": 10408,
  "##cin": 15459,
  "crescent": 13152,
  "sweatshirt": 28095,
  "101": 7886,
  "##nae": 17452,
  "[unused30]": 31,
  "hayden": 13872,
  "##print": 16550,
  "skins": 21049,
  "##ckman": 24080,
  "[unused315]": 320,
  "[unused74]": 75,
  "taunton": 28181,
  "refer": 6523,
  "ev": 23408,
  "digital": 3617,
  "coa": 28155,
  "portal": 9445,
  "128": 11899,
  "breathed": 8726,
  "##lbert": 23373,
  "receptors": 13833,
  "\u00a32": 21853,
  "flattened": 16379,
  "oracle": 14721,
  "wars": 5233,
  "sunglasses": 17072,
  "[unused123]": 128,
  "yields": 16189,
  "competence": 22219,
  "companions": 11946,
  "importance": 5197,
  "yeshiva": 22142,
  "failing": 7989,
  "pow": 23776,
  "blessed": 10190,
  "ghanaian": 27202,
  "glasgow": 6785,
  "gen": 8991,
  "jody": 27562,
  "caution": 14046,
  "hands": 2398,
  "juventus": 22760,
  "banners": 23562,
  "##sson": 7092,
  "stomach": 4308,
  "##grass": 19673,
  "sentences": 11746,
  "odd": 5976,
  "mechanism": 7337,
  "preston": 8475,
  "regimes": 25228,
  "ushered": 23815,
  "kapoor": 17129,
  "[unused497]": 502,
  "final": 2345,
  "hotel": 3309,
  "319": 26499,
  "kisses": 8537,
  "hunts": 28526,
  "##\u0280": 29693,
  "squirrels": 29384,
  "neighbour": 20065,
  "suburban": 9282,
  "##hot": 12326,
  "[unused19]": 20,
  "##leigh": 13615,
  "money": 2769,
  "markham": 26197,
  "delaware": 8452,
  "dresden": 12983,
  "impaired": 18234,
  "##git": 23806,
  "mark": 2928,
  "greenish": 23753,
  "portraying": 17274,
  "crabs": 26076,
  "\u11b8": 1488,
  "\u2076": 1540,
  "##hop": 18471,
  "siding": 17326,
  "condemned": 10033,
  "##\u2190": 30111,
  "ranger": 11505,
  "displaced": 12936,
  "baker": 6243,
  "hacker": 23307,
  "gage": 10012,
  "avenue": 3927,
  "##gated": 11644,
  "1840s": 19308,
  "whole": 2878,
  "awe": 15180,
  "sargent": 27599,
  "vh1": 26365,
  "cm": 4642,
  "chatham": 16727,
  "mysterious": 8075,
  "1983": 3172,
  "caleb": 10185,
  "##?": 29632,
  "burundi": 28836,
  "##rino": 17815,
  "##\u0905": 29847,
  "geometric": 14965,
  "hunan": 27374,
  "cynthia": 15809,
  "##sible": 19307,
  "exciting": 10990,
  "maple": 11035,
  "deploy": 21296,
  "[unused896]": 901,
  "recommends": 26021,
  "seasonal": 12348,
  "harrisburg": 24569,
  "\u30aa": 1699,
  "##rmi": 28550,
  "[unused23]": 24,
  "migratory": 22262,
  "create": 3443,
  "domestic": 4968,
  "harold": 7157,
  "camera": 4950,
  "merit": 7857,
  "copper": 6967,
  "endowment": 15108,
  "incorporate": 13265,
  "##oia": 25463,
  "matilda": 17981,
  "78": 6275,
  "quantitative": 20155,
  ".": 1012,
  "electrical": 5992,
  "470": 21064,
  "floppy": 28491,
  "produce": 3965,
  "enthusiast": 29550,
  "pakistan": 4501,
  "caine": 19881,
  "lucie": 28831,
  "aiden": 15086,
  "selfish": 14337,
  "embodied": 25405,
  "##eve": 18697,
  "commerce": 6236,
  "whiskey": 13803,
  "enthusiastically": 24935,
  "instinctively": 16607,
  "lodge": 7410,
  "pipes": 12432,
  "fantasy": 5913,
  "nanny": 19174,
  "gdp": 14230,
  "builds": 16473,
  "jurisdiction": 7360,
  "339": 28977,
  "patents": 13979,
  "##ifer": 23780,
  "jude": 12582,
  "sword": 4690,
  "tangle": 24453,
  "##eries": 28077,
  "\u0263": 1117,
  "##ked": 8126,
  "recovering": 13400,
  "retention": 20125,
  "clearly": 4415,
  "ancestors": 10748,
  "##say": 24322,
  "bwf": 21215,
  "hobart": 14005,
  "restrict": 21573,
  "composition": 5512,
  "demon": 5698,
  "deposits": 10042,
  "fiba": 13651,
  "##mmel": 29033,
  "##udence": 29424,
  "straightened": 11168,
  "judd": 20128,
  "verona": 20197,
  "criticism": 6256,
  "reese": 15883,
  "1850": 7973,
  "eastman": 24252,
  "crowned": 10249,
  "##qi": 14702,
  "similarities": 12319,
  "redesignated": 11836,
  "jefferson": 7625,
  "canadian": 3010,
  "sworn": 10741,
  "breaststroke": 28164,
  "compression": 13379,
  "chooses": 15867,
  "thighs": 9222,
  "pops": 16949,
  "which": 2029,
  "##vitt": 28656,
  "scar": 11228,
  "cho": 16480,
  "1971": 3411,
  "dixon": 11357,
  "slash": 18296,
  "##\u026a": 29685,
  "##ml": 19968,
  "parliament": 3323,
  "mating": 15100,
  "evolving": 20607,
  "sleeps": 25126,
  "endurance": 14280,
  "##\u4e94": 30279,
  "##chfield": 22693,
  "##rder": 26764,
  "##ysis": 20960,
  "wisconsin": 5273,
  "cowboy": 11762,
  "networking": 14048,
  "leased": 12019,
  "##yi": 10139,
  "parkinson": 20310,
  "shale": 18488,
  "unwilling": 15175,
  "##ures": 14900,
  "brandenburg": 16426,
  "cops": 10558,
  "turtle": 13170,
  "mural": 15533,
  "cool": 4658,
  "nudged": 18666,
  "arrays": 27448,
  "500": 3156,
  "##lessly": 10895,
  "basil": 14732,
  "##itic": 18291,
  "prussian": 10734,
  "malicious": 24391,
  "sinks": 23462,
  "mill": 4971,
  "##anies": 28064,
  "sabah": 22515,
  "[unused487]": 492,
  "dreaming": 12802,
  "caravan": 17184,
  "##met": 11368,
  "females": 3801,
  "shrubs": 18812,
  "dominant": 7444,
  "##ns": 3619,
  "shriek": 24795,
  "sans": 20344,
  "menon": 25111,
  "##\u1105": 29994,
  "##cope": 16186,
  "doesn": 2987,
  "serial": 7642,
  "steamboat": 24897,
  "##\u03b6": 29724,
  "highly": 3811,
  "felicity": 27357,
  "based": 2241,
  "##horpe": 22044,
  "embankment": 22756,
  "##re": 2890,
  "spinal": 16492,
  "##codes": 23237,
  "takeover": 15336,
  "##\u0261": 29682,
  "##and": 5685,
  "\u5065": 1768,
  "reconciliation": 16088,
  "plum": 22088,
  "292": 25797,
  "energy": 2943,
  "authentic": 14469,
  "experience": 3325,
  "allmusic": 10477,
  "fading": 14059,
  "rodney": 13898,
  "ordnance": 14445,
  "radio": 2557,
  "[unused141]": 146,
  "q": 1053,
  "710": 27671,
  "burying": 20491,
  "1653": 29309,
  "organised": 7362,
  "##inking": 29377,
  "amounted": 18779,
  "zimmerman": 27946,
  "fluttering": 25001,
  "memo": 24443,
  "##rb": 15185,
  "don": 2123,
  "prisoner": 7267,
  "composite": 12490,
  "[unused382]": 387,
  "ul": 17359,
  "##nds": 18376,
  "saddam": 24111,
  "concrete": 5509,
  "cans": 18484,
  "001": 25604,
  "##ins": 7076,
  "##ady": 18632,
  "notable": 3862,
  "elsa": 23452,
  "connection": 4434,
  "successive": 11165,
  "weaponry": 22711,
  "flawed": 25077,
  "[unused597]": 602,
  "[unused738]": 743,
  "olivia": 7710,
  "##nified": 25201,
  "##/": 29626,
  "turbo": 15386,
  "listen": 4952,
  "05": 5709,
  "filed": 6406,
  "##had": 16102,
  "deborah": 15555,
  "contiguous": 25177,
  "1926": 4881,
  "spraying": 29035,
  "\u00ba": 1089,
  "respects": 17475,
  "caretaker": 17600,
  "tenderness": 24605,
  "[unused368]": 373,
  "brazilian": 6142,
  "##\u661f": 30392,
  "rebounds": 11049,
  "proceeded": 8979,
  "1830s": 20400,
  "unharmed": 28150,
  "##piration": 16781,
  "##zzled": 17269,
  "splendid": 21459,
  "unfit": 29439,
  "juniper": 29425,
  "skinny": 15629,
  "remnant": 19614,
  "outs": 21100,
  "tribute": 7050,
  "valentin": 24632,
  "saved": 5552,
  "travel": 3604,
  "##itung": 28813,
  "screenplay": 9000,
  "recoil": 27429,
  "laureate": 17656,
  "1914": 4554,
  "##scia": 27210,
  "raleigh": 15842,
  "thierry": 26413,
  "examined": 8920,
  "ported": 27650,
  "pretend": 9811,
  "230": 11816,
  "crust": 19116,
  "affordable": 15184,
  "transformations": 21865,
  "##bay": 15907,
  "eastbound": 24773,
  "nightmare": 10103,
  "kendall": 14509,
  "sued": 12923,
  "##hman": 13890,
  "musical": 3315,
  "bahia": 22474,
  "##dation": 20207,
  "briefing": 27918,
  "horizon": 9154,
  "colbert": 23928,
  "tempest": 22553,
  "strike": 4894,
  "investigative": 15025,
  "drake": 7867,
  "19": 2539,
  "divine": 7746,
  "fit": 4906,
  "apology": 12480,
  "nicholls": 27043,
  "##life": 15509,
  "##la": 2721,
  "##flict": 29301,
  "qualities": 11647,
  "##vik": 13309,
  "grossing": 18244,
  "stores": 5324,
  "##tray": 28473,
  "noelle": 22336,
  "groningen": 29070,
  "hike": 21857,
  "501": 16202,
  "[unused256]": 261,
  "saloon": 17078,
  "##\u00bd": 13714,
  "##sms": 19230,
  "scholarship": 6566,
  "##\u09ae": 29906,
  "##aves": 21055,
  "protect": 4047,
  "mason": 6701,
  "renal": 25125,
  "bullying": 18917,
  "clean": 4550,
  "finch": 16133,
  "berlin": 4068,
  "gearbox": 22227,
  "joker": 19318,
  "scrap": 15121,
  "\u2081": 1548,
  "##asurable": 28329,
  "formerly": 3839,
  "denomination": 18683,
  "##leton": 19263,
  "massage": 21881,
  "labs": 13625,
  "\u307e": 1677,
  "##flow": 12314,
  "trusting": 19836,
  "##bin": 8428,
  "tease": 18381,
  "densely": 19441,
  "rectangular": 10806,
  "elites": 27021,
  "##ocks": 25384,
  "brussels": 9371,
  "name": 2171,
  "##unt": 16671,
  "push": 5245,
  "glaring": 16124,
  "branching": 23346,
  "tickets": 9735,
  "##lle": 6216,
  "##uil": 19231,
  "greg": 6754,
  "might": 2453,
  "radial": 15255,
  "1871": 7428,
  "propaganda": 10398,
  "operational": 6515,
  "spelled": 11479,
  "##chs": 18069,
  "\u0649": 1299,
  "carpathian": 26349,
  "zambia": 15633,
  "stan": 9761,
  "##wice": 23425,
  "dangerous": 4795,
  "pastures": 24813,
  "slapped": 11159,
  "##havan": 24652,
  "weapons": 4255,
  "proctor": 28770,
  "archibald": 15917,
  "attaining": 26615,
  "adored": 28456,
  "wai": 23701,
  "[unused643]": 648,
  "##rts": 21217,
  "\u2286": 1611,
  "cast": 3459,
  "braced": 15515,
  "forum": 7057,
  "warns": 19428,
  "werewolf": 12797,
  "diffuse": 28105,
  "aj": 19128,
  "polly": 17543,
  "ambassador": 6059,
  "wooden": 4799,
  "chronology": 17873,
  "shuffling": 24770,
  "canonical": 18562,
  "credentials": 22496,
  "glistening": 25203,
  "speaking": 4092,
  "faux": 29276,
  "##bon": 11735,
  "burlington": 15552,
  "hats": 16717,
  "##abe": 16336,
  "males": 3767,
  "twitching": 25402,
  "burgess": 17754,
  "marital": 23143,
  "[unused310]": 315,
  "##rled": 27501,
  "##cation": 10719,
  "1898": 6068,
  "designated": 4351,
  "kyrgyzstan": 23209,
  "lair": 21039,
  "abbey": 6103,
  "flying": 3909,
  "customs": 8205,
  "##hall": 9892,
  "stuttgart": 13022,
  "goin": 17249,
  "[unused91]": 92,
  "inaccurate": 24949,
  "disabilities": 13597,
  "laurent": 14718,
  "northeast": 4794,
  "announced": 2623,
  "propped": 16863,
  "horseback": 19926,
  "relocated": 7448,
  "agent": 4005,
  "battle": 2645,
  "portage": 25140,
  "##icide": 21752,
  "replacement": 6110,
  "##hers": 22328,
  "surveying": 19654,
  "killer": 6359,
  "animals": 4176,
  "gaius": 19564,
  "nashville": 8423,
  "##odon": 28716,
  "##uter": 19901,
  "catalan": 13973,
  "persecuted": 27666,
  "eighties": 27690,
  "counted": 8897,
  "settlements": 7617,
  "##end": 10497,
  "unconstitutional": 20454,
  "extracted": 15901,
  "loft": 19459,
  "\u6a4b": 1885,
  "hesitated": 9369,
  "winston": 10180,
  "##horse": 23024,
  "impatiently": 19951,
  "feat": 8658,
  "counterparts": 14562,
  "##uing": 25165,
  "psychological": 8317,
  "##\u028a": 29698,
  "choice": 3601,
  "##inations": 22045,
  "domed": 29208,
  "climb": 7105,
  "characteristics": 6459,
  "near": 2379,
  "bulldog": 28628,
  "championed": 28683,
  "##tis": 7315,
  "##thed": 23816,
  "deterioration": 26118,
  "provisions": 8910,
  "licensed": 7000,
  "##oxide": 28479,
  "##sper": 17668,
  "##eil": 24359,
  "orion": 18747,
  "metropolitan": 4956,
  "clara": 10254,
  "jurassic": 19996,
  "preaching": 17979,
  "[unused453]": 458,
  "rpm": 11575,
  "gs": 28177,
  "nazis": 13157,
  "theoretical": 9373,
  "##rdon": 28176,
  "92": 6227,
  "\u0291": 1137,
  "[unused399]": 404,
  "\u6c0f": 1891,
  "harmed": 25596,
  "[unused341]": 346,
  "process": 2832,
  "won": 2180,
  "civil": 2942,
  "orthodoxy": 26582,
  "gentry": 20262,
  "[unused279]": 284,
  "williamsburg": 26366,
  "whaling": 23687,
  "buying": 9343,
  "##ab": 7875,
  "torches": 24711,
  "thugs": 24106,
  "hatred": 11150,
  "authority": 3691,
  "chaplain": 14011,
  "88": 6070,
  "versions": 4617,
  "hamburg": 8719,
  "loyalty": 9721,
  "##erre": 28849,
  "storms": 12642,
  "nato": 10079,
  "cloud": 6112,
  "evening": 3944,
  "acid": 5648,
  "instantly": 6880,
  "1757": 22621,
  "flaming": 19091,
  "lad": 14804,
  "wounding": 27285,
  "encore": 19493,
  "bloody": 6703,
  "additive": 29167,
  "##ace": 10732,
  "##ound": 28819,
  "screaming": 7491,
  "altogether": 10462,
  "makes": 3084,
  "humiliated": 26608,
  "##vati": 20203,
  "##eis": 17580,
  "felicia": 27579,
  "blackened": 25788,
  "etc": 4385,
  "##cock": 13959,
  "imagination": 9647,
  "[unused596]": 601,
  "ranch": 8086,
  "contrasted": 22085,
  "##ull": 18083,
  "amalgamated": 17143,
  "profit": 5618,
  "##court": 13421,
  "up": 2039,
  "tenure": 7470,
  "approaches": 8107,
  "hodgson": 26107,
  "cong": 26478,
  "fis": 27424,
  "defining": 12854,
  "unpleasant": 16010,
  "herzegovina": 11453,
  "samba": 29086,
  "##lom": 21297,
  "##aj": 13006,
  "1950": 3925,
  "\u03c6": 1176,
  "shu": 18454,
  "tasmanian": 21394,
  "tara": 10225,
  "2009": 2268,
  "rhode": 9763,
  "\u98a8": 1977,
  "##phila": 26083,
  "wilderness": 9917,
  "##lone": 27165,
  "partisan": 14254,
  "texas": 3146,
  "powerless": 25192,
  "fulham": 21703,
  "ceylon": 16447,
  "carlson": 22226,
  "centres": 8941,
  "church": 2277,
  "dining": 7759,
  "[unused260]": 265,
  "legends": 9489,
  "rabbi": 7907,
  "tian": 23401,
  "terminating": 23552,
  "exeter": 12869,
  "##arian": 12199,
  "panties": 12095,
  "hk": 22563,
  "export": 9167,
  "cathy": 18305,
  "degrees": 5445,
  "baghdad": 13952,
  "cost": 3465,
  "[unused447]": 452,
  "[unused311]": 316,
  "rigged": 25216,
  "##ount": 21723,
  "interviewed": 10263,
  "##ira": 7895,
  "1781": 16788,
  "soto": 22768,
  "okay": 3100,
  "##rine": 11467,
  "smacked": 19203,
  "hospice": 29277,
  "pursed": 21954,
  "171": 18225,
  "ribbons": 22688,
  "sioux": 16615,
  "baha": 13253,
  "outcomes": 13105,
  "capable": 5214,
  "157": 17403,
  "##itch": 20189,
  "hearts": 8072,
  "sam": 3520,
  "[unused491]": 496,
  "blouse": 18149,
  "herself": 2841,
  "meta": 18804,
  "racist": 16939,
  "##lit": 15909,
  "sponsoring": 29396,
  "exposed": 6086,
  "asteroid": 12175,
  "algebraic": 17390,
  "unsuccessfully": 11551,
  "kitchener": 27154,
  "##nsen": 29428,
  "##ouring": 27897,
  "nicknamed": 9919,
  "relocate": 20102,
  "##nac": 18357,
  "gerald": 9659,
  "##romatic": 23645,
  "##lore": 20186,
  "cricketer": 9490,
  "dormant": 22170,
  "demonstrated": 7645,
  "gasping": 17054,
  "##z": 2480,
  "stacks": 20829,
  "##ex": 10288,
  "employ": 12666,
  "##ffin": 15379,
  "stump": 22475,
  "liechtenstein": 26500,
  "resolved": 10395,
  "blonde": 9081,
  "increase": 3623,
  "##falls": 28067,
  "jeff": 5076,
  "##ool": 13669,
  "##\u06ba": 29843,
  "plural": 13994,
  "jacob": 6213,
  "caves": 10614,
  "liner": 11197,
  "provision": 9347,
  "taste": 5510,
  "##\u05de": 29801,
  "##saurus": 22244,
  "mandatory": 10915,
  "lucius": 15639,
  "initiation": 17890,
  "developed": 2764,
  "sul": 21396,
  "insists": 16818,
  "harlow": 22545,
  "##lita": 27606,
  "nuclei": 23767,
  "shelley": 15828,
  "groan": 13001,
  "swimmer": 13361,
  "##vet": 19510,
  "privatization": 23966,
  "cricket": 4533,
  "basketball": 3455,
  "empress": 10248,
  "[unused770]": 775,
  "baby": 3336,
  "nutrients": 20435,
  "loose": 6065,
  "##\u093e": 29876,
  "marc": 7871,
  "##\u0936": 29872,
  "touched": 5028,
  "slaughter": 14574,
  "chamber": 4574,
  "##oped": 24174,
  "1728": 26833,
  "marina": 9985,
  "sanity": 20039,
  "raids": 11217,
  "voices": 5755,
  "televised": 13762,
  "benevolent": 25786,
  "cleaning": 9344,
  "onstage": 23542,
  "##guard": 18405,
  "index": 5950,
  "dancers": 10487,
  "telescope": 12772,
  "plants": 4264,
  "demi": 27668,
  "phase": 4403,
  "##\u667a": 30395,
  "acquired": 3734,
  "champs": 29008,
  "uc": 15384,
  "##wil": 29602,
  "somewhere": 4873,
  "hat": 6045,
  "lei": 26947,
  "##cade": 21869,
  "illumination": 21203,
  "\u5bb6": 1825,
  "are": 2024,
  "examiner": 19684,
  "depicts": 11230,
  "update": 10651,
  "symmetric": 19490,
  "100th": 16919,
  "aleksandr": 24020,
  "disappointing": 15640,
  "vishnu": 17647,
  "##yd": 25688,
  "[unused817]": 822,
  "interrupted": 7153,
  "nov": 13292,
  "monasteries": 15947,
  "concert": 4164,
  "##iman": 18505,
  "184": 19681,
  "unnecessary": 14203,
  "trades": 14279,
  "tierney": 26198,
  "elect": 11322,
  "easy": 3733,
  "\u1165": 1472,
  "minas": 21750,
  "\u2013": 1516,
  "mostly": 3262,
  "##bler": 16213,
  "precipitation": 13511,
  "dwellings": 16707,
  "##ics": 6558,
  "angelo": 12262,
  "scouts": 10158,
  "##onus": 24891,
  "rumbling": 26670,
  "##raction": 25533,
  "##\u5185": 30299,
  "others": 2500,
  "lonely": 9479,
  "lauren": 10294,
  "[unused933]": 938,
  "23rd": 13928,
  "flaws": 21407,
  "needed": 2734,
  "petite": 20146,
  "[unused850]": 855,
  "herbert": 7253,
  "episode": 2792,
  "##otic": 20214,
  "ankles": 15392,
  "invested": 11241,
  "##oop": 18589,
  "[unused545]": 550,
  "gem": 17070,
  "groaned": 9655,
  "helped": 3271,
  "##dle": 10362,
  "##wc": 16526,
  "roach": 20997,
  "##zzy": 28753,
  "1764": 21488,
  "\u09aa": 1367,
  "jc": 29175,
  "\u4e00": 1740,
  "##my": 8029,
  "##nist": 26942,
  "adler": 17969,
  "##grin": 24860,
  "jimi": 27624,
  "corrected": 13371,
  "##\u68ee": 30408,
  "flags": 9245,
  "theorists": 28442,
  "sit": 4133,
  "##ugh": 8953,
  "bail": 15358,
  "\u0f63": 1435,
  "railway": 2737,
  "ch": 10381,
  "habsburg": 17486,
  "##\u5bbf": 30352,
  "wal": 24547,
  "joshi": 26645,
  "coop": 21859,
  "harding": 15456,
  "truncated": 25449,
  "##cating": 18252,
  "##acy": 15719,
  "racism": 14398,
  "constabulary": 23791,
  "##lidae": 21595,
  "##path": 15069,
  "##as": 3022,
  "##wash": 28556,
  "way": 2126,
  "##bor": 12821,
  "##dah": 18417,
  "plaintiffs": 23953,
  "##arte": 24847,
  "labrador": 18604,
  "guessed": 11445,
  "cheers": 21250,
  "cinematography": 16434,
  "sanders": 12055,
  "spaniards": 20999,
  "chet": 25157,
  "nk": 25930,
  "certainty": 15855,
  "##kia": 21128,
  "pearson": 12874,
  "born": 2141,
  "awaiting": 15497,
  "tough": 7823,
  "retaining": 12823,
  "retired": 3394,
  "##shore": 19208,
  "fuck": 6616,
  "##tour": 21163,
  "##drum": 21884,
  "hissed": 11402,
  "##firm": 27972,
  "disgusted": 17733,
  "rumors": 11256,
  "horse": 3586,
  "##ry": 2854,
  "##iers": 10136,
  "222": 19015,
  "organise": 22933,
  "drank": 10749,
  "\u7687": 1917,
  "convicted": 7979,
  "zach": 12397,
  "##cel": 29109,
  "\u09be": 1378,
  "smoked": 20482,
  "making": 2437,
  "ingredients": 12760,
  "1978": 3301,
  "##\u898b": 30474,
  "\u110e": 1465,
  "mariners": 18049,
  "thud": 20605,
  "##itude": 18679,
  "sealed": 10203,
  "reluctance": 21662,
  "kilkenny": 17131,
  "oppressive": 28558,
  "anniversary": 5315,
  "neighbourhood": 10971,
  "6th": 5351,
  "insulation": 25710,
  "property": 3200,
  "dimensions": 9646,
  "kyoto": 15008,
  "##\u0448": 29753,
  "speeding": 21485,
  "insisting": 22604,
  "##\u5e7f": 30368,
  "##\u0927": 29862,
  "gesture": 9218,
  "##\u0bae": 29925,
  "loaned": 13190,
  "she": 2016,
  "sharif": 20351,
  "##\u1019": 29973,
  "##lth": 24658,
  "[SEP]": 102,
  "##\u516b": 30297,
  "seizures": 25750,
  "remote": 6556,
  "argyll": 27365,
  "obedience": 22645,
  "130": 7558,
  "huh": 9616,
  "zaragoza": 25744,
  "liver": 11290,
  "strongly": 6118,
  "nair": 22525,
  "target": 4539,
  "mach": 24532,
  "auditorium": 11448,
  "duffy": 17971,
  "removing": 9268,
  "ringing": 13060,
  "charismatic": 23916,
  "##oids": 17086,
  "stew": 20717,
  "##ng": 3070,
  "critics": 4401,
  "pushing": 6183,
  "meter": 8316,
  "fuselage": 13478,
  "breathless": 16701,
  "install": 16500,
  "indifference": 25920,
  "tags": 22073,
  "containing": 4820,
  "laguna": 18169,
  "protestant": 8330,
  "proposal": 6378,
  "incidents": 10444,
  "projected": 11310,
  "sizable": 25908,
  "larsen": 20094,
  "revolutions": 25239,
  "thinking": 3241,
  "summit": 6465,
  "invitational": 20129,
  "ste": 26261,
  "##dron": 19440,
  "##ask": 19895,
  "1945": 3386,
  "tracker": 27080,
  "##acious": 20113,
  "antibodies": 22931,
  "[unused869]": 874,
  "##rington": 17281,
  "##je": 6460,
  "council": 2473,
  "numbers": 3616,
  "##pment": 24073,
  "##omba": 24991,
  "##esa": 22447,
  "manager": 3208,
  "peter": 2848,
  "judge": 3648,
  "tonic": 28157,
  "perpetual": 18870,
  "aaron": 7158,
  "examine": 11628,
  "338": 27908,
  "christine": 10941,
  "missiles": 10815,
  "##para": 28689,
  "popularized": 20339,
  "melinda": 23721,
  "site": 2609,
  "corvette": 22687,
  "regulars": 24945,
  "nilsson": 29376,
  "crunch": 24514,
  "\u0569": 1224,
  "##cens": 19023,
  "##take": 15166,
  "[unused894]": 899,
  "endeavour": 26911,
  "puck": 22900,
  "cv": 26226,
  "##tering": 17989,
  "inch": 4960,
  "specify": 20648,
  "emphasize": 17902,
  "suburb": 7575,
  "offset": 16396,
  "##eak": 25508,
  "[unused671]": 676,
  "darius": 14861,
  "##hini": 20535,
  "##uously": 28078,
  "wharf": 16435,
  "beds": 9705,
  "inevitable": 13418,
  "##\u52a0": 30305,
  "architectural": 6549,
  "illness": 7355,
  "##cable": 21170,
  "gail": 18576,
  "roommate": 18328,
  "nephew": 7833,
  "##\u05d5": 29792,
  "bypass": 11826,
  "\u52a0": 1779,
  "##ingdon": 29138,
  "quake": 27785,
  "nonlinear": 27400,
  "##factory": 21450,
  "##chio": 23584,
  "pisa": 25472,
  "##\u304f": 30179,
  "242": 22431,
  "minions": 28071,
  "leone": 13363,
  "fences": 21549,
  "\u3081": 1680,
  "##chule": 20269,
  "accumulation": 20299,
  "\u767d": 1915,
  "resident": 6319,
  "exist": 4839,
  "pune": 16920,
  "\u99ac": 1980,
  "scowl": 19981,
  "intersect": 29261,
  "##beam": 28302,
  "medal": 3101,
  "claude": 8149,
  "marshes": 19257,
  "##ggy": 22772,
  "##ovich": 12303,
  "parasite": 21198,
  "##lock": 7878,
  "ended": 3092,
  "babylon": 17690,
  "adviser": 11747,
  "decay": 13121,
  "anyone": 3087,
  "1782": 16890,
  "inspections": 29589,
  "josef": 12947,
  "hardness": 23608,
  "spiral": 12313,
  "##\u0f0b": 29960,
  "divide": 11443,
  "##ott": 14517,
  "yun": 22854,
  "1803": 12651,
  "powerhouse": 24006,
  "gaining": 8550,
  "anaheim": 20835,
  "eliminating": 15349,
  "alleging": 23294,
  "slowed": 9784,
  "##has": 14949,
  "##\u4ebb": 30283,
  "[unused168]": 173,
  "priscilla": 25193,
  "monument": 6104,
  "bug": 11829,
  "eight": 2809,
  "shaun": 16845,
  "ap": 9706,
  "##\u03b9": 18199,
  "verlag": 14552,
  "##tance": 26897,
  "narrative": 7984,
  "seventeenth": 15425,
  "##x": 2595,
  "zu": 16950,
  "samples": 8168,
  "bastards": 21123,
  "##growth": 26982,
  "\u91d1": 1964,
  "##\u02d0": 23432,
  "1851": 8792,
  "##uche": 19140,
  "enjoyed": 5632,
  "rangers": 7181,
  "abusive": 20676,
  "greenwich": 13861,
  "##eau": 10207,
  "milton": 9660,
  "full": 2440,
  "rediscovered": 26733,
  "care": 2729,
  "publication": 4772,
  "gt": 14181,
  "whitney": 9809,
  "integrating": 22380,
  "instinct": 12753,
  "me": 2033,
  "brown": 2829,
  "aryan": 26030,
  "##table": 10880,
  "##\u27e8": 30155,
  "hbo": 14633,
  "stunts": 28465,
  "glance": 6054,
  "##iidae": 15648,
  "blooms": 29037,
  "[unused581]": 586,
  "##tics": 14606,
  "carrie": 13223,
  "stephenson": 19789,
  "bombardier": 29143,
  "bribes": 29117,
  "scraping": 23704,
  "win": 2663,
  "posthumous": 19086,
  "ma": 5003,
  "gladly": 24986,
  "##nut": 24072,
  "followers": 8771,
  "##masters": 27751,
  "highlanders": 22672,
  "forested": 15205,
  "hornets": 24855,
  "##lium": 21816,
  "prodigy": 28334,
  "##wat": 24281,
  "##hdi": 22960,
  "##vable": 12423,
  "baskets": 25946,
  "##eded": 19082,
  "##thermal": 23367,
  "container": 11661,
  "ellen": 9155,
  "\u3053": 1655,
  "veronica": 13133,
  "sleepy": 17056,
  "##ories": 18909,
  "artistic": 6018,
  "instrumentalist": 29253,
  "employed": 4846,
  "##\u307e": 30203,
  "legs": 3456,
  "resisting": 22363,
  "preparing": 8225,
  "gradually": 6360,
  "bats": 12236,
  "defects": 18419,
  "frenzy": 21517,
  "screwing": 29082,
  "plush": 27729,
  "##\u5b66": 30343,
  "script": 5896,
  "should": 2323,
  "shape": 4338,
  "bear": 4562,
  "##\u6c0f": 30417,
  "##hrer": 17875,
  "##\u207a": 12744,
  "regulates": 26773,
  "motor": 5013,
  "good": 2204,
  "##card": 11522,
  "gaga": 23332,
  "digitally": 18397,
  "veins": 9607,
  "rode": 8469,
  "injection": 13341,
  "##ology": 6779,
  "reproduction": 14627,
  "elaine": 15263,
  "museums": 9941,
  "murdoch": 19954,
  "[unused719]": 724,
  "franklin": 5951,
  "\u570b": 1800,
  "##io": 3695,
  "##anus": 20849,
  "recalling": 21195,
  "##d": 2094,
  "criminals": 12290,
  "zone": 4224,
  "must": 2442,
  "##cki": 18009,
  "underside": 17313,
  "violet": 8766,
  "\u2193": 1586,
  "##lateral": 28277,
  "illustrious": 26150,
  "belarusian": 15626,
  "##\u653f": 30386,
  "\u2202": 1592,
  "##date": 13701,
  "graphical": 20477,
  "frowned": 7335,
  "skies": 15717,
  "strips": 12970,
  "##rah": 10404,
  "##hang": 18003,
  "rallies": 22867,
  "call": 2655,
  "lee": 3389,
  "rat": 9350,
  "##vision": 17084,
  "treatise": 15326,
  "##eux": 20860,
  "disliked": 18966,
  "orientation": 10296,
  "##\u0647": 14157,
  "pena": 19409,
  "petty": 11612,
  "ndp": 21915,
  "sewing": 22746,
  "underground": 5230,
  "##orum": 20527,
  "residency": 14079,
  "stove": 16247,
  "commence": 22825,
  "1829": 11523,
  "knocking": 10591,
  "collaborative": 12317,
  "realms": 18814,
  "cam": 11503,
  "palace": 4186,
  "melee": 27868,
  "grows": 7502,
  "##hips": 19801,
  "territory": 3700,
  "##rky": 15952,
  "terminals": 17703,
  "soloist": 16504,
  "\u2227": 1602,
  "tier": 7563,
  "thunder": 8505,
  "spotting": 27963,
  "tide": 10401,
  "awakening": 16936,
  "consequence": 9509,
  "relies": 16803,
  "luton": 17807,
  "##uba": 19761,
  "disputes": 11936,
  "cora": 17195,
  "freddy": 19343,
  "##hc": 16257,
  "ie": 29464,
  "ellison": 21513,
  "creates": 9005,
  "luggage": 17434,
  "busy": 5697,
  "panda": 25462,
  "marked": 4417,
  "proof": 6947,
  "method": 4118,
  "dorsey": 27332,
  "##cas": 15671,
  "##jiang": 21786,
  "perry": 6890,
  "weary": 16040,
  "inception": 12149,
  "\u9580": 1968,
  "authors": 6048,
  "soda": 14904,
  "##forms": 22694,
  "earnings": 16565,
  "##h": 2232,
  "jimmie": 24671,
  "rumbled": 22257,
  "prototypes": 19599,
  "afterlife": 25115,
  "upgraded": 9725,
  "##bba": 22414,
  "##bert": 8296,
  "fountains": 23497,
  "underwear": 14236,
  "ashton": 13772,
  "penultimate": 25512,
  "saying": 3038,
  "turnover": 20991,
  "horticultural": 26235,
  "protocols": 16744,
  "spire": 19823,
  "##hiro": 18334,
  "plunged": 16687,
  "##ern": 11795,
  "[unused682]": 687,
  "##ten": 6528,
  "haifa": 21303,
  "norms": 17606,
  "##den": 4181,
  "eleventh": 11911,
  "paolo": 14174,
  "carbon": 6351,
  "\u308b": 1687,
  "institution": 5145,
  "bump": 16906,
  "evacuation": 13982,
  "wren": 16255,
  "graham": 5846,
  "groin": 20092,
  "265": 20549,
  "121": 12606,
  "##pins": 27915,
  "spawning": 27957,
  "##cola": 26289,
  "treaty": 5036,
  "vfl": 13480,
  "monitors": 15410,
  "ds": 16233,
  "##cea": 21456,
  "tor": 17153,
  "\u0449": 1204,
  "urgently": 25478,
  "spark": 12125,
  "landowners": 20152,
  "chicago": 3190,
  "##schen": 23796,
  "billboard": 4908,
  "jr": 3781,
  "directorate": 13634,
  "##pura": 21228,
  "banded": 25264,
  "bo": 8945,
  "clarify": 25037,
  "311": 23532,
  "steal": 8954,
  "taught": 4036,
  "emigrated": 11367,
  "excelled": 23081,
  "fra": 25312,
  "utrecht": 18361,
  "##dda": 25062,
  "[unused119]": 124,
  "##jos": 19929,
  "benz": 17770,
  "regrets": 23161,
  "[unused472]": 477,
  "surveillance": 9867,
  "bien": 29316,
  "abu": 8273,
  "1956": 3838,
  "bret": 25626,
  "syndication": 26973,
  "##ser": 8043,
  "rio": 5673,
  "staged": 9813,
  "##force": 14821,
  "incorrect": 16542,
  "[unused588]": 593,
  "withdraw": 10632,
  "waterloo": 13784,
  "##sily": 26863,
  "wards": 11682,
  "forgiven": 24280,
  "did": 2106,
  "lia": 22393,
  "##rgan": 16998,
  "##logies": 21615,
  "tre": 29461,
  "source": 3120,
  "##tz": 5753,
  "township": 3545,
  "eagles": 8125,
  "##40": 12740,
  "unusual": 5866,
  "gag": 18201,
  "halle": 19769,
  "screenings": 25437,
  "canning": 24549,
  "recital": 25521,
  "\u3001": 1635,
  "breakthrough": 12687,
  "simulation": 12504,
  "##rvis": 29074,
  "##\u2076": 30075,
  "[unused278]": 283,
  "ivo": 28346,
  "baxter": 14664,
  "1707": 25029,
  "natasha": 17399,
  "\u6771": 1879,
  "locked": 5299,
  "folded": 6999,
  "eyre": 26975,
  "boogie": 21495,
  "constituent": 13794,
  "devotion": 13347,
  "fraction": 12884,
  "melted": 12501,
  "exodus": 16388,
  "paving": 28007,
  "##dog": 16168,
  "temple": 3379,
  "##jia": 26541,
  "adolescent": 20274,
  "ginger": 14580,
  "aviation": 5734,
  "priestess": 27677,
  "tapped": 10410,
  "champagne": 12327,
  "fortunately": 14599,
  "##ppa": 13944,
  "farewell": 13407,
  "##eza": 28640,
  "establishes": 21009,
  "dar": 18243,
  "##ator": 8844,
  "snow": 4586,
  "excessive": 11664,
  "[unused595]": 600,
  "##ago": 23692,
  "##alis": 13911,
  "landau": 28570,
  "checking": 9361,
  "marathon": 8589,
  "##\u5065": 30294,
  "lifeboat": 23450,
  "pond": 8644,
  "nationality": 10662,
  "redundant": 21707,
  "##\u00dfe": 17499,
  "acclaimed": 10251,
  "##imus": 19315,
  "irregular": 12052,
  "psychotic": 27756,
  "sparhawk": 13709,
  "cordoba": 17986,
  "guys": 4364,
  "match": 2674,
  "superstructure": 28391,
  "regulated": 12222,
  "edgar": 9586,
  "##personal": 28823,
  "psychology": 6825,
  "yourself": 4426,
  "charles": 2798,
  "950": 20317,
  "gasp": 12008,
  "slid": 4934,
  "charm": 11084,
  "##mack": 26945,
  "##any": 19092,
  "during": 2076,
  "nobility": 11760,
  "soul": 3969,
  "\u0434": 1184,
  "##sf": 22747,
  "lullaby": 29149,
  "legendary": 8987,
  "barons": 21487,
  "flap": 20916,
  "##rano": 20770,
  "carole": 24348,
  "palatinate": 18990,
  "credited": 5827,
  "##\u2016": 30054,
  "wins": 5222,
  "explicitly": 12045,
  "midfield": 23071,
  "41": 4601,
  "immediately": 3202,
  "apartment": 4545,
  "1300": 19527,
  "nixon": 11296,
  "michaels": 17784,
  "##\u2013": 30051,
  "films": 3152,
  "##birds": 12887,
  "hokkaido": 20826,
  "##iki": 17471,
  "plaster": 15673,
  "##pressed": 19811,
  "rovers": 9819,
  "matching": 9844,
  "clapton": 24705,
  "##lter": 21928,
  "##6": 2575,
  "mediterranean": 7095,
  "dahl": 27934,
  "chef": 10026,
  "infirmary": 23453,
  "engravings": 28611,
  "sympathy": 11883,
  "##mament": 28119,
  "scalp": 21065,
  "##hesis": 24124,
  "mirrored": 22243,
  "tn": 28286,
  "doorstep": 26581,
  "##ult": 11314,
  "stair": 23788,
  "ahl": 18347,
  "cr": 13675,
  "granddaughter": 12787,
  "sudanese": 25603,
  "##\u0643": 29835,
  "##\u5dff": 30363,
  "breakaway": 26321,
  "although": 2348,
  "fruit": 5909,
  "believed": 3373,
  "##rooms": 29020,
  "stained": 9702,
  "ignacio": 22988,
  "darlington": 19667,
  "mcgraw": 24179,
  "adjusting": 19158,
  "sarcasm": 20954,
  "tornadoes": 22668,
  "tavi": 24283,
  "##\u09b7": 29911,
  "nouns": 19211,
  "333": 21211,
  "137": 14989,
  "radius": 12177,
  "1540": 27536,
  "ramps": 24943,
  "ladder": 10535,
  "##ung": 5575,
  "##\u5fe0": 30378,
  "pop": 3769,
  "developers": 9797,
  "##ise": 5562,
  "genus": 3562,
  "longing": 15752,
  "upcoming": 9046,
  "albania": 10407,
  "24th": 13386,
  "circus": 9661,
  "erich": 17513,
  "bruise": 24851,
  "investor": 14316,
  "grille": 26192,
  "songwriter": 6009,
  "exposure": 7524,
  "forming": 5716,
  "johnnie": 27716,
  "disposed": 21866,
  "himalayas": 26779,
  "pressures": 15399,
  "attributes": 12332,
  "...": 2133,
  "hoffman": 15107,
  "benefited": 19727,
  "bucharest": 14261,
  "dollar": 7922,
  "\u0b9f": 1384,
  "equals": 19635,
  "styling": 20724,
  "##anne": 20147,
  "[unused76]": 77,
  "yarmouth": 28792,
  "equipment": 3941,
  "moravian": 28131,
  "women": 2308,
  "und": 6151,
  "##ook": 14659,
  "ponds": 16879,
  "consecutive": 5486,
  "median": 3991,
  "##zong": 13150,
  "domains": 13100,
  "##nah": 15272,
  "intending": 16533,
  "##americana": 27026,
  "##ided": 14097,
  "##verance": 21998,
  "mainly": 3701,
  "rigid": 11841,
  "[unused283]": 288,
  "charted": 12568,
  "descent": 6934,
  "##cence": 29320,
  "kiev": 12100,
  "eritrea": 26040,
  "##dalen": 26414,
  "brighton": 10309,
  "technician": 16661,
  "teenagers": 12908,
  "selections": 16310,
  "divisional": 14167,
  "blanket": 8768,
  "months": 2706,
  "##\u0923": 29858,
  "seminars": 17239,
  "##aja": 22734,
  "##\u05df": 29802,
  "##ddling": 21814,
  "##zhou": 9791,
  "##wave": 16535,
  "mal": 15451,
  "baptised": 28798,
  "hiv": 9820,
  "[unused37]": 38,
  "teen": 9458,
  "saxons": 28267,
  "augmented": 19335,
  "invariably": 26597,
  "proponents": 20401,
  "policies": 6043,
  "soldiers": 3548,
  "##ically": 15004,
  "mayor": 3664,
  "clermont": 27956,
  "battled": 19787,
  "starting": 3225,
  "propose": 16599,
  "[unused86]": 87,
  "marx": 13518,
  "iq": 26264,
  "soprano": 10430,
  "embarked": 11299,
  "###": 29614,
  "seychelles": 27438,
  "landfill": 28382,
  "shipping": 7829,
  "signifies": 27353,
  "mined": 21846,
  "cereal": 20943,
  "benoit": 21721,
  "marshal": 8610,
  "pot": 8962,
  "sharpe": 22147,
  "giggles": 26466,
  "##tically": 25084,
  "infringement": 20701,
  "[unused501]": 506,
  "##rud": 28121,
  "dunes": 17746,
  "##vington": 21827,
  "properties": 5144,
  "##cheng": 21043,
  "##igate": 28731,
  "intently": 16170,
  "steamship": 23869,
  "wallet": 15882,
  "indications": 24936,
  "flipping": 18497,
  "kincaid": 24510,
  "##lp": 14277,
  "##lein": 19856,
  "##\u0437": 29744,
  "[unused731]": 736,
  "makeup": 5789,
  "##imated": 20592,
  "bye": 9061,
  "ff": 21461,
  "greenfield": 26713,
  "##\u2605": 30147,
  "ad": 4748,
  "raised": 2992,
  "watched": 3427,
  "rebuilt": 7183,
  "demonstrates": 16691,
  "outlets": 11730,
  "tory": 17117,
  "usage": 8192,
  "audiences": 9501,
  "structure": 3252,
  "spines": 20352,
  "advanced": 3935,
  "##ignant": 25593,
  "gregg": 18281,
  "##\u2ebc": 30159,
  "facility": 4322,
  "rochdale": 26109,
  "##ently": 28198,
  "rhodes": 10588,
  "\u0927": 1326,
  "##sit": 28032,
  "vikram": 29063,
  "##ri": 3089,
  "##tral": 21493,
  "##owing": 14138,
  "[unused805]": 810,
  "amp": 23713,
  "##\u1d58": 30042,
  "siblings": 9504,
  "chop": 24494,
  "km": 2463,
  "baseball": 3598,
  "appropriated": 29223,
  "profiles": 17879,
  "##rat": 8609,
  "parental": 18643,
  "##foot": 13064,
  "##lda": 15150,
  "emmy": 10096,
  "\u05d6": 1247,
  "slightest": 15989,
  "manufacturing": 5814,
  "##erik": 27350,
  "megan": 12756,
  "possess": 10295,
  "[unused316]": 321,
  "image": 3746,
  "##krishna": 23017,
  "handed": 4375,
  "##kian": 28545,
  "290": 17222,
  "framed": 10366,
  "\u0e2d": 1421,
  "existence": 4598,
  "trough": 23389,
  "##scan": 29378,
  "##enay": 27727,
  "ten": 2702,
  "outburst": 27719,
  "bolt": 10053,
  "alejandro": 16810,
  "grasping": 20854,
  "bas": 19021,
  "poorer": 27196,
  "##\u5b80": 30344,
  "##\u03c1": 29732,
  "agriculture": 5237,
  "quicker": 19059,
  "dockyard": 24874,
  "##ate": 3686,
  "##ogan": 21131,
  "##\u7acb": 30457,
  "fitted": 7130,
  "je": 15333,
  "postwar": 20013,
  "accumulate": 27598,
  "fearless": 22518,
  "frey": 20068,
  "164": 17943,
  "##\u0631": 17149,
  "chichester": 23406,
  "##nged": 21558,
  "##mmer": 15810,
  "[unused109]": 114,
  "##ila": 11733,
  "beverly": 12218,
  "lough": 29504,
  "##core": 17345,
  "undoubtedly": 17319,
  "vocational": 13099,
  "forefront": 22870,
  "##cans": 26642,
  "biblical": 10213,
  "survival": 7691,
  "exploded": 9913,
  "##ange": 22043,
  "elements": 3787,
  "coward": 16592,
  "categories": 7236,
  "trumpeter": 28220,
  "##pine": 19265,
  "050": 28714,
  "fellowship": 7881,
  "landed": 5565,
  "bonuses": 29563,
  "reindeer": 29495,
  "filled": 3561,
  "##ined": 21280,
  "##media": 16969,
  "\u3089": 1685,
  "cinema": 5988,
  "[unused243]": 248,
  "liturgical": 19246,
  "##ador": 26467,
  "##dion": 29573,
  "elevations": 18166,
  "lego": 23853,
  "##\u8c37": 30477,
  "leyte": 27214,
  "engage": 8526,
  "spaces": 7258,
  "##mism": 26725,
  "##dal": 9305,
  "ezio": 23043,
  "whereby": 13557,
  "rafe": 15819,
  "tops": 13284,
  "##trick": 22881,
  "##jak": 18317,
  "\u0965": 1345,
  "##edge": 24225,
  "emphasized": 13155,
  "mosque": 8806,
  "calcium": 13853,
  "[unused543]": 548,
  "liverpool": 6220,
  "spokesperson": 15974,
  "psychologists": 25428,
  "crows": 21623,
  "upstream": 13909,
  "##oslav": 23085,
  "failed": 3478,
  "billing": 25640,
  "outbreak": 8293,
  "jill": 10454,
  "visa": 9425,
  "crater": 11351,
  "gateway": 11909,
  "##bol": 14956,
  "frame": 4853,
  "##neer": 19755,
  "##ulio": 24825,
  "##int": 18447,
  "transaction": 12598,
  "114": 12457,
  "1818": 12094,
  "spaceship": 25516,
  "experimented": 20918,
  "##ast": 14083,
  "##\u043d\u0430": 19865,
  "lawful": 26410,
  "authoritarian": 27246,
  "ortiz": 19439,
  "sophie": 8234,
  "gallant": 26984,
  "##pm": 9737,
  "##\uff01": 30512,
  "##te": 2618,
  "consolidation": 17439,
  "shelters": 17177,
  "shock": 5213,
  "ending": 4566,
  "topical": 25665,
  "annapolis": 24889,
  "robot": 8957,
  "csi": 22174,
  "temperament": 26270,
  "barrister": 19805,
  "correlated": 23900,
  "controversy": 6704,
  "\u0127": 1103,
  "lopez": 8685,
  "afterward": 9707,
  "sling": 27076,
  "marty": 12578,
  "bengali": 11267,
  "fay": 23201,
  "vanessa": 13226,
  "antarctic": 10227,
  "snooker": 26448,
  "##anu": 24076,
  "##rized": 18425,
  "forwards": 19390,
  "childless": 26983,
  "barrington": 26469,
  "fitch": 26062,
  "athenian": 26956,
  "medici": 22605,
  "228": 22238,
  "elliptical": 27213,
  "##tructing": 26310,
  "delicate": 10059,
  "scrubbed": 27820,
  "ajax": 18176,
  "griffith": 14135,
  "##uda": 14066,
  "smells": 14747,
  "ravens": 17272,
  "cartoon": 9476,
  "towering": 20314,
  "athletics": 6482,
  "centralized": 22493,
  "##vic": 7903,
  "[unused961]": 966,
  "rains": 15811,
  "\u0916": 1316,
  "presence": 3739,
  "##ulata": 18060,
  "motif": 16226,
  "\u207a": 1544,
  "##fires": 26332,
  "inherited": 7900,
  "bromwich": 27888,
  "##ji": 4478,
  "accountant": 17907,
  "winding": 12788,
  "morrow": 19084,
  "villagers": 11904,
  "expression": 3670,
  "##nburg": 22642,
  "hallway": 6797,
  "buck": 10131,
  "straining": 21366,
  "eaten": 8828,
  "stefan": 8852,
  "scheme": 5679,
  "is": 2003,
  "meek": 28997,
  "apologetic": 29352,
  "cosmic": 14448,
  "careless": 23358,
  "motel": 14901,
  "mathematician": 13235,
  "interest": 3037,
  "stuffing": 28652,
  "vii": 8890,
  "recruiting": 14357,
  "confession": 12633,
  "maiden": 10494,
  "peoples": 7243,
  "expulsion": 18272,
  "profound": 13769,
  "##chev": 16179,
  "[unused88]": 89,
  "##\u90e1": 30485,
  "plead": 25803,
  "7th": 5504,
  "cycling": 9670,
  "simple": 3722,
  "tongue": 4416,
  "ebook": 26885,
  "##bird": 9001,
  "seeded": 13916,
  "trick": 7577,
  "chaotic": 19633,
  "graphics": 8389,
  "keynote": 25569,
  "mansion": 7330,
  "206": 18744,
  "##]": 29636,
  "##osta": 28696,
  "knives": 13227,
  "singles": 3895,
  "eireann": 29157,
  "rubber": 8903,
  "kyiv": 25669,
  "##\u5730": 30328,
  "kitten": 18401,
  "same": 2168,
  "walton": 14290,
  "##nts": 7666,
  "##xa": 18684,
  "paradigm": 20680,
  "obsidian": 29042,
  "##zzi": 13793,
  "adversary": 27248,
  "audition": 14597,
  "lawsuits": 20543,
  "##vus": 27500,
  "[unused165]": 170,
  "ka": 10556,
  "##uram": 27618,
  "exercise": 6912,
  "bellowed": 27386,
  "##dermott": 29370,
  "restless": 15035,
  "pounder": 20091,
  "##ib": 12322,
  "initiate": 17820,
  "mother": 2388,
  "scholars": 5784,
  "clan": 6338,
  "sequels": 25815,
  "viscount": 12182,
  "albuquerque": 19334,
  "deutschland": 28668,
  "##lite": 22779,
  "eccentric": 18080,
  "chassis": 11832,
  "##\u5c0f": 30355,
  "leeds": 7873,
  "fuji": 20933,
  "ngos": 22165,
  "diet": 8738,
  "merge": 13590,
  "tend": 7166,
  "[unused553]": 558,
  "255": 20637,
  "cycle": 5402,
  "daniels": 13196,
  "##ake": 13808,
  "pursued": 9505,
  "tripped": 21129,
  "tram": 12517,
  "sutton": 11175,
  "budapest": 10926,
  "war": 2162,
  "hips": 6700,
  "##vino": 26531,
  "motive": 15793,
  "bogota": 21240,
  "##\u09ad": 29905,
  "drastic": 23956,
  "variously": 17611,
  "leung": 26037,
  "genetics": 14471,
  "simon": 4079,
  "divorce": 8179,
  "##gnon": 26977,
  "gardiner": 21143,
  "negotiating": 18875,
  "siena": 23754,
  "log": 8833,
  "teller": 21322,
  "arched": 9194,
  "commander": 3474,
  "newscasts": 24482,
  "married": 2496,
  "scully": 25686,
  "brain": 4167,
  "caledonian": 27449,
  "pirates": 8350,
  "beautifully": 17950,
  "vittorio": 25914,
  "handles": 16024,
  "aviv": 12724,
  "sorcerer": 23324,
  "bulletin": 13146,
  "siren": 19558,
  "clinched": 18311,
  "resources": 4219,
  "nursery": 13640,
  "barrie": 24953,
  "wroc\u0142aw": 25160,
  "##ana": 5162,
  "sexes": 21024,
  "marguerite": 15334,
  "cried": 6639,
  "england": 2563,
  "tallest": 13747,
  "\u5730": 1802,
  "handel": 21465,
  "greasy": 26484,
  "enforce": 16306,
  "clubhouse": 22067,
  "##lland": 26087,
  "enamel": 29484,
  "sip": 10668,
  "magistrates": 23007,
  "anwar": 28372,
  "dove": 10855,
  "soluble": 24345,
  "southport": 27494,
  "sobbed": 25960,
  "brat": 28557,
  "repetition": 23318,
  "better": 2488,
  "rosalie": 29564,
  "muster": 20327,
  "##ms": 5244,
  "radioactive": 17669,
  "imminent": 17566,
  "lodges": 26767,
  "[unused467]": 472,
  "grandchildren": 13628,
  "##lka": 26518,
  "eps": 20383,
  "sellers": 19041,
  "[unused795]": 800,
  "whilst": 5819,
  "knoxville": 20021,
  "fill": 6039,
  "[unused962]": 967,
  "##horn": 9769,
  "[unused539]": 544,
  "scranton": 26123,
  "it": 2009,
  "##hic": 16066,
  "##oney": 17791,
  "kiss": 3610,
  "##hered": 27190,
  "destination": 7688,
  "##morphic": 18078,
  "bournemouth": 22882,
  "atari": 18978,
  "\u0294": 1139,
  "\u10dd": 1450,
  "##gs": 5620,
  "porcelain": 17767,
  "proton": 20843,
  "delta": 7160,
  "this": 2023,
  "deluxe": 15203,
  "influences": 8092,
  "##rea": 16416,
  "template": 23561,
  "schedule": 6134,
  "legged": 15817,
  "##isto": 20483,
  "jasper": 14791,
  "750": 9683,
  "rampage": 29216,
  "genealogy": 26684,
  "embrace": 9979,
  "guerrero": 16938,
  "##berry": 9766,
  "##tarian": 28897,
  "properly": 7919,
  "illustrated": 7203,
  "exhibits": 10637,
  "1842": 10008,
  "committing": 16873,
  "inorganic": 28256,
  "46": 4805,
  "##heimer": 18826,
  "whose": 3005,
  "import": 12324,
  "recipes": 19328,
  "landscapes": 12793,
  "harmonic": 19452,
  "increases": 7457,
  "martyr": 17216,
  "\u2090": 1560,
  "manpower": 22039,
  "##eni": 18595,
  "tomas": 12675,
  "gb": 16351,
  "\u6226": 1856,
  "troupe": 16017,
  "relevant": 7882,
  "novo": 24576,
  "winchester": 12841,
  "##ug": 15916,
  "hancock": 13849,
  "ito": 23333,
  "inversion": 28527,
  "fed": 7349,
  "irritation": 17373,
  "##iled": 18450,
  "gupta": 20512,
  "rite": 14034,
  "corp": 13058,
  "dali": 29095,
  "amend": 27950,
  "otto": 8064,
  "opens": 7480,
  "compete": 5566,
  "granted": 4379,
  "neighboring": 8581,
  "guido": 20239,
  "[unused670]": 675,
  "portland": 6734,
  "xvi": 16855,
  "overlook": 27590,
  "##dity": 25469,
  "guarantees": 21586,
  "extend": 7949,
  "hughes": 8099,
  "compares": 22963,
  "97": 5989,
  "##words": 22104,
  "determination": 9128,
  "nrhp": 22424,
  "[unused977]": 982,
  "mu": 14163,
  "gareth": 20243,
  "##us": 2271,
  "developer": 9722,
  "thankful": 18836,
  "re": 2128,
  "unease": 27880,
  "hairy": 15892,
  "sardinia": 21594,
  "51st": 26017,
  "embarrassed": 10339,
  "##venor": 26806,
  "restoration": 6418,
  "350": 8698,
  "delicious": 12090,
  "calabria": 29430,
  "duplicate": 24473,
  "pomerania": 18631,
  "downloaded": 22817,
  "ars": 29393,
  "trey": 14826,
  "duchess": 11017,
  "jointly": 10776,
  "1400": 20652,
  "merchant": 6432,
  "moths": 14885,
  "plucked": 20780,
  "plaid": 26488,
  "handler": 28213,
  "holder": 9111,
  "photographs": 7008,
  "tablets": 17596,
  "kenneth": 8856,
  "doubles": 7695,
  "partridge": 26079,
  "cannot": 3685,
  "sighting": 29426,
  "adverse": 15316,
  "##sko": 21590,
  "##morphism": 19539,
  "redding": 26687,
  "##200": 28332,
  "185": 15376,
  "phelps": 20475,
  "##m": 2213,
  "1953": 4052,
  "shaved": 20665,
  "##cke": 19869,
  "##etta": 16549,
  "jian": 29214,
  "periodic": 15861,
  "raged": 28374,
  "##lage": 20679,
  "distinct": 5664,
  "tyrol": 27193,
  "gestapo": 26446,
  "[unused687]": 692,
  "##rade": 13662,
  "acoustic": 6490,
  "shang": 29382,
  "recognizing": 14622,
  "seville": 18983,
  "\u0e22": 1416,
  "rumours": 19200,
  "infantry": 3939,
  "likeness": 28275,
  "pollock": 25218,
  "aback": 26575,
  "standard": 3115,
  "[unused824]": 829,
  "un": 4895,
  "authorship": 26324,
  "trek": 10313,
  "harbor": 6496,
  "called": 2170,
  "senegal": 16028,
  "pulse": 8187,
  "editorial": 8368,
  "khz": 17737,
  "seeker": 29444,
  "charitable": 11128,
  "nbc": 6788,
  "##missive": 27876,
  "bass": 3321,
  "indira": 28232,
  "statutory": 15201,
  "\u0f0d": 1425,
  "filmed": 6361,
  "gunn": 22079,
  "sincerity": 23997,
  "silas": 18553,
  "eucalyptus": 27111,
  "signatures": 16442,
  "##ryl": 23320,
  "hebrew": 6836,
  "legislators": 22680,
  "conferred": 15186,
  "canadiens": 21247,
  "##\u3053": 30181,
  "auguste": 20758,
  "tax": 4171,
  "roth": 12211,
  "##ears": 26492,
  "##uno": 27819,
  "azerbaijani": 18325,
  "warren": 6031,
  "inadequate": 14710,
  "blushing": 25771,
  "stalking": 20070,
  "rations": 29559,
  "draper": 23641,
  "##cchi": 25955,
  "[unused812]": 817,
  "[unused650]": 655,
  "facilities": 4128,
  "detachment": 11009,
  "directorial": 21635,
  "heroes": 7348,
  "##ffe": 16020,
  "mane": 23055,
  "josh": 6498,
  "rage": 7385,
  "bolted": 18088,
  "concession": 16427,
  "elvis": 12280,
  "ripping": 17039,
  "monde": 23117,
  "creep": 19815,
  "confederacy": 18179,
  "flavors": 26389,
  "kwan": 27741,
  "later": 2101,
  "stadium": 3346,
  "giovanni": 9136,
  "[unused2]": 3,
  "\u4eac": 1755,
  "supermarkets": 26676,
  "knitting": 26098,
  "russo": 17023,
  "shares": 6661,
  "insider": 25297,
  "ahmedabad": 27249,
  "[unused685]": 690,
  "381": 29335,
  "[unused780]": 785,
  "surgeons": 16804,
  "[unused13]": 14,
  "nadia": 14942,
  "##\u0438\u044f": 23483,
  "lynne": 26938,
  "greco": 18180,
  "chemotherapy": 27144,
  "unsafe": 25135,
  "tae": 22297,
  "##\u671d": 30400,
  "deployment": 10813,
  "shiny": 12538,
  "steak": 21475,
  "careful": 6176,
  "fred": 5965,
  "economics": 5543,
  "rowland": 20539,
  "drying": 17462,
  "tucked": 9332,
  "##ers": 2545,
  "##dition": 20562,
  "terraces": 25633,
  "\u30d8": 1721,
  "onto": 3031,
  "##dhi": 19114,
  "##escu": 19434,
  "blaming": 24114,
  "285": 21777,
  "charging": 13003,
  "resignation": 8172,
  "enhancement": 22415,
  "hirsch": 28127,
  "vital": 8995,
  "have": 2031,
  "ufc": 11966,
  "including": 2164,
  "duly": 25073,
  "gundam": 26152,
  "privy": 14452,
  "shooters": 28310,
  "tombs": 16623,
  "silvio": 28107,
  "outfits": 22054,
  "establishments": 17228,
  "[unused931]": 936,
  "##\u028c": 29700,
  "saving": 7494,
  "bray": 19743,
  "221": 19594,
  "sides": 3903,
  "##chison": 27795,
  "rein": 27788,
  "sulfate": 26754,
  "miracles": 17861,
  "##oc": 10085,
  "##atics": 17592,
  "nguyen": 16577,
  "pinto": 25066,
  "deux": 24756,
  "##lett": 20897,
  "cartridge": 15110,
  "hasn": 8440,
  "\u9234": 1965,
  "corporal": 14265,
  "alton": 26374,
  "##\u05d1": 29789,
  "forced": 3140,
  "constantin": 27991,
  "emmanuel": 14459,
  "boyer": 23456,
  "vacation": 10885,
  "##log": 21197,
  "sincere": 18006,
  "yves": 19687,
  "brentford": 26550,
  "[unused328]": 333,
  "vaulted": 24616,
  "buckled": 26368,
  "amplifiers": 28633,
  "##arm": 27292,
  "ship": 2911,
  "1858": 8517,
  "assimilation": 27574,
  "brisbane": 7717,
  "[unused809]": 814,
  "built": 2328,
  "breakout": 25129,
  "morning": 2851,
  "##\u2282": 30137,
  "anthologies": 25675,
  "sir": 2909,
  "consolation": 24831,
  "reuben": 17294,
  "##monium": 26387,
  "ubiquitous": 28498,
  "bernardino": 21370,
  "skipping": 25978,
  "mothers": 10756,
  "##ante": 12956,
  "##nda": 8943,
  "destroyers": 13242,
  "[unused435]": 440,
  "boo": 22017,
  "##ncy": 9407,
  "ceramic": 14692,
  "fourteenth": 15276,
  "climate": 4785,
  "##bos": 15853,
  "focuses": 7679,
  "prohibits": 25822,
  "##\u045a": 29763,
  "oliveira": 24263,
  "adapt": 15581,
  "umar": 27981,
  "\u3055": 1656,
  "intrigued": 18896,
  "infection": 8985,
  "132": 14078,
  "accommodation": 11366,
  "marvelous": 28851,
  "vantage": 27274,
  "adolescence": 29101,
  "##puted": 29462,
  "watching": 3666,
  "grew": 3473,
  "jett": 22962,
  "##\u3088": 30210,
  "programmer": 20273,
  "recession": 19396,
  "biennial": 20313,
  "methodist": 8938,
  "summary": 12654,
  "socially": 14286,
  "[unused176]": 181,
  "hasan": 17000,
  "##oons": 27174,
  "karlsruhe": 26660,
  "michelle": 9393,
  "mentor": 10779,
  "investigator": 14064,
  "retire": 11036,
  "corn": 9781,
  "restriction": 16840,
  "cuts": 7659,
  "spawn": 25645,
  "jammu": 21433,
  "clarinet": 12089,
  "imperial": 4461,
  "[unused11]": 12,
  "cinematographer": 19245,
  "nipple": 14298,
  "sue": 9790,
  "tossed": 7463,
  "amended": 13266,
  "##hein": 26496,
  "jens": 25093,
  "cynical": 26881,
  "gloucester": 13370,
  "occasional": 8138,
  "unchanged": 15704,
  "##\u30a6": 30222,
  "##nin": 11483,
  "##acing": 26217,
  "##\u05e1": 29804,
  "binds": 20817,
  "##se": 3366,
  "bey": 20289,
  "scans": 27404,
  "basin": 6403,
  "##rase": 23797,
  "ethics": 9615,
  "organizers": 18829,
  "ab": 11113,
  "[unused130]": 135,
  "asylum": 11386,
  "stalled": 20659,
  "beckett": 20599,
  "##nder": 11563,
  "fairies": 20182,
  "hotter": 22302,
  "##water": 5880,
  "xander": 29019,
  "civilizations": 24784,
  "sofia": 8755,
  "appalled": 29279,
  "1939": 3912,
  "162": 17832,
  "suited": 10897,
  "ethanol": 22886,
  "202": 16798,
  "lethal": 12765,
  "nominated": 4222,
  "##\u0dc0": 29943,
  "aesthetics": 20749,
  "[unused443]": 448,
  "##\u0580": 29784,
  "murderous": 25303,
  "calcutta": 13419,
  "labeled": 12599,
  "multiple": 3674,
  "vent": 18834,
  "cylindrical": 18797,
  "apprehension": 25809,
  "##dicated": 26022,
  "##rna": 12789,
  "second": 2117,
  "[unused197]": 202,
  "mathematics": 5597,
  "huey": 29503,
  "bro": 22953,
  "heartbeat": 12251,
  "surveyor": 17169,
  "##rage": 24449,
  "coming": 2746,
  "fool": 7966,
  "##hil": 19466,
  "##houses": 15666,
  "levy": 12767,
  "##ij": 28418,
  "##rada": 28510,
  "spontaneously": 27491,
  "##\u90ce": 30484,
  "##hey": 14844,
  "historia": 19891,
  "mountains": 4020,
  "viktor": 13489,
  "archie": 13255,
  "##hane": 28006,
  "startup": 22752,
  "outta": 24955,
  "captives": 21496,
  "\u0993": 1352,
  "disgrace": 29591,
  "savage": 9576,
  "lam": 16983,
  "dimension": 9812,
  "narrator": 11185,
  "##\u11a8": 30020,
  "debuted": 6006,
  "cardinals": 9310,
  "\u0e1e": 1414,
  "sirius": 23466,
  "encompasses": 13974,
  "appreciated": 12315,
  "membership": 5779,
  "destroy": 6033,
  "unreliable": 23579,
  "[unused537]": 542,
  "stabilize": 27790,
  "cheryl": 19431,
  "merritt": 26701,
  "spain": 3577,
  "overcoming": 27363,
  "\u10d1": 1439,
  "##fra": 27843,
  "##cal": 9289,
  "wicket": 12937,
  "overthrow": 16857,
  "funding": 4804,
  "pound": 9044,
  "adriatic": 23400,
  "necessity": 13185,
  "md": 9108,
  "namesake": 17283,
  "disorders": 10840,
  "producers": 6443,
  "conservatoire": 29233,
  "intentionally": 15734,
  "[unused757]": 762,
  "verve": 29230,
  "feminist": 10469,
  "##aking": 15495,
  "tottenham": 18127,
  "doyle": 11294,
  "##gold": 21270,
  "fatigue": 16342,
  "wince": 29585,
  "##ctors": 24817,
  "alberto": 12007,
  "clinic": 9349,
  "ratio": 6463,
  "rocket": 7596,
  "sd": 17371,
  "[unused916]": 921,
  "##\u306a": 30193,
  "liaison": 14975,
  "array": 9140,
  "nes": 24524,
  "poured": 8542,
  "slate": 12796,
  "patron": 9161,
  "hesitantly": 24626,
  "analog": 11698,
  "mouse": 8000,
  "referee": 5330,
  "[unused269]": 274,
  "desperation": 15561,
  "harp": 14601,
  "##cks": 10603,
  "servers": 14903,
  "spoken": 5287,
  "potassium": 18044,
  "nedra": 28240,
  "prem": 26563,
  "[unused486]": 491,
  "habits": 14243,
  "suites": 19796,
  "imagining": 16603,
  "[unused289]": 294,
  "bsc": 23533,
  "greensboro": 27905,
  "2011": 2249,
  "chilled": 23362,
  "##bolic": 18647,
  "thirds": 12263,
  "##ano": 6761,
  "manuel": 7762,
  "tale": 6925,
  "\u30a4": 1695,
  "lsu": 21849,
  "[unused754]": 759,
  "su": 10514,
  "sixty": 8442,
  "syn": 19962,
  "cursed": 10678,
  "##\u56fd": 30325,
  "wiltshire": 17045,
  "47": 4700,
  "bills": 8236,
  "lakeside": 28701,
  "gurney": 25061,
  "[unused849]": 854,
  "canal": 5033,
  "relations": 4262,
  "hideous": 22293,
  "tchaikovsky": 25900,
  "synthesizers": 22211,
  "organizations": 4411,
  "[unused62]": 63,
  "##ese": 6810,
  "variation": 8386,
  "reminded": 6966,
  "objected": 15959,
  "colonel": 4327,
  "configured": 26928,
  "177": 18118,
  "rapper": 10687,
  "##nostic": 28199,
  "amused": 11770,
  "something": 2242,
  "##dating": 16616,
  "psychiatric": 13691,
  "snacks": 27962,
  "##zie": 14272,
  "fund": 4636,
  "pines": 17527,
  "alternatively": 14084,
  "bill": 3021,
  "##5": 2629,
  "staff": 3095,
  "concord": 16557,
  "nationalist": 8986,
  "breakdown": 12554,
  "##dates": 27122,
  "ref": 25416,
  "##rite": 17625,
  "scaling": 25169,
  "greet": 17021,
  "alive": 4142,
  "mythology": 11327,
  "immense": 14269,
  "\u90e8": 1960,
  "pressed": 4508,
  "knife": 5442,
  "afghan": 12632,
  "##over": 7840,
  "creatures": 7329,
  "[unused466]": 471,
  "assigned": 4137,
  "[unused890]": 895,
  "1820s": 28504,
  "leroy": 19103,
  "##old": 11614,
  "journalist": 4988,
  "once": 2320,
  "lcd": 27662,
  "comets": 27138,
  "naive": 15743,
  "imports": 17589,
  "day": 2154,
  "##nl": 20554,
  "##gh": 5603,
  "hezbollah": 25713,
  "explanations": 17959,
  "intrusion": 24554,
  "laps": 10876,
  "indifferent": 24436,
  "[unused672]": 677,
  "wheelbase": 29141,
  "voyages": 21993,
  "carrying": 4755,
  "played": 2209,
  "bribe": 26470,
  "gonna": 6069,
  "pleasing": 24820,
  "desired": 9059,
  "epstein": 26646,
  "spelling": 11379,
  "indication": 12407,
  "happy": 3407,
  "steals": 15539,
  "frederic": 15296,
  "landowner": 20270,
  "bethlehem": 19360,
  "mimi": 20705,
  "##ffy": 16329,
  "lynn": 9399,
  "##nde": 13629,
  "winced": 15574,
  "1976": 3299,
  "##9th": 25660,
  "starred": 5652,
  "##oic": 19419,
  "\u1174": 1482,
  "dodged": 28339,
  "##icing": 23553,
  "mueller": 26774,
  "abs": 14689,
  "priorities": 18402,
  "shrimp": 20130,
  "##talk": 28014,
  "gideon": 12137,
  "##dilly": 28832,
  "raion": 24235,
  "##\u3055": 30182,
  "bedrooms": 18390,
  "decreasing": 16922,
  "imagery": 13425,
  "midtown": 27219,
  "white": 2317,
  "dominique": 18165,
  "commands": 10954,
  "ought": 11276,
  "##ene": 8625,
  "fixing": 15887,
  "\u963f": 1971,
  "fredrik": 25454,
  "cameron": 7232,
  "photos": 7760,
  "showcasing": 27696,
  "##\u702c": 30431,
  "wc": 15868,
  "electrode": 28688,
  "ui": 21318,
  "##ass": 12054,
  "charges": 5571,
  "mount": 4057,
  "beloved": 11419,
  "snuggled": 26867,
  "aisles": 25442,
  "declaring": 13752,
  "lu": 11320,
  "##bal": 10264,
  "martha": 9246,
  "speed": 3177,
  "revealing": 8669,
  "##ism": 2964,
  "palestine": 8976,
  "airfields": 25278,
  "aires": 9149,
  "craving": 26369,
  "dispatched": 14501,
  "luciano": 24512,
  "recovered": 6757,
  "ni": 9152,
  "member": 2266,
  "##tt": 4779,
  "##\u0997": 29891,
  "nosed": 29338,
  "##ement": 13665,
  "##dict": 29201,
  "skulls": 21542,
  "lasers": 23965,
  "executing": 23448,
  "scenery": 17363,
  "insulted": 23637,
  "publish": 10172,
  "police": 2610,
  "taxonomy": 25274,
  "pained": 22295,
  "\u2248": 1606,
  "\u207b": 1545,
  "inherently": 26096,
  "beforehand": 25828,
  "resentment": 20234,
  "finley": 29194,
  "reciprocal": 28309,
  "henderson": 9481,
  "aliens": 12114,
  "convention": 4680,
  "##uck": 12722,
  "likes": 7777,
  "identify": 6709,
  "sanctioned": 14755,
  "maize": 21154,
  "##hr": 8093,
  "demoted": 25692,
  "awoke": 19179,
  "universe": 5304,
  "hannibal": 24181,
  "judiciary": 14814,
  "##athic": 20972,
  "##loh": 24729,
  "mammalian": 26524,
  "keating": 25865,
  "guide": 5009,
  "##rell": 16230,
  "occult": 27906,
  "drowned": 12805,
  "ligand": 27854,
  "reyes": 12576,
  "dissipated": 22572,
  "capital": 3007,
  "projective": 27473,
  "halo": 17201,
  "kerala": 8935,
  "hack": 20578,
  "pinned": 11807,
  "acknowledge": 13399,
  "##}": 29642,
  "expanded": 4423,
  "##ading": 23782,
  "first": 2034,
  "##gor": 20255,
  "tt": 23746,
  "hawker": 23937,
  "stud": 16054,
  "nave": 12847,
  "sci": 16596,
  "traded": 7007,
  "you": 2017,
  "linguistics": 15397,
  "exceptions": 11790,
  "poisonous": 22641,
  "subway": 10798,
  "instances": 12107,
  "##\u2207": 30123,
  "professionals": 8390,
  "conway": 14783,
  "sousa": 28535,
  "rogers": 7369,
  "iii": 3523,
  "forensic": 15359,
  "##ox": 11636,
  "drafted": 7462,
  "calves": 28023,
  "captures": 19566,
  "choices": 9804,
  "mastering": 11495,
  "##smith": 21405,
  "historically": 7145,
  "retailer": 20196,
  "townsville": 27492,
  "benches": 19571,
  "swearing": 25082,
  "sirens": 20675,
  "regard": 7634,
  "kyle": 7648,
  "sadie": 21330,
  "boiled": 17020,
  "bangs": 28490,
  "intentional": 21249,
  "##dicate": 16467,
  "imaging": 12126,
  "1704": 27769,
  "inter": 6970,
  "parc": 27985,
  "earth": 3011,
  "##rge": 20800,
  "molecules": 10737,
  "studying": 5702,
  "mattered": 13836,
  "fractures": 28929,
  "##rone": 20793,
  "roosevelt": 8573,
  "destroyer": 9799,
  "closes": 14572,
  "sox": 9175,
  "[unused476]": 481,
  "ru": 21766,
  "##ulation": 9513,
  "inn": 7601,
  "brest": 22451,
  "##\u10db": 29984,
  "##bio": 26282,
  "luckily": 15798,
  "depended": 17292,
  "aztec": 25245,
  "##\u3089": 30211,
  "##yce": 29297,
  "helicopter": 7739,
  "##\u0430\u043d": 28995,
  "prosperous": 18241,
  "modernism": 27254,
  "communes": 16569,
  "nemesis": 21363,
  "##\u30bf": 30235,
  "##\u5973": 30341,
  "wei": 11417,
  "preferred": 6871,
  "uttar": 14940,
  "bumped": 19030,
  "[unused404]": 409,
  "regular": 3180,
  "flair": 22012,
  "[unused336]": 341,
  "obligation": 14987,
  "\u30eb": 1733,
  "needy": 23927,
  "dresses": 14464,
  "lila": 19286,
  "##titles": 27430,
  "##miya": 29312,
  "musee": 18070,
  "roanoke": 25899,
  "lowers": 24950,
  "1667": 27643,
  "estadio": 14143,
  "editions": 6572,
  "auditioned": 23008,
  "extreme": 6034,
  "slots": 19832,
  "concentration": 6693,
  "##\u5bae": 30350,
  "##orno": 26295,
  "financing": 12135,
  "closing": 5494,
  "##ym": 24335,
  "housing": 3847,
  "constituents": 24355,
  "monthly": 7058,
  "##ype": 18863,
  "elephant": 10777,
  "profitable": 15282,
  "##llon": 22179,
  "intersection": 6840,
  "polynomial": 17505,
  "[unused706]": 711,
  "##grounds": 28951,
  "opponents": 7892,
  "savings": 10995,
  "buy": 4965,
  "admissions": 20247,
  "cdc": 26629,
  "##ndon": 19333,
  "bench": 6847,
  "tape": 6823,
  "\u2228": 1603,
  "castles": 15618,
  "fade": 12985,
  "navigable": 28538,
  "furthermore": 7297,
  "eki": 23174,
  "##haling": 23896,
  "hackney": 28425,
  "salvador": 10582,
  "commuter": 14334,
  "1086": 28196,
  "\u0bb5": 1394,
  "attacker": 17346,
  "##gc": 18195,
  "##tative": 27453,
  "tribal": 8807,
  "mask": 7308,
  "nak": 17823,
  "[unused555]": 560,
  "repealed": 21492,
  "cupped": 13740,
  "##sham": 21010,
  "1966": 3547,
  "chronicles": 11906,
  "sailed": 7434,
  "theologian": 17200,
  "faint": 8143,
  "hoping": 5327,
  "vomit": 23251,
  "##\u5f35": 30370,
  "learning": 4083,
  "medial": 23828,
  "[unused969]": 974,
  "johannesburg": 15976,
  "[unused217]": 222,
  "solitary": 14348,
  "[unused747]": 752,
  "##\u02c8": 29715,
  "##ren": 7389,
  "##lden": 28476,
  "rwanda": 17591,
  "abbess": 28010,
  "chesapeake": 20867,
  "corbin": 24003,
  "correspond": 17254,
  "106": 10114,
  "##mar": 7849,
  "successfully": 5147,
  "##\u06d2": 29846,
  "vectors": 19019,
  "eun": 26070,
  "pristine": 27375,
  "##cuit": 28168,
  "archeological": 23005,
  "strained": 12250,
  "##\u662d": 30394,
  "##pta": 22799,
  "##tary": 18219,
  "sufi": 21845,
  "assistant": 3353,
  "michigan": 4174,
  "mayer": 14687,
  "paused": 5864,
  "maneuvers": 23802,
  "scandinavian": 17660,
  "\u30c1": 1710,
  "##leg": 23115,
  "any": 2151,
  "martini": 24480,
  "deciding": 10561,
  "carroll": 10767,
  "[unused180]": 185,
  "babylonian": 26990,
  "[unused542]": 547,
  "##uth": 14317,
  "epa": 19044,
  "paradise": 9097,
  "##tree": 13334,
  "##weiler": 22384,
  "melt": 14899,
  "aye": 13442,
  "wiring": 27930,
  "agra": 29542,
  "applicable": 12711,
  "traveller": 21916,
  "darkest": 23036,
  "##ayan": 25868,
  "chase": 5252,
  "pyrenees": 22696,
  "supervised": 13588,
  "swansea": 16085,
  "criticised": 10648,
  "bid": 7226,
  "##mounted": 27632,
  "emblem": 16199,
  "confrontation": 13111,
  "[unused941]": 946,
  "twin": 5519,
  "level": 2504,
  "grease": 21956,
  "##red": 5596,
  "brackets": 19719,
  "swirling": 16499,
  "bladder": 24176,
  "illustrating": 28252,
  "kennedy": 5817,
  "[unused541]": 546,
  "##eri": 11124,
  "kickoff": 25233,
  "##ados": 28118,
  "sighs": 19906,
  "disciple": 17849,
  "practitioners": 14617,
  "simone": 14072,
  "[unused140]": 145,
  "boroughs": 21413,
  "worried": 5191,
  "##rift": 16338,
  "##rak": 16555,
  "playback": 18245,
  "australia": 2660,
  "##yad": 25152,
  "##virus": 23350,
  "biceps": 27947,
  "predecessor": 8646,
  "##kle": 19099,
  "northumberland": 16205,
  "compromise": 12014,
  "gentlemen": 11218,
  "thirteenth": 14725,
  "##all": 8095,
  "##\u4eba": 30282,
  "##duk": 28351,
  "underworld": 13607,
  "santana": 21158,
  "stainless": 18676,
  "sham": 25850,
  "confront": 14323,
  "lust": 11516,
  "plaza": 8232,
  "##nium": 14907,
  "sai": 18952,
  "tab": 21628,
  "weather": 4633,
  "her": 2014,
  "elena": 9060,
  "teach": 6570,
  "talked": 5720,
  "rapid": 5915,
  "bytes": 27507,
  "##nitz": 22792,
  "deposit": 12816,
  "reversed": 11674,
  "maids": 29229,
  "ferns": 25715,
  "marlborough": 22830,
  "[unused820]": 825,
  "##erin": 23282,
  "alpha": 6541,
  "apologies": 25380,
  "coulter": 28293,
  "files": 6764,
  "jew": 16522,
  "##pher": 27921,
  "death": 2331,
  "nurses": 11500,
  "1630": 24994,
  "eugen": 29273,
  "binding": 8031,
  "requiring": 9034,
  "arms": 2608,
  "convict": 20462,
  "nottingham": 11331,
  "punching": 19477,
  "authorities": 4614,
  "##oy": 6977,
  "mast": 15429,
  "reginald": 14435,
  "li": 5622,
  "pictures": 4620,
  "anyway": 4312,
  "##nti": 16778,
  "codes": 9537,
  "ski": 8301,
  "cincinnati": 7797,
  "landing": 4899,
  "stanton": 15845,
  "trees": 3628,
  "yesterday": 7483,
  "literacy": 8433,
  "multitude": 20889,
  "prolonged": 15330,
  "sandwiches": 22094,
  "description": 6412,
  "##\u21cc": 30118,
  "dylan": 7758,
  "buffy": 18467,
  "##gara": 24864,
  "association": 2523,
  "settlers": 7322,
  "comic": 5021,
  "##oting": 20656,
  "##hal": 8865,
  "144": 14748,
  "[unused225]": 230,
  "mandela": 26887,
  "utc": 11396,
  "##era": 6906,
  "##od": 7716,
  "misty": 15167,
  "\u0dba": 1404,
  "hadley": 21681,
  "##\u1d48": 30034,
  "glaciers": 21193,
  "transportation": 5193,
  "livingstone": 27656,
  "goodness": 15003,
  "judged": 13224,
  "athena": 21880,
  "images": 4871,
  "low": 2659,
  "\u0445": 1200,
  "[unused424]": 429,
  "[unused305]": 310,
  "peabody": 20004,
  "##\u0938": 29874,
  "exception": 6453,
  "disappointed": 9364,
  "patting": 26085,
  "advances": 9849,
  "boots": 6879,
  "siegel": 27996,
  "divides": 20487,
  "hardest": 18263,
  "##lating": 22248,
  "fold": 10671,
  "##iot": 25185,
  "flickering": 20046,
  "shelly": 28360,
  "consultant": 8930,
  "eventual": 9523,
  "manage": 6133,
  "scripture": 18919,
  "disney": 6373,
  "neighbours": 14754,
  "##54": 27009,
  "##ctor": 16761,
  "wes": 14008,
  "##18": 15136,
  "delilah": 23006,
  "sighing": 19381,
  "delle": 24121,
  "\u0e17": 1412,
  "##tters": 24168,
  "sudden": 5573,
  "industrial": 3919,
  "[unused827]": 832,
  "indeed": 5262,
  "club": 2252,
  "profession": 9518,
  "turks": 12896,
  "coast": 3023,
  "hawke": 24882,
  "registry": 15584,
  "tsar": 17608,
  "foremost": 16097,
  "[unused495]": 500,
  "unincorporated": 7754,
  "latitude": 15250,
  "[unused294]": 299,
  "shattering": 21797,
  "##dine": 10672,
  "newborn": 20662,
  "readers": 8141,
  "##laid": 24393,
  "\u3044": 1647,
  "norton": 10770,
  "annoying": 15703,
  "murderers": 28882,
  "##qing": 19784,
  "##yed": 20821,
  "sinatra": 19643,
  "##baum": 14898,
  "##ahu": 21463,
  "\u05be": 1240,
  "hurt": 3480,
  "madhya": 20841,
  "##rae": 16652,
  "drums": 3846,
  "crowds": 12783,
  "innocence": 12660,
  "smarter": 25670,
  "project": 2622,
  "lens": 10014,
  "[unused418]": 423,
  "solvent": 23735,
  "##\u30b3": 30230,
  "feast": 9831,
  "occur": 5258,
  "unprecedented": 15741,
  "penalty": 6531,
  "breakup": 19010,
  "cutting": 6276,
  "spec": 28699,
  "##vy": 10736,
  "predators": 12630,
  "supply": 4425,
  "samurai": 16352,
  "petra": 20953,
  "conner": 17639,
  "check": 4638,
  "loosely": 11853,
  "interruption": 24191,
  "accessories": 16611,
  "laborers": 23428,
  "##ea": 5243,
  "[unused425]": 430,
  "equation": 8522,
  "gives": 3957,
  "lakers": 18264,
  "demetrius": 28367,
  "portable": 12109,
  "customers": 6304,
  "sleep": 3637,
  "nonprofit": 14495,
  "prize": 3396,
  "grains": 17588,
  "outward": 15436,
  "party": 2283,
  "villains": 16219,
  "chung": 15972,
  "amara": 28599,
  "innovative": 9525,
  "nope": 16780,
  "cares": 14977,
  "des": 4078,
  "##zumi": 28114,
  "stored": 8250,
  "kali": 19924,
  "pitchers": 23232,
  "decree": 10037,
  "outdoors": 19350,
  "supporter": 10129,
  "havoc": 22156,
  "##\u2030": 30065,
  "##room": 9954,
  "supports": 6753,
  "##\u028b": 29699,
  "[unused860]": 865,
  "participated": 4194,
  "visits": 7879,
  "sole": 7082,
  "[unused632]": 637,
  "sex": 3348,
  "striped": 17983,
  "##laya": 22923,
  "other": 2060,
  "##oed": 29099,
  "plastics": 26166,
  "quick": 4248,
  "potsdam": 26554,
  "##izes": 10057,
  "kunst": 28145,
  "lordship": 20698,
  "francesca": 15409,
  "301": 19123,
  "##nson": 15551,
  "dioxide": 14384,
  "##\u03c3": 29733,
  "##rien": 23144,
  "occupies": 14133,
  "ghent": 24202,
  "1974": 3326,
  "augsburg": 24362,
  "discount": 19575,
  "remy": 22712,
  "sculpture": 6743,
  "##ivation": 25761,
  "goodwin": 19928,
  "yale": 7996,
  "dogs": 6077,
  "flourished": 17893,
  "##runner": 23195,
  "citation": 11091,
  "unknown": 4242,
  "1744": 25846,
  "traits": 12955,
  "booklet": 19271,
  "##\u0baa": 29924,
  "promoter": 15543,
  "paddy": 16063,
  "gleamed": 25224,
  "respectable": 19416,
  "gun": 3282,
  "forrest": 16319,
  "shimmering": 22349,
  "upland": 25770,
  "\u738b": 1909,
  "costing": 22173,
  "oblivion": 24034,
  "feldman": 26908,
  "##standing": 24911,
  "\u110f": 1466,
  "stairs": 5108,
  "immortals": 26796,
  "guns": 4409,
  "inconsistent": 20316,
  "statues": 11342,
  "andreas": 12460,
  "norfolk": 7735,
  "2a": 23409,
  "whenever": 7188,
  "defaulted": 17265,
  "##kley": 22315,
  "##ff": 4246,
  "##fahan": 28975,
  "encountered": 8567,
  "bull": 7087,
  "clare": 11152,
  "ninja": 14104,
  "breach": 12510,
  "encompass": 25281,
  "uzbekistan": 17065,
  "peaking": 13015,
  "electrified": 18042,
  "##vary": 21639,
  "suck": 11891,
  "breeding": 8119,
  "pension": 11550,
  "##cis": 22987,
  "awakened": 20256,
  "portrays": 17509,
  "operators": 9224,
  "inheritance": 12839,
  "lurched": 21977,
  "renaming": 24944,
  "jun": 12022,
  "collin": 22180,
  "##lee": 10559,
  "onset": 14447,
  "##\u8a9e": 30476,
  "garments": 21902,
  "petersen": 22615,
  "murmured": 7152,
  "short": 2460,
  "villas": 27317,
  "blond": 8855,
  "\u1d30": 1492,
  "disused": 26958,
  "##hism": 23108,
  "rhino": 24091,
  "duncan": 7343,
  "terence": 22677,
  "##\u30a7": 30223,
  "[unused549]": 554,
  "##cytes": 27321,
  "sprayed": 25401,
  "ledge": 18283,
  "[unused297]": 302,
  "tianjin": 26216,
  "histoire": 20088,
  "china": 2859,
  "impoverished": 25488,
  "reefs": 21484,
  "switch": 6942,
  "##\u203a": 30068,
  "campground": 29144,
  "pilasters": 26752,
  "appealed": 12068,
  "\u5834": 1806,
  "cervical": 28711,
  "serialized": 27289,
  "##\u0939": 29875,
  "##cz": 27966,
  "403": 28203,
  "##rd": 4103,
  "bmw": 13154,
  "vote": 3789,
  "##\u03bc": 29728,
  "sizes": 10826,
  "notice": 5060,
  "humiliating": 28284,
  "ashamed": 14984,
  "exempt": 11819,
  "dunbar": 23034,
  "fundamentally": 24670,
  "[unused510]": 515,
  "episodes": 4178,
  "runaway": 19050,
  "##station": 20100,
  "bb": 22861,
  "raiders": 10642,
  "##29": 24594,
  "floats": 24885,
  "ordination": 18129,
  "shakespeare": 8101,
  "accountable": 26771,
  "moist": 11052,
  "##mes": 7834,
  "western": 2530,
  "forgiveness": 17213,
  "1796": 13885,
  "bach": 10384,
  "[unused839]": 844,
  "madonna": 11284,
  "sprang": 15627,
  "breeze": 9478,
  "niche": 18111,
  "yard": 4220,
  "298": 27240,
  "pointer": 20884,
  "nationals": 10342,
  "flared": 14937,
  "toward": 2646,
  "mutual": 8203,
  "indian": 2796,
  "concluding": 16228,
  "limitations": 12546,
  "##\u20ac": 30102,
  "twenty": 3174,
  "weaving": 15360,
  "ngo": 17895,
  "strategically": 23972,
  "steamed": 21734,
  "constitutes": 17367,
  "prohibiting": 26325,
  "##nig": 25518,
  "cigarettes": 15001,
  "bean": 14068,
  "##\u2212": 22543,
  "section": 2930,
  "##plin": 28296,
  "##zz": 13213,
  "auditions": 21732,
  "##dell": 12662,
  "##gang": 24930,
  "destruction": 6215,
  "dev": 16475,
  "voss": 24878,
  "##centric": 22461,
  "ph": 6887,
  "rebranded": 18233,
  "houses": 3506,
  "laird": 21964,
  "##{": 29640,
  "poised": 22303,
  "sector": 4753,
  "weed": 17901,
  "\u1da0": 1512,
  "324": 27234,
  "wet": 4954,
  "loading": 10578,
  "taiwan": 6629,
  "engagements": 20583,
  "##due": 20041,
  "##2": 2475,
  "turrets": 21088,
  "por": 18499,
  "plasma": 12123,
  "jaguar": 16490,
  "streak": 9039,
  "\u00aa": 1076,
  "##oli": 10893,
  "globalization": 24370,
  "fairness": 26935,
  "belarus": 12545,
  "wider": 7289,
  "##53": 22275,
  "knox": 11994,
  "tugged": 10621,
  "parapet": 27372,
  "[unused102]": 107,
  "sava": 28350,
  "freshman": 10452,
  "dropped": 3333,
  "outputs": 27852,
  "sampled": 18925,
  "sloppy": 28810,
  "nouvelle": 25207,
  "ceremony": 5103,
  "chun": 20979,
  "accomplishment": 24718,
  "deadly": 9252,
  "punishment": 7750,
  "##icient": 20132,
  "brakes": 13627,
  "statistics": 6747,
  "emerge": 12636,
  "##\u00e6": 29667,
  "coloring": 22276,
  "exploited": 18516,
  "shortlisted": 21353,
  "blah": 27984,
  "roi": 25223,
  "cited": 6563,
  "##urrent": 29264,
  "##rner": 18703,
  "invited": 4778,
  "research": 2470,
  "small": 2235,
  "articles": 4790,
  "peters": 12420,
  "guess": 3984,
  "wanting": 5782,
  "hopefully": 11504,
  "\u05d4": 1245,
  "hindus": 18221,
  "##ropolis": 23248,
  "acidic": 24171,
  "\u1d65": 1510,
  "cody": 13326,
  "nmi": 22484,
  "social": 2591,
  "accounting": 9529,
  "andhra": 14065,
  "chimed": 27460,
  "birch": 16421,
  "britannia": 24677,
  "skeletal": 20415,
  "cane": 11942,
  "assisted": 7197,
  "shake": 6073,
  "know": 2113,
  "punched": 11696,
  "crowd": 4306,
  "[unused420]": 425,
  "riddle": 21834,
  "nepal": 8222,
  "a2": 22441,
  "[unused392]": 397,
  "335": 24426,
  "##\u09a4": 29898,
  "1621": 27037,
  "replace": 5672,
  "##\u0e22": 29952,
  "stampede": 29375,
  "[unused156]": 161,
  "##\u0679": 29838,
  "##ue": 5657,
  "prestigious": 8919,
  "assist": 6509,
  "justified": 15123,
  "##xt": 18413,
  "##chang": 22305,
  "hell": 3109,
  "[unused84]": 85,
  "predictable": 21425,
  "posse": 25751,
  "magnet": 16853,
  "dixie": 18910,
  "coordinator": 10669,
  "\u00a7": 1073,
  "[unused318]": 323,
  "dramatic": 6918,
  "badge": 10780,
  "mister": 12525,
  "\u06c1": 1308,
  "##tively": 25499,
  "assessments": 20794,
  "litres": 25783,
  "arabian": 13771,
  "header": 20346,
  "dealt": 9411,
  "49": 4749,
  "\u20ac": 1574,
  "##pg": 26952,
  "disciplinary": 17972,
  "spectrum": 8674,
  "crowded": 10789,
  "1905": 5497,
  "linen": 17517,
  "umpire": 20887,
  "outlined": 14801,
  "##\u0909": 29849,
  "1720": 23535,
  "inserted": 12889,
  "stevie": 17458,
  "tobin": 28096,
  "assortment": 26285,
  "[unused533]": 538,
  "developments": 8973,
  "frustrating": 25198,
  "noses": 27518,
  "teammates": 13220,
  "situated": 4350,
  "anthology": 9637,
  "beetle": 7813,
  "analyze": 17908,
  "fischer": 13042,
  "harper": 8500,
  "uppsala": 25720,
  "[unused664]": 669,
  "[unused212]": 217,
  "shit": 4485,
  "vigorously": 22400,
  "abandoned": 4704,
  "jacket": 6598,
  "fridge": 16716,
  "airplay": 15341,
  "hon": 10189,
  "##ece": 26005,
  "receptionist": 23775,
  "helicopters": 12400,
  "lacey": 16355,
  "remix": 6136,
  "grid": 8370,
  "exams": 13869,
  "consumers": 10390,
  "##cure": 23887,
  "##idon": 28201,
  "emerson": 12628,
  "exiled": 14146,
  "##ium": 5007,
  "##\u30a2": 30219,
  "novak": 19580,
  "mud": 8494,
  "\u0259": 1114,
  "[unused35]": 36,
  "foothills": 18455,
  "determined": 4340,
  "jerked": 8245,
  "endangered": 10193,
  "choke": 16769,
  "padres": 21577,
  "spray": 12509,
  "##hunter": 25629,
  "shareholder": 18668,
  "huff": 21301,
  "stu": 24646,
  "##genesis": 23737,
  "##bra": 10024,
  "##bb": 10322,
  "jesus": 4441,
  "scott": 3660,
  "guernsey": 24640,
  "ulster": 11059,
  "debating": 20767,
  "detection": 10788,
  "enrichment": 27226,
  "cale": 21854,
  "reporting": 7316,
  "salle": 18005,
  "[unused655]": 660,
  "nas": 17235,
  "coral": 11034,
  "unpaid": 23850,
  "##00": 8889,
  "your": 2115,
  "soy": 25176,
  "joanna": 15730,
  "salon": 11090,
  "digger": 28661,
  "replica": 15059,
  "##rp": 14536,
  "prostitution": 15016,
  "billie": 18210,
  "8th": 5893,
  "shapiro": 24630,
  "##\u0996": 29890,
  "mcgill": 17919,
  "lumpur": 17761,
  "informal": 11900,
  "nanjing": 21455,
  "broker": 20138,
  "##athing": 22314,
  "1984": 3118,
  "fleets": 25515,
  "inherit": 22490,
  "ingram": 23231,
  "[unused947]": 952,
  "interchange": 8989,
  "##drop": 25711,
  "##nath": 16207,
  "##lusion": 24117,
  "candles": 14006,
  "vocabulary": 16188,
  "fun": 4569,
  "loudly": 9928,
  "staying": 6595,
  "##\u207f": 30080,
  "matrices": 21520,
  "\u0bb0": 1391,
  "chill": 10720,
  "corners": 8413,
  "##iana": 11410,
  "goods": 5350,
  "astrid": 27376,
  "levant": 24485,
  "equations": 11380,
  "##nington": 23155,
  "presumably": 10712,
  "fluent": 19376,
  "topographic": 24254,
  "youtube": 7858,
  "alexis": 13573,
  "##adi": 17190,
  "cocky": 24995,
  "##isk": 20573,
  "creamy": 24519,
  "sterile": 25403,
  "rake": 26008,
  "targeted": 9416,
  "groove": 14100,
  "hoarse": 21221,
  "adele": 17623,
  "venus": 11691,
  "fellows": 13572,
  "##bat": 14479,
  "tracking": 9651,
  "solutions": 7300,
  "travis": 10001,
  "griffiths": 21960,
  "showered": 23973,
  "##\u30c3": 30237,
  "slapping": 22021,
  "dirt": 6900,
  "twenties": 18946,
  "bungalow": 27563,
  "##\u03c2": 19579,
  "reacting": 24868,
  "##west": 19650,
  "majors": 15279,
  "##hair": 26227,
  "availability": 11343,
  "homo": 24004,
  "246": 22376,
  "##lon": 7811,
  "reassure": 24647,
  "bruises": 18438,
  "der": 4315,
  "fowler": 14990,
  "[unused362]": 367,
  "advisors": 18934,
  "athlete": 8258,
  "compliant": 24577,
  "shift": 5670,
  "excluded": 12421,
  "successor": 6332,
  "##ays": 22916,
  "condition": 4650,
  "sorbonne": 28452,
  "newspapers": 6399,
  "\u0985": 1347,
  "merits": 22617,
  "brasil": 21133,
  "\u02e1": 1151,
  "key": 3145,
  "physiological": 19389,
  "##tou": 24826,
  "\u25a0": 1617,
  "\u3061": 1662,
  "##urai": 24804,
  "plunging": 29059,
  "compiled": 9227,
  "wilson": 4267,
  "[unused692]": 697,
  "perth": 9300,
  "introduced": 3107,
  "\u30a1": 1692,
  "at": 2012,
  "\u0630": 1279,
  "verbal": 12064,
  "repairing": 26296,
  "riverside": 12497,
  "rejoined": 14311,
  "boredom": 29556,
  "pee": 21392,
  "extracts": 27059,
  "\u09b9": 1377,
  "##etti": 18319,
  "ernest": 8471,
  "##hri": 26378,
  "beaches": 12212,
  "district": 2212,
  "capturing": 11847,
  "##\u056c": 29773,
  "\u0631": 1280,
  "randy": 9744,
  "dion": 19542,
  "##lian": 15204,
  "[unused10]": 11,
  "oyster": 21480,
  "polymer": 17782,
  "poking": 21603,
  "beaming": 27910,
  "mercenary": 22146,
  "##\u1d35": 30029,
  "albums": 4042,
  "unbearable": 24257,
  "moonlight": 11986,
  "shocking": 16880,
  "engines": 5209,
  "afforded": 22891,
  "##ense": 16700,
  "tooth": 11868,
  "[unused656]": 661,
  "09": 5641,
  "decreases": 17913,
  "burns": 7641,
  "##pling": 14353,
  "miner": 18594,
  "[unused877]": 882,
  "transported": 9687,
  "regency": 15647,
  "precursor": 14988,
  "transparency": 16987,
  "researches": 27338,
  "regina": 12512,
  "##\u5149": 30296,
  "residing": 7154,
  "monetary": 12194,
  "focus": 3579,
  "intel": 13420,
  "icelandic": 14024,
  "pitches": 19299,
  "insults": 23862,
  "self": 2969,
  "reset": 25141,
  "##just": 29427,
  "doom": 12677,
  "dominates": 29532,
  "frazier": 26551,
  "90s": 17233,
  "thee": 14992,
  "##cup": 15569,
  "\u0643": 1293,
  "##ip": 11514,
  "[unused864]": 869,
  "##open": 26915,
  "escaped": 6376,
  "lids": 26122,
  "##26": 23833,
  "155": 14168,
  "wrexham": 27119,
  "human": 2529,
  "mcdowell": 25005,
  "ballast": 28030,
  "##\u2018": 30055,
  "yell": 14315,
  "czech": 5569,
  "##tling": 15073,
  "topics": 7832,
  "writer": 3213,
  "piece": 3538,
  "controlled": 4758,
  "enrique": 15769,
  "cavalry": 5945,
  "shiva": 12535,
  "adams": 5922,
  "##\u0434": 29742,
  "##yes": 23147,
  "nawab": 26543,
  "composing": 16572,
  "8": 1022,
  "ensued": 18942,
  "##inus": 13429,
  "ramon": 12716,
  "ken": 6358,
  "bali": 20222,
  "##41": 23632,
  "cubic": 11919,
  "##hip": 5605,
  "##sw": 26760,
  "1908": 5316,
  "poses": 22382,
  "kurt": 9679,
  "##db": 18939,
  "##cars": 20745,
  "[unused695]": 700,
  "notification": 26828,
  "1955": 3982,
  "chuckles": 26088,
  "bisexual": 22437,
  "epithet": 19626,
  "##cies": 9243,
  "battalion": 4123,
  "duties": 5704,
  "mania": 29310,
  "[unused940]": 945,
  "##ona": 7856,
  "devout": 26092,
  "\u590f": 1808,
  "palais": 22113,
  "facilitate": 10956,
  "\u0437": 1187,
  "lining": 14834,
  "rosy": 26851,
  "##sc": 11020,
  "sainte": 16947,
  "wellness": 25860,
  "##ress": 8303,
  "cause": 3426,
  "hungarians": 24027,
  "kent": 5982,
  "standards": 4781,
  "1745": 21809,
  "211": 19235,
  "sf": 16420,
  "salisbury": 13817,
  "##\u2261": 30134,
  "[unused736]": 741,
  "converge": 28314,
  "thin": 4857,
  "##ttered": 14795,
  "violence": 4808,
  "incomplete": 12958,
  "divers": 18612,
  "anchor": 8133,
  "deep": 2784,
  "\u0bc1": 1397,
  "plump": 26731,
  "barak": 27739,
  "headline": 17653,
  "cypriot": 18543,
  "irwin": 17514,
  "[unused866]": 871,
  "##yu": 10513,
  "cow": 11190,
  "inspector": 7742,
  "##plane": 11751,
  "steaming": 19986,
  "orders": 4449,
  "inside": 2503,
  "tools": 5906,
  "[unused693]": 698,
  "locally": 7246,
  "confused": 5457,
  "contemplated": 23133,
  "voting": 6830,
  "richmond": 6713,
  "litter": 19070,
  "[unused733]": 738,
  "guangzhou": 18693,
  "runners": 7190,
  "applying": 11243,
  "shin": 12277,
  "filmmaking": 24466,
  "irritating": 29348,
  "##uance": 26620,
  "bacterium": 24024,
  "resulting": 4525,
  "cardinal": 7185,
  "lengthy": 12401,
  "advice": 6040,
  "pmid": 20117,
  "##mona": 21781,
  "andersen": 18308,
  "overcame": 26463,
  "worries": 15508,
  "tome": 21269,
  "racetrack": 28435,
  "ravi": 16806,
  "soup": 11350,
  "covent": 29456,
  "mortality": 13356,
  "bakery": 18112,
  "[unused258]": 263,
  "apache": 15895,
  "ur": 24471,
  "cavendish": 23570,
  "adjoining": 13562,
  "##ended": 21945,
  "whispers": 11054,
  "oxidation": 19577,
  "gladys": 22386,
  "vomiting": 24780,
  "[unused290]": 295,
  "sandra": 12834,
  "sous": 27411,
  "phi": 13569,
  "parts": 3033,
  "anal": 20302,
  "hits": 4978,
  "rpg": 22531,
  "##\u30cf": 30244,
  "maguire": 26196,
  "hong": 4291,
  "jamie": 6175,
  "##vation": 21596,
  "##cao": 20808,
  "##bial": 21102,
  "carriages": 17744,
  "safeguard": 28805,
  "[unused777]": 782,
  "##\u0251": 29677,
  "334": 29562,
  "##35": 19481,
  "vargas": 20556,
  "rivera": 14043,
  "smiley": 27420,
  "discusses": 15841,
  "economy": 4610,
  "worldwide": 4969,
  "##clops": 28659,
  "county": 2221,
  "broom": 23528,
  "invalid": 19528,
  "peek": 19043,
  "chapter": 3127,
  "##ck": 3600,
  "promptly": 13364,
  "mia": 8764,
  "##vered": 25896,
  "orphans": 21478,
  "chloride": 19057,
  "infiltrate": 29543,
  "kensington": 17775,
  "##sight": 25807,
  "bacterial": 17341,
  "##ify": 8757,
  "enclave": 25867,
  "phrase": 7655,
  "\u5e73": 1839,
  "development": 2458,
  "criticized": 6367,
  "kaiser": 15676,
  "\u2080": 1547,
  "vehicle": 4316,
  "inhabited": 9613,
  "suicide": 5920,
  "equipped": 6055,
  "barton": 12975,
  "garcia": 7439,
  "sleek": 21185,
  "recruits": 15024,
  "gross": 7977,
  "##dro": 22196,
  "##elia": 13902,
  "mort": 22294,
  "businessmen": 17353,
  "invoked": 24959,
  "factory": 4713,
  "##phonic": 27385,
  "leader": 3003,
  "##sus": 13203,
  "brewery": 12161,
  "##ivated": 21967,
  "nodding": 11863,
  "purpose": 3800,
  "##aghan": 26685,
  "barely": 4510,
  "aleppo": 22973,
  "stern": 8665,
  "strife": 27865,
  "##hoff": 17896,
  "sparkle": 26831,
  "1941": 3874,
  "ce": 8292,
  "kitchen": 3829,
  "##erian": 27549,
  "##\u05d0": 29788,
  "40": 2871,
  "##bain": 29148,
  "##cloth": 23095,
  "##bes": 12681,
  "u2": 23343,
  "tim": 5199,
  "trend": 9874,
  "birmingham": 6484,
  "lock": 5843,
  "retain": 9279,
  "armored": 10612,
  "##crats": 23423,
  "diner": 15736,
  "luck": 6735,
  "##\u6c5f": 30423,
  "pang": 20657,
  "trials": 7012,
  "##45": 19961,
  "##\u2227": 30129,
  "howl": 22912,
  "secretaries": 23660,
  "suns": 19352,
  "carbonate": 26427,
  "##tick": 26348,
  "agile": 29003,
  "aces": 20232,
  "##sco": 9363,
  "simplified": 11038,
  "##tension": 29048,
  "bets": 29475,
  "channel": 3149,
  "[unused219]": 224,
  "peripheral": 15965,
  "cockpit": 13828,
  "vibrating": 24987,
  "1500": 10347,
  "##mount": 20048,
  "\u2229": 1604,
  "\u09af": 1371,
  "##\u208d": 30087,
  "differs": 12980,
  "##ester": 20367,
  "remain": 3961,
  "knelt": 12804,
  "hug": 8549,
  "statement": 4861,
  "pac": 14397,
  "humorous": 14742,
  "[unused698]": 703,
  "studies": 2913,
  "appreciation": 12284,
  "curtis": 9195,
  "incentives": 21134,
  "nolan": 13401,
  "defenders": 12534,
  "remind": 10825,
  "administration": 3447,
  "riaa": 22716,
  "goofy": 27243,
  "rochester": 10541,
  "flesh": 5771,
  "established": 2511,
  "defect": 21262,
  "drowning": 14759,
  "##aling": 21682,
  "cakes": 22619,
  "##elled": 21148,
  "##ounded": 26240,
  "will": 2097,
  "hairs": 13606,
  "box": 3482,
  "colors": 6087,
  "[unused624]": 629,
  "kaufman": 23699,
  "shaped": 5044,
  "diverse": 7578,
  "faintly": 18587,
  "\u4f0a": 1762,
  "tc": 22975,
  "variants": 10176,
  "teaching": 4252,
  "flaps": 26570,
  "paralympic": 17029,
  "sven": 21313,
  "caress": 21753,
  "ib": 21307,
  "##\u2192": 30113,
  "debuting": 24469,
  "backs": 10457,
  "watford": 21740,
  "film": 2143,
  "1840": 8905,
  "[unused925]": 930,
  "##vat": 22879,
  "haryana": 23261,
  "##gai": 23805,
  "##lai": 19771,
  "taller": 12283,
  "tells": 4136,
  "bethel": 19375,
  "smiling": 5629,
  "races": 3837,
  "payment": 7909,
  "brownish": 19437,
  "context": 6123,
  "dominating": 21949,
  "780": 28601,
  "##lick": 25230,
  "\u0441": 1196,
  "prospective": 17464,
  "##tler": 25091,
  "fiona": 13073,
  "prairie": 10996,
  "mcintosh": 29052,
  "[unused813]": 818,
  "skinned": 19937,
  "[unused686]": 691,
  "##rdo": 20683,
  "future": 2925,
  "milo": 20359,
  "responses": 10960,
  "\u661f": 1866,
  "hesse": 16399,
  "broadcast": 3743,
  "defences": 16828,
  "souls": 9293,
  "[unused407]": 412,
  "\u30b9": 1707,
  "negotiations": 7776,
  "compass": 16681,
  "##\u967d": 30499,
  "katherine": 9477,
  "growing": 3652,
  "exemplary": 27792,
  "rowing": 12037,
  "occurs": 5158,
  "shirley": 11280,
  "combination": 5257,
  "areas": 2752,
  "kicking": 10209,
  "patrons": 13497,
  "proprietary": 16350,
  "##\u6797": 30407,
  "286": 24921,
  "canton": 8770,
  "alvarez": 16309,
  "growth": 3930,
  "sunderland": 15518,
  "nhl": 7097,
  "hassan": 13222,
  "##der": 4063,
  "##tr": 16344,
  "observe": 11949,
  "fight": 2954,
  "picasso": 22457,
  "##bbon": 27684,
  "destroyed": 3908,
  "gazing": 16448,
  "gm": 13938,
  "agency": 4034,
  "ascent": 16354,
  "pa": 6643,
  "practical": 6742,
  "[unused166]": 171,
  "nexus": 26041,
  "radiated": 23000,
  "backstroke": 28373,
  "miguel": 8374,
  "cartwright": 27513,
  "analyzed": 16578,
  "simulcast": 20525,
  "saturdays": 18860,
  "antoinette": 28429,
  "panorama": 23652,
  "##otide": 26601,
  "recited": 24843,
  "2010s": 26817,
  "resides": 11665,
  "lazy": 13971,
  "portion": 4664,
  "purchase": 5309,
  "exaggerated": 16903,
  "census": 2883,
  "rockies": 22366,
  "1932": 4673,
  "gotham": 22814,
  "installment": 18932,
  "dipping": 23427,
  "ck": 23616,
  "ein": 16417,
  "##chenko": 25872,
  "##eration": 16754,
  "\u307f": 1678,
  "diego": 5277,
  "particles": 9309,
  "##baldi": 28807,
  "womb": 26578,
  "##\u092a": 29864,
  "weightlifting": 29305,
  "significance": 7784,
  "plotting": 20699,
  "[unused291]": 296,
  "chapman": 11526,
  "remedy": 19519,
  "crucial": 10232,
  "independently": 9174,
  "210": 12875,
  "1919": 4529,
  "\u795e": 1925,
  "jumps": 14523,
  "roger": 5074,
  "wheel": 5217,
  "\u5317": 1781,
  "achieve": 6162,
  "sixteenth": 14683,
  "kinds": 7957,
  "wore": 5078,
  "mongolia": 13906,
  "wavelengths": 29263,
  "relay": 8846,
  "int": 20014,
  "ins": 16021,
  "switching": 11991,
  "sober": 17358,
  "rushing": 8375,
  "mcmillan": 27436,
  "bites": 15424,
  "waistband": 27553,
  "brennan": 13962,
  "##cek": 25368,
  "desktop": 15363,
  "##\u6771": 30405,
  "hate": 5223,
  "players": 2867,
  "mans": 16042,
  "warmth": 8251,
  "drag": 8011,
  "##vish": 24968,
  "mahmud": 25886,
  "mead": 19855,
  "dam": 5477,
  "platoon": 13799,
  "poverty": 5635,
  "\u21d2": 1591,
  "crimean": 20516,
  "opted": 12132,
  "booth": 9065,
  "orlando": 10108,
  "dangling": 18737,
  "mlb": 10901,
  "move": 2693,
  "upgrade": 12200,
  "##4": 2549,
  "##cino": 21081,
  "logistical": 28961,
  "##bbled": 12820,
  "tyne": 17742,
  "##tangle": 23395,
  "contender": 20127,
  "##sha": 7377,
  "rooftop": 23308,
  "revered": 23886,
  "alignment": 12139,
  "nautical": 11339,
  "meaningful": 15902,
  "calling": 4214,
  "housekeeper": 22583,
  "csa": 27804,
  "pussy": 22418,
  "##\u05e9": 29812,
  "##\u221e": 30128,
  "[unused164]": 169,
  "somerville": 27209,
  "##iography": 26535,
  "m\u00b2": 7030,
  "##a1": 27717,
  "turkic": 22926,
  "##\u209a": 30097,
  "struggled": 6915,
  "lc": 29215,
  "##burg": 4645,
  "dolly": 19958,
  "[unused449]": 454,
  "##\u1d30": 30028,
  "obligations": 14422,
  "faction": 10233,
  "succeeding": 13034,
  "sv": 17917,
  "memoir": 12558,
  "ghosts": 11277,
  "[unused299]": 304,
  "varieties": 9903,
  "\u201c": 1523,
  "rap": 9680,
  "driving": 4439,
  "educate": 16957,
  "\u30e9": 1731,
  "##dant": 28210,
  "emphasizes": 20618,
  "quite": 3243,
  "albanian": 9408,
  "##rks": 19987,
  "nightstand": 23135,
  "trip": 4440,
  "##scopic": 24895,
  "kun": 28919,
  "elections": 3864,
  "cooler": 14976,
  "collaborated": 8678,
  "bubbling": 25054,
  "painfully": 16267,
  "\u00f8": 1100,
  "##yst": 27268,
  "fished": 26281,
  "1993": 2857,
  "bouncing": 16361,
  "[unused681]": 686,
  "patty": 17798,
  "lifelong": 13506,
  "asserted": 13647,
  "attracts": 17771,
  "tactical": 8608,
  "rabbit": 10442,
  "##fighter": 20027,
  "##wine": 21924,
  "panicked": 16035,
  "##\u30ed": 30261,
  "lodged": 20451,
  "##dent": 16454,
  "realizing": 9301,
  "1710": 23841,
  "nasa": 9274,
  "oversees": 22558,
  "corporate": 5971,
  "shots": 7171,
  "seminal": 20603,
  "asked": 2356,
  "dance": 3153,
  "##sity": 17759,
  "news": 2739,
  "derivatives": 16942,
  "woodlands": 19268,
  "##\ufb01": 30510,
  "##graphs": 27341,
  "1946": 3918,
  "debbie": 16391,
  "mora": 26821,
  "gossip": 13761,
  "[unused204]": 209,
  "mass": 3742,
  "##0": 2692,
  "reformed": 9114,
  "honorable": 13556,
  "beau": 17935,
  "##ph": 8458,
  "chloe": 9318,
  "expert": 6739,
  "egyptian": 6811,
  "territories": 6500,
  "##anza": 16076,
  "use": 2224,
  "milano": 21613,
  "wilder": 18463,
  "interceptions": 18387,
  "##cap": 17695,
  "dragons": 8626,
  "preseason": 20038,
  "magnus": 10045,
  "##under": 20824,
  "[unused64]": 65,
  "newell": 28052,
  "stroke": 6909,
  "chester": 8812,
  "##rmin": 27512,
  "seine": 16470,
  "excess": 9987,
  "grasses": 21620,
  "sterling": 10933,
  "saul": 16897,
  "reviewed": 8182,
  "giggling": 21783,
  "ordinary": 6623,
  "praising": 15838,
  "weights": 15871,
  "thorough": 16030,
  "review": 3319,
  "##lizer": 28863,
  "wholly": 12590,
  "\u0635": 1284,
  "##wright": 26460,
  "reagan": 11531,
  "wiley": 18825,
  "martina": 23508,
  "##eye": 17683,
  "recognize": 6807,
  "limits": 6537,
  "bose": 21299,
  "##tia": 10711,
  "shepard": 22189,
  "triggers": 27099,
  "ammonia": 25874,
  "diagram": 16403,
  "reliability": 15258,
  "##lette": 27901,
  "##ar": 2906,
  "cliff": 7656,
  "disagreement": 18185,
  "##gra": 17643,
  "bihar": 16178,
  "vicky": 22845,
  "naturalist": 19176,
  "##apes": 29040,
  "cultivation": 13142,
  "##\u5948": 30340,
  "elite": 7069,
  "spans": 14798,
  "[unused330]": 335,
  "##esthesia": 25344,
  "inequality": 16440,
  "claiming": 6815,
  "##pad": 15455,
  "cyprus": 9719,
  "ian": 4775,
  "vanish": 25887,
  "legislative": 4884,
  "joshua": 9122,
  "marius": 20032,
  "engaging": 11973,
  "shooter": 13108,
  "recounted": 22906,
  "##bn": 24700,
  "designing": 12697,
  "deserted": 12768,
  "reprint": 25364,
  "incapable": 19907,
  "##bour": 25127,
  "##buck": 24204,
  "prince": 3159,
  "storing": 23977,
  "dusseldorf": 18160,
  "##ground": 16365,
  "facilitating": 25505,
  "##ios": 10735,
  "operated": 3498,
  "respectively": 4414,
  "sylvia": 13378,
  "geese": 28519,
  "##pressive": 27484,
  "discs": 15303,
  "rang": 8369,
  "marcos": 14810,
  "cumbria": 25559,
  "mechanic": 15893,
  "clipped": 20144,
  "##tal": 9080,
  "cartoons": 13941,
  "1770": 17711,
  "terminology": 18444,
  "##holz": 28094,
  "[unused408]": 413,
  "##bbling": 15343,
  "wilbur": 26151,
  "completion": 6503,
  "##mon": 8202,
  "reflections": 16055,
  "##rut": 22134,
  "[unused369]": 374,
  "1806": 12518,
  "##\u79cb": 30455,
  "##\u5409": 30319,
  "marginal": 14785,
  "##more": 5974,
  "##ignment": 24838,
  "##ula": 7068,
  "cement": 11297,
  "downtown": 5116,
  "mitsubishi": 19695,
  "amadeus": 27185,
  "planners": 27155,
  "privileged": 21598,
  "gland": 25320,
  "27": 2676,
  "##nging": 22373,
  "1861": 6863,
  "aerial": 9682,
  "##erland": 22492,
  "jimenez": 22790,
  "inhibition": 23586,
  "amy": 6864,
  "chemicals": 12141,
  "lamb": 12559,
  "\u092d": 1330,
  "##patient": 24343,
  "adulthood": 20480,
  "modernization": 20181,
  "narrow": 4867,
  "entertained": 21474,
  "handheld": 27291,
  "\u5929": 1811,
  "[unused492]": 497,
  "sonia": 16244,
  "sets": 4520,
  "mobility": 12969,
  "ezekiel": 28743,
  "pixels": 27725,
  "swam": 16849,
  "sequencing": 24558,
  "[unused667]": 672,
  "toro": 23790,
  "retreating": 17512,
  "pendulum": 28300,
  "comprise": 15821,
  "pact": 14790,
  "walsall": 29054,
  "[unused188]": 193,
  "microphone": 15545,
  "masked": 16520,
  "pipe": 8667,
  "##year": 29100,
  "##etano": 28752,
  "[unused848]": 853,
  "khalifa": 27925,
  "cbc": 13581,
  "change": 2689,
  "ferreira": 26135,
  "casualty": 19844,
  "kathryn": 20484,
  "burials": 23109,
  "ripple": 24644,
  "\u0e07": 1410,
  "nme": 23770,
  "antarctica": 12615,
  "sadly": 13718,
  "newmarket": 22489,
  "huts": 23326,
  "pottery": 11378,
  "excursion": 26144,
  "wand": 23967,
  "##pati": 24952,
  "types": 4127,
  "##ntation": 23436,
  "latvian": 14698,
  "thursday": 9432,
  "dan": 4907,
  "yeomanry": 26883,
  "hanna": 10579,
  "\u043b": 1190,
  "muscle": 6740,
  "fourier": 26899,
  "mv": 19842,
  "exiting": 22371,
  "[unused627]": 632,
  "chin": 5413,
  "\u05da": 1251,
  "dissent": 24116,
  "night": 2305,
  "victorious": 13846,
  "prompting": 15870,
  "##vita": 28403,
  "##rogen": 22991,
  "allowing": 4352,
  "##\u0272": 29689,
  "bassett": 28303,
  "aegean": 27198,
  "extant": 12905,
  "ono": 21058,
  "optimization": 20600,
  "imaginary": 15344,
  "lao": 18805,
  "\u0e40": 1423,
  "cabin": 6644,
  "##oun": 23709,
  "briggs": 15487,
  "accredited": 11459,
  "wrapped": 5058,
  "straight": 3442,
  "hurts": 13403,
  "graders": 23256,
  "bravo": 17562,
  "[unused971]": 976,
  "folk": 5154,
  "[unused811]": 816,
  "monitor": 8080,
  "nagasaki": 27107,
  "ryu": 19367,
  "noel": 10716,
  "emptiness": 23397,
  "holocaust": 11513,
  "touches": 12817,
  "meath": 26856,
  "dusty": 12727,
  "25th": 10965,
  "hamish": 28859,
  "casket": 25864,
  "laude": 21602,
  "1880": 6756,
  "tennis": 5093,
  "honesty": 16718,
  "##vius": 26055,
  "jackets": 17764,
  "marrying": 13516,
  "investigating": 11538,
  "celtics": 23279,
  "successors": 18530,
  "taking": 2635,
  "intelligent": 9414,
  "giacomo": 22873,
  "continues": 4247,
  "journalists": 8845,
  "thousands": 5190,
  "##uating": 24133,
  "funny": 6057,
  "ahead": 3805,
  "shows": 3065,
  "sapphire": 21965,
  "byrne": 14928,
  "iran": 4238,
  "impatient": 17380,
  "creations": 20677,
  "lena": 14229,
  "supervisor": 12366,
  "tracing": 16907,
  "noticed": 4384,
  "implicit": 24655,
  "1635": 27426,
  "shook": 3184,
  "apparel": 26278,
  "alloys": 28655,
  "##mere": 13759,
  "700": 6352,
  "cracked": 9630,
  "elector": 20374,
  "[unused484]": 489,
  "inaugural": 7725,
  "levels": 3798,
  "enhance": 11598,
  "sounding": 9391,
  "seen": 2464,
  "##\u2660": 30150,
  "alumnus": 19678,
  "metres": 3620,
  "declared": 4161,
  "coldly": 24745,
  "mix": 4666,
  "precision": 11718,
  "en": 4372,
  "pencil": 14745,
  "##\u0255": 29680,
  "roles": 4395,
  "accordingly": 11914,
  "##mberg": 29084,
  "##flies": 24019,
  "arrondissement": 20522,
  "##em": 6633,
  "synonymous": 22594,
  "borrowing": 23733,
  "incorrectly": 19721,
  "focal": 15918,
  "\u3048": 1649,
  "sing": 6170,
  "maximize": 25845,
  "##ach": 6776,
  "notwithstanding": 26206,
  "\u02d0": 1150,
  "##\u6751": 30404,
  "##onic": 12356,
  "decimal": 26066,
  "violations": 13302,
  "religion": 4676,
  "##\u056f": 29774,
  "pia": 24624,
  "1550": 26245,
  "somebody": 8307,
  "hears": 14994,
  "crete": 19111,
  "\u11a8": 1484,
  "##fall": 13976,
  "##lish": 13602,
  "crusade": 16282,
  "yuri": 14331,
  "sensitivity": 14639,
  "pledge": 16393,
  "[unused970]": 975,
  "##ws": 9333,
  "dad": 3611,
  "cruz": 8096,
  "yacht": 12187,
  "\u221a": 1600,
  "fencing": 15962,
  "##isman": 20257,
  "booming": 24716,
  "uptown": 28539,
  "tasks": 8518,
  "populated": 10357,
  "marxist": 15511,
  "##\u6ca2": 30424,
  "1823": 12522,
  "touchdown": 7921,
  "volcanoes": 23694,
  "##tley": 18492,
  "provincial": 4992,
  "motorway": 13119,
  "##dit": 23194,
  "##lini": 22153,
  "ep": 4958,
  "sbs": 21342,
  "favored": 12287,
  "##dev": 24844,
  "knighted": 19572,
  "galley": 27124,
  "nelson": 5912,
  "na": 6583,
  "kanye": 29270,
  "fontaine": 25749,
  "posts": 8466,
  "creditors": 23112,
  "##ation": 3370,
  "##ptic": 20746,
  "japanese": 2887,
  "feral": 18993,
  "\u1166": 1473,
  "jail": 7173,
  "[unused101]": 106,
  "kinetic": 20504,
  "bestseller": 24304,
  "minerva": 27383,
  "1962": 3705,
  "raft": 21298,
  "practices": 6078,
  "superfamily": 24169,
  "##\u793a": 30449,
  "henson": 27227,
  "redesign": 25136,
  "fours": 23817,
  "90": 3938,
  "major": 2350,
  "asserts": 19514,
  "##\u062d": 29820,
  "under": 2104,
  "concentrated": 8279,
  "concern": 5142,
  "##yn": 6038,
  "franciscan": 19420,
  "corps": 3650,
  "##\u751f": 30436,
  "basha": 26074,
  "##ster": 6238,
  "maternity": 23676,
  "located": 2284,
  "##lis": 6856,
  "groups": 2967,
  "whitley": 27007,
  "welfare": 7574,
  "overdose": 26641,
  "quan": 24110,
  "dover": 13985,
  "##gers": 15776,
  "faces": 5344,
  "raced": 8255,
  "kite": 20497,
  "##bedo": 28759,
  "siege": 6859,
  "##anov": 25417,
  "finest": 10418,
  "kimberley": 25004,
  "hurdle": 27630,
  "douglas": 5203,
  "conducts": 17976,
  "##estinal": 19126,
  "serve": 3710,
  "##hurst": 10510,
  "torque": 15894,
  "junction": 5098,
  "raked": 22438,
  "hewitt": 19482,
  "##tte": 4674,
  "rig": 19838,
  "contradictory": 27894,
  "##num": 19172,
  "malawi": 18137,
  "##bine": 16765,
  "\u674e": 1877,
  "##nier": 14862,
  "chasing": 11777,
  "obvious": 5793,
  "sailor": 11803,
  "##sle": 25016,
  "[unused357]": 362,
  "capitalism": 16498,
  "milan": 6954,
  "chico": 22136,
  "##iens": 24836,
  "penny": 10647,
  "grinding": 16153,
  "tactics": 9887,
  "##lich": 18337,
  "sports": 2998,
  "santa": 4203,
  "\u10dc": 1449,
  "lacked": 10858,
  "heather": 9533,
  "provoked": 19157,
  "##post": 19894,
  "tray": 11851,
  "244": 24194,
  "chances": 9592,
  "mid": 3054,
  "[unused67]": 68,
  "break": 3338,
  "##pio": 22071,
  "kay": 10905,
  "apostles": 19178,
  "folds": 15439,
  "somalia": 14717,
  "swap": 19948,
  "govern": 21208,
  "etat": 17997,
  "##terol": 27833,
  "coal": 5317,
  "entirely": 4498,
  "midwest": 13608,
  "[unused734]": 739,
  "##\u590f": 30334,
  "path": 4130,
  "eventually": 2776,
  "endorsement": 20380,
  "appeared": 2596,
  "odi": 21045,
  "hindu": 7560,
  "donor": 15009,
  "\u79c0": 1928,
  "rum": 19379,
  "augusta": 13635,
  "counterattack": 27835,
  "redevelopment": 15582,
  "algerian": 16953,
  "##cken": 19766,
  "ira": 11209,
  "eminent": 14953,
  "placement": 11073,
  "energies": 19320,
  "staircase": 10714,
  "bates": 11205,
  "atrium": 26204,
  "affect": 7461,
  "##breaker": 21204,
  "\u30ed": 1735,
  "wanda": 20848,
  "tropical": 5133,
  "compensated": 29258,
  "six": 2416,
  "##bold": 27495,
  "##ista": 11921,
  "antrim": 24142,
  "##ari": 8486,
  "assassinated": 16370,
  "brooks": 8379,
  "[unused583]": 588,
  "aspects": 5919,
  "##atus": 15590,
  "##tsa": 27110,
  "ron": 6902,
  "ya": 8038,
  "realizes": 10919,
  "ladies": 6456,
  "##mark": 10665,
  "squad": 4686,
  "attempting": 7161,
  "##\u8033": 30463,
  "\u82f1": 1941,
  "stupid": 5236,
  "celebrity": 8958,
  "66": 5764,
  "##hing": 12053,
  "return": 2709,
  "faulkner": 25109,
  "pasadena": 18880,
  "6000": 25961,
  "##lder": 16502,
  "stall": 13498,
  "trembled": 14823,
  "student": 3076,
  "destinations": 14345,
  "hatch": 11300,
  "1750": 18171,
  "quota": 20563,
  "rob": 6487,
  "inched": 25330,
  "aidan": 12643,
  "soil": 5800,
  "bit": 2978,
  "comparative": 12596,
  "##ups": 22264,
  "restrictions": 9259,
  "<": 1026,
  "distract": 15886,
  "[unused36]": 37,
  "214": 19936,
  "regards": 12362,
  "[unused280]": 285,
  "##lb": 20850,
  "di": 4487,
  "##iro": 9711,
  "families": 2945,
  "tilting": 21788,
  "##berto": 21201,
  "quo": 22035,
  "dfb": 28894,
  "paler": 24489,
  "[unused228]": 233,
  "inference": 28937,
  "uber": 19169,
  "monk": 8284,
  "pads": 19586,
  "unusually": 12890,
  "\u307b": 1676,
  "cartel": 21680,
  "##founded": 21001,
  "primal": 22289,
  "seldom": 15839,
  "louisa": 15731,
  "circulation": 9141,
  "sacks": 14918,
  "##uni": 19496,
  "loved": 3866,
  "fear": 3571,
  "inspected": 20456,
  "prop": 17678,
  "troop": 10123,
  "indicated": 5393,
  "leaves": 3727,
  "po": 13433,
  "seafood": 23621,
  "##utation": 26117,
  "immunity": 15403,
  "##iver": 16402,
  "cherokee": 13796,
  "franchise": 6329,
  "earl": 4656,
  "maynard": 22130,
  "sponsorship": 12026,
  "expo": 16258,
  "##pool": 16869,
  "margaret": 5545,
  "almond": 26011,
  "eagle": 6755,
  "jaya": 24120,
  "##smo": 25855,
  "da": 4830,
  "itv": 11858,
  "ministerial": 18645,
  "##ary": 5649,
  "client": 7396,
  "gear": 6718,
  "[unused83]": 84,
  "wade": 10653,
  "[unused498]": 503,
  "[unused1]": 2,
  "##lington": 18722,
  "1100": 22096,
  "1705": 29326,
  "beasts": 15109,
  "complied": 26946,
  "encounters": 11340,
  "cesare": 26708,
  "37th": 23027,
  "lissa": 20244,
  "skimmed": 28862,
  "baronetcy": 25071,
  "physically": 8186,
  "apollo": 9348,
  "benjamin": 6425,
  "slap": 14308,
  "novel": 3117,
  "ether": 28855,
  "##hiti": 27798,
  "##ii": 6137,
  "##ision": 19969,
  "gently": 5251,
  "##cing": 6129,
  "exhibiting": 22922,
  "eden": 10267,
  "\u0905": 1311,
  "hawaii": 7359,
  "[unused131]": 136,
  "kentucky": 5612,
  "bonds": 9547,
  "##tagram": 23091,
  "singled": 25369,
  "signaling": 14828,
  ">": 1028,
  "squirrel": 18197,
  "spots": 7516,
  "armies": 8749,
  "##tlement": 24007,
  "internacional": 27607,
  "##suke": 16867,
  "overheard": 20443,
  "268": 25143,
  "\u0446": 1201,
  "verity": 22178,
  "landon": 20642,
  "hemisphere": 14130,
  "##some": 14045,
  "exhibitions": 8596,
  "skeletons": 24365,
  "[unused556]": 561,
  "longer": 2936,
  "whorls": 25637,
  "##\u10e1": 29988,
  "\u0629": 1272,
  "eta": 27859,
  "stab": 17079,
  "guarantee": 11302,
  "possesses": 14882,
  "strangely": 13939,
  "lungs": 8948,
  "##ndo": 15482,
  "##ef": 12879,
  "arid": 17511,
  "sylvester": 20016,
  "moaned": 12557,
  "tucker": 9802,
  "##koff": 26126,
  "##ometric": 28993,
  "modules": 14184,
  "rye": 20926,
  "strategy": 5656,
  "##bib": 28065,
  "##wara": 11872,
  "##\u209c": 30099,
  "tanned": 25973,
  "stay": 2994,
  "brewing": 16005,
  "disciplined": 28675,
  "##\u300d": 30168,
  "thinner": 23082,
  "jerk": 12181,
  "[unused779]": 784,
  "adventurer": 29506,
  "lola": 15137,
  "mack": 11349,
  "##less": 3238,
  "query": 23032,
  "revival": 6308,
  "supplements": 25654,
  "policeman": 14460,
  "healthcare": 9871,
  "airlift": 20019,
  "wink": 16837,
  "counter": 4675,
  "loomed": 24358,
  "bono": 23648,
  "informs": 15670,
  "cheered": 25471,
  "wax": 13844,
  "primarily": 3952,
  "##fire": 10273,
  "crumbling": 24827,
  "simulations": 24710,
  "gate": 4796,
  "##\u0bb3": 29929,
  "\u090f": 1314,
  "parlor": 18746,
  "pregnancy": 10032,
  "elle": 15317,
  "##\u092d": 29866,
  "##\u0436": 29743,
  "fairly": 7199,
  "bigger": 7046,
  "##vana": 27313,
  "seekers": 24071,
  "frankie": 12784,
  "tiled": 26510,
  "biting": 12344,
  "##vial": 18660,
  "##\u0564": 29769,
  "patient": 5776,
  "geoffrey": 11023,
  "##wark": 24298,
  "consist": 8676,
  "richard": 2957,
  "featured": 2956,
  "risked": 22374,
  "haste": 24748,
  "42nd": 21373,
  "\u099c": 1358,
  "oxygen": 7722,
  "acre": 7456,
  "[unused750]": 755,
  "viewed": 7021,
  "drawer": 13065,
  "fling": 27655,
  "modifying": 29226,
  "splinter": 27546,
  "##tology": 23479,
  "[unused879]": 884,
  "##lassified": 24938,
  "scenarios": 16820,
  "nadu": 10703,
  "centred": 16441,
  "saxe": 24937,
  "verandah": 26153,
  "account": 4070,
  "bottom": 3953,
  "chu": 14684,
  "seamus": 24993,
  "hq": 16260,
  "three": 2093,
  "mistress": 10414,
  "transfer": 4651,
  "idiot": 10041,
  "symbolism": 22050,
  "butt": 10007,
  "raided": 18784,
  "shine": 12342,
  "separately": 10329,
  "gustav": 13430,
  "cadiz": 26342,
  "rep": 16360,
  "explored": 10641,
  "soon": 2574,
  "simplicity": 17839,
  "lone": 10459,
  "##pse": 29251,
  "\u6d77": 1902,
  "scholastic": 24105,
  "\u0274": 1124,
  "dilemma": 21883,
  "1850s": 16488,
  "impose": 17607,
  "provider": 10802,
  "leith": 29011,
  "##n": 2078,
  "siberia": 16881,
  "##hara": 11077,
  "motorcycle": 9055,
  "advising": 23875,
  "peanut": 21443,
  "playful": 18378,
  "ashby": 28729,
  "hip": 5099,
  "wrestle": 25579,
  "##yl": 8516,
  "leases": 29597,
  "legislature": 6372,
  "[unused646]": 651,
  "pearce": 19560,
  "eduardo": 14846,
  "haven": 4033,
  "hartford": 13381,
  "\u5b97": 1821,
  "maternal": 11062,
  "duck": 9457,
  "nl": 17953,
  "##city": 12972,
  "##sche": 22842,
  "derek": 7256,
  "##edly": 26207,
  "##\u6728": 30401,
  "week": 2733,
  "boxing": 8362,
  "##zell": 24085,
  "glamour": 22439,
  "shade": 8703,
  "preached": 21491,
  "abbreviated": 12066,
  "chefs": 27828,
  "##rds": 17811,
  "ankara": 20312,
  "56": 5179,
  "montpellier": 28153,
  "miss": 3335,
  "most": 2087,
  "fought": 4061,
  "##kar": 6673,
  "retribution": 25928,
  "midfielder": 8850,
  "solos": 24339,
  "##rew": 15603,
  "exile": 8340,
  "##amp": 16613,
  "commencing": 25819,
  "dessert": 18064,
  "pinch": 18392,
  "##ball": 7384,
  "crafted": 19275,
  "##ages": 13923,
  "compilations": 22754,
  "sophomore": 13758,
  "yankees": 11081,
  "mapping": 12375,
  "faa": 17032,
  "##igh": 18377,
  "mindanao": 23669,
  "seasons": 3692,
  "dumb": 12873,
  "lower": 2896,
  "explorer": 10566,
  "shed": 8328,
  "##caster": 25490,
  "complexes": 15420,
  "chimney": 17321,
  "##nsed": 27730,
  "uniformly": 27423,
  "dunedin": 22020,
  "pollard": 25513,
  "scenic": 12916,
  "guerra": 24698,
  "simply": 3432,
  "seventies": 26232,
  "syriac": 24109,
  "genie": 22519,
  "completes": 28123,
  "ios": 16380,
  "reproduced": 22296,
  "covenant": 16077,
  "hydraulic": 14761,
  "jays": 18930,
  "spiked": 25362,
  "\u30b5": 1705,
  "programs": 3454,
  "##tter": 12079,
  "\u00b2": 1082,
  "grimly": 22561,
  "receptions": 16466,
  "[unused958]": 963,
  "drugged": 25483,
  "paste": 19351,
  "helens": 24074,
  "wednesday": 9317,
  "lagoon": 15825,
  "www": 7479,
  "\u7530": 1911,
  "idf": 24011,
  "##nr": 16118,
  "hoc": 21929,
  "freeing": 22198,
  "admit": 6449,
  "karate": 16894,
  "blossoms": 28766,
  "providence": 11293,
  "##iere": 21253,
  "environmental": 4483,
  "chains": 8859,
  "lb": 6053,
  "sweet": 4086,
  "bullet": 7960,
  "investigates": 28062,
  "shoe": 10818,
  "socks": 14829,
  "turkmenistan": 25432,
  "\u044e": 1209,
  "cicero": 23080,
  "hymns": 17777,
  "horrible": 9202,
  "firearm": 23646,
  "gills": 29468,
  "sheep": 8351,
  "hazard": 15559,
  "shrink": 22802,
  "jewels": 15565,
  "swept": 7260,
  "##\u1167": 30010,
  "nfl": 5088,
  "masjid": 27779,
  "jiang": 20613,
  "stumble": 21811,
  "vibrations": 22755,
  "##van": 6212,
  "flotilla": 17150,
  "lord": 2935,
  "##cave": 27454,
  "samoa": 15075,
  "brothers": 3428,
  "inspirational": 28676,
  "[unused75]": 76,
  "##hart": 10686,
  "##lights": 15733,
  "fried": 13017,
  "1892": 6527,
  "[unused762]": 767,
  "targets": 7889,
  "##gno": 26745,
  "colossal": 29523,
  "legislatures": 27977,
  "\u0430": 1180,
  "william": 2520,
  "interfaces": 19706,
  "steering": 9602,
  "opener": 16181,
  "bypassed": 27539,
  "tunnels": 10633,
  "quarterfinal": 29380,
  "subsidies": 21762,
  "1820": 11102,
  "tracey": 25984,
  "##cr": 26775,
  "##he": 5369,
  "##\u0294": 29705,
  "rf": 21792,
  "read": 3191,
  "connolly": 21018,
  "1756": 22370,
  "hospitalized": 24735,
  "remington": 25282,
  "##efined": 28344,
  "##inen": 21820,
  "ignoring": 9217,
  "##bit": 16313,
  "goalscorer": 28602,
  "cultivated": 13237,
  "evidenced": 21328,
  "centenary": 17705,
  "nighttime": 26031,
  "publicized": 24928,
  "joanne": 23459,
  "##truct": 18300,
  "obsolete": 15832,
  "strewn": 25259,
  "bharatiya": 24243,
  "\u00a35": 27813,
  "1650": 21875,
  "handgun": 28497,
  "##kt": 25509,
  "[unused373]": 378,
  "##inated": 15833,
  "##hetic": 20086,
  "activists": 10134,
  "encourage": 8627,
  "extinguished": 27705,
  "vladimir": 8748,
  "pope": 4831,
  "din": 11586,
  "##sef": 20106,
  "broughton": 29187,
  "##grave": 12830,
  "squinted": 17425,
  "##walker": 26965,
  "##ried": 11998,
  "earthly": 29520,
  "passive": 13135,
  "clement": 12223,
  "181": 18596,
  "deity": 12764,
  "lori": 18669,
  "user": 5310,
  "##cture": 14890,
  "##dled": 20043,
  "##ocytes": 28788,
  "##ont": 12162,
  "cortex": 17132,
  "arenas": 26434,
  "timing": 10984,
  "##quel": 22197,
  "08": 5511,
  "truce": 18415,
  "[unused803]": 808,
  "48": 4466,
  "##\u03c0": 29731,
  "shootout": 18297,
  "jogged": 27812,
  "1989": 2960,
  "##awa": 10830,
  "80s": 16002,
  "combined": 4117,
  "gain": 5114,
  "difficulty": 7669,
  "suggest": 6592,
  "fran": 23151,
  "enforcement": 7285,
  "nichols": 15746,
  "pet": 9004,
  "timer": 25309,
  "control": 2491,
  "middleton": 17756,
  "widening": 17973,
  "vo": 29536,
  "##urities": 29366,
  "drunk": 7144,
  "hawthorne": 23440,
  "##\u305b": 30185,
  "genealogical": 29606,
  "##block": 23467,
  "entrepreneur": 10670,
  "##vot": 22994,
  "aggregate": 9572,
  "oliver": 6291,
  "ss": 7020,
  "donated": 6955,
  "\u5185": 1773,
  "20s": 27074,
  "absorb": 16888,
  "blackburn": 13934,
  "convincing": 13359,
  "2000": 2456,
  "rarely": 6524,
  "nairobi": 21124,
  "##riety": 27840,
  "##\u0987": 29885,
  "receives": 8267,
  "crawford": 10554,
  "congresses": 24460,
  "victor": 5125,
  "[unused480]": 485,
  "competes": 14190,
  "\u2085": 1552,
  "curt": 20099,
  "coalition": 6056,
  "stepped": 3706,
  "porto": 13809,
  "plumage": 28764,
  "relaunched": 26391,
  "##band": 12733,
  "districts": 4733,
  "compton": 18592,
  "\u0458": 1214,
  "entertaining": 14036,
  "1876": 7326,
  "corbett": 24119,
  "actress": 3883,
  "##lifting": 26644,
  "schooling": 14118,
  "stalk": 23899,
  "##her": 5886,
  "##cine": 16567,
  "bedrock": 28272,
  "doors": 4303,
  "vaughan": 14461,
  "##vas": 12044,
  "##\u0f60": 29969,
  "##\u2092": 30091,
  "##ppe": 21512,
  "hungry": 7501,
  "##llah": 18599,
  "showcases": 27397,
  "byu": 23471,
  "##ensburg": 28812,
  "juveniles": 25406,
  "friday": 5958,
  "guidance": 8606,
  "##q": 4160,
  "jon": 6285,
  "potential": 4022,
  "##oom": 17650,
  "driver": 4062,
  "##\u043d": 18947,
  "##rg": 10623,
  "##its": 12762,
  "dozens": 9877,
  "wen": 19181,
  "##r": 2099,
  "professional": 2658,
  "sb": 24829,
  "underwood": 22751,
  "immigrated": 17352,
  "colony": 5701,
  "barker": 12852,
  "hurricane": 7064,
  "aberdeen": 12080,
  "minneapolis": 11334,
  "donna": 10972,
  "efficient": 8114,
  "augustine": 14060,
  "##ties": 7368,
  "barked": 17554,
  "catering": 18640,
  "##\u10d3": 29977,
  "\u0917": 1317,
  "1620": 24259,
  "compassionate": 29353,
  "\u30ad": 1701,
  "##nsor": 29577,
  "##sque": 17729,
  "##proof": 18907,
  "##\u056b": 29772,
  "\u05db": 1252,
  "dancer": 8033,
  "economically": 15318,
  "sequences": 10071,
  "design": 2640,
  "popping": 20095,
  "ensure": 5676,
  "sebastien": 28328,
  "prequel": 28280,
  "##uss": 17854,
  "foods": 9440,
  "jocelyn": 23786,
  "thumb": 7639,
  "##bella": 21700,
  "hart": 7530,
  "[unused485]": 490,
  "##rson": 17753,
  "gunnery": 27919,
  "modes": 11583,
  "##\u05e4": 29807,
  "##ides": 8621,
  "dump": 15653,
  "##saka": 29289,
  "dusk": 18406,
  "pawn": 19175,
  "\u1d56": 1504,
  "\uff0c": 1989,
  "burgundy": 18383,
  "\u06cc": 1309,
  "meiji": 23214,
  "brian": 4422,
  "1772": 17483,
  "exceeding": 17003,
  "##rcle": 21769,
  "triggered": 13330,
  "\u767a": 1914,
  "standing": 3061,
  "drunken": 15967,
  "relate": 14396,
  "charities": 15430,
  "bonded": 20886,
  "skier": 21294,
  "##\u098f": 29887,
  "[unused981]": 986,
  "##\u3059": 30184,
  "[unused110]": 115,
  "sonic": 12728,
  "grading": 26886,
  "##idae": 6096,
  "displayed": 6913,
  "\u706b": 1906,
  "##mers": 16862,
  "flagship": 10565,
  "structured": 14336,
  "horrors": 22812,
  "fusion": 10077,
  "[unused90]": 91,
  "woods": 5249,
  "smack": 21526,
  "qualifiers": 18956,
  "##bling": 9709,
  "mater": 16289,
  "fairchild": 24258,
  "shutting": 17521,
  "1735": 26063,
  "tests": 5852,
  "##\u043e\u0432\u0438\u0447": 16198,
  "floors": 8158,
  "mars": 7733,
  "##scribe": 29234,
  "scooped": 20804,
  "##iel": 9257,
  "mild": 10256,
  "pumped": 16486,
  "##ception": 24422,
  "kahn": 19361,
  "percent": 3867,
  "quality": 3737,
  "stalker": 23883,
  "kinase": 21903,
  "kaye": 23686,
  "physician": 7522,
  "saga": 12312,
  "##ductive": 26638,
  "vampires": 6144,
  "##nia": 6200,
  "uniquely": 20640,
  "##ok": 6559,
  "giant": 5016,
  "currie": 20667,
  "coordinates": 12093,
  "dressed": 5102,
  "##fold": 10371,
  "stars": 3340,
  "totally": 6135,
  "accessible": 7801,
  "going": 2183,
  "##eng": 13159,
  "unlock": 19829,
  "deeply": 6171,
  "encouraging": 11434,
  "apparatus": 14709,
  "strains": 18859,
  "secretive": 28607,
  "dodd": 21258,
  "scrolling": 28903,
  "pick": 4060,
  "pounding": 9836,
  "formal": 5337,
  "prologue": 18877,
  "4th": 4343,
  "##yev": 17240,
  "sato": 20251,
  "##ret": 13465,
  "airmen": 29437,
  "##ored": 19574,
  "##\u0e1e": 29950,
  "[unused381]": 386,
  "attested": 18470,
  "[unused725]": 730,
  "##nee": 24045,
  "##bek": 24597,
  "1799": 13839,
  "48th": 27787,
  "##nett": 15361,
  "battalions": 10157,
  "##\u03b5": 29723,
  "##usions": 22016,
  "[unused444]": 449,
  "patton": 18090,
  "\u5e74": 1840,
  "##tine": 10196,
  "behaved": 26979,
  "zeus": 15208,
  "organize": 10939,
  "[unused439]": 444,
  "\u0142": 1105,
  "sort": 4066,
  "interactions": 10266,
  "interval": 13483,
  "rim": 11418,
  "forces": 2749,
  "trance": 16588,
  "##dner": 28001,
  "##tiv": 29068,
  "[unused861]": 866,
  "##une": 9816,
  "##\u092e": 29867,
  "tortured": 12364,
  "horst": 28565,
  "celebrate": 8439,
  "perceptions": 23271,
  "dipped": 13537,
  "1749": 24704,
  "maris": 23787,
  "143": 16065,
  "nm": 13221,
  "##\u0940": 29878,
  "##oman": 20778,
  "pueblo": 18273,
  "##tea": 27058,
  "artifact": 20785,
  "##heard": 26362,
  "nik": 23205,
  "prefecture": 7498,
  "troubled": 11587,
  "describe": 6235,
  "defended": 8047,
  "##ney": 5420,
  "cases": 3572,
  "\u092e": 1331,
  "##\u306b": 30194,
  "suspiciously": 21501,
  "lan": 17595,
  "clade": 21697,
  "ranked": 4396,
  "impressions": 19221,
  "lowe": 14086,
  "\u057e": 1235,
  "barrett": 12712,
  "towns": 4865,
  "genres": 11541,
  "newscast": 20306,
  "35": 3486,
  "obtain": 6855,
  "[unused973]": 978,
  "allocated": 11095,
  "lineman": 24062,
  "horde": 21038,
  "##\u00b3": 18107,
  "honors": 7836,
  "[unused684]": 689,
  "poor": 3532,
  "sparrow": 19479,
  "forests": 6138,
  "collected": 5067,
  "chants": 29534,
  "rotational": 25254,
  "goodwill": 22875,
  "educational": 4547,
  "##liffe": 27931,
  "personnel": 5073,
  "information": 2592,
  "thrill": 16959,
  "freud": 19338,
  "bel": 19337,
  "filming": 7467,
  "##\u2297": 30140,
  "utilizes": 21852,
  "flaw": 28450,
  "due": 2349,
  "camille": 16675,
  "oval": 9242,
  "questionable": 21068,
  "mcintyre": 24564,
  "torpedo": 9862,
  "##ort": 11589,
  "##\u0153": 29674,
  "protective": 9474,
  "southeast": 4643,
  "practitioner": 18742,
  "[unused661]": 666,
  "brunette": 27261,
  "harassment": 16011,
  "\u203f": 1534,
  "microsoft": 7513,
  "ruse": 26307,
  "skate": 17260,
  "escorting": 23831,
  "sinister": 16491,
  "##egorical": 27203,
  "ventured": 20510,
  "##\u2033": 30067,
  "memorable": 13432,
  "extra": 4469,
  "labourers": 24043,
  "redhead": 26705,
  "pronunciation": 15498,
  "hugely": 27564,
  "panthers": 12915,
  "maharaja": 21609,
  "##oon": 7828,
  "joint": 4101,
  "##ame": 14074,
  "incurred": 22667,
  "perimeter": 13443,
  "##tum": 11667,
  "##ono": 17175,
  "churning": 26765,
  "nash": 10594,
  "##carbon": 26190,
  "stunned": 9860,
  "##eborg": 27614,
  "singleton": 28159,
  "bourne": 15803,
  "worthless": 22692,
  "##\u0649": 29837,
  "docks": 15093,
  "##laise": 25122,
  "erupted": 12591,
  "relatives": 9064,
  "acquisition": 7654,
  "##erson": 18617,
  "gaze": 3657,
  "lake": 2697,
  "torpedoes": 18544,
  "##pit": 23270,
  "irony": 19728,
  "##lative": 26255,
  "ipad": 25249,
  "traversed": 27797,
  "[unused270]": 275,
  "mac": 6097,
  "\u5fb7": 1848,
  "1883": 7257,
  "##\u9752": 30501,
  "decker": 20946,
  "##esh": 9953,
  "nod": 7293,
  "maps": 7341,
  "##abas": 27537,
  "1931": 4739,
  "restart": 23818,
  "abruptly": 9225,
  "##mbling": 29256,
  "##\u301c": 30171,
  "##hun": 17157,
  "marcelo": 24984,
  "davis": 4482,
  "left": 2187,
  "##ll": 3363,
  "childhood": 5593,
  "ruined": 9868,
  "terrorists": 15554,
  "##,": 29623,
  "44th": 26409,
  "somewhat": 5399,
  "helpful": 14044,
  "##llar": 17305,
  "each": 2169,
  "##avian": 21654,
  "##ious": 6313,
  "##ject": 20614,
  "hendricks": 28895,
  "##pled": 21132,
  "elizabeth": 3870,
  "fumbled": 20054,
  "cheekbones": 27181,
  "judah": 23022,
  "accents": 24947,
  "kong": 4290,
  "villages": 4731,
  "apron": 20376,
  "credits": 6495,
  "melbourne": 4940,
  "calmed": 20869,
  "cramped": 22766,
  "whistling": 24350,
  "leasing": 26707,
  "papers": 4981,
  "##nding": 15683,
  "bunker": 15742,
  "santos": 11053,
  "##lton": 13947,
  "##rter": 19418,
  "mobilization": 25580,
  "wastewater": 28269,
  "quinn": 8804,
  "intervals": 14025,
  "##ating": 5844,
  "explodes": 27583,
  "heard": 2657,
  "compatibility": 21778,
  "##bby": 14075,
  "wherein": 16726,
  "##zi": 5831,
  "backyard": 16125,
  "##anta": 26802,
  "beach": 3509,
  "continental": 6803,
  "alterations": 16705,
  "##cious": 18436,
  "kettle": 22421,
  "##tious": 20771,
  "sheppard": 24976,
  "##mp": 8737,
  "petit": 17268,
  "jen": 15419,
  "installing": 23658,
  "tuscany": 23322,
  "femme": 26893,
  "emphasis": 7902,
  "mandates": 25979,
  "##oint": 25785,
  "infectious": 16514,
  "##\u4e0d": 30270,
  "emi": 12495,
  "cruise": 8592,
  "mills": 6341,
  "selling": 4855,
  "danced": 10948,
  "surface": 3302,
  "##cb": 27421,
  "flash": 5956,
  "realises": 25924,
  "canteen": 26449,
  "##yan": 7054,
  "surpassing": 27097,
  "drury": 25663,
  "friendship": 6860,
  "dollars": 6363,
  "empowerment": 23011,
  "1822": 12307,
  "hunt": 5690,
  "lectured": 19206,
  "##gong": 17036,
  "rafael": 10999,
  "unspoken": 25982,
  "##\u1d57": 30041,
  "fall": 2991,
  "prefer": 9544,
  "##\u0292": 29704,
  "##aceous": 25560,
  "flinch": 23224,
  "convent": 10664,
  "ter": 28774,
  "=": 1027,
  "ah": 6289,
  "combine": 11506,
  "ricardo": 13559,
[...]
