{
  "vocab": {
    "hayden": 13872,
    "cuts": 7659,
    "[unused622]": 627,
    "fade": 12985,
    "[unused161]": 166,
    "depleted": 22595,
    "##buch": 25987,
    "hackney": 28425,
    "cesar": 14923,
    "penelope": 18641,
    "##uating": 24133,
    "choice": 3601,
    "rigid": 11841,
    "##ency": 11916,
    "historia": 19891,
    "favourite": 8837,
    "operative": 12160,
    "##adi": 17190,
    "##lean": 20898,
    "bits": 9017,
    "wakefield": 16045,
    "\u2044": 1535,
    "lizzie": 15860,
    "retreat": 7822,
    "organizational": 13296,
    "##\u2071": 30072,
    "minogue": 27736,
    "waterways": 21938,
    "rake": 26008,
    "liable": 20090,
    "ravi": 16806,
    "sofa": 10682,
    "conversions": 25834,
    "gaped": 23832,
    "\u02c8": 1149,
    "##\u624c": 30385,
    "appears": 3544,
    "capture": 5425,
    "pole": 6536,
    "explosions": 18217,
    "\u0456": 1213,
    "couch": 6411,
    "##inium": 27585,
    "coarse": 20392,
    "foundry": 19853,
    "lion": 7006,
    "##otto": 23052,
    "have": 2031,
    "66": 5764,
    "maguire": 26196,
    "overseas": 6931,
    "##meral": 28990,
    "##yen": 20684,
    "helpless": 13346,
    "monarchs": 19799,
    "starting": 3225,
    "##onate": 21149,
    "apartment": 4545,
    "illustrator": 13825,
    "violate": 23640,
    "intervene": 18793,
    "sensed": 10596,
    "rotherham": 27456,
    "maynard": 22130,
    "choose": 5454,
    "complimented": 27175,
    "sudanese": 25603,
    "defeat": 4154,
    "[unused978]": 983,
    "1976": 3299,
    "##dant": 28210,
    "##\u30ad": 30227,
    "palace": 4186,
    "aperture": 18892,
    "##di": 4305,
    "##mi": 4328,
    "artery": 16749,
    "wasting": 18313,
    "gabe": 12900,
    "sabah": 22515,
    "[unused967]": 972,
    "##bbs": 17226,
    "##eaux": 25639,
    "\u4e2d": 1746,
    "stanford": 8422,
    "##kovic": 14733,
    "##\u0628": 29816,
    "pamphlet": 19899,
    "##ucher": 22368,
    "##wi": 9148,
    "##cc": 9468,
    "##mada": 23574,
    "supervision": 10429,
    "product": 4031,
    "pursuits": 23719,
    "brunette": 27261,
    "babe": 11561,
    "\u4e4b": 1749,
    "[unused703]": 708,
    "caliphate": 28034,
    "unnatural": 21242,
    "hartley": 20955,
    "unincorporated": 7754,
    "manage": 6133,
    "survives": 13655,
    "nevada": 7756,
    "helmet": 10412,
    "roam": 25728,
    "disabilities": 13597,
    "dilemma": 21883,
    "sensible": 21082,
    "infinity": 15579,
    "##boot": 27927,
    "abolitionist": 29554,
    "built": 2328,
    "bankruptcy": 10528,
    "chun": 20979,
    "samantha": 11415,
    "neighbour": 20065,
    "coven": 25248,
    "pcs": 27019,
    "##hesive": 21579,
    "[unused44]": 45,
    "##poulos": 24662,
    "##hip": 5605,
    "##personal": 28823,
    "retrieved": 5140,
    "introductions": 25795,
    "vibe": 21209,
    "sulfur": 17864,
    "historic": 3181,
    "keyboards": 6269,
    "consultation": 16053,
    "hummed": 26747,
    "revelations": 22191,
    "brighton": 10309,
    "\u00a9": 1075,
    "pre": 3653,
    "indie": 10271,
    "munro": 20923,
    "hastily": 15789,
    "\u0916": 1316,
    "tails": 17448,
    "spring": 3500,
    "151": 16528,
    "##cta": 25572,
    "persistent": 14516,
    "haas": 22996,
    "not": 2025,
    "cruisers": 16722,
    "1933": 4537,
    "homecoming": 20772,
    "linen": 17517,
    "152": 15017,
    "barony": 19365,
    "reuters": 26665,
    "flutes": 28453,
    "cursed": 10678,
    "break": 3338,
    "strong": 2844,
    "##held": 24850,
    "cam": 11503,
    "marley": 20326,
    "##\u00a9": 29652,
    "tone": 4309,
    "##nel": 11877,
    "obligation": 14987,
    "inorganic": 28256,
    "recruit": 13024,
    "friday": 5958,
    "sherman": 11011,
    "55th": 29075,
    "clifton": 16271,
    "\u300a": 1639,
    "quicker": 19059,
    "peacefully": 21614,
    "proclamation": 16413,
    "##\u03b7": 24824,
    "converting": 16401,
    "[unused746]": 751,
    "\u0e2d": 1421,
    "development": 2458,
    "icc": 16461,
    "bouts": 23666,
    "varsity": 11710,
    "##rb": 15185,
    "solid": 5024,
    "\u201d": 1524,
    "classrooms": 12463,
    "##ius": 4173,
    "movies": 5691,
    "naturalized": 27558,
    "winked": 14217,
    "##rd": 4103,
    "grass": 5568,
    "adequately": 23613,
    "juliette": 24696,
    "recycled": 22207,
    "observing": 14158,
    "decorate": 29460,
    "third": 2353,
    "##\u961d": 30496,
    "##cs": 6169,
    "reflecting": 10842,
    "do": 2079,
    "melodies": 16106,
    "fencing": 15962,
    "##\u0923": 29858,
    "[unused24]": 25,
    "##wash": 28556,
    "grasped": 15517,
    "anger": 4963,
    "lux": 28359,
    "recital": 25521,
    "proceed": 10838,
    "nipples": 28124,
    "realise": 19148,
    "##tech": 15007,
    "196": 20035,
    "##arium": 17285,
    "seized": 8243,
    "freaking": 13847,
    "reveal": 7487,
    "tow": 15805,
    "gallagher": 17297,
    "adorned": 19189,
    "pensacola": 26073,
    "soundtracks": 24245,
    "##ms": 5244,
    "guillaume": 20061,
    "criticisms": 19628,
    "ernest": 8471,
    "molecules": 10737,
    "tomas": 12675,
    "contiguous": 25177,
    "selangor": 28904,
    "prohibited": 10890,
    "vacancy": 15619,
    "alternatively": 14084,
    "[unused969]": 974,
    "aaron": 7158,
    "broadcast": 3743,
    "##mmer": 15810,
    "persian": 4723,
    "##ens": 6132,
    "splitting": 14541,
    "##ares": 17933,
    "\u06af": 1305,
    "##\u2286": 30138,
    "organise": 22933,
    "cochrane": 22329,
    "trunks": 20509,
    "curses": 23897,
    "anyway": 4312,
    "cited": 6563,
    "hermes": 24127,
    "destroyed": 3908,
    "decomposition": 22511,
    "##\u2205": 30121,
    "distillery": 24870,
    "understands": 19821,
    "madagascar": 11934,
    "teddy": 11389,
    "##atal": 27815,
    "toilet": 11848,
    "\u02b3": 1142,
    "interpreted": 10009,
    "alexander": 3656,
    "8": 1022,
    "stylized": 19551,
    "aging": 12520,
    "117": 12567,
    "[unused333]": 338,
    "ni": 9152,
    "##hp": 22269,
    "##utus": 23998,
    "##kin": 4939,
    "attire": 20426,
    "spin": 6714,
    "kitchens": 26051,
    "hidalgo": 24715,
    "produce": 3965,
    "raises": 13275,
    "[unused535]": 540,
    "vicente": 17280,
    "##eving": 23559,
    "chip": 9090,
    "throw": 5466,
    "##\u897f": 30473,
    "##elli": 13348,
    "jerusalem": 6744,
    "frenchman": 26529,
    "##neas": 26737,
    "neural": 15756,
    "senators": 10153,
    "stil": 25931,
    "##vr": 19716,
    "crawley": 28854,
    "poured": 8542,
    "sodium": 13365,
    "paste": 19351,
    "wilkes": 20635,
    "##\u099a": 29892,
    "##phon": 20846,
    "kilometers": 7338,
    "fascination": 18987,
    "contemplated": 23133,
    "additions": 13134,
    "pike": 12694,
    "airports": 13586,
    "taxpayer": 26980,
    "defines": 11859,
    "silas": 18553,
    "##mbled": 23931,
    "##16": 16048,
    "draper": 23641,
    "##ears": 26492,
    "sundays": 14803,
    "dominant": 7444,
    "netting": 26909,
    "grasp": 10616,
    "##\u0686": 29840,
    "2012": 2262,
    "##\u0916": 29852,
    "shoes": 6007,
    "katharine": 25739,
    "hk": 22563,
    "##tas": 10230,
    "jonas": 10680,
    "showing": 4760,
    "jackets": 17764,
    "##mist": 23738,
    "1719": 28162,
    "accessed": 11570,
    "opinion": 5448,
    "estadio": 14143,
    "breeders": 20823,
    "lyons": 16642,
    "knew": 2354,
    "entitled": 4709,
    "##cross": 16458,
    "nets": 16996,
    "##omy": 16940,
    "subway": 10798,
    "peel": 14113,
    "1757": 22621,
    "[unused282]": 287,
    "coup": 8648,
    "rigged": 25216,
    "bands": 4996,
    "karin": 24537,
    "convoy": 9549,
    "imperfect": 29238,
    "bikes": 18105,
    "winding": 12788,
    "##oder": 27381,
    "taps": 25316,
    "dual": 7037,
    "christi": 21359,
    "bedfordshire": 28430,
    "unite": 15908,
    "##son": 3385,
    "peek": 19043,
    "int": 20014,
    "millions": 8817,
    "paused": 5864,
    "\u6751": 1878,
    "##proof": 18907,
    "montevideo": 22460,
    "##cana": 28621,
    "carlos": 5828,
    "herbert": 7253,
    "m2": 25525,
    "roanoke": 25899,
    "uganda": 10031,
    "concerning": 7175,
    "presenting": 10886,
    "subsided": 26588,
    "sara": 7354,
    "mounting": 15986,
    "feared": 8615,
    "vile": 25047,
    "foxes": 24623,
    "impoverished": 25488,
    "assume": 7868,
    "##moto": 15319,
    "clare": 11152,
    "67": 6163,
    "authorities": 4614,
    "fiery": 15443,
    "directors": 5501,
    "##raj": 14220,
    "oxfordshire": 20124,
    "pod": 17491,
    "klaus": 16536,
    "weakening": 22031,
    "distrust": 29245,
    "footed": 28856,
    "novelty": 21160,
    "##\u0280": 29693,
    "samsung": 19102,
    "cyber": 16941,
    "reborn": 24910,
    "skipper": 23249,
    "146": 16333,
    "stripped": 10040,
    "comprises": 8681,
    "184": 19681,
    "retreated": 11672,
    "diabetes": 14671,
    "[unused180]": 185,
    "\u0643": 1293,
    "mw": 12464,
    "archduke": 27463,
    "arrest": 6545,
    "recommend": 16755,
    "##iah": 12215,
    "mac": 6097,
    "evolving": 20607,
    "viable": 14874,
    "raiders": 10642,
    "sears": 18493,
    "village": 2352,
    "antiquities": 21387,
    "bird": 4743,
    "customers": 6304,
    "pool": 4770,
    "disturbed": 12491,
    "1806": 12518,
    "clapton": 24705,
    "armchair": 29372,
    "sant": 15548,
    "shu": 18454,
    "fiona": 13073,
    "reservation": 11079,
    "continuing": 5719,
    "pages": 5530,
    "dentistry": 26556,
    "staunch": 26355,
    "plenty": 7564,
    "shave": 27545,
    "semiconductor": 20681,
    "dammit": 20878,
    "repetitive": 23563,
    "storytelling": 20957,
    "erroneously": 29411,
    "resumed": 7943,
    "campaigned": 16196,
    "hardwood": 23165,
    "bladed": 27402,
    "##ske": 17140,
    "debbie": 16391,
    "meteor": 23879,
    "##egan": 20307,
    "##bot": 18384,
    "colton": 21000,
    "##`": 29639,
    "presumably": 10712,
    "refreshing": 27150,
    "revolutionary": 6208,
    "truss": 24224,
    "flowers": 4870,
    "honduras": 14373,
    "##phs": 18757,
    "larson": 21213,
    "##row": 10524,
    "sect": 17831,
    "##ku": 5283,
    "##dles": 27822,
    "membrane": 10804,
    "sandwiches": 22094,
    "befriended": 23386,
    "allow": 3499,
    "playing": 2652,
    "about": 2055,
    "habits": 14243,
    "lac": 18749,
    "analyzing": 20253,
    "##eran": 23169,
    "1775": 14276,
    "153": 16710,
    "macbeth": 25182,
    "\u30b9": 1707,
    "carmen": 11425,
    "winged": 14462,
    "reel": 15934,
    "mainz": 19876,
    "algorithm": 9896,
    "chieftain": 26625,
    "##nified": 25201,
    "##drop": 25711,
    "keeper": 10684,
    "custody": 9968,
    "##wl": 13668,
    "##gami": 26517,
    "aires": 9149,
    "provider": 10802,
    "reminded": 6966,
    "##tl": 19646,
    "##nding": 15683,
    "turing": 28639,
    "jax": 13118,
    "sensitive": 7591,
    "goats": 17977,
    "ap": 9706,
    "straight": 3442,
    "##ses": 8583,
    "cochin": 28982,
    "tugs": 29306,
    "##ika": 7556,
    "francais": 22357,
    "##tek": 23125,
    "abortion": 11324,
    "engraving": 23501,
    "convection": 23849,
    "authorship": 26324,
    "vietnam": 5148,
    "remade": 26943,
    "\u2022": 1528,
    "\u2015": 1518,
    "book": 2338,
    "muted": 22124,
    "signed": 2772,
    "##cey": 25810,
    "trees": 3628,
    "whichever": 29221,
    "offerings": 14927,
    "##\u30b3": 30230,
    "pouring": 13053,
    "bragg": 23678,
    "##\u672c": 30402,
    "[unused868]": 873,
    "acc": 16222,
    "hostage": 13446,
    "[unused172]": 177,
    "degradation": 16627,
    "##mering": 27851,
    "panama": 8515,
    "##efined": 28344,
    "##uing": 25165,
    "paragraph": 20423,
    "upland": 25770,
    "alcohol": 6544,
    "observer": 9718,
    "##ud": 6784,
    "##\u2606": 30148,
    "liquids": 26820,
    "[unused355]": 360,
    "jimi": 27624,
    "valued": 11126,
    "chromosome": 16706,
    "clips": 15281,
    "##leton": 19263,
    "feudal": 16708,
    "drafts": 28967,
    "defenders": 12534,
    "planets": 11358,
    "allegedly": 9382,
    "##\u9593": 30495,
    "dalai": 28511,
    "notion": 9366,
    "\u2097": 1566,
    "conception": 13120,
    "adler": 17969,
    "durable": 25634,
    "competitors": 10159,
    "##nical": 20913,
    "juventus": 22760,
    "\u056f": 1227,
    "##jad": 27875,
    "##slin": 22908,
    "approached": 5411,
    "##ndi": 16089,
    "portuguese": 5077,
    "sonora": 26647,
    "corrections": 20983,
    "fare": 13258,
    "bursting": 21305,
    "eu": 7327,
    "occupation": 6139,
    "1708": 27337,
    "\u11af": 1486,
    "shores": 13312,
    "creativity": 14842,
    "blurred": 18449,
    "histoire": 20088,
    "petroleum": 11540,
    "demanded": 6303,
    "chong": 24008,
    "reigning": 16323,
    "instructed": 10290,
    "##zio": 12426,
    "tumbled": 18303,
    "space": 2686,
    "##mx": 22984,
    "aft": 16638,
    "debts": 13930,
    "##lite": 22779,
    "##tracted": 24301,
    "eleven": 5408,
    "berger": 16758,
    "twinkle": 29038,
    "233": 22115,
    "9th": 6280,
    "avoids": 26777,
    "decline": 6689,
    "1738": 28009,
    "guessed": 11445,
    "uncanny": 28953,
    "migrants": 16836,
    "guerre": 24613,
    "buttons": 11287,
    "clinched": 18311,
    "\u4e45": 1748,
    "[unused105]": 110,
    "##lative": 26255,
    "wong": 11789,
    "calendar": 8094,
    "frowned": 7335,
    "foley": 17106,
    "neighbourhoods": 27535,
    "engulfed": 24692,
    "healthy": 7965,
    "headed": 3753,
    "prostitute": 19215,
    "dante": 9649,
    "mri": 27011,
    "\u043c": 1191,
    "song": 2299,
    "jumped": 5598,
    "jasper": 14791,
    "amore": 26297,
    "engines": 5209,
    "\u662d": 1868,
    "1812": 9842,
    "terrorism": 10130,
    "unification": 16905,
    "##\u05de": 29801,
    "drawers": 22497,
    "temples": 8436,
    "##inian": 15830,
    "noticeably": 25327,
    "stacy": 18566,
    "discusses": 15841,
    "saline": 28413,
    "meg": 12669,
    "[unused732]": 737,
    "pedestal": 24496,
    "judicial": 8268,
    "faces": 5344,
    "miracles": 17861,
    "identities": 15702,
    "beaux": 20290,
    "showcased": 22443,
    "tao": 20216,
    "spot": 3962,
    "openings": 16556,
    "##\u2076": 30075,
    "pigeon": 16516,
    "cisco": 26408,
    "alfredo": 19423,
    "scholarly": 12683,
    "hendricks": 28895,
    "dwyer": 29394,
    "##duced": 28901,
    "[unused134]": 139,
    "assembled": 9240,
    "corn": 9781,
    "artisans": 26818,
    "channel": 3149,
    "generalized": 18960,
    "discourse": 15152,
    "##weather": 28949,
    "rutherford": 18472,
    "budget": 5166,
    "raider": 27826,
    "##lus": 7393,
    "sparsely": 24961,
    "capitol": 9424,
    "intercourse": 23198,
    "photographer": 8088,
    "harper": 8500,
    "moaning": 22653,
    "spence": 22186,
    "apologize": 12134,
    "\u5834": 1806,
    "hazardous": 17760,
    "##sho": 22231,
    "##dal": 9305,
    "burroughs": 25991,
    "holidays": 11938,
    "battalions": 10157,
    "twilight": 13132,
    "decrees": 28966,
    "##uss": 17854,
    "spared": 16891,
    "sheng": 25981,
    "astros": 22058,
    "[unused615]": 620,
    "affirmed": 19768,
    "##oses": 27465,
    "##boarding": 21172,
    "##\u20a9": 30101,
    "concerto": 10405,
    "asserts": 19514,
    "ascended": 19644,
    "similarities": 12319,
    "##bution": 29446,
    "junta": 22450,
    "30th": 13293,
    "##ente": 15781,
    "##\u11b8": 30024,
    "appointments": 14651,
    "ears": 5551,
    "completes": 28123,
    "garland": 17017,
    "erased": 23516,
    "ama": 25933,
    "bloomfield": 25584,
    "stain": 21101,
    "creation": 4325,
    "funky": 24151,
    "demon": 5698,
    "review": 3319,
    "skaters": 24789,
    "equal": 5020,
    "##tose": 22282,
    "salvage": 18340,
    "militia": 8396,
    "frustrated": 10206,
    "boss": 5795,
    "weapon": 5195,
    "linda": 8507,
    "circuits": 13782,
    "hunted": 14682,
    "diary": 9708,
    "bridges": 7346,
    "regret": 9038,
    "##\u5802": 30331,
    "solely": 9578,
    "##graph": 14413,
    "##nos": 15460,
    "budapest": 10926,
    "\u30d8": 1721,
    "launching": 12106,
    "##per": 4842,
    "intersecting": 27294,
    "##ioms": 29178,
    "rotation": 9963,
    "demonstration": 10467,
    "##uc": 14194,
    "##wig": 16279,
    "1972": 3285,
    "bulky": 27446,
    "centre": 2803,
    "ursula": 20449,
    "##breakers": 27623,
    "fi": 10882,
    "cedar": 11354,
    "1846": 9244,
    "mara": 13955,
    "allison": 10786,
    "mexico": 3290,
    "excess": 9987,
    "##icide": 21752,
    "hee": 18235,
    "kerr": 14884,
    "indirectly": 17351,
    "slaughter": 14574,
    "\u0449": 1204,
    "catholic": 3234,
    "blanca": 27538,
    "furthermore": 7297,
    "##ield": 12891,
    "jurgen": 23171,
    "##urgent": 27176,
    "##dro": 22196,
    "##\u00a2": 29645,
    "##usions": 22016,
    "1100": 22096,
    "sticking": 13423,
    "considered": 2641,
    "lancaster": 10237,
    "##plate": 15725,
    "purposely": 24680,
    "syracuse": 11736,
    "cables": 15196,
    "reeve": 20726,
    "extras": 26279,
    "postdoctoral": 29272,
    "avenue": 3927,
    "##nted": 14706,
    "seychelles": 27438,
    "[unused697]": 702,
    "403": 28203,
    "gig": 15453,
    "hearing": 4994,
    "[unused748]": 753,
    "toe": 11756,
    "##fa": 7011,
    "soho": 23771,
    "fits": 16142,
    "benevolent": 25786,
    "[unused27]": 28,
    "##phobic": 20200,
    "lisa": 7059,
    "particle": 10811,
    "printing": 8021,
    "investigators": 14766,
    "dots": 14981,
    "spoon": 15642,
    "guards": 4932,
    "corrugated": 27186,
    "##ong": 5063,
    "orphanage": 18504,
    "welcomed": 10979,
    "romani": 23982,
    "sociology": 11507,
    "pigs": 14695,
    "##jima": 19417,
    "brink": 20911,
    "##\u028c": 29700,
    "conglomerate": 22453,
    "altitudes": 21973,
    "promenade": 26815,
    "proposed": 3818,
    "managing": 6605,
    "consent": 9619,
    "mute": 20101,
    "[unused964]": 969,
    "bowled": 19831,
    "doherty": 23798,
    "grades": 7022,
    "fried": 13017,
    "##cus": 7874,
    "nobles": 13969,
    "##kes": 9681,
    "##rave": 22401,
    "\u06c1": 1308,
    "marrying": 13516,
    "exits": 16639,
    "fiercely": 16265,
    "171": 18225,
    "scots": 12196,
    "ras": 20710,
    "playhouse": 17408,
    "sockets": 27540,
    "colombo": 16224,
    "##\u30ec": 30260,
    "off": 2125,
    "apparent": 6835,
    "##icides": 22698,
    "poland": 3735,
    "trolls": 27980,
    "manners": 14632,
    "##achi": 21046,
    "##drive": 23663,
    "conversion": 7584,
    "blunt": 14969,
    "signalling": 21919,
    "shropshire": 19322,
    "handsome": 8502,
    "[unused804]": 809,
    "watford": 21740,
    "##\u0906": 29848,
    "renegade": 28463,
    "1809": 12861,
    "demonstrate": 10580,
    "\u30de": 1723,
    "sumner": 23922,
    "##sle": 25016,
    "dimitri": 15953,
    "perspectives": 15251,
    "pulses": 23894,
    "tbilisi": 22406,
    "##ttal": 28200,
    "faa": 17032,
    "[unused146]": 151,
    "glare": 10982,
    "saxons": 28267,
    "expect": 5987,
    "gunslinger": 29274,
    "bot": 28516,
    "ostensibly": 23734,
    "portray": 17279,
    "eine": 27665,
    "eruptions": 28448,
    "boyer": 23456,
    "projects": 3934,
    "kerman": 24500,
    "##henko": 19767,
    "volume": 3872,
    "policemen": 19809,
    "##\u05d7": 29794,
    "##tland": 19270,
    "##anga": 18222,
    "johns": 11545,
    "papua": 13049,
    "infancy": 22813,
    "##cy": 5666,
    "##onis": 27296,
    "athens": 7571,
    "[unused434]": 439,
    "gems": 20296,
    "\u30ca": 1715,
    "xu": 15990,
    "sickness": 15556,
    "spill": 14437,
    "emigration": 20387,
    "##sei": 20240,
    "questioning": 11242,
    "##grove": 21525,
    "parishes": 11600,
    "specially": 11974,
    "jo": 8183,
    "##i": 2072,
    "##wala": 23877,
    "##lase": 25002,
    "teaming": 27025,
    "relationships": 6550,
    "jakob": 19108,
    "277": 25578,
    "##ban": 8193,
    "amara": 28599,
    "##aurus": 17342,
    "lutheran": 10034,
    "[unused92]": 93,
    "estates": 8707,
    "genres": 11541,
    "resented": 27188,
    "horned": 26808,
    "porcelain": 17767,
    "tunisian": 22946,
    "\u52a0": 1779,
    "wool": 12121,
    "intimidating": 24439,
    "tortricidae": 27683,
    "taxi": 10095,
    "distinguished": 5182,
    "www": 7479,
    "v": 1058,
    "explores": 15102,
    "jeanne": 14537,
    "4000": 20143,
    "endured": 16753,
    "northern": 2642,
    "tennis": 5093,
    "date": 3058,
    "marianne": 19887,
    "barclay": 23724,
    "wharf": 16435,
    "1768": 19793,
    "bei": 21388,
    "stammered": 28532,
    "markings": 13967,
    "wealthy": 7272,
    "briefly": 4780,
    "may": 2089,
    "[unused932]": 937,
    "##cable": 21170,
    "##\u0446": 29751,
    "private": 2797,
    "bach": 10384,
    "receiver": 8393,
    "##cula": 19879,
    "326": 28188,
    "pepsi": 27237,
    "airplane": 13297,
    "picks": 11214,
    "brent": 12895,
    "##uche": 19140,
    "tangled": 14170,
    "ding": 22033,
    "inspections": 29589,
    "decorative": 11584,
    "mohammad": 12050,
    "director": 2472,
    "hotel": 3309,
    "##ishing": 21837,
    "sooner": 10076,
    "commented": 7034,
    "organisms": 11767,
    "mccoy": 16075,
    "converts": 19884,
    "##say": 24322,
    "127": 13029,
    "oldies": 26826,
    "fredrik": 25454,
    "##ando": 28574,
    "kuala": 15490,
    "iss": 26354,
    "prolific": 12807,
    "conservation": 5680,
    "lonely": 9479,
    "chevy": 29009,
    "reactor": 13308,
    "meetings": 6295,
    "io": 22834,
    "mathematical": 8045,
    "greens": 15505,
    "##inated": 15833,
    "inlet": 15824,
    "hollow": 8892,
    "panchayat": 20079,
    "[unused301]": 306,
    "internment": 29041,
    "transparent": 13338,
    "albert": 4789,
    "breaststroke": 28164,
    "bono": 23648,
    "remington": 25282,
    "[unused860]": 865,
    "championed": 28683,
    "libraries": 8860,
    "##sible": 19307,
    "##etto": 20082,
    "hagen": 24047,
    "manufactured": 7609,
    "fountains": 23497,
    "termed": 12061,
    "uc": 15384,
    "##ael": 21147,
    "##\u03c1": 29732,
    "patronage": 15694,
    "pasta": 24857,
    "salvatore": 17485,
    "oscar": 7436,
    "halted": 12705,
    "proof": 6947,
    "conde": 24707,
    "sprawling": 24199,
    "bows": 21207,
    "kei": 26679,
    "##tively": 25499,
    "inverness": 22937,
    "##eki": 26576,
    "##nberg": 11144,
    "[unused550]": 555,
    "##ingham": 16445,
    "lopez": 8685,
    "towing": 28379,
    "##vs": 15088,
    "thighs": 9222,
    "\u2080": 1547,
    "##hawk": 17998,
    "attacked": 4457,
    "prevalence": 20272,
    "transmissions": 21670,
    "feast": 9831,
    "chemistry": 6370,
    "travers": 29053,
    "clutched": 13514,
    "##bular": 28808,
    "[unused338]": 343,
    "beth": 7014,
    "deter": 28283,
    "kun": 28919,
    "leyte": 27214,
    "depart": 18280,
    "##\u5b66": 30343,
    "innocence": 12660,
    "disturbances": 24535,
    "hollis": 27477,
    "withdrawal": 10534,
    "martini": 24480,
    "forcefully": 23097,
    "gauge": 7633,
    "utilizes": 21852,
    "gabrielle": 16988,
    "##\u3055": 30182,
    "holocaust": 11513,
    "struggles": 11785,
    "occurrences": 27247,
    "[unused834]": 839,
    "coast": 3023,
    "globalization": 24370,
    "railway": 2737,
    "das": 8695,
    "##icum": 22167,
    "cruel": 10311,
    "stormed": 16201,
    "salim": 27490,
    "firstly": 15847,
    "stupidity": 28072,
    "ulrich": 19619,
    "actors": 5889,
    "fifteenth": 16249,
    "1936": 4266,
    "motive": 15793,
    "##\u6cb3": 30425,
    "##quet": 12647,
    "apology": 12480,
    "##asa": 16782,
    "##mous": 27711,
    "homosexual": 15667,
    "shape": 4338,
    "##iji": 27821,
    "hurts": 13403,
    "ireland": 3163,
    "4a": 26424,
    "spectacle": 21177,
    "mccarthy": 12584,
    "max": 4098,
    "ito": 23333,
    "##ners": 16912,
    "adapting": 25357,
    "lille": 22479,
    "ng": 12835,
    "yell": 14315,
    "plains": 8575,
    "sore": 14699,
    "yet": 2664,
    "leonid": 27316,
    "bust": 13950,
    "apron": 20376,
    "84": 6391,
    "fcc": 14420,
    "##\u00bc": 29664,
    "##missive": 27876,
    "\u027e": 1126,
    "##iving": 14966,
    "##loaded": 17468,
    "grapes": 16575,
    "##bari": 25990,
    "##riety": 27840,
    "psychology": 6825,
    "lent": 15307,
    "randall": 12813,
    "canucks": 26177,
    "colchester": 20115,
    "##red": 5596,
    "flex": 23951,
    "mack": 11349,
    "##miento": 28883,
    "freeing": 22198,
    "navigate": 22149,
    "dortmund": 23912,
    "approximation": 20167,
    "bunny": 16291,
    "armies": 8749,
    "romantic": 6298,
    "rower": 21984,
    "turbine": 14027,
    "prowess": 26120,
    "rabbit": 10442,
    "\u8857": 1946,
    "[unused694]": 699,
    "establishing": 7411,
    "##ale": 9453,
    "speed": 3177,
    "performances": 4616,
    "groans": 27778,
    "##200": 28332,
    "comply": 14037,
    "lazy": 13971,
    "##able": 3085,
    "certified": 7378,
    "progresses": 22901,
    "bernstein": 18862,
    "molecule": 13922,
    "fulfillment": 29362,
    "nairobi": 21124,
    "##ss": 4757,
    "chef": 10026,
    "settlement": 4093,
    "cooperation": 6792,
    "dummy": 24369,
    "##ction": 7542,
    "tug": 12888,
    "lavender": 20920,
    "\u25cf": 1619,
    "mountain": 3137,
    "[unused286]": 291,
    "linguistics": 15397,
    "tilt": 17010,
    "\u51fa": 1774,
    "released": 2207,
    "simulations": 24710,
    "hydraulic": 14761,
    "overdose": 26641,
    "nuevo": 22250,
    "##imov": 25299,
    "harmonica": 16527,
    "rural": 3541,
    "reelection": 17648,
    "[unused466]": 471,
    "##liness": 20942,
    "\u00bf": 1094,
    "1922": 4798,
    "##\u03b8": 29725,
    "##icio": 27113,
    "significance": 7784,
    "sylvia": 13378,
    "##\u1d56": 30040,
    "1711": 28455,
    "##logist": 10727,
    "rwanda": 17591,
    "yells": 22114,
    "reasoning": 13384,
    "advent": 13896,
    "platoon": 13799,
    "sculptor": 10160,
    "[unused538]": 543,
    "coefficient": 19064,
    "holly": 9079,
    "displayed": 6913,
    "obesity": 24552,
    "gundam": 26152,
    "observation": 8089,
    "huntington": 16364,
    "quarterfinals": 9237,
    "##kato": 26020,
    "luftwaffe": 17740,
    "ne": 11265,
    "oriental": 11481,
    "hosting": 9936,
    "lizard": 15450,
    "##ony": 16585,
    "##tarian": 28897,
    "##phones": 19093,
    "ferry": 7115,
    "stretch": 7683,
    "craftsman": 26286,
    "menu": 12183,
    "qu": 24209,
    "##rah": 10404,
    "evident": 10358,
    "defected": 26330,
    "japanese": 2887,
    "showcase": 13398,
    "withdraw": 10632,
    "my": 2026,
    "competed": 3879,
    "cape": 4880,
    "[unused589]": 594,
    "limousine": 28012,
    "tough": 7823,
    "##lars": 28695,
    "necessary": 4072,
    "herr": 23506,
    "looked": 2246,
    "neutron": 20393,
    "patna": 29565,
    "##pressing": 24128,
    "anastasia": 19447,
    "squirrel": 18197,
    "waltz": 17569,
    "jaipur": 28355,
    "overwhelming": 10827,
    "##\u702c": 30431,
    "resurrection": 15218,
    "\u2076": 1540,
    "tones": 12623,
    "ff": 21461,
    "[unused501]": 506,
    "dvd": 4966,
    "##hart": 10686,
    "integral": 9897,
    "alam": 26234,
    "hamlet": 8429,
    "550": 13274,
    "kraft": 26680,
    "##off": 7245,
    "diego": 5277,
    "eased": 10987,
    "production": 2537,
    "[unused483]": 488,
    "\u0993": 1352,
    "notions": 21951,
    "denounced": 17787,
    "competence": 22219,
    "tourism": 6813,
    "harmonic": 19452,
    "cop": 8872,
    "originate": 21754,
    "neville": 14871,
    "breast": 7388,
    "purchases": 17402,
    "histories": 15215,
    "incredibly": 11757,
    "##hita": 23935,
    "##hold": 12640,
    "performing": 4488,
    "congregations": 16850,
    "hess": 23484,
    "geologist": 21334,
    "syrian": 9042,
    "greenhouse": 16635,
    "until": 2127,
    "rahman": 14364,
    "manchester": 5087,
    "##den": 4181,
    "invertebrates": 25700,
    "1634": 28502,
    "appreciated": 12315,
    "nh": 18699,
    "##tage": 26702,
    "hays": 29051,
    "1950": 3925,
    "\u05d8": 1249,
    "sparks": 12300,
    "\u201a": 1522,
    "sash": 24511,
    "175": 12862,
    "\u057a": 1233,
    "that": 2008,
    "background": 4281,
    "repeatedly": 8385,
    "jian": 29214,
    "laos": 15786,
    "liga": 8018,
    "##finger": 20349,
    "\u1166": 1473,
    "yang": 8675,
    "##fect": 25969,
    "menace": 19854,
    "johnny": 5206,
    "manor": 6952,
    "banged": 22843,
    "ipod": 26322,
    "auditory": 28042,
    "villiers": 25333,
    "contradictory": 27894,
    "appalachian": 19682,
    "##39": 23499,
    "##lette": 27901,
    "honorable": 13556,
    "surveyor": 17169,
    "psychological": 8317,
    "offences": 18421,
    "##drum": 21884,
    "##sc": 11020,
    "marine": 3884,
    "screamed": 7210,
    "abolished": 8961,
    "vested": 26003,
    "##\u5317": 30307,
    "##baum": 14898,
    "premature": 21371,
    "pc": 7473,
    "##lby": 14510,
    "regardless": 7539,
    "nails": 10063,
    "hunt": 5690,
    "inherent": 16112,
    "eastwood": 24201,
    "brilliance": 28850,
    "##room": 9954,
    "niche": 18111,
    "##dina": 18979,
    "miniseries": 13612,
    "assortment": 26285,
    "marcelo": 24984,
    "boredom": 29556,
    "##pour": 27757,
    "strangled": 21384,
    "telescope": 12772,
    "abu": 8273,
    "leon": 6506,
    "jed": 24401,
    "battled": 19787,
    "centimetres": 13935,
    "helsinki": 12331,
    "hogan": 14851,
    "clicked": 13886,
    "merger": 7660,
    "\u0192": 1108,
    "##ures": 14900,
    "backdrop": 18876,
    "sales": 4341,
    "glover": 20012,
    "multiple": 3674,
    "\u5b97": 1821,
    "bitter": 8618,
    "ambulance": 10771,
    "pitched": 8219,
    "\u0636": 1285,
    "##ur": 3126,
    "weeds": 20777,
    "690": 28066,
    "thorpe": 20249,
    "featuring": 3794,
    "gustavo": 24801,
    "christmas": 4234,
    "python": 18750,
    "scared": 6015,
    "trash": 11669,
    "eritrea": 26040,
    "[unused274]": 279,
    "burgess": 17754,
    "sniffing": 27646,
    "287": 23090,
    "##mbit": 28878,
    "nests": 17415,
    "restrictive": 25986,
    "audience": 4378,
    "expulsion": 18272,
    "##etta": 16549,
    "cp": 18133,
    "atoms": 13353,
    "scouting": 14299,
    "\u0e17": 1412,
    "component": 6922,
    "treacherous": 26648,
    "bicycle": 10165,
    "scholarships": 15691,
    "register": 4236,
    "##olar": 19478,
    "broken": 3714,
    "palms": 9486,
    "smallest": 10479,
    "bun": 21122,
    "minerals": 13246,
    "##guard": 18405,
    "admiralty": 14179,
    "##ggle": 24679,
    "greedy": 20505,
    "##bb": 10322,
    "absorbed": 9063,
    "serge": 21747,
    "atmosphere": 7224,
    "1947": 4006,
    "recounts": 23412,
    "##person": 27576,
    "kong": 4290,
    "##emi": 23238,
    "256": 17273,
    "spawn": 25645,
    "53": 5187,
    "seem": 4025,
    "##vered": 25896,
    "##ely": 26006,
    "lick": 15385,
    "else": 2842,
    "deco": 21933,
    "asiatic": 23983,
    "$": 1002,
    "viewpoint": 21386,
    "##resses": 25932,
    "fairies": 20182,
    "breuning": 18177,
    "guangdong": 21287,
    "electrical": 5992,
    "1685": 25053,
    "##\u304a": 30176,
    "japan": 2900,
    "propagation": 20594,
    "insulation": 25710,
    "outdated": 25963,
    "bathroom": 5723,
    "##burn": 8022,
    "guiana": 23568,
    "teenager": 10563,
    "1816": 12357,
    "trafford": 26894,
    "thwarted": 28409,
    "teams": 2780,
    "coca": 16787,
    "huron": 21899,
    "contracting": 21012,
    "id": 8909,
    "reside": 13960,
    "carpenter": 10533,
    "irwin": 17514,
    "southwestern": 8772,
    "kinda": 17704,
    "continue": 3613,
    "\u9752": 1975,
    "patiently": 19080,
    "##laid": 24393,
    "amor": 16095,
    "##cape": 19464,
    "scratch": 11969,
    "##haya": 26115,
    "##zh": 27922,
    "bothering": 17067,
    "hard": 2524,
    "livery": 18475,
    "hutton": 20408,
    "verdi": 20580,
    "resigning": 24642,
    "clothed": 24963,
    "refrigerator": 18097,
    "##uil": 19231,
    "##ivation": 25761,
    "brilliant": 8235,
    "see": 2156,
    "lowe": 14086,
    "faye": 19243,
    "squeak": 29552,
    "faction": 10233,
    "consistency": 18700,
    "##ossa": 21842,
    "mata": 22640,
    "pretty": 3492,
    "##gny": 19393,
    "frozen": 7708,
    "[unused874]": 879,
    "worship": 7425,
    "gunfire": 16978,
    "##mide": 24284,
    "##ft": 6199,
    "immigration": 7521,
    "##aw": 10376,
    "##pods": 22925,
    "000": 2199,
    "##pr": 18098,
    "blinds": 28279,
    "##used": 13901,
    "##cts": 16649,
    "\u305d": 1660,
    "wherever": 11210,
    "relative": 5816,
    "[unused923]": 928,
    "##nus": 10182,
    "publishing": 4640,
    "sicilian": 22584,
    "kata": 29354,
    "effectiveness": 12353,
    "teaser": 27071,
    "loop": 7077,
    "bee": 10506,
    "himself": 2370,
    "aspiring": 22344,
    "residues": 22644,
    "[unused530]": 535,
    "lim": 18525,
    "greyhound": 21220,
    "##ttle": 26328,
    "democrat": 7672,
    "metal": 3384,
    "chatting": 22331,
    "eddie": 5752,
    "##ease": 19500,
    "nike": 18368,
    "sonar": 24609,
    "flemish": 15427,
    "studios": 4835,
    "fragment": 15778,
    "bumps": 18548,
    "administration": 3447,
    "tar": 16985,
    "pebbles": 28962,
    "saving": 7494,
    "quay": 21048,
    "ortiz": 19439,
    "malaya": 19979,
    "entrusted": 18011,
    "durban": 25040,
    "scrutiny": 17423,
    "##rgy": 22637,
    "wrecked": 18480,
    "highways": 10292,
    "##kushima": 24917,
    "##castle": 23662,
    "everest": 23914,
    "##amine": 19915,
    "thy": 15177,
    "beacon": 14400,
    "louder": 10989,
    "responds": 16412,
    "##\u05d3": 29791,
    "95": 5345,
    "iranian": 7726,
    "waist": 5808,
    "among": 2426,
    "dish": 9841,
    "informs": 15670,
    "[unused866]": 871,
    "\u795e": 1925,
    "pillars": 13766,
    "\u05db": 1252,
    "wealthiest": 27809,
    "##\u062a": 29817,
    "basin": 6403,
    "##\u0985": 29883,
    "locating": 26339,
    "##puted": 29462,
    "craters": 27561,
    "dimension": 9812,
    "##llo": 7174,
    "distal": 29333,
    "indictment": 24265,
    "resident": 6319,
    "pensions": 22024,
    "presents": 7534,
    "##bo": 5092,
    "frowning": 14587,
    "mi": 2771,
    "likelihood": 16593,
    "potato": 14557,
    "mt": 11047,
    "\u0454": 1212,
    "defeats": 14222,
    "inaccessible": 29104,
    "##acio": 21361,
    "ahead": 3805,
    "opposition": 4559,
    "##\u110e": 30001,
    "[unused849]": 854,
    "##\u091a": 29854,
    "coloured": 11401,
    "its": 2049,
    "crimean": 20516,
    "##\u0638": 29829,
    "##und": 8630,
    "achievement": 6344,
    "islands": 3470,
    "militant": 16830,
    "student": 3076,
    "sensations": 21378,
    "22": 2570,
    "lynne": 26938,
    "located": 2284,
    "##sitor": 28307,
    "dungeons": 20264,
    "##anus": 20849,
    "helplessly": 24942,
    "20s": 27074,
    "norris": 15466,
    "donor": 15009,
    "##itung": 28813,
    "##uca": 18100,
    "criticized": 6367,
    "arabic": 5640,
    "math": 8785,
    "whispered": 3990,
    "legislator": 22964,
    "##brush": 18623,
    "490": 22288,
    "testament": 9025,
    "lansing": 22304,
    "##cis": 22987,
    "##\u7f8e": 30461,
    "bernardo": 21175,
    "wet": 4954,
    "antennas": 26315,
    "evangelist": 24036,
    "fleeting": 25085,
    "\u1da0": 1512,
    "gym": 9726,
    "splashed": 22055,
    "tax": 4171,
    "##\u116d": 30013,
    "dina": 26146,
    "itunes": 11943,
    "grow": 4982,
    "##\u0e19": 29949,
    "nasser": 26099,
    "hispanic": 6696,
    "animals": 4176,
    "prescription": 20422,
    "trance": 16588,
    "wan": 14071,
    "##m": 2213,
    "\u2089": 1556,
    "##mare": 24376,
    "objectives": 11100,
    "females": 3801,
    "oro": 20298,
    "[unused411]": 416,
    "randy": 9744,
    "record": 2501,
    "autobiography": 10828,
    "henrietta": 20775,
    "[unused648]": 653,
    "economy": 4610,
    "travelled": 7837,
    "clutch": 15357,
    "##sef": 20106,
    "fein": 27132,
    "chris": 3782,
    "athenian": 26956,
    "storm": 4040,
    "chin": 5413,
    "ping": 17852,
    "orthodoxy": 26582,
    "thailand": 6504,
    "aston": 14327,
    "bangladesh": 7269,
    "blessing": 13301,
    "childless": 26983,
    "downwards": 28457,
    "##lion": 18964,
    "homestead": 14473,
    "net": 5658,
    "waterfront": 16317,
    "peerage": 18760,
    "branch": 3589,
    "photographic": 12416,
    "clock": 5119,
    "cash": 5356,
    "painted": 4993,
    "gaining": 8550,
    "numbering": 15200,
    "brunswick": 9192,
    "glittering": 20332,
    "troops": 3629,
    "gases": 15865,
    "traded": 7007,
    "##\u5e74": 30366,
    "##cchi": 25955,
    "[unused718]": 723,
    "gesture": 9218,
    "##ache": 15395,
    "tomatoes": 12851,
    "defended": 8047,
    "copper": 6967,
    "boston": 3731,
    "plaintiffs": 23953,
    "##la": 2721,
    "bandwidth": 20235,
    "##onia": 12488,
    "##ffled": 28579,
    "sane": 22856,
    "[unused477]": 482,
    "mischief": 25166,
    "meiji": 23214,
    "regiment": 3483,
    "raleigh": 15842,
    "##\u2191": 30112,
    "pumped": 16486,
    "1925": 4849,
    "rees": 22131,
    "[unused310]": 315,
    "written": 2517,
    "breasts": 12682,
    "reclaim": 24104,
    "nowhere": 7880,
    "[unused311]": 316,
    "responsibilities": 10198,
    "maia": 23478,
    "gage": 10012,
    "rican": 13641,
    "muzzle": 17750,
    "[unused584]": 589,
    "denies": 23439,
    "divorce": 8179,
    "vanilla": 21161,
    "ensuing": 13831,
    "gough": 29124,
    "le": 3393,
    "hartford": 13381,
    "prehistoric": 14491,
    "nell": 20970,
    "wrongly": 29116,
    "\u0f44": 1427,
    "useless": 11809,
    "nu": 16371,
    "possessive": 22105,
    "spherical": 18970,
    "##rri": 18752,
    "##selle": 19358,
    "beginning": 2927,
    "##lman": 12624,
    "##mic": 7712,
    "##xes": 20156,
    "disciples": 17102,
    "textile": 12437,
    "shopping": 6023,
    "obscure": 14485,
    "##ore": 5686,
    "motioned": 13054,
    "##\u8033": 30463,
    "worms": 16253,
    "pasture": 20787,
    "upside": 14961,
    "induction": 15946,
    "attempting": 7161,
    "immensely": 24256,
    "bazaar": 22774,
    "wa": 11333,
    "order": 2344,
    "switzerland": 5288,
    "sometime": 8811,
    "droplets": 27126,
    "reservoirs": 22535,
    "thanked": 15583,
    "##bah": 24206,
    "##\u3061": 30188,
    "excused": 28512,
    "1635": 27426,
    "hilltop": 25566,
    "abbess": 28010,
    "tragedy": 10576,
    "knicks": 27817,
    "superior": 6020,
    "spinning": 9419,
    "isolated": 7275,
    "ea": 19413,
    "cox": 9574,
    "precautions": 29361,
    "los": 3050,
    "rescuing": 23659,
    "count": 4175,
    "lies": 3658,
    "mika": 27857,
    "aux": 19554,
    "reared": 23295,
    "era": 3690,
    "owners": 5608,
    "aus": 17151,
    "turtles": 16489,
    "fm": 4718,
    "[unused298]": 303,
    "pal": 14412,
    "##\u044d": 29756,
    "[unused892]": 897,
    "##while": 19927,
    "armor": 8177,
    "dream": 3959,
    "valve": 10764,
    "encompassed": 24058,
    "assembly": 3320,
    "affordable": 15184,
    "dresden": 12983,
    "meal": 7954,
    "translator": 11403,
    "motorsport": 21044,
    "dams": 17278,
    "manly": 19385,
    "gottingen": 23607,
    "canton": 8770,
    "shortest": 20047,
    "vamps": 24064,
    "marlins": 27055,
    "##ret": 13465,
    "cancelled": 8014,
    "ryder": 11731,
    "pitted": 25895,
    "plunged": 16687,
    "use": 2224,
    "##iner": 26455,
    "airbus": 20901,
    "[unused212]": 217,
    "kilda": 22633,
    "pets": 18551,
    "seriousness": 27994,
    "everybody": 7955,
    "##cars": 20745,
    "mccartney": 15320,
    "stephen": 4459,
    "##ghi": 28891,
    "##ap": 9331,
    "utter": 14395,
    "transformations": 21865,
    "##islaus": 25678,
    "invitational": 20129,
    "carlo": 9758,
    "gate": 4796,
    "delighted": 15936,
    "setup": 16437,
    "volatile": 20606,
    "human": 2529,
    "simpson": 9304,
    "##vat": 22879,
    "##rians": 23543,
    "##cking": 23177,
    "noir": 15587,
    "pure": 5760,
    "mariano": 22695,
    "[unused128]": 133,
    "highlanders": 22672,
    "sideways": 12579,
    "condoms": 29094,
    "slice": 14704,
    "cindy": 15837,
    "pulse": 8187,
    "morals": 25288,
    "tb": 26419,
    "328": 25256,
    "\u044b": 1206,
    "##gu": 12193,
    "254": 22234,
    "##iny": 24300,
    "compass": 16681,
    "sq": 5490,
    "anthropological": 28395,
    "fae": 17282,
    "pads": 19586,
    "dreadful": 21794,
    "clit": 17962,
    "050": 28714,
    "##rity": 15780,
    "silently": 8601,
    "scripts": 14546,
    "##wei": 19845,
    "##vite": 25217,
    "anxiety": 10089,
    "gb": 16351,
    "verlag": 14552,
    "##ctric": 22601,
    "prospect": 9824,
    "boys": 3337,
    "cobalt": 25627,
    "fastest": 7915,
    "kala": 26209,
    "taiwan": 6629,
    "bark": 11286,
    "kenji": 25894,
    "##amina": 27651,
    "bubbling": 25054,
    "weight": 3635,
    "incorporates": 12374,
    "##nor": 12131,
    "\u1103": 1457,
    "angled": 18756,
    "##ologist": 8662,
    "38th": 22051,
    "##\u7687": 30443,
    "hiss": 19074,
    "rouge": 12801,
    "##\u03bf\u03c2": 15297,
    "##59": 28154,
    "undercover": 16382,
    "flirt": 27978,
    "tanned": 25973,
    "[unused305]": 310,
    "feat": 8658,
    "##mal": 9067,
    "\u20b1": 1575,
    "##cend": 23865,
    "refugee": 13141,
    "andre": 7213,
    "##istic": 6553,
    "##don": 5280,
    "##pe": 5051,
    "[unused10]": 11,
    "##iya": 8717,
    "herd": 14906,
    "\u0bb5": 1394,
    "eve": 6574,
    "bored": 11471,
    "body": 2303,
    "helens": 24074,
    "impacts": 14670,
    "whenever": 7188,
    "##her": 5886,
    "ms": 5796,
    "supplemented": 20585,
    "pronouns": 26028,
    "sawyer": 13975,
    "satellites": 14549,
    "madras": 12993,
    "##erry": 19826,
    "benny": 11945,
    "wickets": 10370,
    "##bra": 10024,
    "immersion": 27013,
    "37": 4261,
    "river": 2314,
    "henrik": 18745,
    "stumbled": 9845,
    "umbrella": 12977,
    "neighbor": 11429,
    "flexibility": 16991,
    "restructuring": 18322,
    "##enna": 24397,
    "sgt": 17001,
    "robbins": 18091,
    "hawke": 24882,
    "restore": 9239,
    "futuristic": 28971,
    "cm": 4642,
    "\u0433": 1183,
    "stifled": 27146,
    "receipts": 28258,
    "##udeau": 27627,
    "sociological": 24846,
    "##wehr": 27156,
    "enduring": 16762,
    "darling": 9548,
    "\u0434": 1184,
    "\u00aa": 1076,
    "forests": 6138,
    "researcher": 10753,
    "every": 2296,
    "exact": 6635,
    "exceptions": 11790,
    "interaction": 8290,
    "priorities": 18402,
    "butch": 17520,
    "\u00ae": 1079,
    "det": 20010,
    "deposed": 18298,
    "##ken": 7520,
    "infiltrate": 29543,
    "turkey": 4977,
    "##vron": 28588,
    "lenses": 15072,
    "[unused444]": 449,
    "mere": 8210,
    "navarro": 23524,
    "##tang": 26067,
    "[unused670]": 675,
    "plastic": 6081,
    "already": 2525,
    "mcgregor": 23023,
    "injury": 4544,
    "racial": 5762,
    "poisonous": 22641,
    "rightful": 27167,
    "etc": 4385,
    "lash": 25210,
    "arrangement": 6512,
    "42nd": 21373,
    "haji": 28174,
    "wards": 11682,
    "##\u6bd4": 30416,
    "nissan": 16509,
    "##for": 29278,
    "##bai": 26068,
    "elaine": 15263,
    "pathway": 12732,
    "danced": 10948,
    "laughter": 7239,
    "buchanan": 14349,
    "##atable": 27892,
    "##fleet": 27657,
    "440": 17422,
    "##feld": 8151,
    "##\u7af9": 30459,
    "##\u305b": 30185,
    "##\u307e": 30203,
    "\u5e78": 1841,
    "immortality": 20107,
    "##uddin": 17375,
    "chopped": 24881,
    "against": 2114,
    "bitch": 7743,
    "shooting": 5008,
    "famous": 3297,
    "##pose": 20688,
    "flint": 13493,
    "##rer": 14544,
    "##hr": 8093,
    "##vus": 27500,
    "##mann": 5804,
    "imperial": 4461,
    "repealed": 21492,
    "##har": 8167,
    "initiatives": 11107,
    "prince": 3159,
    "autism": 19465,
    "shoot": 5607,
    "delilah": 23006,
    "##edd": 22367,
    "silva": 11183,
    "antiquity": 16433,
    "saul": 16897,
    "jointly": 10776,
    "marquis": 13410,
    "outnumbered": 21943,
    "\u5bbf": 1826,
    "##oum": 24778,
    "securities": 12012,
    "##gli": 25394,
    "exercised": 17747,
    "federico": 20493,
    "visible": 5710,
    "##mith": 19864,
    "culinary": 20560,
    "enzo": 26218,
    "bravery": 16534,
    "broom": 23528,
    "congregation": 7769,
    "nes": 24524,
    "##wives": 23744,
    "leaps": 29195,
    "cd": 3729,
    "woke": 8271,
    "##kins": 14322,
    "nanjing": 21455,
    "##on": 2239,
    "discharge": 11889,
    "nutrition": 14266,
    "coliseum": 18338,
    "[unused317]": 322,
    "sloop": 24786,
    "alphabet": 12440,
    "incident": 5043,
    "peace": 3521,
    "##gate": 5867,
    "management": 2968,
    "##ipes": 28108,
    "werewolves": 18306,
    "##lord": 19980,
    "exiting": 22371,
    "de": 2139,
    "[unused307]": 312,
    "chassis": 11832,
    "##gizing": 28660,
    "myths": 17218,
    "accountant": 17907,
    "unanimously": 15645,
    "##rdy": 17460,
    "[unused707]": 712,
    "flatly": 24295,
    "pu": 16405,
    "##mm": 7382,
    "anchors": 24674,
    "advocated": 11886,
    "replicate": 28024,
    "ngo": 17895,
    "leger": 26523,
    "indianapolis": 9506,
    "1777": 16144,
    "foo": 29379,
    "protestants": 19592,
    "clarify": 25037,
    "constitute": 12346,
    "2009": 2268,
    "wow": 10166,
    "westfield": 26584,
    "stepped": 3706,
    "restricting": 26996,
    "##lm": 13728,
    "##\u57ce": 30330,
    "##ye": 6672,
    "##thesis": 25078,
    "conquered": 11438,
    "milky": 21582,
    "##itate": 17570,
    "catalogue": 10161,
    "authenticity": 21452,
    "reliable": 10539,
    "yankee": 17652,
    "winthrop": 28974,
    "clocks": 20940,
    "toro": 23790,
    "alderman": 18977,
    "referring": 7727,
    "##\u0274": 29690,
    "stalker": 23883,
    "##alla": 25425,
    "nest": 9089,
    "bulldog": 28628,
    "##awa": 10830,
    "adjacent": 5516,
    "##gration": 29397,
    "remaining": 3588,
    "towels": 24213,
    "hamid": 24811,
    "damages": 12394,
    "pharmaceutical": 13859,
    "counsel": 9517,
    "pointed": 4197,
    "components": 6177,
    "redevelopment": 15582,
    "##\u00a1": 29644,
    "publicized": 24928,
    "authoritarian": 27246,
    "##written": 15773,
    "##hedron": 26440,
    "[unused654]": 659,
    "euro": 9944,
    "excuses": 21917,
    "filly": 22062,
    "confrontation": 13111,
    "430": 19540,
    "promotion": 4712,
    "require": 5478,
    "striker": 11854,
    "collaborations": 17437,
    "firing": 7493,
    "measure": 5468,
    "grant": 3946,
    "329": 29567,
    "##\u266f": 30154,
    "treated": 5845,
    "nueva": 24536,
    "balfour": 27560,
    "##urg": 12514,
    "afrikaans": 28673,
    "unaware": 11499,
    "loyola": 21580,
    "pascal": 17878,
    "candles": 14006,
    "predecessor": 8646,
    "flowering": 10902,
    "threatens": 17016,
    "##let": 7485,
    "walsall": 29054,
    "considerations": 16852,
    "\u5927": 1810,
    "independent": 2981,
    "curtis": 9195,
    "##yde": 18124,
    "##osis": 12650,
    "cap": 6178,
    "uranium": 14247,
    "stopping": 7458,
    "manny": 16320,
    "forgotten": 6404,
    "paddington": 26318,
    "animated": 6579,
    "spotlight": 17763,
    "lin": 11409,
    "defective": 28829,
    "unfair": 15571,
    "[unused39]": 40,
    "chew": 21271,
    "##rem": 28578,
    "lips": 2970,
    "##ished": 13295,
    "christchurch": 15880,
    "demonic": 23170,
    "lyric": 13677,
    "maternal": 11062,
    "trying": 2667,
    "##osi": 20049,
    "delegates": 10284,
    "forgive": 9641,
    "shareholders": 15337,
    "strikers": 26049,
    "##dy": 5149,
    "##\u6c0f": 30417,
    "ko": 12849,
    "clown": 15912,
    "corbett": 24119,
    "automobile": 9935,
    "?": 1029,
    "amazement": 21606,
    "##san": 8791,
    "sync": 26351,
    "reprise": 16851,
    "crates": 27619,
    "intervention": 8830,
    "##hima": 16369,
    "\u207f": 1546,
    "forms": 3596,
    "shaved": 20665,
    "fueled": 17999,
    "[unused662]": 667,
    "\u6c11": 1892,
    "event": 2724,
    "cream": 6949,
    "federal": 2976,
    "[unused541]": 546,
    "locomotive": 8098,
    "batteries": 10274,
    "consecration": 24730,
    "401": 22649,
    "permanently": 8642,
    "canyon": 8399,
    "risen": 13763,
    "nonfiction": 25753,
    "granada": 16553,
    "swiped": 24452,
    "[unused464]": 469,
    "415": 24690,
    "modernized": 27140,
    "##apes": 29040,
    "truce": 18415,
    "terrified": 10215,
    "shelly": 28360,
    "elbows": 13690,
    "collateral": 24172,
    "extracts": 27059,
    "##\u1106": 29995,
    "colleagues": 8628,
    "lebanon": 8341,
    "ser": 14262,
    "vendors": 17088,
    "characterised": 17253,
    "anytime": 15933,
    "ahmad": 10781,
    "toured": 7255,
    "sevens": 19463,
    "operations": 3136,
    "capturing": 11847,
    "triad": 25355,
    "illumination": 21203,
    "yen": 18371,
    "depicts": 11230,
    "kumar": 9600,
    "spectator": 21027,
    "guitarists": 28523,
    "stryker": 25429,
    "##chon": 24561,
    "##\u0f42": 29962,
    "belongings": 20033,
    "beige": 28799,
    "dept": 29466,
    "mounts": 19363,
    "gun": 3282,
    "rye": 20926,
    "blanchard": 26870,
    "pointedly": 28713,
    "sensitivity": 14639,
    "collapses": 25938,
    "[unused203]": 208,
    "miami": 5631,
    "fixed": 4964,
    "##lake": 14530,
    "foster": 6469,
    "history": 2381,
    "timetable": 23839,
    "bathurst": 21897,
    "2010s": 26817,
    "prey": 8336,
    "mma": 21021,
    "##vati": 20203,
    "luzon": 21622,
    "headlines": 19377,
    "##nger": 11392,
    "[unused635]": 640,
    "adolescence": 29101,
    "marsden": 29558,
    "stands": 4832,
    "##ogical": 20734,
    "agreements": 10540,
    "jain": 17136,
    "readings": 15324,
    "##roller": 26611,
    "entrepreneurs": 17633,
    "danzig": 26669,
    "fallon": 16443,
    "cent": 9358,
    "enriched": 25202,
    "armagh": 24678,
    "koreans": 24651,
    "kurdish": 15553,
    "spartans": 24293,
    "perched": 17335,
    "parting": 20254,
    "securely": 28999,
    "jiang": 20613,
    "musician": 5455,
    "##hing": 12053,
    "maxi": 21510,
    "##kot": 23342,
    "chao": 22455,
    "enforcing": 27455,
    "drill": 12913,
    "##ih": 19190,
    "croydon": 21838,
    "##wski": 10344,
    "scratched": 15047,
    "exhibiting": 22922,
    "##analysis": 25902,
    "cho": 16480,
    "removed": 3718,
    "ultimately": 4821,
    "searched": 9022,
    "ranks": 6938,
    "192": 17613,
    "philippine": 7802,
    "admiration": 17005,
    "albans": 26311,
    "pounds": 7038,
    "hotter": 22302,
    "father": 2269,
    "protects": 18227,
    "##qi": 14702,
    "contents": 8417,
    "collisions": 28820,
    "restroom": 28249,
    "saudi": 8174,
    "oboe": 22523,
    "francaise": 18427,
    "upcoming": 9046,
    "termination": 18287,
    "sticky": 15875,
    "##uni": 19496,
    "diploma": 9827,
    "walter": 4787,
    "reappeared": 23040,
    "tenderness": 24605,
    "[unused594]": 599,
    "[unused962]": 967,
    "##rden": 18246,
    "missouri": 5284,
    "nouns": 19211,
    "##\u0142": 18818,
    "listing": 10328,
    "profile": 6337,
    "theo": 14833,
    "gunners": 29000,
    "constable": 12294,
    "liter": 23675,
    "fiji": 11464,
    "##\u0435": 15290,
    "contrasted": 22085,
    "armenia": 10110,
    "themselves": 3209,
    "lacked": 10858,
    "erase": 22505,
    "intercity": 20651,
    "carroll": 10767,
    "neighborhoods": 11681,
    "proposals": 10340,
    "profit": 5618,
    "plume": 26888,
    "panorama": 23652,
    "burnham": 25295,
    "spraying": 29035,
    "nevertheless": 6600,
    "lego": 23853,
    "redesigned": 17051,
    "simpsons": 19047,
    "239": 23688,
    "\u02bb": 1145,
    "\u0dc0": 1407,
    "mason": 6701,
    "218": 20741,
    "generating": 11717,
    "incorrectly": 19721,
    "##ask": 19895,
    "temps": 29023,
    "corrosion": 24625,
    "warrington": 23051,
    "##vre": 12229,
    "quartermaster": 24688,
    "##?": 29632,
    "basalt": 26343,
    "spheres": 19885,
    "johanna": 21498,
    "lacking": 11158,
    "##at": 4017,
    "forgetting": 17693,
    "800": 5385,
    "shapiro": 24630,
    "home": 2188,
    "scrambled": 13501,
    "##vani": 27760,
    "mora": 26821,
    "##rigues": 22934,
    "concord": 16557,
    "workout": 27090,
    "sven": 21313,
    "rob": 6487,
    "credible": 23411,
    "steamed": 21734,
    "raceway": 23018,
    "anderson": 5143,
    "respond": 6869,
    "suggested": 4081,
    "courts": 5434,
    "synth": 24203,
    "##kti": 22462,
    "##rain": 21166,
    "observe": 11949,
    "england": 2563,
    "drug": 4319,
    "known": 2124,
    "antigua": 26023,
    "maze": 15079,
    "\u0bb0": 1391,
    "lyndon": 23037,
    "rosen": 21701,
    "challenger": 12932,
    "##uet": 23361,
    "##tua": 26302,
    "compose": 17202,
    "dubious": 22917,
    "##rao": 25667,
    "^": 1034,
    "macleod": 23075,
    "wendy": 12815,
    "bey": 20289,
    "\u03b7": 1161,
    "##ivity": 7730,
    "nurse": 6821,
    "pneumonia": 18583,
    "julie": 7628,
    "[unused747]": 752,
    "aware": 5204,
    "thames": 11076,
    "##\u2099": 19110,
    "coyotes": 26880,
    "##bags": 26813,
    "chances": 9592,
    "deserts": 28858,
    "\u05e0": 1257,
    "fashionable": 19964,
    "rotational": 25254,
    "wren": 16255,
    "spa": 12403,
    "1650": 21875,
    "##hard": 11783,
    "kat": 10645,
    "framed": 10366,
    "1855": 8492,
    "##plication": 21557,
    "##sed": 6924,
    "departmental": 28912,
    "awaited": 19605,
    "##asia": 15396,
    "fit": 4906,
    "club": 2252,
    "\u2030": 1530,
    "children": 2336,
    "noticed": 4384,
    "eng": 25540,
    "crimson": 11466,
    "neolithic": 19061,
    "1866": 7647,
    "plight": 24525,
    "wedge": 17632,
    "##rwood": 20941,
    "ultimatum": 29227,
    "transforms": 21743,
    "##dai": 21351,
    "allegiance": 14588,
    "##pal": 12952,
    "impromptu": 29213,
    "candidacy": 17057,
    "explosives": 14792,
    "propulsion": 16404,
    "brittle": 24650,
    "pact": 14790,
    "cylinder": 7956,
    "mole": 16709,
    "prop": 17678,
    "##hetic": 20086,
    "motorcycle": 9055,
    "##hardt": 13778,
    "redesign": 25136,
    "attention": 3086,
    "##aring": 22397,
    "spell": 6297,
    "investigating": 11538,
    "##gno": 26745,
    "togo": 23588,
    "##hak": 20459,
    "reportedly": 7283,
    "consular": 27326,
    "full": 2440,
    "##mount": 20048,
    "##rth": 15265,
    "##iard": 14619,
    "##\u0627\u0646": 18511,
    "likely": 3497,
    "##aceae": 18339,
    "turnpike": 17116,
    "berkshire": 15570,
    "chilled": 23362,
    "##\u062c": 29819,
    "documenting": 23138,
    "##dell": 12662,
    "rear": 4373,
    "harassed": 28186,
    "aristotle": 17484,
    "logistics": 12708,
    "cade": 18615,
    "300": 3998,
    "extinct": 8548,
    "mortimer": 17416,
    "alexis": 13573,
    "janice": 20029,
    "flute": 8928,
    "##weight": 11179,
    "##vis": 11365,
    "rama": 14115,
    "[unused1]": 2,
    "expenditures": 22697,
    "cheshire": 13789,
    "petals": 15829,
    "critic": 6232,
    "dissolution": 12275,
    "##gol": 24141,
    "##claiming": 27640,
    "##hers": 22328,
    "preparing": 8225,
    "honoured": 15546,
    "b1": 29491,
    "donkey": 20325,
    "##ro": 3217,
    "vocational": 13099,
    "hubert": 15346,
    "duran": 22959,
    "nyc": 16392,
    "bombs": 9767,
    "fooled": 25857,
    "europe": 2885,
    "##ation": 3370,
    "[unused360]": 365,
    "sympathetic": 13026,
    "generated": 7013,
    "ernst": 10728,
    "member": 2266,
    "robertson": 9923,
    "risking": 26875,
    "##lten": 29005,
    "\u2605": 1620,
    "##\u09b7": 29911,
    "communion": 15661,
    "telenovela": 25754,
    "##dna": 28911,
    "ankles": 15392,
    "constitutes": 17367,
    "brady": 10184,
    "thinner": 23082,
    "tipped": 11182,
    "owner": 3954,
    "##yre": 16363,
    "[unused69]": 70,
    "[unused891]": 896,
    "lore": 19544,
    "##9th": 25660,
    "bilateral": 17758,
    "insistent": 29204,
    "conversation": 4512,
    "\u6bd4": 1890,
    "##utive": 28546,
    "gerard": 11063,
    "strengthening": 16003,
    "[unused457]": 462,
    "##ades": 18673,
    "spice": 17688,
    "##gh": 5603,
    "virtual": 7484,
    "nationale": 17360,
    "uniforms": 11408,
    "bates": 11205,
    "optimal": 15502,
    "bohemia": 16799,
    "1844": 9730,
    "chairperson": 19072,
    "qing": 13282,
    "[unused187]": 192,
    "##enne": 24336,
    "##sman": 11512,
    "educator": 11490,
    "\u2248": 1606,
    "slabs": 28761,
    "\u00b3": 1083,
    "jacobs": 12988,
    "ventilation": 19536,
    "cad": 28353,
    "raphael": 12551,
    "memorable": 13432,
    "steamboat": 24897,
    "transcription": 14193,
    "shoulders": 4065,
    "safari": 23591,
    "1829": 11523,
    "##raction": 25533,
    "##oca": 24755,
    "##\u110c": 30000,
    "\u5143": 1769,
    "sublime": 28341,
    "wise": 7968,
    "quickly": 2855,
    "##inates": 28184,
    "notch": 18624,
    "substituted": 17316,
    "1710": 23841,
    "nt": 23961,
    "messed": 18358,
    "##ose": 9232,
    "abduction": 23415,
    "retailer": 20196,
    "acquisition": 7654,
    "enslaved": 22216,
    "wadi": 28380,
    "##nica": 12782,
    "sean": 5977,
    "happy": 3407,
    "##ctic": 13306,
    "##most": 11800,
    "permits": 14245,
    "[unused822]": 827,
    "june": 2238,
    "unless": 4983,
    "nuts": 12264,
    "emperor": 3750,
    "opening": 3098,
    "structured": 14336,
    "juliet": 13707,
    "enemy": 4099,
    "smith": 3044,
    "antonia": 24272,
    "purpose": 3800,
    "membership": 5779,
    "escort": 8620,
    "sans": 20344,
    "socket": 22278,
    "degree": 3014,
    "representations": 15066,
    "marseille": 16766,
    "impressions": 19221,
    "noses": 27518,
    "goodman": 14514,
    "abstract": 10061,
    "hellenistic": 27464,
    "olivia": 7710,
    "biting": 12344,
    "[unused588]": 593,
    "##ising": 9355,
    "recruits": 15024,
    "timmy": 27217,
    "\u0644": 1294,
    "wide": 2898,
    "tapping": 15135,
    "adobe": 18106,
    "shielding": 25553,
    "tilted": 9939,
    "doug": 8788,
    "##ness": 2791,
    "163": 17867,
    "strapped": 18019,
    "taft": 19911,
    "protesting": 21248,
    "turns": 4332,
    "thieves": 15862,
    "rejects": 19164,
    "co\u2082": 20190,
    "##cene": 17968,
    "##holder": 14528,
    "4": 1018,
    "country": 2406,
    "fender": 19028,
    "malaysian": 11843,
    "quentin": 15969,
    "leather": 5898,
    "liar": 16374,
    "erskine": 27139,
    "extremes": 28800,
    "gal": 14891,
    "repertoire": 13646,
    "mel": 11463,
    "##tered": 14050,
    "adventurer": 29506,
    "\u767a": 1914,
    "[unused908]": 913,
    "47": 4700,
    "trough": 23389,
    "##hope": 26441,
    "fortification": 23050,
    "sung": 7042,
    "segregation": 18771,
    "interception": 17385,
    "instinctively": 16607,
    "rape": 9040,
    "vanished": 9955,
    "[unused975]": 980,
    "terror": 7404,
    "\u06a9": 1304,
    "##lub": 27959,
    "humid": 14178,
    "\uff01": 1986,
    "inspire": 18708,
    "why": 2339,
    "argyle": 26503,
    "400": 4278,
    "##jet": 15759,
    "peking": 27057,
    "episcopal": 9134,
    "eyed": 7168,
    "ticket": 7281,
    "packet": 14771,
    "##loid": 27710,
    "##nagar": 14346,
    "217": 20335,
    "[unused567]": 572,
    "\u738b": 1909,
    "engaged": 5117,
    "satin": 19412,
    "taxpayers": 26457,
    "\u1d4d": 1500,
    "emerald": 14110,
    "aisles": 25442,
    "yesterday": 7483,
    "##nne": 10087,
    "crop": 10416,
    "##ova": 7103,
    "demi": 27668,
    "heidelberg": 16793,
    "detectors": 25971,
    "hepburn": 22004,
    "##sul": 23722,
    "incline": 27461,
    "custom": 7661,
    "bra": 11655,
    "complexes": 15420,
    "resin": 24604,
    "alfa": 22989,
    "[unused288]": 293,
    "rosemary": 18040,
    "olson": 21583,
    "hooked": 13322,
    "joked": 19700,
    "prohibits": 25822,
    "teasing": 12216,
    "paradigm": 20680,
    "protein": 5250,
    "##aa": 11057,
    "##lone": 27165,
    "##gence": 17905,
    "##rous": 13288,
    "freedom": 4071,
    "##ring": 4892,
    "whisper": 7204,
    "developments": 8973,
    "stepmother": 26959,
    "templar": 27850,
    "averaging": 14985,
    "1978": 3301,
    "spire": 19823,
    "\u961d": 1970,
    "beaumont": 16210,
    "intrinsic": 23807,
    "citizenship": 9068,
    "maj": 16686,
    "##ellant": 24178,
    "meanwhile": 5564,
    "268": 25143,
    "##ow": 5004,
    "##\u04cf": 29765,
    "schmidt": 12940,
    "offenses": 25173,
    "faster": 5514,
    "sen": 12411,
    "next": 2279,
    "unlock": 19829,
    "excuse": 8016,
    "\u203f": 1534,
    "##\u03c2": 19579,
    "therese": 25598,
    "versailles": 18346,
    "brno": 28634,
    "raju": 25098,
    "\u0142odz": 17814,
    "justified": 15123,
    "[unused885]": 890,
    "pickering": 27078,
    "prominence": 12144,
    "arctic": 10162,
    "vanderbilt": 17066,
    "sadness": 12039,
    "ignited": 22395,
    "[unused155]": 160,
    "trained": 4738,
    "\u1d3a": 1494,
    "estuary": 18056,
    "richest": 18429,
    "simultaneous": 17424,
    "disguised": 17330,
    "##ages": 13923,
    "##17": 16576,
    "##rrie": 22155,
    "repository": 22409,
    "roaring": 17197,
    "##\u0937": 29873,
    "infectious": 16514,
    "disasters": 18665,
    "tendency": 11765,
    "v8": 15754,
    "completion": 6503,
    "##rada": 28510,
    "peugeot": 26385,
    "sham": 25850,
    "nicholas": 6141,
    "earrings": 27212,
    "bauer": 17838,
    "frightening": 17115,
    "##vern": 23062,
    "##pers": 7347,
    "mill": 4971,
    "featherweight": 27145,
    "join": 3693,
    "##mc": 12458,
    "struck": 4930,
    "colder": 21399,
    "reuben": 17294,
    "denton": 23906,
    "execute": 15389,
    "graham": 5846,
    "drugs": 5850,
    "regency": 15647,
    "resurrected": 23053,
    "illinois": 4307,
    "##tern": 16451,
    "##lidae": 21595,
    "##pc": 15042,
    "warm": 4010,
    "68": 6273,
    "[unused112]": 117,
    "##uin": 20023,
    "##tula": 28970,
    "behaviour": 9164,
    "chargers": 18649,
    "258": 24398,
    "##pack": 23947,
    "snapping": 15790,
    "##logram": 24915,
    "alligator": 28833,
    "sliced": 15920,
    "mandates": 25979,
    "collided": 17745,
    "stopped": 3030,
    "##\u043e\u0432": 19259,
    "ministries": 16410,
    "##xin": 20303,
    "##rta": 13320,
    "keating": 25865,
    "warwickshire": 18430,
    "##\u045b": 29764,
    "jews": 5181,
    "commencing": 25819,
    "eyebrow": 9522,
    "villains": 16219,
    "##\u30bb": 30234,
    "injustice": 21321,
    "tested": 7718,
    "arrange": 13621,
    "parents": 3008,
    "gliding": 20292,
    "thinkers": 24762,
    "enables": 12939,
    "barak": 27739,
    "declines": 26451,
    "\u2087": 1554,
    "attacking": 7866,
    "rusty": 13174,
    "traverse": 20811,
    "reaches": 6561,
    "tissues": 14095,
    "emissions": 11768,
    "stroke": 6909,
    "foreigners": 15040,
    "##minate": 19269,
    "mn": 24098,
    "##yna": 18279,
    "seduction": 26962,
    "himalayan": 28333,
    "modified": 6310,
    "##ised": 5084,
    "blades": 10491,
    "##rne": 12119,
    "hesitantly": 24626,
    "zu": 16950,
    "seahawks": 21390,
    "cavalry": 5945,
    "prussian": 10734,
    "##fera": 27709,
    "margaret": 5545,
    "proto": 15053,
    "[unused920]": 925,
    "##ori": 10050,
    "gray": 3897,
    "##cats": 19588,
    "##\u571f": 30327,
    "turf": 14585,
    "##azi": 16103,
    "landmarks": 16209,
    "gasped": 8535,
    "\u8c9d": 1952,
    "pipes": 12432,
    "##nath": 16207,
    "agatha": 23863,
    "missy": 25019,
    "longing": 15752,
    "overboard": 27089,
    "##orno": 26295,
    "hundred": 3634,
    "##anto": 21634,
    "fluid": 8331,
    "##pine": 19265,
    "castes": 26254,
    "eighteen": 7763,
    "newest": 14751,
    "push": 5245,
    "mandated": 16714,
    "frederic": 15296,
    "wounds": 8710,
    "pouch": 21445,
    "magnetic": 8060,
    "ported": 27650,
    "##edly": 26207,
    "apocalyptic": 27660,
    "organising": 21317,
    "gill": 12267,
    "spitfire": 28323,
    "fully": 3929,
    "1828": 11517,
    "moderator": 29420,
    "##oux": 28700,
    "[unused442]": 447,
    "lesions": 22520,
    "scanning": 13722,
    "reykjavik": 28559,
    "sonic": 12728,
    "terminating": 23552,
    "absolutely": 7078,
    "catalytic": 26244,
    "invaders": 17347,
    "blasted": 18461,
    "heroism": 27117,
    "dove": 10855,
    "vertebrae": 25517,
    "arising": 17707,
    "meng": 27955,
    "tyler": 7482,
    "uv": 23068,
    "[unused498]": 503,
    "kimberley": 25004,
    "condo": 25805,
    "##\u201d": 30059,
    "programmes": 8497,
    "macarthur": 17719,
    "investigated": 10847,
    "rocked": 14215,
    "orgasm": 13892,
    "trailed": 11145,
    "monte": 10125,
    "ein": 16417,
    "480": 17295,
    "##oma": 9626,
    "1891": 6607,
    "gills": 29468,
    "##cks": 10603,
    "scrambling": 25240,
    "palmer": 8809,
    "stitch": 26035,
    "liang": 16982,
    "\u0dbd": 1406,
    "outing": 26256,
    "\u85e4": 1944,
    "adversary": 27248,
    "nave": 12847,
    "monaco": 14497,
    "harvest": 11203,
    "congregational": 20809,
    "unison": 18732,
    "misleading": 22369,
    "east": 2264,
    "##roi": 26692,
    "pornographic": 26932,
    "wellesley": 25658,
    "picturesque": 23273,
    "benfica": 26542,
    "\u2606": 1621,
    "1860": 7313,
    "hint": 9374,
    "scar": 11228,
    "rbi": 16929,
    "mongols": 22235,
    "##dome": 26173,
    "tipping": 25486,
    "lasting": 9879,
    "expects": 24273,
    "fielding": 15452,
    "cliffs": 13333,
    "politely": 16954,
    "##\u09a3": 29897,
    "universities": 5534,
    "ptolemy": 23517,
    "chord": 13924,
    "##osta": 28696,
    "ultra": 11087,
    "[unused405]": 410,
    "americas": 10925,
    "francesco": 11400,
    "[unused862]": 867,
    "converge": 28314,
    "mans": 16042,
    "##\u30c4": 30238,
    "pressing": 7827,
    "confident": 9657,
    "##hot": 12326,
    "##ly": 2135,
    "denise": 15339,
    "barrage": 19359,
    "guatemala": 11779,
    "##\u0e32": 29958,
    "actor": 3364,
    "confession": 12633,
    "gandhi": 12338,
    "##\u02e2": 29717,
    "shallow": 8467,
    "lasts": 16180,
    "possessions": 13689,
    "empires": 23560,
    "investigate": 8556,
    "hybrids": 23376,
    "ra": 10958,
    "landing": 4899,
    "recalling": 21195,
    "##tino": 25690,
    "succession": 8338,
    "reese": 15883,
    "monsters": 9219,
    "dil": 29454,
    "remind": 10825,
    "relational": 28771,
    "xvi": 16855,
    "ku": 13970,
    "eduard": 20424,
    "##uding": 24539,
    "emotions": 6699,
    "[unused533]": 538,
    "sabine": 18578,
    "##\u9fb8": 30509,
    "complete": 3143,
    "sindh": 20284,
    "\u96c4": 1974,
    "tamil": 6008,
    "##\u092f": 29868,
    "metz": 24424,
    "mod": 16913,
    "screaming": 7491,
    "mediation": 26435,
    "type": 2828,
    "sexy": 7916,
    "jill": 10454,
    "port": 3417,
    "bakery": 18112,
    "thugs": 24106,
    "##ization": 3989,
    "attached": 4987,
    "again": 2153,
    "iteration": 27758,
    "bullshit": 14636,
    "runes": 29161,
    "substantive": 27737,
    "1016": 28707,
    "bulletin": 13146,
    "seymour": 13254,
    "disgust": 12721,
    "mla": 18619,
    "brief": 4766,
    "fairness": 26935,
    "serena": 14419,
    "pirates": 8350,
    "pursued": 9505,
    "vicar": 12340,
    "\u1d2e": 1491,
    "curl": 15390,
    "this": 2023,
    "##unt": 16671,
    "##owski": 15249,
    "##\u30ab": 30226,
    "founding": 4889,
    "##zione": 20574,
    "pulmonary": 21908,
    "247": 23380,
    "##kh": 10023,
    "\u00b0c": 6362,
    "consequences": 8465,
    "seizure": 18634,
    "duty": 4611,
    "stairs": 5108,
    "devotees": 22707,
    "##tism": 17456,
    "rabbis": 25602,
    "flashbacks": 28945,
    "telescopes": 28026,
    "ballet": 7250,
    "pont": 21179,
    "highlight": 12944,
    "remained": 2815,
    "mixer": 23228,
    "monkey": 10608,
    "croatian": 7963,
    "##erted": 28728,
    "old": 2214,
    "amidst": 17171,
    "warmer": 16676,
    "##skie": 23955,
    "##zine": 21254,
    "evenly": 18030,
    "arrondissement": 20522,
    "outstretched": 21059,
    "mirage": 21483,
    "anna": 4698,
    "gain": 5114,
    "##gau": 20420,
    "##ker": 5484,
    "narrows": 25142,
    "trumpet": 9368,
    "fuel": 4762,
    "mandatory": 10915,
    "atrocities": 23482,
    "bequeathed": 27180,
    "randolph": 13031,
    "##rman": 14515,
    "##post": 19894,
    "##\u5065": 30294,
    "migrating": 28636,
    "\u4f50": 1764,
    "l": 1048,
    "twist": 9792,
    "##ivo": 20984,
    "57": 5401,
    "##tsa": 27110,
    "##neer": 19755,
    "##odes": 19847,
    "\u76f8": 1919,
    "crystals": 14438,
    "oblivious": 18333,
    "instruction": 7899,
    "affinity": 16730,
    "loses": 12386,
    "cocktail": 18901,
    "brain": 4167,
    "benin": 21164,
    "kicks": 14590,
    "ligament": 25641,
    "##lese": 24527,
    "oyster": 21480,
    "##\u967d": 30499,
    "gurney": 25061,
    "##cek": 25368,
    "tribe": 5917,
    "psycho": 18224,
    "aged": 4793,
    "##eger": 26320,
    "gifts": 9604,
    "wild": 3748,
    "##eng": 13159,
    "rainy": 16373,
    "shit": 4485,
    "stubborn": 14205,
    "\u30e3": 1728,
    "whilst": 5819,
    "\u0e27": 1419,
    "accounts": 6115,
    "[unused491]": 496,
    "equipment": 3941,
    "231": 20304,
    "radically": 25796,
    "edged": 13011,
    "##lain": 15987,
    "[unused816]": 821,
    "##gger": 13327,
    "burning": 5255,
    "coventry": 13613,
    "nicolas": 9473,
    "furious": 9943,
    "cloak": 11965,
    "\u2084": 1551,
    "mistress": 10414,
    "psi": 17816,
    "1830": 9500,
    "shattered": 10909,
    "all": 2035,
    "27": 2676,
    "honors": 7836,
    "cunningham": 13652,
    "##reate": 29313,
    "motifs": 17366,
    "trainers": 21992,
    "initial": 3988,
    "##tip": 25101,
    "##xide": 19491,
    "##cript": 23235,
    "[unused102]": 107,
    "##olin": 18861,
    "enzymes": 16285,
    "mentioned": 3855,
    "willem": 18811,
    "trophy": 5384,
    "bolt": 10053,
    "banking": 8169,
    "##uter": 19901,
    "honesty": 16718,
    "[unused845]": 850,
    "crest": 11146,
    "##wine": 21924,
    "\u0282": 1129,
    "##\u751f": 30436,
    "##jected": 24455,
    "##isa": 14268,
    "navigation": 9163,
    "elisa": 29490,
    "##yang": 12198,
    "[unused207]": 212,
    "pt": 13866,
    "##rney": 27114,
    "drake": 7867,
    "lap": 5001,
    "silesian": 20453,
    "mick": 10872,
    "##\u110b": 29999,
    "\u2096": 1565,
    "publish": 10172,
    "pockets": 10306,
    "prof": 11268,
    "bathed": 24614,
    "\u05e6": 1263,
    "parc": 27985,
    "domingo": 15586,
    "influx": 18050,
    "awareness": 7073,
    "leaned": 4016,
    "ying": 20879,
    "hind": 17666,
    "##ets": 8454,
    "domains": 13100,
    "footage": 8333,
    "parallels": 18588,
    "whether": 3251,
    "##rce": 19170,
    "baths": 19692,
    "refuse": 10214,
    "aix": 28443,
    "manpower": 22039,
    "gentlemen": 11218,
    "variable": 8023,
    "as": 2004,
    "cousin": 5542,
    "overs": 15849,
    "##ali": 11475,
    "##\u7a7a": 30456,
    "underneath": 7650,
    "wilder": 18463,
    "lone": 10459,
    "##maker": 8571,
    "##\u09ae": 29906,
    "congo": 9030,
    "##\u0649": 29837,
    "bonaparte": 20830,
    "happily": 11361,
    "hawk": 9881,
    "1540": 27536,
    "mm": 3461,
    "love": 2293,
    "italy": 3304,
    "bats": 12236,
    "wagner": 10304,
    "vivian": 13801,
    "item": 8875,
    "inhabit": 21490,
    "nano": 28991,
    "reaction": 4668,
    "##rya": 20444,
    "complementary": 21053,
    "minimal": 10124,
    "wait": 3524,
    "sizes": 10826,
    "##ddle": 20338,
    "intelligence": 4454,
    "amended": 13266,
    "##ible": 7028,
    "carleton": 22273,
    "##eses": 23072,
    "##80": 17914,
    "stockholm": 8947,
    "nikolay": 28494,
    "fabulous": 18783,
    "lahore": 15036,
    "[unused833]": 838,
    "##head": 4974,
    "hai": 15030,
    "specimen": 11375,
    "##eke": 23941,
    "vault": 11632,
    "##isation": 6648,
    "skirt": 9764,
    "continuum": 22961,
    "interpret": 17841,
    "##wick": 7184,
    "[unused46]": 47,
    "dog": 3899,
    "hesitant": 20221,
    "caf": 24689,
    "vaudeville": 19698,
    "##pins": 27915,
    "##cas": 15671,
    "##rst": 12096,
    "boyd": 12164,
    "\u1111": 1468,
    "##nine": 19105,
    "##nad": 25389,
    "win": 2663,
    "turret": 14493,
    "witnesses": 9390,
    "rosalie": 29564,
    "cooper": 6201,
    "anchored": 14453,
    "##utation": 26117,
    "oregon": 5392,
    "financed": 13790,
    "##dur": 24979,
    "venture": 6957,
    "hindi": 9269,
    "boer": 19945,
    "\u0cb0": 1401,
    "##vres": 24790,
    "##uity": 18518,
    "erotic": 14253,
    "then": 2059,
    "##tens": 25808,
    "critical": 4187,
    "managers": 10489,
    "marching": 10998,
    "##5": 2629,
    "godfather": 23834,
    "[unused911]": 916,
    "cyprus": 9719,
    "sacrifices": 18502,
    "protest": 6186,
    "sovereign": 11074,
    "chopin": 25479,
    "edinburgh": 5928,
    "##trix": 29184,
    "lump": 15116,
    "webster": 11635,
    "[unused842]": 847,
    "transfers": 15210,
    "closed": 2701,
    "narrow": 4867,
    "counterpart": 13637,
    "portions": 8810,
    "councillors": 13189,
    "##iform": 22631,
    "##ovsky": 21983,
    "shortstop": 25359,
    "ached": 15043,
    "breakaway": 26321,
    "ward": 4829,
    "ethiopian": 15101,
    "\u6d77": 1902,
    "##dgets": 28682,
    "1695": 29140,
    "nirvana": 26530,
    "##\u0965": 29881,
    "subsistence": 27667,
    "patterned": 25336,
    "##tangled": 27898,
    "hacked": 28719,
    "##dor": 7983,
    "[unused691]": 696,
    "helps": 7126,
    "stalked": 15858,
    "\u5742": 1803,
    "##put": 18780,
    "##tung": 21847,
    "popularly": 16071,
    "dukes": 16606,
    "##vor": 14550,
    "list": 2862,
    "drove": 5225,
    "enthusiastic": 14727,
    "cebu": 23312,
    "suitcase": 15940,
    "prohibit": 23469,
    "crack": 8579,
    "\u9fb8": 1983,
    "intel": 13420,
    "territorial": 7894,
    "tick": 16356,
    "cavendish": 23570,
    "clarinet": 12089,
    "champ": 24782,
    "outspoken": 22430,
    "stimulate": 23216,
    "lean": 8155,
    "granny": 19794,
    "look": 2298,
    "930": 29359,
    "mythological": 21637,
    "\u0923": 1322,
    "microsoft": 7513,
    "[unused312]": 317,
    "\u0e15": 1411,
    "lister": 27177,
    "vivid": 14954,
    "##sg": 28745,
    "dennis": 6877,
    "##xt": 18413,
    "regina": 12512,
    "relocated": 7448,
    "renewed": 9100,
    "turbulent": 22609,
    "domain": 5884,
    "##uba": 19761,
    "consists": 3774,
    "##\ufb01": 30510,
    "##jah": 18878,
    "##ks": 5705,
    "balkan": 17581,
    "spicy": 25482,
    "[unused377]": 382,
    "##\u0909": 29849,
    "gestapo": 26446,
    "1991": 2889,
    "##eer": 11510,
    "sin": 8254,
    "biscuits": 27529,
    "staged": 9813,
    "blended": 19803,
    "greenville": 20967,
    "1618": 29029,
    "arrows": 12563,
    "[unused606]": 611,
    "##khan": 26370,
    "##izes": 10057,
    "##\u03bd": 16177,
    "pressured": 25227,
    "wilkinson": 16237,
    "##nar": 11802,
    "syndicated": 13889,
    "notorious": 12536,
    "##eis": 17580,
    "vernacular": 18485,
    "simeon": 24371,
    "northwestern": 7855,
    "influenced": 5105,
    "pursuit": 8463,
    "##rie": 7373,
    "husband": 3129,
    "1761": 21364,
    "##erence": 20935,
    "##rice": 17599,
    "runaway": 19050,
    "##mple": 23344,
    "##crest": 25313,
    "du": 4241,
    "psalm": 22728,
    "##sham": 21010,
    "posthumously": 12770,
    "pine": 7222,
    "addressing": 12786,
    "establishes": 21009,
    "finals": 4399,
    "idaho": 9795,
    "guarantee": 11302,
    "##anor": 27869,
    "circus": 9661,
    "##coat": 16531,
    "##zawa": 19708,
    "steal": 8954,
    "formerly": 3839,
    "##uel": 16284,
    "##eral": 21673,
    "stuffed": 11812,
    "subgenus": 25356,
    "biographer": 17121,
    "plead": 25803,
    "interview": 4357,
    "greer": 25939,
    "##aman": 23093,
    "innovation": 8144,
    "inspection": 10569,
    "quarry": 12907,
    "graceful": 19415,
    "soccer": 4715,
    "islamabad": 26905,
    "ourselves": 9731,
    "boasts": 21979,
    "contestants": 10584,
    "collier": 20466,
    "nightfall": 28018,
    "nato": 10079,
    "divides": 20487,
    "tractor": 16358,
    "pins": 16300,
    "much": 2172,
    "labourers": 24043,
    "sheila": 15062,
    "science": 2671,
    "crimes": 6997,
    "pearson": 12874,
    "radiating": 23229,
    "ounce": 19471,
    "162": 17832,
    "##hed": 9072,
    "weiss": 17889,
    "tomb": 8136,
    "##ror": 29165,
    "door": 2341,
    "boating": 23639,
    "chants": 29534,
    "accepting": 10564,
    "preparatory": 13485,
    "trilogy": 11544,
    "organisations": 8593,
    "##yk": 15922,
    "barney": 15377,
    "felipe": 17095,
    "tentacles": 24719,
    "airship": 27636,
    "##rod": 14127,
    "sox": 9175,
    "kerry": 11260,
    "##ja": 3900,
    "blowing": 11221,
    "rudder": 24049,
    "intentions": 11174,
    "31": 2861,
    "election": 2602,
    "##mity": 16383,
    "uruguay": 11724,
    "insert": 19274,
    "doubled": 11515,
    "[unused614]": 619,
    "##\u044e": 29757,
    "edwin": 10049,
    "enabled": 9124,
    "##lism": 28235,
    "rise": 4125,
    "defensive": 5600,
    "susannah": 20471,
    "shrine": 9571,
    "##ara": 5400,
    "1996": 2727,
    "nutrients": 20435,
    "tuba": 29242,
    "himalayas": 26779,
    "bundled": 24378,
    "acids": 12737,
    "1810": 11786,
    "centrally": 25497,
    "deficit": 15074,
    "uci": 14504,
    "acceleration": 16264,
    "nino": 20801,
    "sui": 24086,
    "fierce": 9205,
    "online": 3784,
    "##ack": 8684,
    "participant": 13180,
    "astronomers": 26357,
    "advanced": 3935,
    "bolivia": 11645,
    "locally": 7246,
    "arching": 27335,
    "[unused100]": 105,
    "##\u524d": 30302,
    "finley": 29194,
    "\u0bae": 1389,
    "duchy": 11068,
    "arthritis": 27641,
    "##nikov": 22576,
    "\u3084": 1682,
    "canned": 27141,
    "castro": 11794,
    "texans": 23246,
    "spots": 7516,
    "testosterone": 25937,
    "left": 2187,
    "ching": 19992,
    "doubling": 19383,
    "staffordshire": 17052,
    "##dance": 25514,
    "##ight": 18743,
    "drying": 17462,
    "##\u5fd7": 30377,
    "[unused178]": 183,
    "shaken": 16697,
    "##ntly": 20630,
    "societal": 23382,
    "those": 2216,
    "whitley": 27007,
    "community": 2451,
    "shivers": 28464,
    "powerplant": 19526,
    "mozart": 13177,
    "[unused581]": 586,
    "voluntary": 10758,
    "crust": 19116,
    "rag": 17768,
    "tradition": 4535,
    "brig": 16908,
    "codex": 15763,
    "[unused966]": 971,
    "[unused337]": 342,
    "\u0268": 1118,
    "something": 2242,
    "andy": 5557,
    "##bilities": 14680,
    "##\u21cc": 30118,
    "##ined": 21280,
    "remodeled": 27170,
    "intentionally": 15734,
    "##gl": 23296,
    "\u03b3": 1157,
    "festival": 2782,
    "23": 2603,
    "thereby": 8558,
    "##iad": 28665,
    "banks": 5085,
    "##gni": 29076,
    "having": 2383,
    "misunderstanding": 24216,
    "chimney": 17321,
    "bowling": 9116,
    "system": 2291,
    "chinatown": 22321,
    "resemble": 13014,
    "##rangle": 21476,
    "simplified": 11038,
    "ignacio": 22988,
    "##fe": 7959,
    "\u05da": 1251,
    "rum": 19379,
    "mansfield": 15352,
    "shiver": 13277,
    "donation": 13445,
    "unsure": 12422,
    "wince": 29585,
    "credit": 4923,
    "tod": 28681,
    "##phus": 25255,
    "detached": 12230,
    "mountains": 4020,
    "shares": 6661,
    "monroe": 9747,
    "##wk": 26291,
    "planetary": 17700,
    "mao": 15158,
    "homework": 19453,
    "chapman": 11526,
    "lured": 26673,
    "adherents": 25712,
    "##sat": 16846,
    "michelle": 9393,
    "##\u00bf": 29666,
    "region": 2555,
    "stats": 26319,
    "##filtration": 28674,
    "##elial": 24587,
    "priest": 5011,
    "vulnerability": 18130,
    "##\u4e00": 30266,
    "listen": 4952,
    "##!": 29612,
    "comfort": 7216,
    "##ego": 20265,
    "stew": 20717,
    "flicked": 12777,
    "##uder": 29190,
    "awe": 15180,
    "##cca": 16665,
    "commits": 27791,
    "##ai": 4886,
    "##sr": 21338,
    "##hee": 21030,
    "##tson": 25656,
    "sri": 5185,
    "##tina": 13770,
    "enzyme": 9007,
    "##ian": 2937,
    "poem": 5961,
    "\u00b4": 1084,
    "blinding": 19709,
    "virginia": 3448,
    "surname": 11988,
    "empire": 3400,
    "bacterium": 24024,
    "##xy": 18037,
    "metacritic": 14476,
    "##open": 26915,
    "violins": 25877,
    "new": 2047,
    "doubts": 13579,
    "ingram": 23231,
    "sleek": 21185,
    "##acy": 15719,
    "breakfast": 6350,
    "fuck": 6616,
    "bribe": 26470,
    "nah": 20976,
    "##rion": 14772,
    "alyssa": 26442,
    "zhang": 9327,
    "fenton": 27096,
    "magic": 3894,
    "ebook": 26885,
    "convincing": 13359,
    "rudy": 18254,
    "tabloid": 24173,
    "tidy": 29369,
    "51st": 26017,
    "upgraded": 9725,
    "devin": 23601,
    "flows": 6223,
    "beauty": 5053,
    "##cke": 19869,
    "canceled": 13261,
    "retreating": 17512,
    "moi": 25175,
    "##nden": 25915,
    "rowe": 20538,
    "interval": 13483,
    "mv": 19842,
    "analytic": 23521,
    "williamson": 14333,
    "shirt": 3797,
    "##ctus": 22675,
    "tariffs": 26269,
    "##phic": 17926,
    "[unused268]": 273,
    "poke": 26202,
    "##iii": 28954,
    "shelves": 15475,
    "leans": 12671,
    "boy": 2879,
    "dominican": 10104,
    "fossil": 10725,
    "##lity": 18605,
    "\u2228": 1603,
    "inclined": 13050,
    "##mail": 21397,
    "manson": 21440,
    "\u7af9": 1933,
    "lancashire": 9638,
    "fern": 20863,
    "##roll": 28402,
    "plausible": 24286,
    "poking": 21603,
    "coroner": 22896,
    "robyn": 28047,
    "##\u09b9": 29913,
    "tablets": 17596,
    "previously": 3130,
    "##raf": 27528,
    "taunton": 28181,
    "ross": 5811,
    "blues": 5132,
    "karlsruhe": 26660,
    "undergo": 13595,
    "attache": 29489,
    "##\u4e2d": 30272,
    "pakistan": 4501,
    "charlton": 17821,
    "112": 11176,
    "traveling": 7118,
    "[unused573]": 578,
    "sly": 18230,
    "[unused672]": 677,
    "bases": 7888,
    "\u2091": 1561,
    "mound": 12048,
    "##mart": 22345,
    "cowan": 25752,
    "##ones": 21821,
    "occurring": 10066,
    "celeste": 21113,
    "##fare": 17883,
    "gently": 5251,
    "outer": 6058,
    "##brook": 9697,
    "crafted": 19275,
    "reports": 4311,
    "apologies": 25380,
    "fletcher": 10589,
    "lucha": 25390,
    "venue": 6891,
    "superstar": 18795,
    "[unused43]": 44,
    "shaking": 5513,
    "##\u0d9a": 29939,
    "craved": 25155,
    "ivanov": 26333,
    "##sai": 15816,
    "apes": 27754,
    "ctv": 28720,
    "seventies": 26232,
    "ascent": 16354,
    "soc": 27084,
    "concerns": 5936,
    "##lt": 7096,
    "\u2265": 1609,
    "half": 2431,
    "equivalence": 27841,
    "fresh": 4840,
    "colour": 6120,
    "weakness": 11251,
    "##mata": 21022,
    "statements": 8635,
    "vomit": 23251,
    "wolfgang": 13865,
    "memorials": 22899,
    "##eding": 17819,
    "ineligible": 22023,
    "##orth": 28610,
    "luton": 17807,
    "313": 22997,
    "##hul": 21886,
    "cleaning": 9344,
    "\u10e0": 1451,
    "laptop": 12191,
    "hines": 25445,
    "neighbors": 10638,
    "pressures": 15399,
    "suggests": 6083,
    "own": 2219,
    "/": 1013,
    "\u5b9a": 1822,
    "miniatures": 28615,
    "susquehanna": 26361,
    "learns": 10229,
    "##rogate": 21799,
    "turning": 3810,
    "revolves": 19223,
    "images": 4871,
    "damned": 9636,
    "overcoming": 27363,
    "privately": 9139,
    "[unused54]": 55,
    "chateau": 11874,
    "hungary": 5872,
    "[unused628]": 633,
    "wanda": 20848,
    "thumped": 28963,
    "juno": 20788,
    "##\u2079": 30078,
    "##\u82f1": 30467,
    "\u0986": 1348,
    "parade": 7700,
    "\u6c5f": 1897,
    "49ers": 18156,
    "##chner": 28254,
    "concessions": 20638,
    "saloon": 17078,
    "##d": 2094,
    "##ating": 5844,
    "negligence": 27988,
    "leningrad": 15930,
    "properties": 5144,
    "tomato": 20856,
    "slender": 10944,
    "efforts": 4073,
    "##kovich": 28195,
    "illnesses": 24757,
    "##inae": 16414,
    "philosopher": 9667,
    "worst": 5409,
    "archdiocese": 12658,
    "##gis": 17701,
    "columbia": 3996,
    "297": 27502,
    "##lana": 16695,
    "teaching": 4252,
    "principal": 4054,
    "compound": 7328,
    "##nir": 29339,
    "greet": 17021,
    "integrate": 17409,
    "venom": 15779,
    "skyscraper": 24581,
    "bombings": 20109,
    "kitchen": 3829,
    "##ivist": 21997,
    "sands": 13457,
    "brianna": 25558,
    "45th": 24634,
    "##west": 19650,
    "carolyn": 15611,
    "revenue": 6599,
    "holiness": 27692,
    "blamed": 11248,
    "##crats": 23423,
    "eliminating": 15349,
    "amar": 23204,
    "kathryn": 20484,
    "causeway": 23336,
    "joanne": 23459,
    "uncertain": 9662,
    "##hh": 23644,
    "violation": 11371,
    "hm": 20287,
    "effortlessly": 29483,
    "rewarded": 14610,
    "appearance": 3311,
    "fang": 15197,
    "imprisonment": 10219,
    "##ny": 4890,
    "stayed": 4370,
    "12th": 5940,
    "korea": 4420,
    "##ogo": 22844,
    "[unused805]": 810,
    "hemingway": 27299,
    "affect": 7461,
    "villagers": 11904,
    "premises": 10345,
    "hectare": 20406,
    "##\u207a": 12744,
    "cyril": 16049,
    "token": 19204,
    "dinner": 4596,
    "windmill": 25367,
    "editors": 10195,
    "##lard": 20822,
    "sizable": 25908,
    "reeves": 17891,
    "buffer": 17698,
    "nfc": 22309,
    "indicator": 17245,
    "beetles": 14538,
    "dimly": 25361,
    "magazine": 2932,
    "moral": 7191,
    "incurred": 22667,
    "##ggs": 21314,
    "overlook": 27590,
    "entertain": 20432,
    "zip": 14101,
    "hallways": 28274,
    "destroy": 6033,
    "age": 2287,
    "lou": 10223,
    "1756": 22370,
    "##ntes": 17340,
    "##ducted": 29510,
    "##cting": 11873,
    "##\u0928": 29863,
    "##58": 27814,
    "bestseller": 24304,
    "##uti": 21823,
    "due": 2349,
    "[unused767]": 772,
    "buildings": 3121,
    "hooker": 17074,
    "bilingual": 17636,
    "jen": 15419,
    "morning": 2851,
    "parliament": 3323,
    "undertaking": 18457,
    "\u0f58": 1432,
    "reflection": 9185,
    "##placed": 22829,
    "workforce": 14877,
    "folding": 12745,
    "intentional": 21249,
    "giant": 5016,
    "dairy": 11825,
    "##bat": 14479,
    "##\u043a\u0430": 28598,
    "moaned": 12557,
    "marijuana": 16204,
    "zimmerman": 27946,
    "artemis": 19063,
    "personal": 3167,
    "\u5409": 1793,
    "gonzales": 24334,
    "##mate": 8585,
    "wearing": 4147,
    "oceans": 17401,
    "endowed": 19038,
    "##lace": 19217,
    "\u05de": 1255,
    "masters": 5972,
    "genie": 22519,
    "commentator": 12268,
    "\u4e0d": 1744,
    "quintet": 18109,
    "executives": 12706,
    "giacomo": 22873,
    "##olf": 28027,
    "##nbc": 28957,
    "settles": 27221,
    "1754": 22593,
    "anchorage": 21086,
    "##llum": 20845,
    "daphne": 16847,
    "consultancy": 24853,
    "immense": 14269,
    "schools": 2816,
    "hp": 6522,
    "puzzle": 11989,
    "waterford": 17769,
    "output": 6434,
    "##walker": 26965,
    "qualifiers": 18956,
    "mercury": 8714,
    "soldiers": 3548,
    "sank": 7569,
    "unpleasant": 16010,
    "michele": 15954,
    "compulsory": 14770,
    "difference": 4489,
    "##beam": 28302,
    "alto": 10766,
    "dry": 4318,
    "glamorgan": 23861,
    "warn": 11582,
    "bless": 19994,
    "aryan": 26030,
    "shelters": 17177,
    "mars": 7733,
    "[unused273]": 278,
    "\u7687": 1917,
    "##rg": 10623,
    "scratching": 20291,
    "consulted": 17535,
    "giggled": 15889,
    "dwellers": 28857,
    "zealand": 3414,
    "climbing": 8218,
    "##ople": 27469,
    "tens": 15295,
    "tactics": 9887,
    "appropriations": 22713,
    "##turn": 22299,
    "daily": 3679,
    "behold": 27541,
    "through": 2083,
    "wheat": 10500,
    "pia": 24624,
    "angular": 16108,
    "\u4eba": 1756,
    "##lessness": 24913,
    "mystery": 6547,
    "aching": 14750,
    "particular": 3327,
    "ivo": 28346,
    "installation": 8272,
    "galley": 27124,
    "##good": 24146,
    "far": 2521,
    "juveniles": 25406,
    "##nti": 16778,
    "fucking": 8239,
    "##\u6b62": 30413,
    "opposed": 4941,
    "##gia": 10440,
    "##pus": 12207,
    "government": 2231,
    "##arus": 29133,
    "resource": 7692,
    "ongoing": 7552,
    "\u092c": 1329,
    "edict": 24754,
    "summers": 10945,
    "blew": 8682,
    "vines": 16702,
    "formulated": 19788,
    "exploring": 11131,
    "sprinted": 25156,
    "benoit": 21721,
    "##gang": 24930,
    "stores": 5324,
    "sal": 16183,
    "##\u5b9a": 30348,
    "florian": 29517,
    "newborn": 20662,
    "##dice": 24598,
    "jenna": 13504,
    "objects": 5200,
    "britain": 3725,
    "\u00fe": 1101,
    "physiology": 16127,
    "access": 3229,
    "julia": 6423,
    "claudius": 25017,
    "##ezer": 25733,
    "genius": 11067,
    "tore": 9538,
    "malvern": 28082,
    "amphibious": 16182,
    "caracas": 21675,
    "wheeled": 17320,
    "commentary": 8570,
    "chaos": 8488,
    "[unused990]": 995,
    "eldest": 7310,
    "tel": 10093,
    "slamming": 15209,
    "needles": 17044,
    "jack": 2990,
    "integrated": 6377,
    "##sis": 6190,
    "kristin": 25130,
    "minimize": 18478,
    "southernmost": 21787,
    "volunteers": 7314,
    "hailey": 21664,
    "ranking": 5464,
    "##yl": 8516,
    "##ouring": 27897,
    "##3d": 29097,
    "schultz": 22378,
    "passports": 19494,
    "schleswig": 21173,
    "auto": 8285,
    "controversies": 25962,
    "ottawa": 8166,
    "##mons": 16563,
    "crew": 3626,
    "enthusiast": 29550,
    "effects": 3896,
    "234": 22018,
    "situations": 8146,
    "leaf": 7053,
    "##\uff0f": 30518,
    "suggestion": 10293,
    "pear": 28253,
    "mouthed": 20521,
    "##uled": 18696,
    "blushing": 25771,
    "\u30fc": 1739,
    "332": 29327,
    "850": 15678,
    "1610": 25800,
    "jedi": 27273,
    "ordering": 13063,
    "##gers": 15776,
    "convention": 4680,
    "partisan": 14254,
    "drastically": 21040,
    "obtained": 4663,
    "mutually": 20271,
    "fetch": 18584,
    "bounded": 10351,
    "departure": 6712,
    "sincere": 18006,
    "\u2083": 1550,
    "absence": 6438,
    "transmitter": 11659,
    "##tries": 21011,
    "moth": 5820,
    "##\u2502": 30143,
    "distract": 15886,
    "jurassic": 19996,
    "##orestation": 25794,
    "waldo": 28806,
    "1916": 4947,
    "tackled": 26176,
    "##att": 19321,
    "swift": 9170,
    "\u00a7": 1073,
    "scandinavian": 17660,
    "tnt": 24048,
    "swirling": 16499,
    "deliberately": 9969,
    "includes": 2950,
    "jace": 10352,
    "widely": 4235,
    "\u0930": 1333,
    "##ying": 14147,
    "uncommon": 13191,
    "[unused673]": 678,
    "axle": 17290,
    "relatives": 9064,
    "lust": 11516,
    "trauma": 12603,
    "\u2194": 1587,
    "##\u20a4": 30100,
    "tight": 4389,
    "duets": 29410,
    "##zes": 11254,
    "sms": 22434,
    "[unused418]": 423,
    "\u0b9a": 1383,
    "neatly": 15981,
    "hindu": 7560,
    "fibre": 20962,
    "86": 6564,
    "nwa": 15737,
    "##\u4e8c": 30278,
    "sunderland": 15518,
    "foliage": 19624,
    "connie": 16560,
    "##ib": 12322,
    "invest": 15697,
    "drone": 18465,
    "darcy": 17685,
    "orioles": 18893,
    "randomly": 18154,
    "magna": 20201,
    "removal": 8208,
    "##saka": 29289,
    "boats": 6242,
    "##vin": 6371,
    "ti": 14841,
    "##wt": 26677,
    "##hg": 25619,
    "athena": 21880,
    "1799": 13839,
    "##color": 18717,
    "ran": 2743,
    "childhood": 5593,
    "##ata": 6790,
    "##fl": 10258,
    "tips": 10247,
    "worcester": 12539,
    "throbbed": 27714,
    "electric": 3751,
    "aramaic": 28934,
    "##54": 27009,
    "wreath": 29586,
    "advance": 5083,
    "compensated": 29258,
    "blasting": 26239,
    "\u1109": 1461,
    "outfits": 22054,
    "determination": 9128,
    "\u570b": 1800,
    "\u751f": 1910,
    "hindus": 18221,
    "##aux": 13754,
    "urging": 14328,
    "composers": 9929,
    "patrol": 6477,
    "relates": 14623,
    "aztec": 25245,
    "fossils": 11954,
    "##aton": 22436,
    "finds": 4858,
    "convicted": 7979,
    "\u057e": 1235,
    "alain": 15654,
    "##horpe": 22044,
    "fascist": 14870,
    "fowler": 14990,
    "williamsburg": 26366,
    "boil": 26077,
    "erection": 13760,
    "ignores": 26663,
    "devices": 5733,
    "##pile": 22090,
    "attained": 12754,
    "carries": 7883,
    "remove": 6366,
    "1762": 20827,
    "lover": 7089,
    "obtain": 6855,
    "conductors": 23396,
    "##\u5730": 30328,
    "##ivate": 21466,
    "champs": 29008,
    "validation": 27354,
    "vain": 15784,
    "wiltshire": 17045,
    "santiago": 8728,
    "hen": 21863,
    "civilization": 10585,
    "domenico": 18638,
    "donnell": 18016,
    "aiming": 13659,
    "##breaker": 21204,
    "regarded": 5240,
    "locals": 10575,
    "[unused110]": 115,
    "zheng": 20985,
    "##nary": 24041,
    "bloom": 13426,
    "##ffe": 16020,
    "trains": 4499,
    "variations": 8358,
    "brody": 19631,
    "details": 4751,
    "covenant": 16077,
    "producer": 3135,
    "mic": 23025,
    "sides": 3903,
    "mosques": 21922,
    "rave": 23289,
    "kira": 15163,
    "royalties": 25335,
    "extensively": 8077,
    "biographies": 22056,
    "318": 27003,
    "pip": 28315,
    "xavier": 10062,
    "##vana": 27313,
    "mtv": 8692,
    "##ome": 8462,
    "ghetto": 17276,
    "varying": 9671,
    "##oo": 9541,
    "bobbie": 27731,
    "fleming": 13779,
    "delivers": 18058,
    "clinch": 29119,
    "bugs": 12883,
    "##\u0438": 10325,
    "meadow": 13244,
    "vineyard": 18621,
    "\u05d1": 1242,
    "[unused306]": 311,
    "suspicious": 10027,
    "candle": 13541,
    "accountability": 17842,
    "##erate": 22139,
    "descends": 23328,
    "##firm": 27972,
    "##mg": 24798,
    "tools": 5906,
    "sniper": 17515,
    "orbital": 13943,
    "placing": 6885,
    "unearthed": 27422,
    "ian": 4775,
    "listed": 3205,
    "##\u30d5": 30246,
    "##kos": 15710,
    "rebuilt": 7183,
    "gomez": 12791,
    "halves": 23672,
    "lovely": 8403,
    "vol": 5285,
    "eun": 26070,
    "felicia": 27579,
    "##par": 19362,
    "fraudulent": 27105,
    "voss": 24878,
    "yiddish": 20112,
    "cr": 13675,
    "backlash": 25748,
    "##hari": 18428,
    "[unused218]": 223,
    "soaring": 23990,
    "gravitational": 19790,
    "ba": 8670,
    "##yr": 12541,
    "mounds": 19503,
    "embarrassed": 10339,
    "potentially": 9280,
    "ceilings": 21098,
    "##jean": 27687,
    "struggled": 6915,
    "\u266d": 1627,
    "##ees": 10285,
    "copied": 15826,
    "irina": 25404,
    "rapidly": 5901,
    "jagged": 18187,
    "grazed": 26627,
    "stabilization": 28715,
    "##pone": 29513,
    "1690": 24765,
    "lds": 17627,
    "lehigh": 23241,
    "verge": 16079,
    "detail": 6987,
    "graves": 9729,
    "stubble": 26816,
    "fullback": 21803,
    "[unused660]": 665,
    "chapels": 24130,
    "##ary": 5649,
    "sixth": 4369,
    "##\u1107": 29996,
    "music": 2189,
    "props": 24387,
    "lal": 21348,
    "wes": 14008,
    "##jk": 15992,
    "##udence": 29424,
    "unions": 9209,
    "tehsil": 20751,
    "##\u592a": 30338,
    "swell": 18370,
    "[unused332]": 337,
    "doesn": 2987,
    "kendrick": 25341,
    "hopped": 17230,
    "##mind": 23356,
    "nothing": 2498,
    "immigrant": 11560,
    "mali": 16007,
    "handwriting": 24149,
    "collects": 17427,
    "##aka": 11905,
    "##af": 10354,
    "radha": 26498,
    "ion": 10163,
    "courthouse": 10816,
    "##hn": 7295,
    "reinforce": 19444,
    "sustainable": 9084,
    "leslie": 8886,
    "221": 19594,
    "aback": 26575,
    "flour": 13724,
    "[unused326]": 331,
    "subcommittee": 18052,
    "marquette": 24223,
    "following": 2206,
    "volga": 26459,
    "bacon": 11611,
    "computational": 15078,
    "airspace": 29357,
    "##clusive": 23633,
    "late": 2397,
    "iconic": 14430,
    "prophet": 12168,
    "false": 6270,
    "sibling": 22941,
    "joy": 6569,
    "vince": 12159,
    "seldom": 15839,
    "delicate": 10059,
    "##dge": 11818,
    "hawaiian": 12188,
    "ratings": 8599,
    "magical": 8687,
    "\u1d57": 1505,
    "amber": 8994,
    "cylindrical": 18797,
    "claws": 10702,
    "unspoken": 25982,
    "candidates": 5347,
    "1938": 4260,
    "##down": 7698,
    "geo": 20248,
    "exposed": 6086,
    "##chin": 17231,
    "porto": 13809,
    "withstand": 19319,
    "compounds": 10099,
    "harassment": 16011,
    "##hic": 16066,
    "##\u2665": 30152,
    "floppy": 28491,
    "weaponry": 22711,
    "ambitions": 19509,
    "[unused41]": 42,
    "condition": 4650,
    "tierney": 26198,
    "businessman": 6883,
    "##cm": 27487,
    "haydn": 25595,
    "publicly": 7271,
    "cartridges": 22998,
    "turner": 6769,
    "##usia": 24118,
    "##han": 4819,
    "park": 2380,
    "students": 2493,
    "bedrock": 28272,
    "swamp": 11963,
    "169": 18582,
    "spurred": 22464,
    "t": 1056,
    "auditions": 21732,
    "insist": 18292,
    "1837": 9713,
    "della": 8611,
    "##yes": 23147,
    "larsen": 20094,
    "ignorant": 21591,
    "##ronia": 28140,
    "rhythms": 17900,
    "diner": 15736,
    "groundwater": 22761,
    "dissemination": 28170,
    "##uous": 8918,
    "##ery": 7301,
    "irish": 3493,
    "tire": 12824,
    "1990": 2901,
    "astonishing": 26137,
    "directive": 16449,
    "soared": 29127,
    "##\u221e": 30128,
    "##vik": 13309,
    "relocating": 26811,
    "205": 16327,
    "gum": 16031,
    "fai": 26208,
    "mechanically": 27846,
    "sparkle": 26831,
    "fourth": 2959,
    "bulgarian": 7643,
    "thirty": 4228,
    "##dee": 26095,
    "2016": 2355,
    "dutch": 3803,
    "rafael": 10999,
    "contemporaries": 16682,
    "[unused88]": 89,
    "trumpets": 26506,
    "hitter": 18694,
    "formulation": 20219,
    "protagonists": 21989,
    "103": 9800,
    "evolution": 6622,
    "discontinued": 8944,
    "counter": 4675,
    "schwarz": 29058,
    "##atz": 20501,
    "##ac": 6305,
    "densely": 19441,
    "reckless": 18555,
    "##cius": 25393,
    "scratches": 25980,
    "azerbaijan": 8365,
    "breaths": 12938,
    "sewer": 22365,
    "drivers": 6853,
    "could": 2071,
    "mice": 12328,
    "##onzo": 29452,
    "flare": 17748,
    "handball": 12378,
    "hunched": 20498,
    "musa": 23154,
    "11th": 6252,
    "##lington": 18722,
    "7th": 5504,
    "\u674e": 1877,
    "bet": 6655,
    "##sworth": 12255,
    "##\u8c9d": 30478,
    "##oit": 28100,
    "1890": 6193,
    "chevrolet": 14724,
    "##itia": 29050,
    "impetus": 27961,
    "##\u2116": 30106,
    "clinic": 9349,
    "sitting": 3564,
    "analytics": 25095,
    "##bara": 20709,
    "##enas": 26474,
    "vintage": 13528,
    "buyers": 17394,
    "orr": 26914,
    "bromley": 27979,
    "rescued": 10148,
    "marx": 13518,
    "munoz": 23685,
    "tendencies": 20074,
    "dwight": 14304,
    "leiden": 20329,
    "\u00a1": 1067,
    "auxiliary": 9830,
    "feldman": 26908,
    "flanks": 23547,
    "##hil": 19466,
    "occupied": 4548,
    "navajo": 22440,
    "elementary": 4732,
    "def": 13366,
    "[unused97]": 98,
    "[unused193]": 198,
    "##itating": 16518,
    "cyclic": 23750,
    "intense": 6387,
    "##urity": 25137,
    "##holm": 18884,
    "markus": 23030,
    "##kulam": 28871,
    "sharma": 14654,
    "##ado": 9365,
    "before": 2077,
    "astronaut": 19748,
    "##\u1d40": 30031,
    "jesse": 7627,
    "overtime": 12253,
    "mattress": 13342,
    "[unused138]": 143,
    "##ridge": 9438,
    "chrome": 18546,
    "[unused264]": 269,
    "##ucci": 16835,
    "hammered": 25756,
    "blacksmith": 20987,
    "wonder": 4687,
    "elmer": 21464,
    "fatal": 10611,
    "equilibrium": 14442,
    "\u6f22": 1904,
    "iv": 4921,
    "vietnamese": 9101,
    "lindsey": 17518,
    "salvador": 10582,
    "##\u3059": 30184,
    "70": 3963,
    "##tance": 26897,
    "dismissing": 28913,
    "booking": 21725,
    "##ame": 14074,
    "windsor": 10064,
    "surroundings": 11301,
    "study": 2817,
    "##any": 19092,
    "##culus": 28703,
    "rounds": 6241,
    "commuter": 14334,
    "##\u884c": 30471,
    "ethan": 6066,
    "[unused838]": 843,
    "jessie": 10934,
    "kyoto": 15008,
    "broughton": 29187,
    "landowners": 20152,
    "##pm": 9737,
    "lang": 11374,
    "##omorphic": 28503,
    "##bbled": 12820,
    "14": 2403,
    "tackles": 10455,
    "servants": 8858,
    "1725": 25651,
    "boyle": 16694,
    "beyonce": 20773,
    "dwelling": 13160,
    "##bach": 7693,
    "memories": 5758,
    "oliveira": 24263,
    "##nell": 9091,
    "325": 19652,
    "##harat": 28074,
    "greed": 22040,
    "wharton": 24249,
    "gotta": 10657,
    "##al": 2389,
    "dorchester": 27252,
    "runway": 9271,
    "collar": 9127,
    "##tma": 29418,
    "petit": 17268,
    "petite": 20146,
    "expressed": 5228,
    "twentieth": 9086,
    "##mony": 22847,
    "plastics": 26166,
    "geological": 9843,
    "reacts": 27325,
    "whitish": 16800,
    "##mans": 15154,
    "siena": 23754,
    "homme": 26574,
    "planners": 27155,
    "[unused121]": 126,
    "##ced": 11788,
    "survivors": 8643,
    "tonic": 28157,
    "wb": 25610,
    "should": 2323,
    "\u00a33": 28182,
    "dedicated": 4056,
    "orchid": 15573,
    "lined": 7732,
    "aggressive": 9376,
    "query": 23032,
    "acquitted": 18538,
    "##une": 9816,
    "portland": 6734,
    "##fu": 11263,
    "rescues": 26001,
    "##iaceae": 23357,
    "breached": 25769,
    "agreed": 3530,
    "cl": 18856,
    "invented": 8826,
    "table": 2795,
    "[unused894]": 899,
    "kayla": 26491,
    "\u306e": 1671,
    "[unused439]": 444,
    "classed": 27811,
    "ceremonial": 12961,
    "##\u4e45": 30274,
    "weightlifting": 29305,
    "421": 29403,
    "dollar": 7922,
    "louise": 8227,
    "jumper": 21097,
    "brigadier": 9900,
    "##\u27e8": 30155,
    "council": 2473,
    "1988": 2997,
    "red": 2417,
    "kiev": 12100,
    "hospital": 2902,
    "tag": 6415,
    "1886": 6929,
    "instead": 2612,
    "iran": 4238,
    "##vina": 17948,
    "giants": 7230,
    "bn": 24869,
    "accurate": 8321,
    "friends": 2814,
    "##rrier": 27051,
    "easy": 3733,
    "##urian": 29091,
    "1831": 10937,
    "tokugawa": 22065,
    "somehow": 5064,
    "slowly": 3254,
    "catalina": 22326,
    "noel": 10716,
    "lima": 12967,
    "tops": 13284,
    "block": 3796,
    "lange": 21395,
    "##tet": 22513,
    "[unused469]": 474,
    "##turing": 16037,
    "capped": 13880,
    "##\u5742": 30329,
    "##als": 9777,
    "##uit": 14663,
    "winters": 12214,
    "pardon": 14933,
    "amman": 25703,
    "##bas": 22083,
    "\u02bf": 1148,
    "hurriedly": 23878,
    "cheekbones": 27181,
    "rotor": 18929,
    "##aj": 13006,
    "tensor": 23435,
    "isabel": 11648,
    "vowels": 15260,
    "1923": 4927,
    "ninety": 13568,
    "\u2090": 1560,
    "address": 4769,
    "educators": 19156,
    "##0s": 16223,
    "##wc": 16526,
    "gorilla": 23526,
    "drafted": 7462,
    "terry": 6609,
    "##ero": 10624,
    "reagan": 11531,
    "##ginal": 24965,
    "ir": 20868,
    "##ttes": 14581,
    "##els": 9050,
    "borg": 28709,
    "vampires": 6144,
    "planes": 9738,
    "##arding": 29154,
    "##tled": 14782,
    "##fied": 10451,
    "suggesting": 9104,
    "##via": 9035,
    "joaquin": 16877,
    "socially": 14286,
    "mesa": 15797,
    "wo": 24185,
    "electorate": 13694,
    "##lithic": 28508,
    "validity": 16406,
    "misses": 22182,
    "pulpit": 23134,
    "governors": 11141,
    "unstable": 14480,
    "doping": 23799,
    "bacterial": 17341,
    "fun": 4569,
    "snorted": 15235,
    "slices": 25609,
    "demonstrators": 28337,
    "audiences": 9501,
    "lawyers": 9559,
    "##mah": 25687,
    "yorker": 19095,
    "##ole": 9890,
    "plotted": 27347,
    "leg": 4190,
    "isaiah": 18850,
    "fairchild": 24258,
    "firefighters": 21767,
    "dessert": 18064,
    "[unused564]": 569,
    "lifts": 13695,
    "posterior": 15219,
    "barbarian": 25075,
    "dancing": 5613,
    "short": 2460,
    "dal": 17488,
    "afternoon": 5027,
    "##rial": 14482,
    "anime": 8750,
    "grady": 19011,
    "tend": 7166,
    "technicians": 20202,
    "trust": 3404,
    "gallantry": 22111,
    "berry": 10498,
    "tap": 11112,
    "wooded": 17172,
    "##q": 4160,
    "\u53f2": 1790,
    "bryson": 26845,
    "##die": 10265,
    "contexts": 18046,
    "confiscated": 17182,
    "narayan": 24331,
    "knights": 7307,
    "##tique": 28437,
    "barked": 17554,
    "##\u4e5f": 30276,
    "\u5206": 1775,
    "george": 2577,
    "##\u30fb": 30264,
    "entrances": 18084,
    "[unused493]": 498,
    "mischievous": 25723,
    "##sso": 24137,
    "alex": 4074,
    "fighting": 3554,
    "frowns": 29303,
    "warmed": 17336,
    "snarl": 24845,
    "sip": 10668,
    "rookie": 8305,
    "zinc": 15813,
    "buick": 28865,
    "department": 2533,
    "1704": 27769,
    "##lver": 26229,
    "tiled": 26510,
    "##\u1166": 30009,
    "along": 2247,
    "copy": 6100,
    "titles": 4486,
    "228": 22238,
    "[unused118]": 123,
    "telugu": 12180,
    "rhone": 22351,
    "##brick": 25646,
    "doi": 9193,
    "cousins": 12334,
    "##ments": 8163,
    "voted": 5444,
    "##ants": 11390,
    "##hony": 27629,
    "incorporated": 5100,
    "##tangle": 23395,
    "\u09aa": 1367,
    "##vious": 24918,
    "bishop": 3387,
    "infringement": 20701,
    "sufi": 21845,
    "[unused421]": 426,
    "taunting": 29442,
    "availability": 11343,
    "compassion": 15398,
    "traps": 16735,
    "relay": 8846,
    "[unused680]": 685,
    "easiest": 25551,
    "26": 2656,
    "##leen": 24129,
    "give": 2507,
    "representation": 6630,
    "##ard": 4232,
    "cringed": 23952,
    "##mission": 25481,
    "bait": 17395,
    "##dia": 9032,
    "##lda": 15150,
    "46": 4805,
    "anal": 20302,
    "priced": 21125,
    "integrating": 22380,
    "##\u1172": 30016,
    "stellar": 17227,
    "flashing": 12659,
    "bill": 3021,
    "requested": 7303,
    "bran": 24905,
    "tiles": 13262,
    "game": 2208,
    "governor": 3099,
    "scooped": 20804,
    "solar": 5943,
    "1845": 9512,
    "##genase": 28835,
    "schneider": 15159,
    "##ential": 24271,
    "512": 24406,
    "125": 8732,
    "polymer": 17782,
    "kowalski": 28874,
    "iec": 24940,
    "iris": 11173,
    "producers": 6443,
    "1790": 13393,
    "swinging": 11820,
    "bisexual": 22437,
    "##\u30a6": 30222,
    "##eri": 11124,
    "limits": 6537,
    "##uls": 28426,
    "costello": 21015,
    "watered": 27129,
    "##tonic": 25009,
    "##gist": 24063,
    "dawson": 11026,
    "braun": 21909,
    "iced": 28248,
    "##court": 13421,
    "theater": 4258,
    "shin": 12277,
    "politically": 10317,
    "mca": 22432,
    "antique": 14361,
    "shawn": 13218,
    "acted": 6051,
    "bristol": 7067,
    "##rga": 28921,
    "mocked": 24195,
    "6th": 5351,
    "[unused213]": 218,
    "more": 2062,
    "##lifting": 26644,
    "##zic": 27586,
    "##del": 9247,
    "intersection": 6840,
    "\u05df": 1256,
    "bile": 23974,
    "pixel": 22138,
    "1682": 29478,
    "bursts": 19239,
    "growing": 3652,
    "\u02bc": 1146,
    "cheerfully": 27403,
    "ambition": 16290,
    "vector": 9207,
    "sultan": 7544,
    "sited": 28603,
    "outlets": 11730,
    "[unused946]": 951,
    "halt": 9190,
    "\u5e74": 1840,
    "displeasure": 28606,
    "confronted": 12892,
    "inventory": 12612,
    "yields": 16189,
    "transition": 6653,
    "##load": 11066,
    "individuals": 3633,
    "\u767d": 1915,
    "[unused103]": 108,
    "[unused508]": 513,
    "terminals": 17703,
    "christie": 13144,
    "##iling": 16281,
    "##tar": 7559,
    "morris": 6384,
    "##tric": 12412,
    "confusion": 6724,
    "measurement": 10903,
    "##town": 4665,
    "shade": 8703,
    "\u30aa": 1699,
    "muttered": 6250,
    "hz": 22100,
    "arabian": 13771,
    "disability": 11980,
    "mit": 10210,
    "illustrations": 11249,
    "fresno": 20840,
    "halloween": 14414,
    "cigarette": 9907,
    "boxing": 8362,
    "fought": 4061,
    "neighbouring": 9632,
    "jackie": 9901,
    "pump": 10216,
    "aegean": 27198,
    "refrain": 20703,
    "livingston": 14109,
    "hugged": 10308,
    "##evic": 17726,
    "pas": 14674,
    "##vale": 17479,
    "rarely": 6524,
    "weakened": 11855,
    "[unused370]": 375,
    "rust": 18399,
    "hebrew": 6836,
    "vinnie": 24214,
    "193": 19984,
    "coinage": 25396,
    "trap": 8132,
    "##tility": 18724,
    "contra": 24528,
    "1907": 5528,
    "alternative": 4522,
    "dq": 25410,
    "\u025b": 1115,
    "neill": 11511,
    "recoil": 27429,
    "##hey": 14844,
    "flung": 14016,
    "neck": 3300,
    "##than": 21604,
    "marvelous": 28851,
    "harbour": 7440,
    "shock": 5213,
    "developmental": 13908,
    "sanford": 21153,
    "nature": 3267,
    "##sier": 20236,
    "mil": 23689,
    "theories": 8106,
    "treasurer": 10211,
    "necessity": 13185,
    "goofy": 27243,
    "##gonal": 20028,
    "##otti": 21325,
    "##\u6c5f": 30423,
    "karma": 19902,
    "cosmos": 21182,
    "contend": 27481,
    "[unused653]": 658,
    "owes": 24381,
    "buses": 7793,
    "strap": 16195,
    "sent": 2741,
    "warrant": 10943,
    "##\u2190": 30111,
    "fashion": 4827,
    "quiver": 29049,
    "assassinated": 16370,
    "##\u5bbf": 30352,
    "rivalry": 10685,
    "grimaced": 19014,
    "flip": 11238,
    "##\u0580": 29784,
    "odyssey": 18735,
    "cerambycidae": 13168,
    "\u694a": 1883,
    "repetition": 23318,
    "blackwell": 18776,
    "starring": 4626,
    "hysterical": 25614,
    "constantly": 7887,
    "term": 2744,
    "searching": 6575,
    "##\uff1a": 30519,
    "##stor": 23809,
    "\u65b0": 1862,
    "complications": 12763,
    "religion": 4676,
    "combined": 4117,
    "practices": 6078,
    "karate": 16894,
    "punk": 7196,
    "admitting": 17927,
    "height": 4578,
    "mega": 13164,
    "##sboro": 25623,
    "mistaken": 13534,
    "oblivion": 24034,
    "license": 6105,
    "ours": 14635,
    "intellectuals": 17412,
    "mechanism": 7337,
    "6000": 25961,
    "[unused415]": 420,
    "skills": 4813,
    "range": 2846,
    "monk": 8284,
    "registrar": 24580,
    "\u056b": 1225,
    "spiritual": 6259,
    "designated": 4351,
    "detachment": 11009,
    "neutrality": 21083,
    "##iting": 15402,
    "1723": 26621,
    "\u30c6": 1713,
    "hooper": 23717,
    "reflex": 22259,
    "zurich": 10204,
    "processors": 18017,
    "##tov": 26525,
    "clergy": 11646,
    "elder": 6422,
    "articulated": 20742,
    "apex": 13450,
    "conjunction": 9595,
    "participating": 8019,
    "continuous": 7142,
    "[unused226]": 231,
    "routing": 16972,
    "##ropolis": 23248,
    "folds": 15439,
    "legged": 15817,
    "providers": 11670,
    "chess": 7433,
    "##urance": 25863,
    "interrupting": 22602,
    "scholar": 6288,
    "hydro": 18479,
    "\u7fa9": 1936,
    "rescue": 5343,
    "[unused760]": 765,
    "definitions": 15182,
    "sterling": 10933,
    "jessica": 8201,
    "caleb": 10185,
    "##rc": 11890,
    "prematurely": 28179,
    "thorn": 16337,
    "none": 3904,
    "righteous": 19556,
    "jerry": 6128,
    "seventh": 5066,
    "including": 2164,
    "realizing": 9301,
    "ki": 11382,
    "##nese": 14183,
    "pts": 19637,
    "reformed": 9114,
    "letters": 4144,
    "prominently": 14500,
    "ripley": 25231,
    "obedience": 22645,
    "incidents": 10444,
    "##ail": 12502,
    "\u91ce": 1963,
    "34": 4090,
    "##ophone": 25232,
    "md": 9108,
    "amount": 3815,
    "##gent": 11461,
    "amateurs": 24361,
    "epsilon": 28038,
    "joan": 7437,
    "##ves": 6961,
    "317": 26628,
    "\u00a32": 21853,
    "drifted": 10070,
    "stole": 10312,
    "phases": 12335,
    "##\u2207": 30123,
    "contradiction": 26917,
    "scarlett": 20862,
    "##ppa": 13944,
    "themes": 6991,
    "negro": 12593,
    "inference": 28937,
    "philharmonic": 12355,
    "##avio": 28471,
    "[unused48]": 49,
    "ascribed": 28025,
    "bien": 29316,
    "lab": 6845,
    "suv": 15620,
    "##bie": 11283,
    "lagoon": 15825,
    "protege": 28567,
    "symphony": 6189,
    "robin": 5863,
    "essential": 6827,
    "moist": 11052,
    "aerospace": 13395,
    "double": 3313,
    "sorbonne": 28452,
    "##hta": 22893,
    "renovated": 10601,
    "cereal": 20943,
    "cong": 26478,
    "consistently": 10862,
    "thirds": 12263,
    "inhibitor": 24054,
    "##dates": 27122,
    "momentarily": 16032,
    "host": 3677,
    "duncan": 7343,
    "threw": 4711,
    "sole": 7082,
    "concluded": 5531,
    "recurring": 10694,
    "madeleine": 19324,
    "density": 4304,
    "##wice": 23425,
    "##bla": 28522,
    "hers": 5106,
    "pl": 20228,
    "##s": 2015,
    "[unused817]": 822,
    "##rell": 16230,
    "mazda": 25286,
    "centennial": 15483,
    "garden": 3871,
    "principles": 6481,
    "kimberly": 23729,
    "stairwell": 22109,
    "blog": 9927,
    "delta": 7160,
    "insurgents": 20541,
    "wayne": 6159,
    "##sford": 17658,
    "##lves": 20899,
    "lip": 5423,
    "messy": 18307,
    "##\u057f": 29783,
    "cabinets": 20053,
    "345": 23785,
    "flushing": 23519,
    "ladder": 10535,
    "jolted": 28801,
    "nec": 26785,
    "##ards": 18117,
    "mock": 12934,
    "sikh": 17246,
    "dismay": 20006,
    "undergoes": 29129,
    "declaring": 13752,
    "satisfactory": 23045,
    "\u4f0a": 1762,
    "clumsy": 22902,
    "blown": 10676,
    "mr": 2720,
    "##page": 13704,
    "osborn": 26999,
    "ashamed": 14984,
    "payroll": 26854,
    "francis": 4557,
    "revolving": 24135,
    "obstacles": 15314,
    "bon": 14753,
    "##lovic": 29356,
    "therapy": 7242,
    "##usly": 27191,
    "rallies": 22867,
    "deepened": 20183,
    "castle": 3317,
    "[unused14]": 15,
    "##km": 22287,
    "aims": 8704,
    "tying": 15233,
    "symbolism": 22050,
    "museum": 2688,
    "bowler": 14999,
    "infinite": 10709,
    "iroquois": 23015,
    "##mpt": 27718,
    "sec": 10819,
    "##\u83ef": 30468,
    "kincaid": 24510,
    "seminars": 17239,
    "##nsor": 29577,
    "knows": 4282,
    "##ag": 8490,
    "intuition": 26406,
    "entry": 4443,
    "mughal": 17877,
    "\u00f7": 1099,
    "f": 1042,
    "##eme": 21382,
    "surpassed": 15602,
    "submarine": 6982,
    "##van": 6212,
    "96": 5986,
    "efficacy": 21150,
    "pomerania": 18631,
    "kosovo": 11491,
    "piccolo": 29368,
    "delaney": 22101,
    "speakers": 7492,
    "associations": 8924,
    "readers": 8141,
    "sweatshirt": 28095,
    "shan": 17137,
    "division": 2407,
    "##mler": 18602,
    "##fm": 16715,
    "##\u570b": 30326,
    "venice": 7914,
    "screens": 12117,
    "dismissed": 7219,
    "impulse": 14982,
    "topical": 25665,
    "keynes": 22152,
    "sailing": 8354,
    "occupations": 23374,
    "sv": 17917,
    "##tten": 25970,
    "skinned": 19937,
    "rings": 7635,
    "adjustment": 19037,
    "##cratic": 17510,
    "springfield": 10493,
    "[unused981]": 986,
    "harder": 6211,
    "jays": 18930,
    "##rissa": 26571,
    "specialising": 23315,
    "jockey": 13989,
    "moonlight": 11986,
    "kate": 5736,
    "architects": 8160,
    "451": 28161,
    "##hian": 14204,
    "cecilia": 18459,
    "lesser": 8276,
    "126": 14010,
    "spy": 8645,
    "denying": 16039,
    "bitterly": 19248,
    "nintendo": 10022,
    "daddy": 8600,
    "[unused144]": 149,
    "chatter": 24691,
    "##lent": 16136,
    "##mac": 22911,
    "tentatively": 19325,
    "crore": 21665,
    "1648": 22533,
    "stronghold": 16995,
    "bulge": 23708,
    "amelia": 11556,
    "representative": 4387,
    "landau": 28570,
    "##foot": 13064,
    "elm": 17709,
    "##\uff1f": 30520,
    "paranormal": 20725,
    "##oj": 29147,
    "wiener": 25072,
    "revisions": 24699,
    "##bib": 28065,
    "seo": 27457,
    "imaging": 12126,
    "weimar": 20695,
    "southampton": 11833,
    "calf": 19134,
    "[unused448]": 453,
    "suddenly": 3402,
    "##athan": 29246,
    "personality": 6180,
    "crusade": 16282,
    "##iere": 21253,
    "burnett": 13829,
    "billie": 18210,
    "uefa": 6663,
    "##gall": 22263,
    "freddy": 19343,
    "offered": 3253,
    "constantin": 27991,
    "screwing": 29082,
    "annex": 17827,
    "accession": 16993,
    "captain": 2952,
    "professionals": 8390,
    "pri": 26927,
    "kyiv": 25669,
    "quarries": 27069,
    "\u308b": 1687,
    "frey": 20068,
    "riga": 17557,
    "attendants": 26727,
    "unlike": 4406,
    "replica": 15059,
    "1629": 27882,
    "##\u0644": 23673,
    "[unused235]": 240,
    "aroma": 23958,
    "tornado": 11352,
    "townsville": 27492,
    "jayne": 24408,
    "meter": 8316,
    "piles": 18526,
    "found": 2179,
    "plunging": 29059,
    "corrupted": 27279,
    "voyages": 21993,
    "pinch": 18392,
    "##oko": 16366,
    "katie": 9734,
    "\u4e8c": 1752,
    "##trip": 24901,
    "erupted": 12591,
    "proprietary": 16350,
    "owed": 12232,
    "canada": 2710,
    "evie": 26400,
    "gerry": 14926,
    "mesh": 20437,
    "food": 2833,
    "constructions": 21913,
    "geographic": 9183,
    "##hai": 10932,
    "jade": 12323,
    "grins": 20237,
    "##\u91ce": 30489,
    "sahib": 23513,
    "##ej": 20518,
    "grumbled": 17030,
    "log": 8833,
    "##ml": 19968,
    "wander": 17677,
    "ibrahim": 13477,
    "##ello": 15350,
    "sympathy": 11883,
    "olaf": 20514,
    "launcher": 22742,
    "redhead": 26705,
    "countries": 3032,
    "adapted": 5967,
    "musicians": 5389,
    "smeared": 25400,
    "##dog": 16168,
    "justify": 16114,
    "tries": 5363,
    "ebert": 22660,
    "calais": 23116,
    "blanche": 18158,
    "sparhawk": 13709,
    "\u0f60": 1433,
    "guardians": 14240,
    "thematic": 23539,
    "nmi": 22484,
    "clearer": 24509,
    "doctrine": 8998,
    "prose": 12388,
    "166": 18610,
    "entropy": 23077,
    "##liffe": 27931,
    "[unused33]": 34,
    "karen": 8129,
    "1836": 10081,
    "\u305b": 1659,
    "willow": 11940,
    "\u3046": 1648,
    "##orn": 9691,
    "##nder": 11563,
    "##ol": 4747,
    "##ulsive": 23004,
    "hardy": 9532,
    "##bio": 26282,
    "##kell": 18690,
    "##khov": 25495,
    "##berger": 14859,
    "eurovision": 12714,
    "barrett": 12712,
    "dung": 29328,
    "stefan": 8852,
    "imminent": 17566,
    "rc": 22110,
    "encompass": 25281,
    "whirled": 17097,
    "arteries": 28915,
    "##rno": 19139,
    "surf": 14175,
    "##oes": 22504,
    "##\u533a": 30308,
    "[unused796]": 801,
    "verified": 20119,
    "slayer": 20005,
    "##%": 29616,
    "outright": 13848,
    "founded": 2631,
    "odi": 21045,
    "andrey": 29219,
    "adele": 17623,
    "##lston": 21540,
    "rev": 7065,
    "neighbours": 14754,
    "wembley": 16538,
    "##dley": 14232,
    "vishnu": 17647,
    "procedures": 8853,
    "##some": 14045,
    "##\u6c34": 30419,
    "heating": 10808,
    "demolished": 7002,
    "iq": 26264,
    "monumental": 15447,
    "[unused143]": 148,
    "tracy": 10555,
    "##overs": 24302,
    "did": 2106,
    "gel": 21500,
    "scalp": 21065,
    "fringe": 13548,
    "fen": 21713,
    "withdrawn": 9633,
    "jose": 4560,
    "960": 26637,
    "clap": 28618,
    "woody": 13703,
    "various": 2536,
    "swept": 7260,
    "header": 20346,
    "[unused95]": 96,
    "lace": 12922,
    "practically": 8134,
    "lee": 3389,
    "murphy": 7104,
    "25": 2423,
    "advertised": 17099,
    "successful": 3144,
    "eccentric": 18080,
    "liturgy": 21176,
    "shouldered": 29383,
    "unwanted": 18162,
    "cactus": 23265,
    "[unused445]": 450,
    "##typic": 23186,
    "##\u30a1": 30218,
    "bosses": 23029,
    "archangel": 28185,
    "enough": 2438,
    "shore": 5370,
    "##\u0432": 25529,
    "assemble": 21365,
    "speech": 4613,
    "tai": 13843,
    "##_": 29638,
    "gardens": 5822,
    "flanagan": 26558,
    "##60": 16086,
    "[unused914]": 919,
    "##holes": 19990,
    "##arable": 25236,
    "bourbon": 15477,
    "motto": 12652,
    "yoo": 26823,
    "gibbons": 22194,
    "chosen": 4217,
    "bowed": 11489,
    "1665": 27676,
    "competitor": 12692,
    "appendix": 22524,
    "\u099f": 1359,
    "pendulum": 28300,
    "rely": 11160,
    "stakes": 7533,
    "##ifiers": 28295,
    "ashton": 13772,
    "tee": 17170,
    "tolerated": 25775,
    "theatres": 13166,
    "former": 2280,
    "\u00ac": 1078,
    "expanse": 22944,
    "##rza": 24175,
    "organ": 5812,
    "harp": 14601,
    "delaware": 8452,
    "dragged": 7944,
    "location": 3295,
    "ether": 28855,
    "inexpensive": 23766,
    "##\u8279": 30465,
    "slap": 14308,
    "hancock": 13849,
    "##tor": 4263,
    "\u4fdd": 1766,
    "bum": 26352,
    "shove": 14738,
    "european": 2647,
    "##lass": 27102,
    "##idia": 29342,
    "##\u203f": 30069,
    "upgrades": 18739,
    "prestigious": 8919,
    "wives": 10403,
    "worthless": 22692,
    "\u3064": 1664,
    "fluttered": 18360,
    "marshall": 5832,
    "flavors": 26389,
    "ashford": 26545,
    "continent": 9983,
    "##tv": 9189,
    "cleopatra": 22003,
    "alarms": 29034,
    "throughout": 2802,
    "##\u2087": 30083,
    "maxwell": 10691,
    "##ril": 15928,
    "##ope": 17635,
    "pick": 4060,
    "rink": 18416,
    "dockyard": 24874,
    "##walk": 17122,
    "olive": 9724,
    "speeds": 10898,
    "thriving": 20319,
    "##ead": 13775,
    "rockefeller": 16696,
    "[unused502]": 507,
    "[unused926]": 931,
    "\u3061": 1662,
    "thump": 21324,
    "inducing": 29290,
    "beta": 8247,
    "##12": 12521,
    "ribbon": 10557,
    "rotting": 22005,
    "batch": 14108,
    "##rner": 18703,
    "ares": 23631,
    "nerves": 10627,
    "calculated": 10174,
    "(": 1006,
    "bow": 6812,
    "##/": 29626,
    "##cu": 10841,
    "[unused619]": 624,
    "##atic": 12070,
    "[unused976]": 981,
    "[unused220]": 225,
    "steady": 6706,
    "redskins": 17461,
    "##master": 8706,
    "adviser": 11747,
    "[unused780]": 785,
    "horton": 18469,
    "hell": 3109,
    "##\u091f": 29856,
    "edmond": 21773,
    "\u11ab": 1485,
    "pam": 14089,
    "sins": 15516,
    "##sten": 16173,
    "corbin": 24003,
    "chandler": 13814,
    "witches": 12566,
    "skate": 17260,
    "story": 2466,
    "tanner": 12780,
    "reliefs": 27670,
    "\u10e1": 1452,
    "\u0cbe": 1402,
    "seville": 18983,
    "\u2297": 1613,
    "##\u5fe0": 30378,
    "hunan": 27374,
    "203": 18540,
    "writ": 25697,
    "configuration": 9563,
    "haynes": 21805,
    "\u0436": 1186,
    "tide": 10401,
    "arena": 5196,
    "exhibits": 10637,
    "experience": 3325,
    "contest": 5049,
    "multicultural": 27135,
    "assumed": 5071,
    "storey": 11676,
    "rooney": 24246,
    "suns": 19352,
    "experienced": 5281,
    "swans": 26699,
    "scream": 6978,
    "processing": 6364,
    "vs": 5443,
    "##nate": 12556,
    "##onus": 24891,
    "##uta": 13210,
    "##52": 25746,
    "drills": 28308,
    "##lle": 6216,
    "naacp": 26155,
    "[unused583]": 588,
    "\u91cc": 1962,
    "combinations": 14930,
    "alberta": 7649,
    "##station": 20100,
    "capitalism": 16498,
    "adequate": 11706,
    "##tad": 17713,
    "unicef": 29073,
    "1814": 10977,
    "tuck": 18029,
    "pop": 3769,
    "cinematography": 16434,
    "brown": 2829,
    "faber": 21720,
    "selling": 4855,
    "snowy": 20981,
    "##ani": 7088,
    "chemist": 15535,
    "3": 1017,
    "mesopotamia": 25889,
    "symmetry": 14991,
    "social": 2591,
    "tubes": 10868,
    "gem": 17070,
    "locomotives": 7830,
    "[unused124]": 129,
    "perceptions": 23271,
    "##iom": 18994,
    "##rgan": 16998,
    "bjp": 24954,
    "ric": 26220,
    "##kker": 23793,
    "\u026a": 1119,
    "govern": 21208,
    "[unused598]": 603,
    "lands": 4915,
    "breathed": 8726,
    "races": 3837,
    "penal": 18476,
    "insanity": 19272,
    "##ending": 18537,
    "rpm": 11575,
    "cullen": 19925,
    "##ci": 6895,
    "philip": 5170,
    "##rang": 24388,
    "testing": 5604,
    "knit": 22404,
    "weaker": 15863,
    "##rting": 24097,
    "surfaces": 9972,
    "usaf": 18531,
    "marie": 5032,
    "##cel": 29109,
    "geneva": 9810,
    "##storm": 19718,
    "276": 25113,
    "crate": 27297,
    "##kow": 24144,
    "##ding": 4667,
    "\u6708": 1872,
    "##ogan": 21131,
    "thierry": 26413,
    "\u06cc": 1309,
    "argue": 7475,
    "reform": 5290,
    "madeira": 27309,
    "survive": 5788,
    "conceded": 15848,
    "astonishment": 23819,
    "owen": 7291,
    "\u529b": 1778,
    "staple": 18785,
    "abs": 14689,
    "urgently": 25478,
    "\u2190": 1583,
    "sub": 4942,
    "democracy": 7072,
    "farther": 8736,
    "approaches": 8107,
    "forested": 15205,
    "spark": 12125,
    "\u043b": 1190,
    "mathematicians": 29374,
    "rooftop": 23308,
    "federation": 4657,
    "lobster": 27940,
    "##rade": 13662,
    "##lde": 17920,
    "kelsey": 21004,
    "hearings": 19153,
    "\u30cb": 1716,
    "pius": 14363,
    "structures": 5090,
    "obe": 15578,
    "##ful": 3993,
    "disappointed": 9364,
    "retired": 3394,
    "##peration": 29487,
    "tam": 17214,
    "bloc": 15984,
    "hero": 5394,
    "tyne": 17742,
    "##\u300c": 30167,
    "nonstop": 25493,
    "supreme": 4259,
    "cave": 5430,
    "molina": 25601,
    "##iensis": 27806,
    "##org": 21759,
    "uss": 7234,
    "triumph": 10911,
    "##drick": 24092,
    "##hun": 17157,
    "##vac": 24887,
    "##us": 2271,
    "fugitive": 21329,
    "ich": 22564,
    "franklin": 5951,
    "510": 23475,
    "eugene": 8207,
    "commanding": 7991,
    "##ety": 27405,
    "##ttered": 14795,
    "cultures": 8578,
    "ono": 21058,
    "zen": 16729,
    "telegram": 23921,
    "charge": 3715,
    "giovanni": 9136,
    "##emon": 26941,
    "skull": 7412,
    "canadians": 16485,
    "ali": 4862,
    "##rized": 18425,
    "lc": 29215,
    "transports": 19003,
    "indication": 12407,
    "[unused64]": 65,
    "doom": 12677,
    "crashes": 19119,
    "##isson": 24077,
    "practised": 20439,
    "hopkins": 10239,
    "dubai": 11558,
    "1760": 19096,
    "belfast": 10330,
    "couples": 6062,
    "margin": 7785,
    "##\u5185": 30299,
    "\u30ed": 1735,
    "done": 2589,
    "scientist": 7155,
    "sometimes": 2823,
    "en": 4372,
    "##dents": 28986,
    "langdon": 15232,
    "whiskey": 13803,
    "conditioned": 22442,
    "neat": 15708,
    "applied": 4162,
    "ed": 3968,
    "disciple": 17849,
    "hoax": 28520,
    "corporation": 3840,
    "mixed": 3816,
    "marketplace": 18086,
    "subdivision": 12572,
    "1770": 17711,
    "testify": 19919,
    "frantic": 15762,
    "leave": 2681,
    "##oku": 21940,
    "[unused401]": 406,
    "redwood": 27552,
    "##alle": 24164,
    "\u0649": 1299,
    "aided": 11553,
    "demonstrations": 13616,
    "partnered": 12404,
    "[unused922]": 927,
    "##form": 14192,
    "generals": 11593,
    "salon": 11090,
    "leukemia": 25468,
    "concerts": 6759,
    "locality": 10246,
    "enthusiasts": 20305,
    "draught": 25349,
    "remark": 17674,
    "##film": 23665,
    "##enburg": 12059,
    "isabelle": 13942,
    "crumbling": 24827,
    "confessed": 14312,
    "troubles": 13460,
    "##ddin": 18277,
    "##\u0452": 29758,
    "petitions": 24320,
    "brothel": 27308,
    "\u0444": 1199,
    "echoes": 17659,
    "victory": 3377,
    "curry": 15478,
    "ejected": 22607,
    "##\u6797": 30407,
    "feasible": 22945,
    "##53": 22275,
    "saturday": 5095,
    "cannot": 3685,
    "absently": 21284,
    "cheers": 21250,
    "orders": 4449,
    "sails": 17553,
    "elsa": 23452,
    "##ge": 3351,
    "stepping": 9085,
    "algiers": 22947,
    "tchaikovsky": 25900,
    "nod": 7293,
    "\u6c37": 1895,
    "bulb": 20581,
    "counterattack": 27835,
    "wake": 5256,
    "[unused787]": 792,
    "##hui": 20552,
    "##df": 20952,
    "miners": 11257,
    "##rase": 23797,
    "drowned": 12805,
    "reducing": 8161,
    "chad": 9796,
    "[unused639]": 644,
    "illuminated": 14640,
    "##\u0441": 29747,
    "##uria": 27703,
    "balanced": 12042,
    "moore": 5405,
    "##kowski": 15449,
    "296": 27200,
    "anti": 3424,
    "##eville": 21187,
    "bayou": 24818,
    "ratio": 6463,
    "est": 9765,
    "addresses": 11596,
    "##\u0baf": 29926,
    "##\u201e": 30060,
    "accusing": 16723,
    "triggered": 13330,
    "festivities": 21206,
    "bis": 20377,
    "sharing": 6631,
    "technologies": 6786,
    "vocalists": 27478,
    "[unused23]": 24,
    "1300": 19527,
    "employment": 6107,
    "shay": 18789,
    "reconciled": 28348,
    "concentrate": 10152,
    "feral": 18993,
    "##play": 13068,
    "unopposed": 17123,
    "##ash": 11823,
    "vote": 3789,
    "interfere": 15115,
    "schedule": 6134,
    "stationary": 17337,
    "conferred": 15186,
    "beside": 3875,
    "##eson": 21421,
    "granite": 9753,
    "roared": 14242,
    "ask": 3198,
    "indira": 28232,
    "educational": 4547,
    "##ated": 4383,
    "away": 2185,
    "achievements": 10106,
    "elbow": 8999,
    "\u30ec": 1734,
    "authorised": 19256,
    "births": 18250,
    "things": 2477,
    "##ure": 5397,
    "\u0f56": 1431,
    "garlic": 20548,
    "administrations": 27722,
    "lb": 6053,
    "culturally": 20547,
    "keyboardist": 20173,
    "acid": 5648,
    "residents": 3901,
    "##oran": 18842,
    "##og": 8649,
    "##lth": 24658,
    "##ter": 3334,
    "exceeding": 17003,
    "leith": 29011,
    "tyson": 19356,
    "vomiting": 24780,
    "captains": 15755,
    "yokohama": 20507,
    "eton": 21687,
    "stacks": 20829,
    "egypt": 5279,
    "kelvin": 24810,
    "barton": 12975,
    "arresting": 28427,
    "\u02d0": 1150,
    "parameters": 11709,
    "##\u044c": 23742,
    "besieged": 17923,
    "available": 2800,
    "bowen": 16208,
    "payton": 28666,
    "isil": 19600,
    "##gative": 26792,
    "##wn": 7962,
    "kara": 13173,
    "authorization": 20104,
    "controller": 11486,
    "##ark": 17007,
    "##ray": 9447,
    "##meister": 28824,
    "outlined": 14801,
    "06": 5757,
    "spokane": 21878,
    "##nai": 26416,
    "agent": 4005,
    "brisbane": 7717,
    "embroidered": 23590,
    "mug": 14757,
    "##yman": 17906,
    "sidney": 11430,
    "afternoons": 24738,
    "vocals": 2955,
    "move": 2693,
    "faso": 22773,
    "##cles": 18954,
    "employer": 11194,
    "planner": 24555,
    "becoming": 3352,
    "memory": 3638,
    "westbound": 24717,
    "1965": 3551,
    "argentina": 5619,
    "##athing": 22314,
    "peck": 18082,
    "patient": 5776,
    "surely": 7543,
    "[unused433]": 438,
    "hurling": 10839,
    "##ragan": 28905,
    "messenger": 11981,
    "wit": 15966,
    "manually": 21118,
    "sheppard": 24976,
    "astronomy": 12799,
    "##dies": 18389,
    "thom": 19438,
    "vineyards": 20597,
    "load": 7170,
    "[unused194]": 199,
    "modernization": 20181,
    "##chison": 27795,
    "focused": 4208,
    "[unused270]": 275,
    "##river": 24352,
    "willing": 5627,
    "provide": 3073,
    "wrapping": 12252,
    "zac": 29250,
    "confuse": 28679,
    "intimidation": 28973,
    "inadequate": 14710,
    "asset": 11412,
    "##inga": 28234,
    "doll": 10658,
    "visuals": 26749,
    "organizes": 22013,
    "sherlock": 20052,
    "[unused956]": 961,
    "bowls": 15220,
    "sacks": 14918,
    "colon": 16844,
    "hill": 2940,
    "##ria": 4360,
    "1864": 6717,
    "fei": 24664,
    "warming": 12959,
    "##\u0631": 17149,
    "nightmares": 15446,
    "##rsk": 27472,
    "\u6771": 1879,
    "##lyn": 9644,
    "ratified": 17673,
    "dialogue": 7982,
    "recently": 3728,
    "ud": 20904,
    "daly": 18509,
    "angle": 6466,
    "cooling": 11520,
    "##mb": 14905,
    "##86": 20842,
    "earning": 7414,
    "alison": 12684,
    "distress": 12893,
    "[unused404]": 409,
    "fishing": 5645,
    "tribute": 7050,
    "pay": 3477,
    "drawings": 9254,
    "peeking": 28222,
    "transported": 9687,
    "databases": 17881,
    "subgroup": 20576,
    "york": 2259,
    "manufactures": 22027,
    "##plin": 28296,
    "portal": 9445,
    "tbs": 29584,
    "novel": 3117,
    "pretending": 12097,
    "hampered": 22532,
    "##oked": 23461,
    "\u0127": 1103,
    "turnout": 15512,
    "southend": 26104,
    "galaxy": 9088,
    "width": 9381,
    "resume": 13746,
    "##chfield": 22693,
    "##\u20ac": 30102,
    "particularly": 3391,
    "##bate": 20179,
    "\u0e01": 1409,
    "##ence": 10127,
    "##aia": 27131,
    "##lar": 8017,
    "arithmetic": 20204,
    "##\u062f": 15394,
    "religious": 3412,
    "##dened": 24589,
    "grade": 3694,
    "map": 4949,
    "quakers": 28301,
    "friar": 25287,
    "alternating": 15122,
    "greater": 3618,
    "folly": 26272,
    "##wy": 18418,
    "fish": 3869,
    "initiated": 7531,
    "shout": 11245,
    "positioned": 10959,
    "heresy": 28354,
    "##nu": 11231,
    "tilting": 21788,
    "alabama": 6041,
    "replacements": 23936,
    "##\uff09": 30514,
    "dune": 21643,
    "\u0dba": 1404,
    "##aceous": 25560,
    "versa": 18601,
    "users": 5198,
    "##erly": 12561,
    "bypass": 11826,
    "despite": 2750,
    "sloping": 24724,
    "vatican": 12111,
    "swings": 18755,
    "soundtrack": 6050,
    "goals": 3289,
    "drilled": 24311,
    "[unused320]": 325,
    "teeth": 4091,
    "bombardier": 29143,
    "fox": 4419,
    "roche": 20162,
    "jess": 12245,
    "express": 4671,
    "wrap": 10236,
    "[unused71]": 72,
    "##nett": 15361,
    "futile": 24495,
    "debut": 2834,
    "jurisdiction": 7360,
    "corinne": 26879,
    "##eak": 25508,
    "##rington": 17281,
    "pleasure": 5165,
    "##bella": 21700,
    "chennai": 12249,
    "genealogy": 26684,
    "edible": 21006,
    "sailor": 11803,
    "torque": 15894,
    "mornings": 16956,
    "\u20b9": 1576,
    "spans": 14798,
    "\u0430": 1180,
    "##pu": 14289,
    "##le": 2571,
    "##sop": 28793,
    "licking": 17033,
    "motivation": 14354,
    "trainee": 26758,
    "##orf": 16347,
    "##eva": 13331,
    "##32": 16703,
    "##otho": 29288,
    "provisions": 8910,
    "apologized": 17806,
    "wave": 4400,
    "manifestation": 24491,
    "lila": 19286,
    "station": 2276,
    "ambrose": 15675,
    "111": 11118,
    "wonderland": 20365,
    "##ck": 3600,
    "josie": 15293,
    "100": 2531,
    "1656": 28434,
    "hoffman": 15107,
    "quarrel": 26260,
    "large": 2312,
    "wilfred": 26026,
    "##itha": 26054,
    "\u5e1d": 1838,
    "##kaya": 20718,
    "indigenous": 6284,
    "burton": 9658,
    "paying": 7079,
    "nilsson": 29376,
    "bad": 2919,
    "##\u057a": 29780,
    "architect": 4944,
    "stamps": 12133,
    "emphasize": 17902,
    "eastward": 17318,
    "smyth": 28103,
    "esq": 25325,
    "platinum": 8899,
    "takes": 3138,
    "##hide": 26100,
    "types": 4127,
    "creaked": 28068,
    "millennium": 10144,
    "secular": 10644,
    "likewise": 10655,
    "[unused954]": 959,
    "\u00a3100": 27708,
    "uploaded": 21345,
    "duplicate": 24473,
    "harmonies": 28594,
    "print": 6140,
    "evolutionary": 12761,
    "peng": 26473,
    "margot": 29210,
    "electrons": 15057,
    "xbox": 12202,
    "jimmie": 24671,
    "violated": 14424,
    "1728": 26833,
    "noting": 9073,
    "promote": 5326,
    "\u660e": 1865,
    "##\u7701": 30446,
    "[unused476]": 481,
    "bone": 5923,
    "##\u0647": 14157,
    "blindly": 25734,
    "considering": 6195,
    "183": 18677,
    "[unused72]": 73,
    "indonesian": 9003,
    "beach": 3509,
    "believe": 2903,
    "##oli": 10893,
    "retaining": 12823,
    "hawaii": 7359,
    "munich": 7469,
    "simone": 14072,
    "##block": 23467,
    "deteriorated": 20111,
    "avila": 29079,
    "adolph": 28564,
    "freedoms": 22467,
    "ken": 6358,
    "decoration": 11446,
    "innings": 7202,
    "##worm": 22769,
    "dunkirk": 29467,
    "##kka": 15714,
    "quarterback": 9074,
    "kings": 5465,
    "kazan": 22001,
    "##gga": 23033,
    "constraints": 14679,
    "swami": 20087,
    "combo": 25025,
    "stretched": 7121,
    "##rence": 24413,
    "ios": 16380,
    "subsequent": 4745,
    "packed": 8966,
    "\u9f8d": 1982,
    "frown": 11330,
    "tea": 5572,
    "slump": 28702,
    "\u03c0": 1170,
    "romania": 6339,
    "fireplace": 13788,
    "prevailed": 19914,
    "jolt": 22538,
    "cried": 6639,
    "saw": 2387,
    "spies": 16794,
    "brenda": 15507,
    "flicking": 26259,
    "##ho": 6806,
    "##hend": 22342,
    "scroll": 17186,
    "enhanced": 9412,
    "351": 28474,
    "\u1162": 1471,
    "airlift": 20019,
    "wire": 7318,
    "42": 4413,
    "probing": 28664,
    "operator": 6872,
    "airline": 8582,
    "[unused300]": 305,
    "sermons": 20855,
    "liu": 8607,
    "edward": 3487,
    "##rier": 16252,
    "virgil": 17270,
    "accumulated": 14830,
    "##pse": 29251,
    "mecklenburg": 22007,
    "##llan": 19036,
    "pe": 21877,
    "samuel": 5212,
    "evicted": 25777,
    "minimum": 6263,
    "greyish": 26916,
    "cellar": 15423,
    "angelo": 12262,
    "salisbury": 13817,
    "##door": 23835,
    "mojo": 28017,
    "##cence": 29320,
    "torture": 8639,
    "binary": 12441,
    "fictitious": 23577,
    "smacked": 19203,
    "swords": 10689,
    "##wed": 15557,
    "\u0906": 1312,
    "parasites": 23996,
    "backup": 10200,
    "smithsonian": 15720,
    "gerald": 9659,
    "spirited": 24462,
    "piled": 17835,
    "licensing": 13202,
    "reapers": 27733,
    "reminiscent": 14563,
    "hand": 2192,
    "nathan": 7150,
    "##tley": 18492,
    "alliance": 4707,
    "modular": 19160,
    "metric": 12046,
    "surprised": 4527,
    "sake": 8739,
    "##acker": 25418,
    "##estinal": 19126,
    "eight": 2809,
    "##ivision": 24607,
    "##oids": 17086,
    "##trick": 22881,
    "hitting": 7294,
    "naples": 10553,
    "chuckles": 26088,
    "##vi": 5737,
    "\u1105": 1458,
    "##nce": 5897,
    "constantine": 12790,
    "crooked": 15274,
    "\u8fb6": 1956,
    "memphis": 9774,
    "richie": 14411,
    "sentences": 11746,
    "revival": 6308,
    "collapsed": 7798,
    "##\u0449": 29754,
    "unsigned": 27121,
    "scoop": 23348,
    "examination": 7749,
    "siren": 19558,
    "ecological": 12231,
    "mocking": 19545,
    "hatfield": 26853,
    "pollution": 10796,
    "eventual": 9523,
    "romance": 7472,
    "1932": 4673,
    "##igraphy": 23132,
    "##ste": 13473,
    "##nh": 25311,
    "ryu": 19367,
    "fighters": 7299,
    "##gui": 25698,
    "1888": 6690,
    "vibration": 17880,
    "feeds": 14172,
    "slide": 7358,
    "presidency": 8798,
    "helicopter": 7739,
    "kenny": 8888,
    "puck": 22900,
    "ec": 14925,
    "\u91d1": 1964,
    "ramps": 24943,
    "proposal": 6378,
    "cessna": 27664,
    "lame": 20342,
    "##dermott": 29370,
    "ivan": 7332,
    "[unused0]": 1,
    "fable": 28458,
    "countryside": 10833,
    "swimmers": 21669,
    "powder": 9898,
    "##ese": 6810,
    "##ryl": 23320,
    "##hor": 16368,
    "glaciers": 21193,
    "melting": 13721,
    "470": 21064,
    "pleasantly": 27726,
    "##cz": 27966,
    "\u0925": 1324,
    "##ig": 8004,
    "breeding": 8119,
    "fix": 8081,
    "333": 21211,
    "[unused390]": 395,
    "[unused503]": 508,
    "sweetness": 23210,
    "##lian": 15204,
    "maui": 28566,
    "##\u0562": 29767,
    "destined": 16036,
    "##tically": 25084,
    "##aldi": 24657,
    "relaxed": 8363,
    "composure": 23619,
    "bringing": 5026,
    "284": 26871,
    "parkway": 12602,
    "revenge": 7195,
    "rep": 16360,
    "elects": 27161,
    "gladly": 24986,
    "itf": 27682,
    "occupants": 18837,
    "always": 2467,
    "##\u05e0": 29803,
    "\u062b": 1274,
    "##uded": 13936,
    "cambodia": 12899,
    "kerala": 8935,
    "hardened": 15015,
    "islander": 12544,
    "willed": 22705,
    "##sser": 18116,
    "moran": 17866,
    "lao": 18805,
    "@": 1030,
    "suspended": 6731,
    "##havan": 24652,
    "sustaining": 22663,
    "mixing": 6809,
    "monarchy": 12078,
    "courtesy": 14571,
    "crowns": 24364,
    "##yah": 17560,
    "brush": 8248,
    "##lin": 4115,
    "##ders": 13375,
    "##\u0905": 29847,
    "\u044c": 1207,
    "perfectly": 6669,
    "302": 22060,
    "\u02e1": 1151,
    "disastrous": 16775,
    "ceasefire": 26277,
    "ponder": 29211,
    "1930s": 5687,
    "collin": 22180,
    "flair": 22012,
    "[unused777]": 782,
    "scrubbed": 27820,
    "##lmer": 23398,
    "presses": 14616,
    "##kit": 23615,
    "\u8ecd": 1955,
    "smile": 2868,
    "##ario": 16843,
    "noted": 3264,
    "literally": 6719,
    "##ju": 9103,
    "corporations": 11578,
    "forgiveness": 17213,
    "slacks": 27786,
    "dar": 18243,
    "leroy": 19103,
    "finally": 2633,
    "prompted": 9469,
    "furiously": 20322,
    "indo": 11424,
    "\u5c07": 1828,
    "merchant": 6432,
    "lucrative": 21115,
    "gonzaga": 26840,
    "stu": 24646,
    "##mble": 19661,
    "airfield": 9087,
    "sandals": 24617,
    "249": 23628,
    "greene": 11006,
    "##ulio": 24825,
    "stared": 3592,
    "##bei": 19205,
    "described": 2649,
    "##economic": 23035,
    "98": 5818,
    "##aling": 21682,
    "elevation": 6678,
    "ohio": 4058,
    "##rons": 28212,
    "reserves": 8269,
    "##outs": 12166,
    "cordoba": 17986,
    "##ested": 17944,
    "handheld": 27291,
    "hillary": 18520,
    "241": 22343,
    "piedmont": 18873,
    "friedrich": 8896,
    "paradox": 20506,
    "polka": 29499,
    "flow": 4834,
    "utc": 11396,
    "##aca": 19629,
    "sorry": 3374,
    "##net": 7159,
    "addiction": 13449,
    "280": 13427,
    "\u02b8": 1144,
    "remember": 3342,
    "orchard": 15623,
    "sued": 12923,
    "dublin": 5772,
    "##hosh": 26643,
    "wigan": 15598,
    "##lines": 12735,
    "\u0637": 1286,
    "differ": 11234,
    "silent": 4333,
    "##\u0454": 29759,
    "melville": 20154,
    "155": 14168,
    "futures": 17795,
    "begs": 27591,
    "linguist": 22978,
    "##kra": 22272,
    "##name": 18442,
    "majors": 15279,
    "humour": 17211,
    "springs": 6076,
    "latter": 3732,
    "##ulla": 22187,
    "\u0985": 1347,
    "lowell": 15521,
    "percussion": 6333,
    "nonetheless": 9690,
    "guitar": 2858,
    "grandmaster": 27101,
    "1767": 21502,
    "##yard": 14132,
    "tires": 13310,
    "byte": 24880,
    "quincy": 16141,
    "cavalier": 28778,
    "untitled": 24819,
    "proponent": 22488,
    "quo": 22035,
    "##late": 13806,
    "[unused971]": 976,
    "pathology": 19314,
    "insertion": 23851,
    "\u00f8": 1100,
    "maneuver": 17519,
    "nomination": 6488,
    "skies": 15717,
    "operatic": 22534,
    "ballots": 17069,
    "roof": 4412,
    "1880s": 12751,
    "sikhs": 26697,
    "##ical": 7476,
    "##lide": 24198,
    "venues": 9356,
    "rhyme": 20622,
    "redundant": 21707,
    "##may": 27871,
    "amazon": 9733,
    "hiding": 6318,
    "container": 11661,
    "lauderdale": 23520,
    "[unused798]": 803,
    "##inia": 23309,
    "counting": 10320,
    "encircled": 25759,
    "[unused293]": 298,
    "jackson": 4027,
    "expert": 6739,
    "emerson": 12628,
    "mysteriously": 29239,
    "##wal": 13476,
    "jennifer": 7673,
    "##zle": 29247,
    "##tile": 15286,
    "##ific": 18513,
    "##sz": 17112,
    "nair": 22525,
    "\u09a8": 1366,
    "texted": 24637,
    "logged": 26618,
    "supper": 15264,
    "[unused9]": 10,
    "sucking": 13475,
    "airs": 14369,
    "fears": 10069,
    "##\u5b50": 30342,
    "timbers": 26238,
    "[unused296]": 301,
    "##rooms": 29020,
    "organizer": 19012,
    "mig": 19117,
    "undeveloped": 29341,
    "##aly": 20766,
    "319": 26499,
    "##\u2010": 30048,
    "##ura": 4648,
    "770": 29065,
    "playoff": 7808,
    "gaston": 18572,
    "franciscan": 19420,
    "genetically": 19345,
    "pajamas": 27621,
    "##ndra": 17670,
    "##izer": 17629,
    "inequality": 16440,
    "##nts": 7666,
    "discreet": 29321,
    "responsible": 3625,
    "##des": 6155,
    "##uis": 27020,
    "kade": 26159,
    "don": 2123,
    "piper": 11939,
    "lift": 6336,
    "spins": 23371,
    "rutland": 27780,
    "yellowish": 17804,
    "promising": 10015,
    "horde": 21038,
    "indices": 29299,
    "nomadic": 21702,
    "##lat": 20051,
    "bear": 4562,
    "\u66f8": 1871,
    "soluble": 24345,
    "##shot": 19040,
    "##\u1109": 29997,
    "microphone": 15545,
    "joke": 8257,
    "hostile": 10420,
    "##ble": 3468,
    "toledo": 13163,
    "730": 28004,
    "heavily": 4600,
    "##bank": 9299,
    "##ados": 28118,
    "yukon": 19898,
    "alone": 2894,
    "380": 17014,
    "grim": 11844,
    "##eit": 20175,
    "adult": 4639,
    "smarter": 25670,
    "##\u05d0": 29788,
    "alliances": 21277,
    "conflicts": 9755,
    "debates": 14379,
    "rios": 25836,
    "##aneous": 17191,
    "drafting": 21168,
    "##\u03b3": 29721,
    "[unused201]": 206,
    "pit": 6770,
    "hesitate": 16390,
    "##erine": 24226,
    "##\u0bc7": 29934,
    "composer": 4543,
    "1926": 4881,
    "antony": 16262,
    "##uttered": 23128,
    "##\u09a7": 29901,
    "repay": 24565,
    "polk": 20819,
    "shortages": 22623,
    "rematch": 18229,
    "studio": 2996,
    "debated": 15268,
    "vital": 8995,
    "commercials": 12698,
    "af": 21358,
    "voyager": 23493,
    "rothschild": 19712,
    "celebrate": 8439,
    "carbon": 6351,
    "[unused45]": 46,
    "reluctance": 21662,
    "55": 4583,
    "counterparts": 14562,
    "##tag": 15900,
    "##bala": 25060,
    "hermann": 12224,
    "blazed": 25590,
    "choke": 16769,
    "differentiate": 21032,
    "##ller": 10820,
    "liberty": 7044,
    "parole": 17393,
    "barrier": 8803,
    "recession": 19396,
    "145": 13741,
    "homeland": 10759,
    "##sas": 20939,
    "expeditionary": 15372,
    "electrically": 29103,
    "lair": 21039,
    "\u2207": 1595,
    "bushes": 14568,
    "patron": 9161,
    "medicine": 4200,
    "nak": 17823,
    "trails": 9612,
    "andes": 18096,
    "moderate": 8777,
    "afterwards": 5728,
    "gibson": 9406,
    "ronan": 18633,
    "jets": 9924,
    "meade": 26501,
    "electoral": 6092,
    "sql": 29296,
    "poked": 16826,
    "hockey": 3873,
    "ike": 25209,
    "mannheim": 25116,
    "poole": 19107,
    "nacional": 10718,
    "baroness": 21479,
    "\u5e73": 1839,
    "profession": 9518,
    "explosion": 7738,
    "##.": 29625,
    "industrialist": 21691,
    "redding": 26687,
    "##osed": 24768,
    "[unused762]": 767,
    "flying": 3909,
    "certification": 10618,
    "skiing": 12701,
    "submitted": 7864,
    "ceiling": 5894,
    "calcutta": 13419,
    "starred": 5652,
    "stereo": 12991,
    "iihf": 26904,
    "ascension": 18071,
    "willis": 12688,
    "truly": 5621,
    "[unused356]": 361,
    "[unused545]": 550,
    "buddhism": 11388,
    "scribe": 27789,
    "\u2010": 1513,
    "cafe": 7668,
    "biceps": 27947,
    "satisfaction": 9967,
    "prostitution": 15016,
    "sided": 11536,
    "spitting": 24307,
    "[unused145]": 150,
    "facilitated": 19601,
    "tammy": 19971,
    "freeway": 10846,
    "vp": 21210,
    "pillows": 17860,
    "god": 2643,
    "sadly": 13718,
    "starter": 11753,
    "clouded": 26761,
    "04": 5840,
    "[unused771]": 776,
    "tumors": 21434,
    "destruction": 6215,
    "##\u0e2a": 29956,
    "modify": 19933,
    "trout": 13452,
    "tq": 28816,
    "organize": 10939,
    "ranked": 4396,
    "pennant": 22690,
    "[unused554]": 559,
    "sato": 20251,
    "complain": 17612,
    "gmbh": 18289,
    "conserve": 27749,
    "[unused25]": 26,
    "[unused808]": 813,
    "almond": 26011,
    "commodities": 21955,
    "arnold": 7779,
    "familiar": 5220,
    "[unused706]": 711,
    "dismantled": 17293,
    "supporter": 10129,
    "1783": 15331,
    "facilities": 4128,
    "creep": 19815,
    "welcome": 6160,
    "lifeboat": 23450,
    "##\u79be": 30453,
    "##glio": 29480,
    "05": 5709,
    "spoke": 3764,
    "coined": 13279,
    "##space": 23058,
    "weakly": 17541,
    "##nism": 28113,
    "inclination": 21970,
    "prevalent": 15157,
    "whales": 17967,
    "##jiang": 21786,
    "##\u043e\u0432\u0438\u0447": 16198,
    "sound": 2614,
    "##rro": 18933,
    "##broken": 29162,
    "dispute": 7593,
    "drunk": 7144,
    "railroads": 16197,
    "primitive": 10968,
    "##arians": 28369,
    "##ron": 4948,
    "pitcher": 8070,
    "##oric": 29180,
    "##90": 21057,
    "schedules": 20283,
    "guitars": 7334,
    "mastered": 15682,
    "sanders": 12055,
    "reilly": 13875,
    "##rrick": 24999,
    "puebla": 27452,
    "problematic": 18636,
    "[unused366]": 371,
    "##\u03bf\u03c5": 26789,
    "man": 2158,
    "biological": 6897,
    "cost": 3465,
    "journal": 3485,
    "##hli": 27766,
    "rhys": 13919,
    "state": 2110,
    "realms": 18814,
    "linked": 5799,
    "um": 8529,
    "niccolo": 27033,
    "each": 2169,
    "salle": 18005,
    "oversees": 22558,
    "attempted": 4692,
    "ox": 23060,
    "prom": 20877,
    "contaminated": 19450,
    "paso": 17161,
    "magnate": 27470,
    "royalist": 20796,
    "hack": 20578,
    "limitation": 22718,
    "##dion": 29573,
    "rotten": 11083,
    "\u2261": 1607,
    "inspected": 20456,
    "blooded": 26064,
    "commission": 3222,
    "##rov": 12298,
    "##ane": 7231,
    "##ada": 8447,
    "##bane": 27543,
    "unmarked": 25779,
    "linebacker": 15674,
    "naming": 10324,
    "hiram": 27410,
    "\u110f": 1466,
    "\u30af": 1702,
    "inflicted": 17303,
    "mcgee": 22034,
    "##wright": 26460,
    "dark": 2601,
    "##\u0bb0": 29927,
    "encouraging": 11434,
    "lads": 29126,
    "pointless": 23100,
    "tripped": 21129,
    "russia": 3607,
    "209": 19348,
    "yorkshire": 7018,
    "overseeing": 19642,
    "sped": 16887,
    "walters": 19097,
    "must": 2442,
    "carey": 11782,
    "literature": 3906,
    "##lf": 10270,
    "##idge": 13623,
    "##v": 2615,
    "advancing": 10787,
    "##\u09c7": 29917,
    "hamburger": 24575,
    "\u30a2": 1693,
    "[unused34]": 35,
    "aspirations": 22877,
    "substance": 9415,
    "[unused349]": 354,
    "ming": 11861,
    "respect": 4847,
    "milan": 6954,
    "outburst": 27719,
    "annoyed": 11654,
    "penetration": 20015,
    "degrees": 5445,
    "##koto": 24886,
    "weird": 6881,
    "orphans": 21478,
    "interesting": 5875,
    "evelyn": 12903,
    "##maid": 28478,
    "feminine": 12320,
    "##rs": 2869,
    "boarding": 9405,
    "knuckles": 13513,
    "colleges": 6667,
    "tract": 12859,
    "anhalt": 27088,
    "##cute": 26869,
    "kilometer": 20595,
    "harrington": 19760,
    "buy": 4965,
    "\u2085": 1552,
    "##ggles": 24989,
    "unauthorized": 24641,
    "graph": 10629,
    "closest": 7541,
    "collarbone": 29600,
    "growled": 8881,
    "uppsala": 25720,
    "harold": 7157,
    "accomplishment": 24718,
    "area": 2181,
    "##,": 29623,
    "entertainment": 4024,
    "##onal": 16026,
    "attaining": 26615,
    "pollard": 25513,
    "damn": 4365,
    "pan": 6090,
    "carson": 9806,
    "elle": 15317,
    "hallmark": 25812,
    "inappropriate": 15884,
    "stove": 16247,
    "humor": 8562,
    "##lights": 15733,
    "1914": 4554,
    "[unused546]": 551,
    "mystical": 17529,
    "horsemen": 25431,
    "##re": 2890,
    "##\u092d": 29866,
    "##llon": 22179,
    "cycle": 5402,
    "set": 2275,
    "##version": 27774,
    "\u4e94": 1753,
    "charts": 6093,
    "hornets": 24855,
    "##ious": 6313,
    "##uated": 16453,
    "##kee": 20553,
    "[unused197]": 202,
    "outlet": 13307,
    "##ee": 4402,
    "1901": 5775,
    "slipped": 5707,
    "bread": 7852,
    "momentary": 29089,
    "nodding": 11863,
    "burial": 8940,
    "24": 2484,
    "##een": 12129,
    "lineman": 24062,
    "candy": 9485,
    "##ncia": 22750,
    "attested": 18470,
    "amulet": 25087,
    "##tist": 16774,
    "constituencies": 13315,
    "##working": 21398,
    "rubs": 28860,
    "dent": 21418,
    "widened": 8723,
    "grid": 8370,
    "##aging": 16594,
    "##ins": 7076,
    "gubernatorial": 19100,
    "##yal": 21095,
    "inside": 2503,
    "severity": 18976,
    "populace": 22508,
    "chile": 7029,
    "brace": 17180,
    "lattice": 17779,
    "##sted": 14701,
    "acceptable": 11701,
    "thoughtfully": 19897,
    "overture": 25052,
    "324": 27234,
    "subsidies": 21762,
    "nfl": 5088,
    "cane": 11942,
    "\u4e09": 1741,
    "chiang": 17684,
    "downstairs": 10025,
    "rotated": 20931,
    "consonants": 19694,
    "##tf": 24475,
    "##fixed": 23901,
    "[unused413]": 418,
    "[unused16]": 17,
    "nonprofit": 14495,
    "##cliff": 27580,
    "daggers": 24210,
    "crying": 6933,
    "wwii": 25755,
    "certainly": 5121,
    "seminar": 18014,
    "##ham": 3511,
    "chen": 8802,
    "populous": 20151,
    "braves": 13980,
    "inuit": 25179,
    "##\u2229": 30131,
    "intricate": 17796,
    "dick": 5980,
    "[unused391]": 396,
    "caused": 3303,
    "##nik": 8238,
    "##lou": 23743,
    "deluxe": 15203,
    "nicole": 9851,
    "##fers": 24396,
    "butterflies": 15023,
    "\u6c34": 1893,
    "##tsky": 26824,
    "prosecuted": 21651,
    "starr": 14330,
    "kiran": 22403,
    "registration": 8819,
    "devil": 6548,
    "accomplished": 8885,
    "when": 2043,
    "##bers": 17198,
    "129": 14378,
    "##\u91cc": 30488,
    "motionless": 19917,
    "##belt": 21561,
    "formal": 5337,
    "shiva": 12535,
    "dinamo": 22306,
    "citadel": 15364,
    "##me": 4168,
    "persisted": 19035,
    "##\u2096": 30094,
    "##oper": 25918,
    "wonders": 16278,
    "##\u0925": 29860,
    "propelled": 15801,
    "comparatively": 20172,
    "trading": 6202,
    "\u0640": 1290,
    "oppressive": 28558,
    "##ish": 4509,
    "top": 2327,
    "can": 2064,
    "88": 6070,
    "ark": 15745,
    "unease": 27880,
    "leah": 14188,
    "\u624c": 1859,
    "[unused948]": 953,
    "likened": 28834,
    "1626": 28818,
    "dies": 8289,
    "box": 3482,
    "##kyu": 23076,
    "snow": 4586,
    "influences": 8092,
    "gillian": 22358,
    "##bund": 27265,
    "fusion": 10077,
    "corona": 21887,
    "cookie": 17387,
    "protested": 11456,
    "spur": 12996,
    "hickory": 28158,
    "##ffen": 18032,
    "downloaded": 22817,
    "philipp": 20765,
    "##pool": 16869,
    "##ctive": 15277,
    "##\u0cb0": 29937,
    "excitedly": 23885,
    "##cture": 14890,
    "##ptive": 24971,
    "descending": 15127,
    "rap": 9680,
    "respecting": 27818,
    "attorneys": 16214,
    "\u3075": 1674,
    "freelance": 15919,
    "par": 11968,
    "##\u0142a": 22972,
    "##vas": 12044,
    "nj": 19193,
    "staff": 3095,
    "merit": 7857,
    "takeover": 15336,
    "##\u91d1": 30490,
    "gall": 26033,
    "casting": 9179,
    "laundering": 28289,
    "denny": 14465,
    "warp": 24136,
    "triangular": 14023,
    "nara": 27544,
    "spatial": 13589,
    "african": 3060,
    "cast": 3459,
    "##lce": 23314,
    "##'": 29618,
    "ford": 4811,
    "cornered": 25878,
    "optimistic": 21931,
    "polish": 3907,
    "street": 2395,
    "##mani": 20799,
    "unfit": 29439,
    "emails": 22028,
    "hundreds": 5606,
    "[unused329]": 334,
    "norms": 17606,
    "stadium": 3346,
    "diablo": 28841,
    "visited": 4716,
    "dimensional": 8789,
    "##chs": 18069,
    "##tt": 4779,
    "repair": 7192,
    "kunst": 28145,
    "malta": 9933,
    "##chester": 25322,
    "hip": 5099,
    "princely": 22771,
    "##vier": 14356,
    "lobbied": 26421,
    "twelfth": 11313,
    "##rton": 11715,
    "##opus": 24676,
    "amin": 24432,
    "rearview": 28726,
    "christensen": 24189,
    "newspapers": 6399,
    "brian": 4422,
    "##oud": 19224,
    "singing": 4823,
    "tallest": 13747,
    "keen": 10326,
    "[unused430]": 435,
    "switching": 11991,
    "lizards": 23898,
    "indications": 24936,
    "incorporate": 13265,
    "##bit": 16313,
    "cowboys": 11666,
    "respectful": 26438,
    "mcgrath": 23220,
    "systems": 3001,
    "penny": 10647,
    "##igen": 29206,
    "bassist": 9858,
    "statutory": 15201,
    "limit": 5787,
    "guy": 3124,
    "pissed": 9421,
    "115": 10630,
    "openly": 10132,
    "underwent": 9601,
    "##oof": 21511,
    "nordic": 13649,
    "saber": 25653,
    "##scopic": 24895,
    "rare": 4678,
    "il": 6335,
    "vida": 19830,
    "pinnacle": 26007,
    "##kari": 20224,
    "columbus": 8912,
    "abstraction": 24504,
    "cohen": 9946,
    "picasso": 22457,
    "quinlan": 28451,
    "embassy": 8408,
    "customary": 16120,
    "trivial": 20610,
    "barnett": 20073,
    "\u3009": 1638,
    "226": 21035,
    "barbarians": 28056,
    "##\u1d65": 30045,
    "webber": 19861,
    "dorsey": 27332,
    "postgraduate": 15438,
    "recovery": 7233,
    "says": 2758,
    "gilded": 23880,
    "interactions": 10266,
    "mcleod": 25363,
    "rational": 11581,
    "##it": 4183,
    "sicily": 12071,
    "##\u6210": 30380,
    "sharpe": 22147,
    "pei": 26850,
    "penguin": 13987,
    "[unused652]": 657,
    "710": 27671,
    "gap": 6578,
    "\u064a": 1300,
    "upscale": 28276,
    "georgia": 4108,
    "caress": 21753,
    "mated": 28795,
    "qualification": 8263,
    "scuba": 28651,
    "dunbar": 23034,
    "tucking": 25056,
    "raised": 2992,
    "##morphic": 18078,
    "##rzburg": 29136,
    "recounted": 22906,
    "ze": 27838,
    "georgie": 20280,
    "theorist": 24241,
    "kidd": 25358,
    "stimuli": 22239,
    "##grave": 12830,
    "assets": 7045,
    "##cens": 19023,
    "thrash": 27042,
    "support": 2490,
    "asserted": 13647,
    "guardian": 6697,
    "##fer": 7512,
    "gravity": 8992,
    "##erre": 28849,
    "virtue": 11870,
    "\u0458": 1214,
    "contractual": 27948,
    "20th": 3983,
    "\"": 1000,
    "##lk": 13687,
    "painters": 12499,
    "no": 2053,
    "lamp": 10437,
    "tighter": 12347,
    "typhoon": 15393,
    "ensuring": 12725,
    "##hom": 23393,
    "divorced": 9196,
    "vance": 16672,
    "mapped": 17715,
    "##\u0e27": 29955,
    "fray": 25975,
    "talked": 5720,
    "suppression": 16341,
    "\u091a": 1318,
    "precise": 10480,
    "nuremberg": 19346,
    "intervening": 26623,
    "staging": 15308,
    "ships": 3719,
    "yelled": 7581,
    "900": 7706,
    "nostrils": 15325,
    "##ota": 17287,
    "regularly": 5570,
    "##ent": 4765,
    "oppose": 15391,
    "\u05d5": 1246,
    "thereafter": 6920,
    "pumping": 14107,
    "mutant": 15527,
    "##king": 6834,
    "wrestlemania": 28063,
    "frankish": 26165,
    "hari": 21291,
    "\u09a1": 1360,
    "##hol": 14854,
    "##enes": 28553,
    "crane": 11308,
    "\u1d30": 1492,
    "incorporation": 16935,
    "important": 2590,
    "concepcion": 27331,
    "##olt": 27914,
    "experts": 8519,
    "regime": 6939,
    "##01": 24096,
    "westchester": 25489,
    "13th": 6122,
    "##\u56d7": 30323,
    "swayed": 20122,
    "rejecting": 21936,
    "pisa": 25472,
    "imagination": 9647,
    "##b": 2497,
    "dissertation": 14481,
    "shielded": 25474,
    "##nitz": 22792,
    "1623": 29056,
    "avoiding": 9992,
    "streetcar": 21420,
    "fx": 23292,
    "pitt": 15091,
    "foothills": 18455,
    "castillo": 19371,
    "##tu": 8525,
    "##\u00b7": 29661,
    "\u1d4f": 1501,
    "analogous": 19639,
    "[unused790]": 795,
    "titans": 13785,
    "agnes": 11166,
    "yard": 4220,
    "\u1d56": 1504,
    "##uted": 12926,
    "massachusetts": 4404,
    "gallery": 3916,
    "smoke": 5610,
    "initiative": 6349,
    "ignored": 6439,
    "bain": 28477,
    "##eurs": 26744,
    "##\u00a3": 29646,
    "voter": 14303,
    "decimal": 26066,
    "jamaican": 17851,
    "decide": 5630,
    "iceland": 10399,
    "jokes": 13198,
    "indian": 2796,
    "weaving": 15360,
    "castile": 15656,
    "185": 15376,
    "sadler": 29012,
    "anwar": 28372,
    "##eal": 15879,
    "zambia": 15633,
    "1745": 21809,
    "ditch": 14033,
    "##oid": 9314,
    "##\u5408": 30318,
    "\u5fd7": 1851,
    "reversal": 23163,
    "nailed": 26304,
    "tidal": 15065,
    "jacket": 6598,
    "##lina": 13786,
    "[unused854]": 859,
    "tour": 2778,
    "noises": 14950,
    "breaks": 7807,
    "kristina": 28802,
    "rebelled": 25183,
    "##\u0bae": 29925,
    "scanner": 26221,
    "##vial": 18660,
    "##roving": 22046,
    "verity": 22178,
    "simulcast": 20525,
    "unpaid": 23850,
    "northeast": 4794,
    "augmented": 19335,
    "vanish": 25887,
    "disgusting": 19424,
    "1630": 24994,
    "captures": 19566,
    "leash": 26834,
    "158": 17696,
    "\u6cd5": 1901,
    "plan": 2933,
    "computed": 24806,
    "[unused544]": 549,
    "monique": 26194,
    "alert": 9499,
    "strengths": 20828,
    "subjects": 5739,
    "114": 12457,
    "##lb": 20850,
    "1699": 28718,
    "##dust": 24220,
    "tully": 25724,
    "sprang": 15627,
    "1951": 4131,
    "87": 6584,
    "##ath": 8988,
    "duff": 21019,
    "perch": 21836,
    "compressor": 29329,
    "surrounds": 20626,
    "strategically": 23972,
    "ipa": 24531,
    "##erson": 18617,
    "hannah": 8410,
    "##dhi": 19114,
    "models": 4275,
    "albeit": 12167,
    "revolutions": 25239,
    "lucian": 18218,
    "[unused12]": 13,
    "##oms": 22225,
    "hose": 21290,
    "petersburg": 8062,
    "kinship": 27866,
    "fraser": 9443,
    "##\u092e": 29867,
    "mindanao": 23669,
    "calves": 28023,
    "##ams": 13596,
    "extensions": 14305,
    "sevilla": 29363,
    "121": 12606,
    "##oman": 20778,
    "brooke": 11535,
    "institutions": 4896,
    "continents": 17846,
    "ranged": 15844,
    "downtown": 5116,
    "\u2018": 1520,
    "attraction": 8432,
    "tubular": 25147,
    "series": 2186,
    "##gnon": 26977,
    "riley": 7546,
    "inferno": 21848,
    "repertory": 21099,
    "##\u6ca2": 30424,
    "screenings": 25437,
    "##\u0dbd": 29942,
    "naughty": 20355,
    "surfaced": 15791,
    "receives": 8267,
    "responded": 5838,
    "##\u6d77": 30428,
    "##zuka": 22968,
    "stalks": 29594,
    "##akh": 27573,
    "afc": 10511,
    "##istan": 23137,
    "##\u1173": 30017,
    "paler": 24489,
    "##cken": 19766,
    "knoxville": 20021,
    "##\u0936": 29872,
    "observes": 24451,
    "sabbath": 19546,
    "toy": 9121,
    "squinting": 29156,
    "advisers": 24205,
    "surviving": 6405,
    "concacaf": 22169,
    "words": 2616,
    "[unused309]": 314,
    "pigment": 28815,
    "##ums": 18163,
    "mendes": 27916,
    "comparisons": 18539,
    "lausanne": 22256,
    "muscle": 6740,
    "maintains": 9319,
    "joker": 19318,
    "dealings": 24069,
    "reduced": 4359,
    "slightly": 3621,
    "periodically": 18043,
    "undisclosed": 18206,
    "menon": 25111,
    "sasha": 14673,
    "rooted": 15685,
    "exploitation": 14427,
    "panther": 15133,
    "bounds": 19202,
    "bananas": 26191,
    "sinister": 16491,
    "nationalist": 8986,
    "##7": 2581,
    "pegasus": 26606,
    "picked": 3856,
    "sports": 2998,
    "bunk": 25277,
    "laura": 6874,
    "sullivan": 7624,
    "\u026b": 1120,
    "bestowed": 17398,
    "heinrich": 10952,
    "##rigue": 27611,
    "##mouth": 14359,
    "\u0928": 1327,
    "##ghton": 21763,
    "concentrated": 8279,
    "carbonate": 26427,
    "inscription": 9315,
    "cal": 10250,
    "dryly": 20825,
    "##iness": 9961,
    "1621": 27037,
    "##pia": 19312,
    "trondheim": 26331,
    "helpful": 14044,
    "humanity": 8438,
    "minds": 9273,
    "##\u304b": 30177,
    "[unused130]": 135,
    "banished": 21319,
    "##uts": 16446,
    "vengeance": 14096,
    "needy": 23927,
    "##ions": 8496,
    "##lea": 19738,
    "##dini": 26039,
    "mitchell": 6395,
    "\u6709": 1873,
    "assured": 8916,
    "castles": 15618,
    "substitution": 20885,
    "national": 2120,
    "twin": 5519,
    "\u03c6": 1176,
    "exceptional": 11813,
    "cornish": 17797,
    "belief": 6772,
    "harsh": 8401,
    "thee": 14992,
    "adi": 27133,
    "broad": 5041,
    "##ively": 14547,
    "moment": 2617,
    "photon": 26383,
    "\u00b5": 1085,
    "##yse": 23274,
    "tame": 24763,
    "##rath": 27362,
    "estranged": 24211,
    "installing": 23658,
    "stage": 2754,
    "##ized": 3550,
    "paramount": 11734,
    "taliban": 16597,
    "194": 19955,
    "essen": 29032,
    "##gs": 5620,
    "1937": 4347,
    "galveston": 26630,
    "preston": 8475,
    "securing": 12329,
    "oldest": 4587,
    "##olo": 12898,
    "1807": 13206,
    "sperm": 18047,
    "productivity": 15836,
    "butterfly": 9112,
    "tatiana": 22725,
    "melinda": 23721,
    "sally": 8836,
    "technical": 4087,
    "##minated": 26972,
    "urge": 9075,
    "individually": 14258,
    "falkland": 25257,
    "thick": 4317,
    "consul": 11801,
    "physician": 7522,
    "coat": 5435,
    "lowland": 15234,
    "continental": 6803,
    "##\u208d": 30087,
    "hoisted": 27269,
    "flooding": 9451,
    "definite": 15298,
    "skinner": 17451,
    "depend": 12530,
    "##sau": 23823,
    "toxic": 11704,
    "destructive": 15615,
    "##\u0917": 29853,
    "portion": 4664,
    "##ress": 8303,
    "coaching": 7748,
    "2002": 2526,
    "posture": 16819,
    "pending": 14223,
    "constrained": 27570,
    "worshipped": 22876,
    "##\u65e5": 30390,
    "pyramid": 11918,
    "countless": 14518,
    "1": 1015,
    "palaces": 22763,
    "##\u02b7": 29709,
    "izzy": 16699,
    "adaptations": 17241,
    "soloists": 27516,
    "##rand": 13033,
    "aero": 18440,
    "basket": 10810,
    "133": 14506,
    "##lining": 16992,
    "##cco": 21408,
    "haitian": 21404,
    "murder": 4028,
    "##you": 29337,
    "benito": 23595,
    "grammy": 8922,
    "ulster": 11059,
    "##\u09be": 29914,
    "\u6c0f": 1891,
    "coco": 25033,
    "invitation": 8468,
    "##dl": 19422,
    "person": 2711,
    "lifelong": 13506,
    "labor": 4450,
    "principally": 16552,
    "a": 1037,
    "[unused702]": 707,
    "wardrobe": 17828,
    "[unused171]": 176,
    "1730": 23272,
    "boot": 9573,
    "##4th": 26724,
    "drum": 6943,
    "bubbles": 17255,
    "detector": 19034,
    "motorcycles": 18580,
    "katherine": 9477,
    "##ilis": 24411,
    "jem": 24193,
    "although": 2348,
    "poorly": 9996,
    "retiring": 9150,
    "ceded": 19705,
    "##kim": 21138,
    "defamation": 27652,
    "##hyl": 29598,
    "rockwell": 25235,
    "##ndo": 15482,
    "panting": 15601,
    "microscopic": 26396,
    "grotesque": 27707,
    "clarity": 15563,
    "concern": 5142,
    "tumble": 28388,
    "malls": 25943,
    "players": 2867,
    "woken": 22795,
    "##zin": 17168,
    "acheron": 21427,
    "\u0995": 1353,
    "##bury": 4917,
    "starbucks": 29500,
    "nightingale": 21771,
    "##th": 2705,
    "##chen": 8661,
    "colbert": 23928,
    "obsolete": 15832,
    "##una": 9521,
    "straightforward": 19647,
    "##\u5343": 30310,
    "denial": 14920,
    "illegitimate": 18102,
    "73": 6421,
    "antenna": 13438,
    "inconsistent": 20316,
    "suarez": 22551,
    "wins": 5222,
    "##\u0444": 29749,
    "recorder": 14520,
    "gathered": 5935,
    "##aire": 14737,
    "temper": 12178,
    "outset": 26674,
    "gs": 28177,
    "cushion": 22936,
    "calculations": 16268,
    "roses": 10529,
    "cigarettes": 15001,
    "grand": 2882,
    "agony": 12812,
    "delegate": 11849,
    "##umen": 27417,
    "\u2609": 1622,
    "banned": 7917,
    "synthesized": 23572,
    "[unused447]": 452,
    "syndicate": 16229,
    "\u00a6": 1072,
    "perpetual": 18870,
    "rumor": 19075,
    "por": 18499,
    "visas": 24487,
    "contractors": 16728,
    "salazar": 25315,
    "##\u300e": 30169,
    "reinforced": 11013,
    "##cton": 28312,
    "rector": 10935,
    "##iance": 28335,
    "commissioned": 4837,
    "##tour": 21163,
    "deeds": 15616,
    "##\u4f0a": 30288,
    "appearing": 6037,
    "define": 9375,
    "trans": 9099,
    "guinea": 7102,
    "prescott": 20719,
    "movie": 3185,
    "##tani": 17681,
    "##oh": 11631,
    "##lis": 6856,
    "##lr": 20974,
    "protection": 3860,
    "[unused385]": 390,
    "vera": 12297,
    "ithaca": 27939,
    "##schaft": 26527,
    "##da": 2850,
    "publisher": 6674,
    "tudor": 15588,
    "final": 2345,
    "investigations": 9751,
    "mcdonald": 9383,
    "enrollment": 10316,
    "covers": 4472,
    "scrap": 15121,
    "wills": 17234,
    "intrusion": 24554,
    "210": 12875,
    "right": 2157,
    "spray": 12509,
    "ipad": 25249,
    "glued": 22805,
    "##rite": 17625,
    "acting": 3772,
    "austria": 5118,
    "furnishings": 23127,
    "peak": 4672,
    "[unused238]": 243,
    "ste": 26261,
    "straits": 18849,
    "##bolic": 18647,
    "sinn": 26403,
    "407": 28941,
    "billboard": 4908,
    "\u592b": 1813,
    "[unused938]": 943,
    "blooms": 29037,
    "##\u30e7": 30256,
    "batter": 23801,
    "misty": 15167,
    "magnus": 10045,
    "\u093f": 1341,
    "arrived": 3369,
    "##inn": 23111,
    "sparkled": 28092,
    "possess": 10295,
    "timer": 25309,
    "courtroom": 20747,
    "\u0642": 1292,
    "[unused15]": 16,
    "march": 2233,
    "##\u02bb": 29711,
    "213": 19883,
    "[unused31]": 32,
    "finn": 9303,
    "believed": 3373,
    "colleague": 11729,
    "##\u5f8c": 30372,
    "##itan": 25451,
    "analysis": 4106,
    "sugarcane": 28910,
    "clapping": 27104,
    "fetal": 25972,
    "influence": 3747,
    "think": 2228,
    "rhine": 10950,
    "##\u10dd": 29986,
    "##music": 27275,
    "jong": 18528,
    "kv": 24888,
    "nelly": 29498,
    "sheer": 11591,
    "hole": 4920,
    "##ference": 25523,
    "necessarily": 9352,
    "285": 21777,
    "[unused741]": 746,
    "serialized": 27289,
    "##rnet": 26573,
    "\u2192": 1585,
    "licked": 11181,
    "receptions": 16466,
    "dunn": 14145,
    "bare": 6436,
    "\u1d35": 1493,
    "galleries": 11726,
    "[unused369]": 374,
    "matched": 10349,
    "shandong": 25768,
    "##ometric": 28993,
    "109": 11518,
    "alexa": 24969,
    "her": 2014,
    "\u093e": 1340,
    "leaning": 6729,
    "grab": 6723,
    "muscles": 6650,
    "##\u0ca8": 29936,
    "ghost": 5745,
    "louisiana": 5773,
    "communication": 4807,
    "booth": 9065,
    "##sy": 6508,
    "metabolism": 18089,
    "##40": 12740,
    "##valent": 24879,
    "olympics": 3783,
    "[unused940]": 945,
    "company": 2194,
    "shards": 23327,
    "\u3081": 1680,
    "475": 28245,
    "programmer": 20273,
    "orchards": 22976,
    "refit": 27070,
    "##physics": 15638,
    "defending": 6984,
    "convey": 16636,
    "geraldine": 26987,
    "##oulos": 28262,
    "piercing": 14628,
    "banners": 23562,
    "prevents": 16263,
    "original": 2434,
    "##hoff": 17896,
    "whig": 21632,
    "arousal": 18905,
    "going": 2183,
    "fabrics": 25123,
    "predominantly": 9197,
    "[unused618]": 623,
    "bengal": 8191,
    "rms": 29311,
    "##bar": 8237,
    "shooter": 13108,
    "lieutenant": 3812,
    "fruit": 5909,
    "woo": 15854,
    "spaced": 19835,
    "calm": 5475,
    "[unused190]": 195,
    "choral": 14564,
    "an": 2019,
    "1692": 28622,
    "##eers": 22862,
    "dario": 26800,
    "charley": 20430,
    "agrarian": 23226,
    "sunlight": 9325,
    "weep": 27874,
    "##fighting": 22158,
    "##wall": 9628,
    "procedure": 7709,
    "capital": 3007,
    "governance": 10615,
    "malcolm": 8861,
    "abnormalities": 28828,
    "##au": 4887,
    "56": 5179,
    "played": 2209,
    "divine": 7746,
    "##bush": 22427,
    "exiles": 27127,
    "##tops": 25181,
    "expressway": 11720,
    "hissing": 26386,
    "playable": 16854,
    "sighting": 29426,
    "43": 4724,
    "informal": 11900,
    "occurred": 4158,
    "fitted": 7130,
    "match": 2674,
    "mer": 21442,
    "\u0f51": 1428,
    "nearer": 20388,
    "\u0987": 1349,
    "repaired": 13671,
    "undertake": 16617,
    "latvia": 12429,
    "roasted": 28115,
    "dobson": 27679,
    "##very": 27900,
    "zombie": 11798,
    "magistrates": 23007,
    "predict": 16014,
    "uhf": 20131,
    "fall": 2991,
    "odin": 26195,
    "het": 21770,
    "djs": 23837,
    "enhancement": 22415,
    "##ivating": 17441,
    "welterweight": 20882,
    "1758": 16832,
    "##\u0290": 29702,
    "##p": 2361,
    "offshore": 12195,
    "##uration": 18924,
    "exam": 11360,
    "pro": 4013,
    "aw": 22091,
    "modifying": 29226,
    "olympia": 17096,
    "emil": 16243,
    "isaac": 7527,
    "suspicion": 10928,
    "formats": 11630,
    "studying": 5702,
    "deploy": 21296,
    "##bel": 8671,
    "mouths": 15076,
    "torres": 13101,
    "\u2082": 1549,
    "measurements": 11702,
    "\u305f": 1661,
    "plots": 14811,
    "\u9999": 1979,
    "##\u0639": 29830,
    "johnson": 3779,
    "##isen": 28992,
    "wiley": 18825,
    "lama": 18832,
    "strain": 10178,
    "blows": 13783,
    "politicians": 8801,
    "##kled": 19859,
    "josef": 12947,
    "marking": 10060,
    "obscene": 27744,
    "crusaders": 18831,
    "##ocks": 25384,
    "lamar": 19756,
    "brightly": 14224,
    "contempt": 17152,
    "breathless": 16701,
    "decreases": 17913,
    "foreigner": 29524,
    "dormitory": 21538,
    "[unused722]": 727,
    "tugged": 10621,
    "awakening": 16936,
    "shower": 6457,
    "punish": 16385,
    "[unused716]": 721,
    "recovering": 13400,
    "filmed": 6361,
    "fabrication": 25884,
    "dive": 11529,
    "##\u300d": 30168,
    "samples": 8168,
    "##dson": 25112,
    "eva": 9345,
    "atv": 29108,
    "reversed": 11674,
    "calming": 23674,
    "accustomed": 17730,
    "vanguard": 18332,
    "moffat": 28528,
    "garry": 21507,
    "secretaries": 23660,
    "conclusion": 7091,
    "##\u30ea": 30258,
    "eric": 4388,
    "spaniards": 20999,
    "masovian": 23703,
    "##kara": 16566,
    "pleading": 16418,
    "spruce": 19893,
    "##raphy": 26228,
    "begin": 4088,
    "laude": 21602,
    "containment": 29174,
    "##tative": 27453,
    "how": 2129,
    "nashville": 8423,
    "reset": 25141,
    "better": 2488,
    "potsdam": 26554,
    "squad": 4686,
    "declaration": 8170,
    "pronounced": 8793,
    "##bber": 29325,
    "statement": 4861,
    "##lved": 26832,
    "unionist": 17104,
    "echo": 9052,
    "georgetown": 12982,
    "[unused49]": 50,
    "370": 16444,
    "1791": 14362,
    "dusty": 12727,
    "[unused656]": 661,
    "transmission": 6726,
    "wires": 14666,
    "dexter": 14375,
    "spit": 13183,
    "yoga": 13272,
    "audit": 15727,
    "##il": 4014,
    "agitated": 21568,
    "budge": 24981,
    "stilled": 22791,
    "passport": 12293,
    "lakes": 6597,
    "leaping": 21216,
    "kite": 20497,
    "told": 2409,
    "[unused599]": 604,
    "musically": 21385,
    "backwards": 11043,
    "utility": 9710,
    "hornet": 26795,
    "dear": 6203,
    "outlawed": 29131,
    "devastated": 13879,
    "hoped": 5113,
    "[unused821]": 826,
    "somerville": 27209,
    "borders": 6645,
    "1830s": 20400,
    "##gaon": 27073,
    "instability": 18549,
    "tried": 2699,
    "chuckle": 15375,
    "##icon": 28524,
    "presumed": 14609,
    "endeavors": 28809,
    "income": 3318,
    "##hein": 26496,
    "scotch": 18937,
    "array": 9140,
    "propose": 16599,
    "hartman": 26766,
    "hurrying": 27951,
    "tapestry": 25213,
    "undoubtedly": 17319,
    "semester": 13609,
    "##tr": 16344,
    "rejected": 5837,
    "cedric": 26170,
    "##tone": 5524,
    "resignation": 8172,
    "electricity": 6451,
    "[unused518]": 523,
    "##yoshi": 19196,
    "town": 2237,
    "server": 8241,
    "##drich": 23335,
    "classics": 10002,
    "[unused815]": 820,
    "centers": 6401,
    "nik": 23205,
    "[unused958]": 963,
    "tended": 11121,
    "makeshift": 19368,
    "oh": 2821,
    "uncertainty": 12503,
    "victorious": 13846,
    "bop": 29432,
    "baptiste": 17329,
    "drury": 25663,
    "accessible": 7801,
    "amadeus": 27185,
    "neighboring": 8581,
    "hunger": 9012,
    "mala": 28935,
    "##\u110a": 29998,
    "##uary": 24384,
    "whistle": 13300,
    "croft": 28983,
    "\u21cc": 1590,
    "dinners": 29236,
    "sparked": 13977,
    "ville": 20184,
    "would": 2052,
    "##\u300a": 30165,
    "##xing": 19612,
    "enforce": 16306,
    "protestant": 8330,
    "mohawk": 22338,
    "raining": 24057,
    "preferences": 18394,
    "political": 2576,
    "censorship": 15657,
    "choices": 9804,
    "\u571f": 1801,
    "karel": 28021,
    "1752": 24736,
    "grinning": 11478,
    "aligned": 13115,
    "[unused202]": 207,
    "\u0437": 1187,
    "##amen": 27245,
    "notice": 5060,
    "convince": 8054,
    "applications": 5097,
    "##\u3042": 30172,
    "developers": 9797,
    "ridge": 5526,
    "339": 28977,
    "thoughtful": 16465,
    "##\u056f": 29774,
    "##logie": 27095,
    "##lating": 22248,
    "dictatorship": 18944,
    "##\u03c7": 29737,
    "neon": 16231,
    "serving": 3529,
    "santana": 21158,
    "dali": 29095,
    "penetrate": 19136,
    "##tore": 19277,
    "37th": 23027,
    "educating": 25088,
    "creek": 3636,
    "trustees": 9360,
    "last": 2197,
    "bari": 22466,
    "##omic": 22026,
    "enoch": 28178,
    "facilitate": 10956,
    "myers": 13854,
    "squads": 20191,
    "\ufb01": 1984,
    "cents": 16653,
    "attractions": 13051,
    "liberation": 7931,
    "icy": 13580,
    "smell": 5437,
    "duct": 23245,
    "[unused4]": 5,
    "the": 1996,
    "[unused678]": 683,
    "##\u0f0b": 29960,
    "gareth": 20243,
    "aside": 4998,
    "nobel": 10501,
    "jerk": 12181,
    "orphan": 18211,
    "ricky": 11184,
    "##\u043b": 29436,
    "##sport": 20205,
    "rocket": 7596,
    "labrador": 18604,
    "rediscovered": 26733,
    "internacional": 27607,
    "modeled": 14440,
    "wrath": 14532,
    "power": 2373,
    "villages": 4731,
    "##yuan": 17236,
    "barrington": 26469,
    "habitat": 6552,
    "\u10d4": 1442,
    "folklore": 13104,
    "##nza": 16786,
    "[unused2]": 3,
    "proposition": 14848,
    "##por": 17822,
    "score": 3556,
    "docking": 25776,
    "##tious": 20771,
    "[unused539]": 544,
    "##bt": 19279,
    "surveys": 12265,
    "commodore": 12957,
    "##\u2021": 30062,
    "lbs": 20702,
    "superman": 10646,
    "resolving": 29304,
    "hailed": 16586,
    "nick": 4172,
    "abraham": 8181,
    "billy": 5006,
    "sentimental": 23069,
    "gossip": 13761,
    "assistance": 5375,
    "tavern": 13090,
    "##tha": 8322,
    "ability": 3754,
    "difficult": 3697,
    "santa": 4203,
    "murdoch": 19954,
    "parish": 3583,
    "encompasses": 13974,
    "netherlands": 4549,
    "\u10d0": 1438,
    "mentor": 10779,
    "legendary": 8987,
    "##orro": 29459,
    "chases": 29515,
    "##\u09b2": 29909,
    "glancing": 10167,
    "benefit": 5770,
    "##nes": 5267,
    "anxious": 11480,
    "\u2099": 1568,
    "shut": 3844,
    "##\u3044": 30173,
    "##lli": 6894,
    "entered": 3133,
    "bothered": 11250,
    "regrets": 23161,
    "1847": 9176,
    "##\u0430": 10260,
    "conversations": 11450,
    "too": 2205,
    "##\u30ef": 30262,
    "[unused553]": 558,
    "begged": 12999,
    "accusation": 19238,
    "receptionist": 23775,
    "\u5b80": 1818,
    "##\u5fb7": 30374,
    "apps": 18726,
    "295": 21679,
    "customer": 8013,
    "##eye": 17683,
    "figuring": 23218,
    "kensington": 17775,
    "##deh": 25383,
    "whale": 13156,
    "[unused924]": 929,
    "dressing": 11225,
    "stunned": 9860,
    "mvp": 12041,
    "commendation": 23039,
    "projecting": 18398,
    "eta": 27859,
    "sargent": 27599,
    "chung": 15972,
    "bars": 6963,
    "dated": 6052,
    "marguerite": 15334,
    "showers": 23442,
    "compares": 22963,
    "engined": 21235,
    "toes": 10393,
    "\u02e3": 1153,
    "1854": 8421,
    "colony": 5701,
    "[unused66]": 67,
    "hash": 23325,
    "1883": 7257,
    "poe": 18922,
    "devon": 7614,
    "injection": 13341,
    "phones": 11640,
    "##\u05be": 29787,
    "[unused674]": 679,
    "intensive": 11806,
    "cornwall": 10387,
    "##dah": 18417,
    "yearning": 29479,
    "massive": 5294,
    "\u2098": 1567,
    "##gas": 12617,
    "breakdown": 12554,
    "##eus": 10600,
    "callahan": 25668,
    "##eley": 22352,
    "commands": 10954,
    "227": 21489,
    "##pur": 5311,
    "##ene": 8625,
    "##esis": 19009,
    "derive": 18547,
    "teens": 13496,
    "discouraged": 22585,
    "canning": 24549,
    "fremont": 22550,
    "walked": 2939,
    "career": 2476,
    "affirmative": 27352,
    "hamlets": 21631,
    "beginnings": 16508,
    "behaviors": 15592,
    "##\u092a": 29864,
    "tablet": 13855,
    "cup": 2452,
    "##game": 16650,
    "##\u00bb": 29663,
    "\uff08": 1987,
    "vacated": 15348,
    "warlock": 28861,
    "##tite": 23096,
    "##eras": 24140,
    "episodes": 4178,
    "opposite": 4500,
    "kits": 18628,
    "rams": 13456,
    "hanover": 14393,
    "criticised": 10648,
    "faulkner": 25109,
    "##num": 19172,
    "[unused988]": 993,
    "connecticut": 6117,
    "darkest": 23036,
    "demonstrating": 14313,
    "dean": 4670,
    "lectured": 19206,
    "issued": 3843,
    "\u1d40": 1495,
    "kuwait": 13085,
    "sous": 27411,
    "wcw": 24215,
    "universal": 5415,
    "swaying": 21826,
    "sega": 16562,
    "northamptonshire": 21367,
    "##rove": 17597,
    "masonry": 18103,
    "inducted": 8120,
    "##mour": 20360,
    "carly": 18431,
    "simplicity": 17839,
    "airport": 3199,
    "paint": 6773,
    "cemeteries": 20973,
    "stays": 12237,
    "thought": 2245,
    "physicist": 13702,
    "dude": 12043,
    "##frid": 27439,
    "endorsed": 11763,
    "alejandro": 16810,
    "gripping": 13940,
    "##\u2018": 30055,
    "lunar": 11926,
    "##jun": 19792,
    "clone": 17598,
    "xander": 29019,
    "basal": 15191,
    "shone": 14707,
    "housed": 7431,
    "pest": 20739,
    "wear": 4929,
    "dino": 22412,
    "perry": 6890,
    "regiments": 10435,
    "##owed": 15096,
    "rated": 6758,
    "hawthorne": 23440,
    "silicon": 13773,
    "circuit": 4984,
    "\u092a": 1328,
    "mum": 12954,
    "legal": 3423,
    "intimately": 29024,
    "##viere": 27087,
    "earthly": 29520,
    "joint": 4101,
    "\u308d": 1689,
    "binds": 20817,
    "roast": 25043,
    "eyeing": 19285,
    "jihad": 24815,
    "voices": 5755,
    "phrases": 15672,
    "cadet": 12738,
    "antrim": 24142,
    "taylor": 4202,
    "##stone": 9221,
    "reporter": 6398,
    "##frey": 22586,
    "##\u5834": 30332,
    "bodies": 4230,
    "progression": 14967,
    "fuller": 12548,
    "demolition": 12451,
    "\u8449": 1943,
    "nsw": 11524,
    "haute": 18535,
    "spiral": 12313,
    "greenberg": 24190,
    "arturo": 20520,
    "emeritus": 12372,
    "##\u05d2": 29790,
    "##enter": 29110,
    "\u9547": 1966,
    "airborne": 10519,
    "##500": 29345,
    "ambassadors": 20986,
    "reward": 10377,
    "##erland": 22492,
    "malawi": 18137,
    "rodeo": 18936,
    "172": 18253,
    "grande": 9026,
    "##ssee": 29522,
    "[unused744]": 749,
    "omitted": 16647,
    "murmured": 7152,
    "compiling": 21953,
    "intersections": 26540,
    "cowboy": 11762,
    "homogeneous": 24854,
    "mccain": 19186,
    "adelaide": 7364,
    "crocodile": 21843,
    "aug": 15476,
    "knocking": 10591,
    "plump": 26731,
    "apprentice": 13357,
    "fifties": 25942,
    "affiliation": 12912,
    "varies": 9783,
    "##nded": 25848,
    "volley": 28073,
    "peter": 2848,
    "bunch": 9129,
    "obtaining": 11381,
    "##\u2228": 30130,
    "ltd": 5183,
    "##6": 2575,
    "##pkins": 29531,
    "angrily": 14136,
    "mandy": 18193,
    "beaches": 12212,
    "##mament": 28119,
    "progressive": 6555,
    "revision": 13921,
    "##\u2500": 30142,
    "atletico": 16132,
    "valencia": 13083,
    "##cea": 21456,
    "resembled": 15881,
    "weighs": 21094,
    "closely": 4876,
    "luxurious": 20783,
    "##\u208a": 30086,
    "\u52dd": 1780,
    "##tri": 18886,
    "connected": 4198,
    "##hyllum": 27750,
    "##icia": 24108,
    "widowed": 22874,
    "norwich": 12634,
    "##\u2091": 30090,
    "bp": 17531,
    "[unused681]": 686,
    "##beat": 19442,
    "napkin": 20619,
    "##bedo": 28759,
    "somerset": 9198,
    "spanish": 3009,
    "fault": 6346,
    "grinned": 6973,
    "zane": 6944,
    "adventist": 25696,
    "tenth": 7891,
    "sebastien": 28328,
    "##\u05e6": 29809,
    "seamen": 28671,
    "whitehead": 23257,
    "bassett": 28303,
    "[unused253]": 258,
    "nitrogen": 14114,
    "[unused757]": 762,
    "baking": 21522,
    "martial": 7761,
    "##physical": 23302,
    "raaf": 22709,
    "efficiency": 8122,
    "semitic": 20604,
    "[unused76]": 77,
    "humans": 4286,
    "focusing": 7995,
    "##itation": 18557,
    "##bery": 22509,
    "ranges": 8483,
    "motorsports": 20711,
    "duck": 9457,
    "barren": 20225,
    "dough": 23126,
    "smooth": 5744,
    "##smo": 25855,
    "frances": 10360,
    "export": 9167,
    "##gm": 21693,
    "dice": 18740,
    "cool": 4658,
    "nazis": 13157,
    "angela": 10413,
    "##tized": 23355,
    "annapolis": 24889,
    "1746": 24507,
    "##factory": 21450,
    "##14": 16932,
    "\u79cb": 1929,
    "\u2021": 1527,
    "balance": 5703,
    "tram": 12517,
    "protective": 9474,
    "plastered": 21832,
    "assignments": 14799,
    "posing": 20540,
    "obstacle": 18355,
    "concourse": 28571,
    "grayson": 17556,
    "1643": 25534,
    "nasal": 19077,
    "patients": 5022,
    "ordered": 3641,
    "witness": 7409,
    "howl": 22912,
    "file": 5371,
    "condor": 29260,
    "##ingen": 15542,
    "1612": 29186,
    "holland": 7935,
    "recalled": 7383,
    "rang": 8369,
    "owns": 8617,
    "triangles": 27189,
    "nominate": 23388,
    "##night": 15864,
    "archer": 11024,
    "\u5ba3": 1823,
    "gates": 6733,
    "mattered": 13836,
    "honourable": 17164,
    "nightclub": 15479,
    "##acion": 21736,
    "invasion": 5274,
    "commercially": 11088,
    "lennox": 21060,
    "norse": 15342,
    "jungle": 8894,
    "fumble": 19576,
    "make": 2191,
    "pencil": 14745,
    "##chal": 18598,
    "directions": 7826,
    "goldsmith": 22389,
    "##dran": 24914,
    "malabar": 28785,
    "curled": 8188,
    "video": 2678,
    "tres": 24403,
    "##sett": 21678,
    "sipped": 17735,
    "montagu": 26241,
    "identifying": 12151,
    "hog": 27589,
    "##\u2022": 30063,
    "dependency": 24394,
    "unfamiliar": 16261,
    "patience": 11752,
    "inhibitors": 25456,
    "sky": 3712,
    "postmaster": 20707,
    "##49": 26224,
    "1968": 3380,
    "delle": 24121,
    "yd": 21076,
    "##gated": 11644,
    "son": 2365,
    "[unused700]": 705,
    "daniel": 3817,
    "drifting": 15013,
    "\u82b1": 1940,
    "cartridge": 15110,
    "nba": 6452,
    "apocalypse": 16976,
    "surprises": 20096,
    "looming": 23430,
    "solving": 13729,
    "taxon": 28521,
    "[unused83]": 84,
    "ordnance": 14445,
    "##\u099b": 29893,
    "accidentally": 9554,
    "corresponding": 7978,
    "nestled": 22704,
    "ecuador": 10378,
    "sneak": 13583,
    "##\u03bc": 29728,
    "kam": 27829,
    "##nig": 25518,
    "snowfall": 26043,
    "remastered": 19484,
    "\u091c": 1319,
    "##rified": 22618,
    "researching": 20059,
    "meet": 3113,
    "resolve": 10663,
    "secretariat": 15128,
    "##mona": 21781,
    "haifa": 21303,
    "forum": 7057,
    "districts": 4733,
    "##ust": 19966,
    "respected": 9768,
    "\u0e22": 1416,
    "relativity": 20805,
    "mobility": 12969,
    "##tale": 22059,
    "[unused778]": 783,
    "999": 25897,
    "praised": 5868,
    "##thed": 23816,
    "##tain": 18249,
    "take": 2202,
    "burgundy": 18383,
    "freshwater": 12573,
    "baxter": 14664,
    "##dable": 20782,
    "blanket": 8768,
    "[unused952]": 957,
    "parachute": 13561,
    "originally": 2761,
    "satisfied": 8510,
    "waterfall": 14297,
    "[unused350]": 355,
    "##\u00b5": 29659,
    "reggae": 15662,
    "chaired": 12282,
    "raids": 11217,
    "\u03bb": 1165,
    "uniting": 26112,
    "projected": 11310,
    "pig": 10369,
    "wilderness": 9917,
    "operatives": 25631,
    "[unused811]": 816,
    "editor": 3559,
    "chihuahua": 28480,
    "##bs": 5910,
    "##ital": 18400,
    "child": 2775,
    "password": 20786,
    "##ber": 5677,
    "pedersen": 27409,
    "##torium": 24390,
    "carla": 17081,
    "streak": 9039,
    "##old": 11614,
    "simulated": 23599,
    "staying": 6595,
    "conrad": 10931,
    "papal": 12156,
    "[unused846]": 851,
    "mouse": 8000,
    "livelihood": 24585,
    "hydrogen": 9732,
    "1953": 4052,
    "smiles": 8451,
    "1970": 3359,
    "freighter": 27945,
    "rewards": 19054,
    "cautious": 17145,
    "##mussen": 29134,
    "overheard": 20443,
    "mongol": 17450,
    "\u00b0f": 8157,
    "mayoral": 23578,
    "duchess": 11017,
    "\u0432": 1182,
    "##sun": 19729,
    "##\u3064": 30190,
    "pointe": 26119,
    "##rcle": 21769,
    "butter": 12136,
    "logging": 15899,
    "##onda": 29067,
    "externally": 27223,
    "madame": 10602,
    "herb": 12810,
    "interrupt": 17938,
    "dwellings": 16707,
    "##ieri": 21939,
    "expensive": 6450,
    "undrafted": 21347,
    "free": 2489,
    "cambodian": 24417,
    "paralympics": 15600,
    "meals": 12278,
    "##\u30ce": 30243,
    "commander": 3474,
    "stein": 14233,
    "masculine": 14818,
    "##icient": 20132,
    "##lah": 14431,
    "##ingdon": 29138,
    "vuelta": 21441,
    "##fat": 27753,
    "beforehand": 25828,
    "neoclassical": 22657,
    "tagged": 26610,
    "##aud": 19513,
    "\u0561": 1219,
    "signs": 5751,
    "\u65e5": 1864,
    "statutes": 18574,
    "calderon": 28129,
    "gears": 19456,
    "[unused454]": 459,
    "##ango": 23422,
    "impress": 17894,
    "1720": 23535,
    "delicious": 12090,
    "peggy": 14911,
    "factor": 5387,
    "##yin": 25811,
    "##xa": 18684,
    "tracking": 9651,
    "criticizing": 21289,
    "vassal": 24351,
    "##\u0930": 29869,
    "##beau": 26401,
    "qualifier": 10981,
    "sweaty": 19889,
    "strict": 9384,
    "[unused737]": 742,
    "##utz": 20267,
    "quiet": 4251,
    "geared": 23636,
    "##et": 3388,
    "shutting": 17521,
    "gamble": 18503,
    "sep": 19802,
    "##tenberg": 21806,
    "pantheon": 24152,
    "ya": 8038,
    "positions": 4460,
    "##ored": 19574,
    "dividing": 16023,
    "ambushed": 22168,
    "##\u028e": 29701,
    "##imeter": 19198,
    "handbook": 14812,
    "1852": 8784,
    "glazed": 19724,
    "behind": 2369,
    "restrain": 28467,
    "thumping": 25996,
    "u2": 23343,
    "##tze": 23102,
    "sanchez": 10568,
    "##hone": 27406,
    "##iman": 18505,
    "permitted": 7936,
    "mabel": 19486,
    "onslaught": 28644,
    "deficiency": 18888,
    "claudio": 19569,
    "astronauts": 25881,
    "birthday": 5798,
    "##\u30af": 30228,
    "orthogonal": 28721,
    "##x": 2595,
    "odisha": 21874,
    "immortal": 12147,
    "##glers": 25555,
    "blur": 14819,
    "regatta": 26848,
    "bank": 2924,
    "perceive": 23084,
    "bi": 12170,
    "presentations": 18216,
    "bernhard": 21432,
    "exhausted": 9069,
    "##notes": 20564,
    "roll": 4897,
    "##ifies": 14144,
    "##dication": 25027,
    "[unused872]": 877,
    "confidence": 7023,
    "##orum": 20527,
    "marriage": 3510,
    "52nd": 26898,
    "\u6c38": 1896,
    "gale": 14554,
    "##ept": 23606,
    "idea": 2801,
    "innocent": 7036,
    "legs": 3456,
    "boris": 11235,
    "##his": 24158,
    "patrolling": 24248,
    "novo": 24576,
    "titanic": 20753,
    "intercontinental": 18725,
    "\u21d2": 1591,
    "olympic": 4386,
    "##press": 20110,
    "##itarian": 25691,
    "\u30e1": 1726,
    "ceylon": 16447,
    "##eni": 18595,
    "##anian": 26032,
    "harmless": 19741,
    "imaginary": 15344,
    "##nable": 22966,
    "inquiries": 27050,
    "flashlight": 15257,
    "philippe": 11169,
    "peabody": 20004,
    "##\u00f8y": 27688,
    "neue": 27713,
    "##rds": 17811,
    "appealed": 12068,
    "##borg": 11755,
    "plot": 5436,
    "headmaster": 16296,
    "glow": 8652,
    "##skin": 29334,
    "rafe": 15819,
    "nomenclature": 23718,
    "##osing": 18606,
    "collegiate": 9234,
    "representatives": 4505,
    "lowest": 7290,
    "stresses": 23253,
    "rebound": 27755,
    "knockout": 11369,
    "cheering": 24867,
    "university": 2118,
    "gdansk": 21942,
    "device": 5080,
    "indicating": 8131,
    "bids": 20723,
    "financial": 3361,
    "waters": 5380,
    "##vet": 19510,
    "flames": 7311,
    "concert": 4164,
    "brutality": 24083,
    "propeller": 15692,
    "##ythe": 26688,
    "##k": 2243,
    "##dae": 6858,
    "pixels": 27725,
    "dial": 13764,
    "parrot": 22530,
    "reviewers": 15814,
    "brew": 24702,
    "attending": 7052,
    "girlfriend": 6513,
    "lyle": 21971,
    "qi": 18816,
    "minister": 2704,
    "civilians": 9272,
    "chapters": 9159,
    "participate": 5589,
    "##\u10d0": 29974,
    "kisses": 8537,
    "##pher": 27921,
    "heaving": 23907,
    "##\u8857": 30472,
    "\u5fa1": 1847,
    "##rin": 6657,
    "##jevic": 26782,
    "dorian": 16092,
    "##chee": 25923,
    "colorful": 14231,
    "##standing": 24911,
    "##quisite": 24871,
    "dunne": 26553,
    "\u72ac": 1908,
    "loss": 3279,
    "ralph": 6798,
    "\u4e00": 1740,
    "grabbing": 9775,
    "confines": 25722,
    "mallory": 20468,
    "hammersmith": 28420,
    "bunker": 15742,
    "weaknesses": 21775,
    "article": 3720,
    "functions": 4972,
    "##igny": 26978,
    "proudly": 18067,
    "jesuits": 20297,
    "##fan": 15143,
    "violently": 14196,
    "stalking": 20070,
    "sirius": 23466,
    "wiping": 14612,
    "tasked": 13487,
    "##oth": 14573,
    "dominated": 6817,
    "oxford": 4345,
    "losses": 6409,
    "tatum": 25913,
    "nectar": 24816,
    "##lysis": 26394,
    "neglected": 15486,
    "matrices": 21520,
    "abundance": 14531,
    "single": 2309,
    "##pie": 14756,
    "wylie": 29152,
    "1705": 29326,
    "ideals": 15084,
    "papyrus": 29575,
    "damaged": 5591,
    "unbroken": 29505,
    "banded": 25264,
    "##\u05d1": 29789,
    "60th": 20928,
    "mustard": 23187,
    "tango": 17609,
    "hips": 6700,
    "mar": 9388,
    "accumulation": 20299,
    "potatoes": 14629,
    "nightmare": 10103,
    "paperback": 13611,
    "families": 2945,
    "penitentiary": 29569,
    "##ied": 6340,
    "##hiti": 27798,
    "##\u0f53": 29965,
    "##-": 29624,
    "footprint": 24319,
    "\u00ab": 1077,
    "displays": 8834,
    "##chment": 22729,
    "##uation": 14505,
    "sixteen": 7032,
    "##hwa": 18663,
    "honor": 3932,
    "[unused451]": 456,
    "[unused721]": 726,
    "misconduct": 23337,
    "roadside": 25131,
    "##\u0641": 29833,
    "paws": 24392,
    "foam": 17952,
    "##ught": 18533,
    "cheerful": 18350,
    "period": 2558,
    "[unused887]": 892,
    "headlined": 25214,
    "humming": 20364,
    "plays": 3248,
    "sausage": 24165,
    "##\u05e8": 29811,
    "cornerstone": 23354,
    "ferreira": 26135,
    "heights": 7535,
    "apartheid": 17862,
    "buzzing": 20386,
    "bailey": 8925,
    "colours": 8604,
    "teachers": 5089,
    "fabricated": 24212,
    "coincided": 18616,
    "hunting": 5933,
    "elites": 27021,
    "exclusive": 7262,
    "tech": 6627,
    "title": 2516,
    "victories": 9248,
    "owls": 22388,
    "\u6210": 1854,
    "bao": 25945,
    "##oration": 21223,
    "improper": 24156,
    "speechless": 25146,
    "gupta": 20512,
    "##\u9580": 30494,
    "dispersed": 15484,
    "debating": 20767,
    "eli": 12005,
    "matteo": 24713,
    "\u30c3": 1711,
    "communicate": 10639,
    "sentenced": 7331,
    "lauren": 10294,
    "##zhou": 9791,
    "excellent": 6581,
    "unusual": 5866,
    "##kney": 26993,
    "\u3042": 1646,
    "hangul": 19051,
    "cross": 2892,
    "honour": 6225,
    "bass": 3321,
    "moths": 14885,
    "mathematics": 5597,
    "favorites": 20672,
    "rocker": 24779,
    "sharply": 9249,
    "commissions": 13239,
    "reconnaissance": 8967,
    "hampshire": 7035,
    "\u116f": 1479,
    "##ape": 24065,
    "tristan": 9822,
    "tolerate": 19242,
    "##tle": 9286,
    "##sto": 16033,
    "##\u2090": 30089,
    "spoken": 5287,
    "horsepower": 15149,
    "##nda": 8943,
    "vancouver": 6930,
    "plaid": 26488,
    "despair": 13905,
    "rubbed": 7503,
    "shows": 3065,
    "##ey": 3240,
    "299": 25926,
    "ridges": 16386,
    "jelly": 20919,
    "knox": 11994,
    "[unused802]": 807,
    "extra": 4469,
    "cheaper": 16269,
    "said": 2056,
    "scraped": 20378,
    "sha": 21146,
    "brewers": 20007,
    "easton": 21636,
    "football": 2374,
    "##founded": 21001,
    "recognize": 6807,
    "kay": 10905,
    "features": 2838,
    "isabella": 10323,
    "##io": 3695,
    "clarissa": 25260,
    "[unused925]": 930,
    "rose": 3123,
    "hold": 2907,
    "##zbek": 28733,
    "1662": 25909,
    "grants": 8624,
    "##eira": 21302,
    "belarusian": 15626,
    "ren": 14916,
    "experimentation": 21470,
    "rasped": 28459,
    "wesley": 11482,
    "momentum": 11071,
    "##rt": 5339,
    "groves": 21695,
    "holm": 28925,
    "##ols": 27896,
    "buena": 27493,
    "[unused753]": 758,
    "grams": 20372,
    "universally": 21186,
    "raft": 21298,
    "##ammed": 27479,
    "eighteenth": 12965,
    "desires": 14714,
    "frames": 11048,
    "disagreement": 18185,
    "230": 11816,
    "undertook": 12543,
    "[unused254]": 259,
    "libertadores": 27968,
    "solemnly": 26294,
    "appeared": 2596,
    "begins": 4269,
    "##ump": 24237,
    "##kr": 21638,
    "collaborators": 21315,
    "suffers": 17567,
    "recognised": 7843,
    "sonata": 14681,
    "chancel": 16482,
    "nexus": 26041,
    "##der": 4063,
    "\u5730": 1802,
    "##fra": 27843,
    "forest": 3224,
    "##ckman": 24080,
    "##\u03b9": 18199,
    "[unused973]": 978,
    "jurisdictions": 17370,
    "approaching": 8455,
    "belinda": 24574,
    "loops": 15932,
    "chase": 5252,
    "forgot": 9471,
    "hypnotic": 28322,
    "simulator": 25837,
    "footing": 22849,
    "gallons": 18501,
    "whites": 12461,
    "prevention": 9740,
    "##laise": 25122,
    "upstairs": 8721,
    "sheep": 8351,
    "customs": 8205,
    "vapor": 20064,
    "smoking": 9422,
    "rectangular": 10806,
    "posed": 13686,
    "wesleyan": 19858,
    "##\u3066": 30191,
    "##nage": 27031,
    "smelling": 19773,
    "journeys": 19147,
    "researches": 27338,
    "236": 23593,
    "adjutant": 20690,
    "byrne": 14928,
    "##vio": 25500,
    "bard": 22759,
    "[unused788]": 793,
    "wetland": 22217,
    "invitations": 29492,
    "assertion": 23617,
    "characters": 3494,
    "paula": 13723,
    "plague": 11629,
    "receptor": 10769,
    "immune": 11311,
    "luigi": 15153,
    "moe": 22078,
    "comedies": 22092,
    "marriott": 26490,
    "pleaded": 12254,
    "[unused776]": 781,
    "\u25a0": 1617,
    "donegal": 25415,
    "ari": 10488,
    "\u057d": 1234,
    "miraculous": 26106,
    "patty": 17798,
    "assist": 6509,
    "fielder": 25000,
    "##zia": 12871,
    "[unused719]": 724,
    "preoccupied": 23962,
    "lilith": 25576,
    "[unused257]": 262,
    "carving": 18441,
    "760": 24643,
    "[unused450]": 455,
    "comprised": 11539,
    "phillies": 15711,
    "phd": 8065,
    "[unused209]": 214,
    "mighty": 10478,
    "france": 2605,
    "visitors": 5731,
    "expecting": 8074,
    "anglo": 7819,
    "[unused114]": 119,
    "saigon": 24001,
    "walks": 7365,
    "##wyl": 27740,
    "\u0938": 1338,
    "ornamental": 18200,
    "##nb": 27698,
    "##\u00f0": 29668,
    "motions": 15323,
    "39th": 22702,
    "406": 27433,
    "memoirs": 13251,
    "tuition": 15413,
    "mansions": 26842,
    "##zek": 24506,
    "snakes": 12971,
    "\u306b": 1668,
    "barry": 6287,
    "bros": 10243,
    "##@": 29633,
    "huddersfield": 19715,
    "##met": 11368,
    "carlson": 22226,
    "medium": 5396,
    "##\u2098": 30096,
    "patch": 8983,
    "kitty": 14433,
    "nights": 6385,
    "beale": 28371,
    "##ractive": 26884,
    "burmese": 14468,
    "cuisine": 12846,
    "camped": 27077,
    "##hore": 16892,
    "biomedical": 20906,
    "mina": 19808,
    "wildly": 13544,
    "danielle": 18490,
    "##gong": 17036,
    "[unused290]": 295,
    "recognized": 3858,
    "true": 2995,
    "##>": 29631,
    "##ceptive": 28687,
    "divisions": 5908,
    "bancroft": 29351,
    "merlin": 15993,
    "##\u0640": 29832,
    "wonderful": 6919,
    "involuntary": 26097,
    "only": 2069,
    "##ora": 6525,
    "poles": 10567,
    "[unused568]": 573,
    "statistical": 7778,
    "\u793e": 1924,
    "consulting": 10552,
    "slam": 9555,
    "lodge": 7410,
[...]
