{
  "vocab": {
    "archive": 8756,
    "##hore": 16892,
    "##uis": 27020,
    "giant": 5016,
    "##uising": 28580,
    "smart": 6047,
    "bari": 22466,
    "cupboard": 25337,
    "##\u30db": 30248,
    "zoo": 9201,
    "testimony": 10896,
    "insists": 16818,
    "uv": 23068,
    "infrastructure": 6502,
    "reza": 26323,
    "##cule": 21225,
    "##rence": 24413,
    "stratford": 17723,
    "embark": 28866,
    "\u8fb6": 1956,
    "raising": 6274,
    "fierce": 9205,
    "harp": 14601,
    "bavarian": 15097,
    "takes": 3138,
    "terrible": 6659,
    "##ages": 13923,
    "kv": 24888,
    "russ": 18072,
    "##ester": 20367,
    "##dale": 5634,
    "muffled": 15783,
    "incorrect": 16542,
    "francisco": 3799,
    "##eau": 10207,
    "##lez": 28060,
    "malaysian": 11843,
    "##\u0926": 29861,
    "##az": 10936,
    "ops": 23092,
    "allowed": 3039,
    "optics": 21026,
    "connor": 6720,
    "##thesis": 25078,
    "marjorie": 21562,
    "##vili": 21661,
    "##ark": 17007,
    "capabilities": 9859,
    "punjab": 9213,
    "unitary": 22127,
    "marvin": 13748,
    "syn": 19962,
    "##riam": 25557,
    "[unused515]": 520,
    "comparison": 7831,
    "peters": 12420,
    "##antly": 15706,
    "whitney": 9809,
    "\u300d": 1642,
    "doherty": 23798,
    "##lysis": 26394,
    "##abi": 28518,
    "\uff0f": 1992,
    "304": 23859,
    "[unused745]": 750,
    "nicholas": 6141,
    "demolition": 12451,
    "birth": 4182,
    "560": 21267,
    "concluding": 16228,
    "strictly": 9975,
    "mont": 18318,
    "\u5802": 1805,
    "##\u0430": 10260,
    "forgiven": 24280,
    "##\u05d3": 29791,
    "propellers": 23405,
    "[unused965]": 970,
    "sends": 10255,
    "breaststroke": 28164,
    "avila": 29079,
    "relying": 18345,
    "beak": 23525,
    "fresco": 26991,
    "1978": 3301,
    "[unused468]": 473,
    "\u98df": 1978,
    "##pper": 18620,
    "\u2099": 1568,
    "jordan": 5207,
    "captured": 4110,
    "dub": 12931,
    "decreasing": 16922,
    "bills": 8236,
    "##cats": 19588,
    "mississippi": 5900,
    "1710": 23841,
    "cloudy": 24706,
    "reddish": 14182,
    "sweetness": 23210,
    "cosmetic": 25536,
    "slung": 20078,
    "##laise": 25122,
    "externally": 27223,
    "polynomials": 28175,
    "profit": 5618,
    "##\u03b8": 29725,
    "violent": 6355,
    "unhappy": 12511,
    "spoil": 27594,
    "##\u30bf": 30235,
    "##\u2074": 30073,
    "vols": 18709,
    "##pala": 19636,
    "tamil": 6008,
    "asean": 27974,
    "indira": 28232,
    "fails": 11896,
    "[unused166]": 171,
    "gabriel": 6127,
    "silvio": 28107,
    "fisher": 8731,
    "pm": 7610,
    "shaky": 15311,
    "disguise": 14249,
    "gigs": 20929,
    "mikhail": 11318,
    "widows": 24835,
    "##vani": 27760,
    "sales": 4341,
    "|": 1064,
    "ponytail": 18865,
    "##hak": 20459,
    "elmer": 21464,
    "##bl": 16558,
    "[unused735]": 740,
    "ritual": 8887,
    "deficit": 15074,
    "bruises": 18438,
    "francesca": 15409,
    "proven": 10003,
    "gut": 9535,
    "enough": 2438,
    "giovanni": 9136,
    "darkest": 23036,
    "swing": 7370,
    "analysts": 18288,
    "##amine": 19915,
    "##tro": 13181,
    "units": 3197,
    "beit": 28236,
    "opposes": 29158,
    "jihad": 24815,
    "are": 2024,
    "elliptic": 29413,
    "allegheny": 21192,
    "indicates": 7127,
    "grenade": 17038,
    "\u0642": 1292,
    "allie": 16944,
    "##fm": 16715,
    "replication": 21647,
    "westwood": 21730,
    "##hila": 26415,
    "emery": 24294,
    "##bib": 28065,
    "transit": 6671,
    "terraces": 25633,
    "\u30a6": 1696,
    "doping": 23799,
    "toe": 11756,
    "##phy": 21281,
    "brno": 28634,
    "##rm": 10867,
    "##ashi": 12914,
    "\u30c8": 1714,
    "spectra": 29237,
    "italiana": 28059,
    "ask": 3198,
    "wages": 12678,
    "##\u1d40": 30031,
    "adventist": 25696,
    "hypothetical": 25613,
    "diagnostic": 16474,
    "sponsor": 10460,
    "[unused838]": 843,
    "##aga": 16098,
    "eyes": 2159,
    "##tering": 17989,
    "wonders": 16278,
    "eighties": 27690,
    "fiercely": 16265,
    "awarding": 21467,
    "cater": 23488,
    "[unused201]": 206,
    "vo": 29536,
    "191": 19871,
    "##gle": 9354,
    "what": 2054,
    "finalists": 13527,
    "grazing": 15400,
    "geographic": 9183,
    "hbo": 14633,
    "creep": 19815,
    "we": 2057,
    "pines": 17527,
    "staffed": 21121,
    "tablets": 17596,
    "folds": 15439,
    "transport": 3665,
    "thrill": 16959,
    "lucien": 11732,
    "newer": 10947,
    "biggest": 5221,
    "scheduled": 5115,
    "winery": 23910,
    "artifact": 20785,
    "fang": 15197,
    "einstein": 15313,
    "totaling": 21798,
    "playwright": 11170,
    "\u305f": 1661,
    "pageant": 12438,
    "shitty": 28543,
    "fred": 5965,
    "vietnamese": 9101,
    "##graphy": 12565,
    "gareth": 20243,
    "##ante": 12956,
    "##ua": 6692,
    "##\u0cb0": 29937,
    "eruptions": 28448,
    "bennett": 8076,
    "pays": 12778,
    "literary": 4706,
    "\u0e40": 1423,
    "molecular": 8382,
    "256": 17273,
    "##rogen": 22991,
    "citrus": 20418,
    "feasible": 22945,
    "\u2033": 1532,
    "inherently": 26096,
    "pr": 10975,
    "[unused278]": 283,
    "##ald": 19058,
    "machine": 3698,
    "violations": 13302,
    "huddersfield": 19715,
    "##ily": 6588,
    "cottage": 9151,
    "topical": 25665,
    "sen": 12411,
    "buckinghamshire": 21712,
    "wilton": 26407,
    "plastics": 26166,
    "magdalene": 26890,
    "kassel": 27884,
    "uncanny": 28953,
    "gathering": 7215,
    "##rrier": 27051,
    "pont": 21179,
    "reintroduced": 28263,
    "prized": 25695,
    "rodrigo": 18943,
    "falcons": 14929,
    "##\u653f": 30386,
    "skinner": 17451,
    "patti": 22732,
    "circles": 7925,
    "beatrice": 14807,
    "[unused4]": 5,
    "\u6cb3": 1899,
    "prospective": 17464,
    "targeted": 9416,
    "##version": 27774,
    "intimidated": 28028,
    "##\u2099": 19110,
    "[unused442]": 447,
    "[unused267]": 272,
    "ri": 15544,
    "273": 25371,
    "cale": 21854,
    "##lis": 6856,
    "louis": 3434,
    "anthology": 9637,
    "ki": 11382,
    "tempo": 13657,
    "attraction": 8432,
    "vincenzo": 24712,
    "##rogated": 26565,
    "survey": 5002,
    "widened": 8723,
    "##ago": 23692,
    "primary": 3078,
    "apprenticeship": 20448,
    "enable": 9585,
    "2017": 2418,
    "various": 2536,
    "cope": 11997,
    "orb": 19607,
    "##mora": 22122,
    "rides": 12271,
    "murderous": 25303,
    "fk": 14352,
    "energetic": 18114,
    "salvador": 10582,
    "grouping": 19765,
    "utilizing": 16911,
    "##iography": 26535,
    "##ahu": 21463,
    "buccaneers": 21629,
    "##uso": 26658,
    "satan": 16795,
    "distracted": 11116,
    "professor": 2934,
    "\u0936": 1336,
    "registers": 18687,
    "shooter": 13108,
    "initially": 3322,
    "flights": 7599,
    "fashion": 4827,
    "tanned": 25973,
    "cricketer": 9490,
    "poor": 3532,
    "alsace": 24922,
    "exports": 14338,
    "judy": 12120,
    "##icular": 21412,
    "sneakers": 28130,
    "financing": 12135,
    "recapture": 27639,
    "many": 2116,
    "##ena": 8189,
    "##rred": 20529,
    "##fication": 10803,
    "rib": 19395,
    "echoes": 17659,
    "##\u4e45": 30274,
    "diaries": 18707,
    "##41": 23632,
    "##worm": 22769,
    "gazes": 23514,
    "precautions": 29361,
    "nova": 6846,
    "##iche": 17322,
    "martha": 9246,
    "##lights": 15733,
    "subsidiary": 7506,
    "##gh": 5603,
    "##pods": 22925,
    "johnson": 3779,
    "writhing": 26185,
    "byu": 23471,
    "prima": 21111,
    "calvert": 24800,
    "catastrophe": 25539,
    "##onale": 22823,
    "plenty": 7564,
    "##vis": 11365,
    "kingsley": 22819,
    "steamship": 23869,
    "doug": 8788,
    "snatch": 23365,
    "##tma": 29418,
    "catch": 4608,
    "guggenheim": 20402,
    "##nc": 12273,
    "founded": 2631,
    "doctorate": 8972,
    "python": 18750,
    "amalgamation": 21968,
    "mischief": 25166,
    "putting": 5128,
    "barron": 23594,
    "##akh": 27573,
    "\u5cf6": 1833,
    "##\u20a4": 30100,
    "##elis": 29282,
    "avengers": 14936,
    "defeat": 4154,
    "clit": 17962,
    "talented": 10904,
    "[unused737]": 742,
    "curtains": 14694,
    "recounts": 23412,
    "parody": 12354,
    "gardener": 19785,
    "refusal": 13948,
    "huey": 29503,
    "dowry": 29603,
    "eds": 11985,
    "ripple": 24644,
    "identifying": 12151,
    "dig": 10667,
    "##bad": 9024,
    "greene": 11006,
    "eligibility": 11395,
    "unwanted": 18162,
    "dedicated": 4056,
    "friedrich": 8896,
    "e": 1041,
    "circumstances": 6214,
    "flynn": 13259,
    "dahl": 27934,
    "taiwan": 6629,
    "surfer": 27747,
    "toast": 15174,
    "##swell": 19228,
    "##ject": 20614,
    "neighbouring": 9632,
    "ol": 19330,
    "spd": 23772,
    "electrically": 29103,
    "householder": 7536,
    "monstrous": 21668,
    "fur": 6519,
    "##\u0b9a": 29919,
    "##\u96c4": 30500,
    "##eville": 21187,
    "skepticism": 27936,
    "##hly": 27732,
    "leland": 27134,
    "[unused212]": 217,
    "buckley": 17898,
    "regency": 15647,
    "legions": 23269,
    "nighttime": 26031,
    "sinn": 26403,
    "laws": 4277,
    "sung": 7042,
    "clips": 15281,
    "get": 2131,
    "cypriot": 18543,
    "smash": 15132,
    "##ille": 10484,
    "]": 1033,
    "##der": 4063,
    "[unused622]": 627,
    "followed": 2628,
    "varying": 9671,
    "blanco": 20036,
    "ionic": 24774,
    "rehearsal": 17887,
    "superhuman": 27061,
    "bing": 17620,
    "playing": 2652,
    "hostilities": 17601,
    "c": 1039,
    "coaster": 16817,
    "nurse": 6821,
    "vote": 3789,
    "snail": 10879,
    "\u5c71": 1831,
    "galen": 21062,
    "overcome": 9462,
    "waterford": 17769,
    "seminary": 8705,
    "sentence": 6251,
    "doyle": 11294,
    "universite": 22176,
    "##kley": 22315,
    "##tort": 25485,
    "fountain": 9545,
    "weathered": 28445,
    "##eg": 13910,
    "1912": 4878,
    "fray": 25975,
    "ivan": 7332,
    "##ricted": 20623,
    "johnnie": 27716,
    "##lin": 4115,
    "stylistic": 24828,
    "##inae": 16414,
    "siege": 6859,
    "militant": 16830,
    "silenced": 25030,
    "##pton": 15857,
    "##gr": 16523,
    "##ek": 5937,
    "poker": 11662,
    "##awan": 25903,
    "oklahoma": 5858,
    "##rim": 20026,
    "liu": 8607,
    "turks": 12896,
    "\u571f": 1801,
    "ethnic": 5636,
    "paramilitary": 22258,
    "flown": 10583,
    "volcanic": 10942,
    "##ole": 9890,
    "astronomer": 15211,
    "##kot": 23342,
    "lifespan": 26462,
    "hospital": 2902,
    "your": 2115,
    "jewellery": 21545,
    "shelton": 22230,
    "##owa": 21293,
    "amplifier": 22686,
    "expose": 14451,
    "##4th": 26724,
    "lest": 26693,
    "##nick": 13542,
    "[unused203]": 208,
    "considering": 6195,
    "[unused934]": 939,
    "\u10d4": 1442,
    "blinding": 19709,
    "dresser": 16641,
    "latter": 3732,
    "flee": 10574,
    "23": 2603,
    "ingrid": 22093,
    "postwar": 20013,
    "with": 2007,
    "anwar": 28372,
    "polka": 29499,
    "etudes": 25041,
    "superseded": 19886,
    "##ey": 3240,
    "buzzing": 20386,
    "dotted": 20384,
    "##ction": 7542,
    "highness": 17114,
    "##core": 17345,
    "\u0142odz": 17814,
    "homes": 5014,
    "closure": 8503,
    "sonny": 13584,
    "\u2261": 1607,
    "##sal": 12002,
    "kincaid": 24510,
    "##achi": 21046,
    "skier": 21294,
    "villain": 12700,
    "##ando": 28574,
    "topological": 24309,
    "neutron": 20393,
    "georgian": 9166,
    "barrett": 12712,
    "[unused400]": 405,
    "pontiac": 24538,
    "##vor": 14550,
    "fills": 17469,
    "##\u7acb": 30457,
    "lowlands": 26411,
    "chancellor": 7306,
    "translating": 22969,
    "scheduling": 19940,
    "takeoff": 19744,
    "##dr": 13626,
    "##alla": 25425,
    "burr": 22715,
    "fossil": 10725,
    "##ossa": 21842,
    "[unused985]": 990,
    "sabres": 26969,
    "hog": 27589,
    "##gnon": 26977,
    "eastward": 17318,
    "interventions": 19388,
    "combine": 11506,
    "cher": 24188,
    "ky": 18712,
    "1818": 12094,
    "human": 2529,
    "barons": 21487,
    "earrings": 27212,
    "filling": 8110,
    "leapt": 13920,
    "##ndt": 26379,
    "sun": 3103,
    "enchanted": 22454,
    "##nat": 19833,
    "reassure": 24647,
    "[unused375]": 380,
    "cigarette": 9907,
    "kobe": 24113,
    "augustus": 11668,
    "[unused769]": 774,
    "##grove": 21525,
    "03": 6021,
    "jewels": 15565,
    "higgins": 13466,
    "##erson": 18617,
    "satisfy": 13225,
    "aquitaine": 24973,
    "landowner": 20270,
    "praise": 8489,
    "times": 2335,
    "##twined": 21077,
    "attributed": 7108,
    "colombo": 16224,
    "nik": 23205,
    "tatum": 25913,
    "1969": 3440,
    "cage": 7980,
    "\u116e": 1478,
    "particularly": 3391,
    "zero": 5717,
    "internationals": 27340,
    "##\u05dc": 29799,
    "convenient": 14057,
    "infused": 29592,
    "hauled": 13161,
    "afar": 28978,
    "materials": 4475,
    "kilometers": 7338,
    "[unused816]": 821,
    "anarchist": 18448,
    "1830": 9500,
    "flu": 19857,
    "saturday": 5095,
    "gomez": 12791,
    "clinch": 29119,
    "tones": 12623,
    "writers": 4898,
    "cure": 9526,
    "emissions": 11768,
    "acres": 4631,
    "chairperson": 19072,
    "##ight": 18743,
    "knives": 13227,
    "states": 2163,
    "chosen": 4217,
    "talbot": 14838,
    "impatience": 28011,
    "cooperation": 6792,
    "freyja": 7075,
    "approved": 4844,
    "accusing": 16723,
    "legacy": 8027,
    "declares": 18806,
    "\u624c": 1859,
    "sand": 5472,
    "hull": 6738,
    "campus": 3721,
    "pushed": 3724,
    "mentioned": 3855,
    "metro": 6005,
    "##\u02b8": 29710,
    "stevenson": 13636,
    "pressure": 3778,
    "supermarket": 17006,
    "##sund": 25168,
    "memphis": 9774,
    "magazines": 7298,
    "##\u306e": 30197,
    "##tale": 22059,
    "stripping": 23987,
    "parenting": 28586,
    "cry": 5390,
    "appetite": 18923,
    "stains": 27094,
    "steiner": 21264,
    "timetable": 23839,
    "psychedelic": 18147,
    "dublin": 5772,
    "performs": 10438,
    "$": 1002,
    "chunks": 24839,
    "absorb": 16888,
    "reconciled": 28348,
    "pride": 6620,
    "vegetable": 15415,
    "interrupted": 7153,
    "##mad": 25666,
    "thirteen": 7093,
    "presentation": 8312,
    "jen": 15419,
    "kiss": 3610,
    "lyndon": 23037,
    "moist": 11052,
    "marital": 23143,
    "##burg": 4645,
    "fed": 7349,
    "devotion": 13347,
    "khalifa": 27925,
    "scoop": 23348,
    "##arium": 17285,
    "##rricular": 21231,
    "faces": 5344,
    "##dy": 5149,
    "enclosed": 10837,
    "##load": 11066,
    "delighted": 15936,
    "##ella": 8411,
    "##dridge": 21482,
    "banded": 25264,
    "##dez": 24601,
    "[unused633]": 638,
    "preferences": 18394,
    "revisited": 24354,
    "##gno": 26745,
    "stryker": 25429,
    "jewel": 13713,
    "##\u05d8": 29795,
    "muscled": 24909,
    "unlock": 19829,
    "duly": 25073,
    "george": 2577,
    "##raph": 24342,
    "##ulu": 20391,
    "croatia": 8097,
    "##yed": 20821,
    "orchestras": 19505,
    "\u067e": 1302,
    "algae": 18670,
    "1840s": 19308,
    "\u05dc": 1253,
    "stench": 21555,
    "mirror": 5259,
    "irrigation": 12442,
    "harlem": 14864,
    "statements": 8635,
    "stopped": 3030,
    "bouncing": 16361,
    "[unused391]": 396,
    "razor": 15082,
    "installation": 8272,
    "faulty": 28927,
    "prem": 26563,
    "##ened": 6675,
    "occupying": 13992,
    "messenger": 11981,
    "boycott": 17757,
    "bce": 10705,
    "mud": 8494,
    "ignoring": 9217,
    "##ographic": 13705,
    "berlin": 4068,
    "deceased": 10181,
    "walks": 7365,
    "lifetime": 6480,
    "phil": 6316,
    "funding": 4804,
    "madagascar": 11934,
    "##\u1100": 29991,
    "##hor": 16368,
    "soft": 3730,
    "[unused956]": 961,
    "messages": 7696,
    "develops": 11791,
    "timely": 23259,
    "jagger": 25827,
    "[unused187]": 192,
    "##claim": 25154,
    "##dek": 24463,
    "chairman": 3472,
    "mikey": 25998,
    "moore": 5405,
    "gentleman": 10170,
    "rocco": 28167,
    "pursuing": 11828,
    "1976": 3299,
    "great": 2307,
    "appalachian": 19682,
    "siegfried": 25948,
    "examination": 7749,
    "recruit": 13024,
    "potentially": 9280,
    "bitten": 19026,
    "ezio": 23043,
    "dominate": 16083,
    "flashing": 12659,
    "boar": 24187,
    "apart": 4237,
    "\u092a": 1328,
    "balance": 5703,
    "producing": 5155,
    "mechanisms": 10595,
    "impressive": 8052,
    "shaved": 20665,
    "heaviest": 26858,
    "memo": 24443,
    "[unused423]": 428,
    "##\u2190": 30111,
    "##dner": 28001,
    "undergo": 13595,
    "7th": 5504,
    "surveying": 19654,
    "matt": 4717,
    "approaching": 8455,
    "##dling": 14423,
    "##yce": 29297,
    "maitland": 25511,
    "converts": 19884,
    "tack": 26997,
    "##jali": 28948,
    "##eit": 20175,
    "##rini": 22612,
    "frazier": 26551,
    "221": 19594,
    "galleries": 11726,
    "##\uff5e": 30521,
    "relocation": 18344,
    "[unused733]": 738,
    "established": 2511,
    "digging": 10443,
    "##unds": 26698,
    "##esses": 26636,
    "launch": 4888,
    "provinces": 6941,
    "cincinnati": 7797,
    "vacated": 15348,
    "[unused795]": 800,
    "##growth": 26982,
    "##ttes": 14581,
    "bitch": 7743,
    "nokia": 22098,
    "audience": 4378,
    "##nikov": 22576,
    "parades": 26635,
    "##mata": 21022,
    "malone": 16321,
    "babu": 20948,
    "flushed": 12953,
    "accepted": 3970,
    "##olar": 19478,
    "\u6bd4": 1890,
    "##\u0441": 29747,
    "diagnosed": 11441,
    "commissioners": 12396,
    "potent": 16834,
    "popping": 20095,
    "brunette": 27261,
    "width": 9381,
    "se": 7367,
    "slayer": 20005,
    "transformers": 19081,
    "downloaded": 22817,
    "tobin": 28096,
    "perrin": 28106,
    "branching": 23346,
    "##holders": 17794,
    "[unused778]": 783,
    "inception": 12149,
    "realizes": 10919,
    "liberals": 13350,
    "##end": 10497,
    "##ailed": 17440,
    "burgess": 17754,
    "vanish": 25887,
    "boiling": 16018,
    "fighter": 4959,
    "said": 2056,
    "curling": 11599,
    "night": 2305,
    "academie": 19669,
    "sexes": 21024,
    "garry": 21507,
    "ports": 8831,
    "facility": 4322,
    "binding": 8031,
    "chihuahua": 28480,
    "##\u10dd": 29986,
    "meg": 12669,
    "##ginal": 24965,
    "beneath": 4218,
    "molina": 25601,
    "[unused732]": 737,
    "resting": 8345,
    "reconciliation": 16088,
    "inventory": 12612,
    "[unused434]": 439,
    "milky": 21582,
    "geared": 23636,
    "rockefeller": 16696,
    "context": 6123,
    "legislation": 6094,
    "presents": 7534,
    "progresses": 22901,
    "employer": 11194,
    "integration": 8346,
    "chinese": 2822,
    "estuary": 18056,
    "page": 3931,
    "[unused738]": 743,
    "headed": 3753,
    "##chev": 16179,
    "##j": 3501,
    "##h": 2232,
    "##urgent": 27176,
    "snorted": 15235,
    "##\u592a": 30338,
    "train": 3345,
    "##\u702c": 30431,
    "medley": 13863,
    "general": 2236,
    "illustrating": 28252,
    "spatial": 13589,
    "tucker": 9802,
    "terminus": 7342,
    "daylight": 11695,
    "##duk": 28351,
    "confuse": 28679,
    "##bina": 21114,
    "forcefully": 23097,
    "viola": 10482,
    "bliss": 13670,
    "##oni": 10698,
    "[unused849]": 854,
    "repay": 24565,
    "##stems": 29189,
    "##board": 6277,
    "ding": 22033,
    "##lessly": 10895,
    "taller": 12283,
    "lock": 5843,
    "compute": 24134,
    "apocalyptic": 27660,
    "ledge": 18283,
    "numerous": 3365,
    "##thermal": 23367,
    "that": 2008,
    "naming": 10324,
    "sermon": 18408,
    "1764": 21488,
    "\u10da": 1447,
    "##glio": 29480,
    "lyman": 27587,
    "riches": 26768,
    "abundant": 12990,
    "nearing": 23454,
    "map": 4949,
    "guerre": 24613,
    "surround": 15161,
    "medications": 20992,
    "stevie": 17458,
    "ssr": 20896,
    "proceeded": 8979,
    "##iente": 25099,
    "1947": 4006,
    "##hai": 10932,
    "##ddle": 20338,
    "blogs": 23012,
    "experience": 3325,
    "##dation": 20207,
    "cadiz": 26342,
    "##omics": 25524,
    "hon": 10189,
    "damn": 4365,
    "camping": 13215,
    "381": 29335,
    "\u0996": 1354,
    "nautical": 11339,
    "baggage": 20220,
    "raaf": 22709,
    "estonian": 12029,
    "em": 7861,
    "appeals": 9023,
    "forster": 21316,
    "1990": 2901,
    "##mot": 18938,
    "joshua": 9122,
    "##nsen": 29428,
    "military": 2510,
    "altogether": 10462,
    "connell": 17199,
    "dei": 14866,
    "chapels": 24130,
    "bacon": 11611,
    "arthritis": 27641,
    "compartments": 27998,
    "##phs": 18757,
    "##earing": 27242,
    "clusters": 12906,
    "platform": 4132,
    "neat": 15708,
    "ul": 17359,
    "1796": 13885,
    "poking": 21603,
    "coupled": 11211,
    "spies": 16794,
    "solving": 13729,
    "oversees": 22558,
    "signature": 8085,
    "knob": 16859,
    "interception": 17385,
    "##rified": 22618,
    "##pina": 26787,
    "serum": 20194,
    "fulham": 21703,
    "##ia": 2401,
    "riley": 7546,
    "dime": 27211,
    "910": 27743,
    "##hed": 9072,
    "started": 2318,
    "fountains": 23497,
    "retreated": 11672,
    "managing": 6605,
    "audio": 5746,
    "##tized": 23355,
    "docked": 25727,
    "sedan": 15134,
    "mort": 22294,
    "eugene": 8207,
    "ta": 11937,
    "inflicted": 17303,
    "smashed": 14368,
    "capsule": 18269,
    "withdrawal": 10534,
    "pomeranian": 17717,
    "\u5ca1": 1832,
    "##rish": 18774,
    "detachments": 29568,
    "disease": 4295,
    "uh": 7910,
    "##\u30a2": 30219,
    "\u2088": 1555,
    "##\u9593": 30495,
    "bs": 18667,
    "kilometre": 13214,
    "affiliate": 8727,
    "1730": 23272,
    "makes": 3084,
    "livingstone": 27656,
    "society": 2554,
    "##hiko": 22204,
    "##vana": 27313,
    "clamped": 18597,
    "##24": 18827,
    "\u5bb6": 1825,
    "carlo": 9758,
    "\u3055": 1656,
    "newly": 4397,
    "##ida": 8524,
    "##enas": 26474,
    "##sr": 21338,
    "monk": 8284,
    "rotate": 24357,
    "dun": 24654,
    "##res": 6072,
    "[unused225]": 230,
    "tyrant": 26508,
    "rica": 11509,
    "nude": 15287,
    "##chus": 16194,
    "barrie": 24953,
    "##frey": 22586,
    "ankles": 15392,
    "39th": 22702,
    "306": 24622,
    "##\u1019": 29973,
    "1868": 7582,
    "spelling": 11379,
    "1766": 21410,
    "genetics": 14471,
    "keynote": 25569,
    "fancy": 11281,
    "##rok": 27923,
    "indoors": 24274,
    "entire": 2972,
    "##lo": 4135,
    "##\u4fdd": 30292,
    "parramatta": 22820,
    "corresponded": 27601,
    "[unused925]": 930,
    "##hs": 7898,
    "heaving": 23907,
    "beginnings": 16508,
    "##\u30c1": 30236,
    "supernatural": 11189,
    "\u3066": 1665,
    "##tute": 24518,
    "oblivion": 24034,
    "nueva": 24536,
    "##nath": 16207,
    "[unused309]": 314,
    "cruel": 10311,
    "thing": 2518,
    "looted": 27775,
    "floral": 18686,
    "templar": 27850,
    "##tive": 6024,
    "prefix": 17576,
    "[unused136]": 141,
    "pinned": 11807,
    "[unused906]": 911,
    "bailey": 8925,
    "##roving": 22046,
    "\u0636": 1285,
    "calcium": 13853,
    "butterflies": 15023,
    "assumes": 15980,
    "conceived": 10141,
    "bundled": 24378,
    "planner": 24555,
    "histoire": 20088,
    "cf": 12935,
    "cosmopolitan": 24686,
    "nikola": 24794,
    "waiting": 3403,
    "##finger": 20349,
    "##s": 2015,
    "honest": 7481,
    "minds": 9273,
    "vision": 4432,
    "cobb": 17176,
    "[unused472]": 477,
    "croatian": 7963,
    "\u0263": 1117,
    "\u30cf": 1718,
    "staring": 4582,
    "[unused331]": 336,
    "competitions": 6479,
    "panama": 8515,
    "dorothy": 9984,
    "iata": 9833,
    "elite": 7069,
    "sadly": 13718,
    "condemnation": 26248,
    "unit": 3131,
    "conquered": 11438,
    "residual": 21961,
    "##eft": 29218,
    "love": 2293,
    "\u66f2": 1870,
    "patterned": 25336,
    "authoritative": 23949,
    "fluorescent": 22184,
    "[unused164]": 169,
    "peculiar": 14099,
    "nationalities": 24904,
    "knotted": 27039,
    "hearing": 4994,
    "calculated": 10174,
    "[unused709]": 714,
    "stubble": 26816,
    "immense": 14269,
    "##lers": 12910,
    "test": 3231,
    "##to": 3406,
    "artists": 3324,
    "wagner": 10304,
    "dharma": 20669,
    "olive": 9724,
    "aberdeen": 12080,
    "##skaya": 23070,
    "##ase": 11022,
    "[unused774]": 779,
    "##las": 8523,
    "waterfall": 14297,
    "kilda": 22633,
    "catalonia": 16711,
    "##ring": 4892,
    "pd": 22851,
    "##bial": 21102,
    "research": 2470,
    "interface": 8278,
    "fit": 4906,
    "stitch": 26035,
    "sirens": 20675,
    "movie": 3185,
    "consciously": 24447,
    "wolff": 23498,
    "##edance": 29605,
    "tension": 6980,
    "[unused660]": 665,
    "strikers": 26049,
    "700": 6352,
    "chow": 20209,
    "stronghold": 16995,
    "arranging": 19018,
    "##lean": 20898,
    "maynard": 22130,
    "lullaby": 29149,
    "vacuum": 11641,
    "##gers": 15776,
    "##hur": 24572,
    "##vate": 16952,
    "[unused695]": 700,
    "##\u02b7": 29709,
    "##3": 2509,
    "dennis": 6877,
    "blackmail": 25044,
    "[unused519]": 524,
    "[unused676]": 681,
    "impatient": 17380,
    "haitian": 21404,
    "magistrates": 23007,
    "tess": 15540,
    "##gre": 17603,
    "brass": 8782,
    "van": 3158,
    "ho": 7570,
    "payments": 10504,
    "ambulance": 10771,
    "[unused76]": 77,
    "mole": 16709,
    "velvet": 10966,
    "1659": 28288,
    "batavia": 28917,
    "porsche": 16099,
    "santo": 11685,
    "##pe": 5051,
    "purposes": 5682,
    "slim": 11754,
    "granddaughter": 12787,
    "haydn": 25595,
    "elliott": 9899,
    "papyrus": 29575,
    "dysfunction": 28466,
    "cis": 20199,
    "##lley": 25105,
    "abandoning": 19816,
    "utilizes": 21852,
    "##tens": 25808,
    "poorer": 27196,
    "[unused161]": 166,
    "##overs": 24302,
    "##nder": 11563,
    "samsung": 19102,
    "lava": 13697,
    "hogan": 14851,
    "neighbors": 10638,
    "seeds": 8079,
    "##ssi": 18719,
    "rocket": 7596,
    "shutter": 28180,
    "challenges": 7860,
    "fire": 2543,
    "lebanon": 8341,
    "lausanne": 22256,
    "##\u8279": 30465,
    "horseshoe": 23449,
    "practices": 6078,
    "abbott": 14455,
    "guiana": 23568,
    "##tori": 29469,
    "facilitating": 25505,
    "1697": 28690,
    "correct": 6149,
    "musically": 21385,
    "covent": 29456,
    "[unused230]": 235,
    "crusaders": 18831,
    "##10": 10790,
    "alcoholic": 14813,
    "sources": 4216,
    "protect": 4047,
    "201": 16345,
    "boys": 3337,
    "##hy": 10536,
    "hurricanes": 17035,
    "worsened": 27622,
    "cited": 6563,
    "holy": 4151,
    "michel": 8709,
    "motor": 5013,
    "##feng": 24383,
    "316": 23980,
    "##crat": 23185,
    "arising": 17707,
    "involuntary": 26097,
    "ci": 25022,
    "isaac": 7527,
    "sweetly": 22557,
    "\u4e09": 1741,
    "238": 22030,
    "##cliff": 27580,
    "snapping": 15790,
    "lorraine": 13895,
    "oceanic": 18955,
    "mana": 24951,
    "\u1100": 1455,
    "community": 2451,
    "reckless": 18555,
    "combo": 25025,
    "clumsy": 22902,
    "global": 3795,
    "prime": 3539,
    "##\u2022": 30063,
    "presidency": 8798,
    "baritone": 14458,
    "budgets": 26178,
    "murmurs": 22888,
    "succumbed": 25642,
    "1628": 28627,
    "[unused283]": 288,
    "whichever": 29221,
    "bloomington": 26372,
    "##belle": 25766,
    "arizona": 5334,
    "brakes": 13627,
    "impacts": 14670,
    "##\u090f": 29850,
    "##\u208e": 30088,
    "##opa": 29477,
    "spinal": 16492,
    "##um": 2819,
    "preserved": 6560,
    "congenital": 27480,
    "unnatural": 21242,
    "extreme": 6034,
    "##nsed": 27730,
    "36th": 21460,
    "glaciers": 21193,
    "del": 3972,
    "raging": 17559,
    "threats": 8767,
    "barnet": 26864,
    "##optera": 25324,
    "##vron": 28588,
    "nope": 16780,
    "say": 2360,
    "kaye": 23686,
    "##\u20a9": 30101,
    "our": 2256,
    "quiver": 29049,
    "twisted": 6389,
    "even": 2130,
    "intermediate": 7783,
    "\u2015": 1518,
    "intervention": 8830,
    "contributes": 16605,
    "dive": 11529,
    "morris": 6384,
    "##oor": 16506,
    "##ami": 10631,
    "trades": 14279,
    "explicit": 13216,
    "legend": 5722,
    "corona": 21887,
    "##iz": 10993,
    "works": 2573,
    "michelle": 9393,
    "veronica": 13133,
    "springer": 17481,
    "shutting": 17521,
    "rb": 21144,
    "much": 2172,
    "progressed": 12506,
    "borg": 28709,
    "dancer": 8033,
    "normandy": 13298,
    "##islaus": 25678,
    "apollo": 9348,
    "##ali": 11475,
    "rubs": 28860,
    "##ise": 5562,
    "guise": 21980,
    "genuine": 10218,
    "disco": 12532,
    "##quel": 22197,
    "johnstone": 24160,
    "##bham": 25522,
    "thieves": 15862,
    "cd": 3729,
    "##mori": 24610,
    "jillian": 27286,
    "paddy": 16063,
    "featuring": 3794,
    "miner": 18594,
    "indifferent": 24436,
    "opined": 26084,
    "##vill": 26548,
    "##cci": 14693,
    "ska": 24053,
    "nate": 8253,
    "colt": 9110,
    "switch": 6942,
    "paolo": 14174,
    "lectures": 8921,
    "una": 14477,
    "intellect": 24823,
    "gogh": 26603,
    "[unused915]": 920,
    "romanesque": 17135,
    "georges": 10870,
    "delilah": 23006,
    "uppsala": 25720,
    "australia": 2660,
    "studying": 5702,
    "tiger": 6816,
    "beast": 6841,
    "respective": 7972,
    "loaned": 13190,
    "mortal": 9801,
    "inverse": 19262,
    "paula": 13723,
    "\uff0d": 1990,
    "bolshevik": 24477,
    "\u00a8": 1074,
    "magician": 16669,
    "nagar": 16395,
    "##\u10db": 29984,
    "##iary": 17302,
    "##\u8a9e": 30476,
    "panties": 12095,
    "routledge": 21180,
    "schumacher": 22253,
    "##istle": 24242,
    "##fa": 7011,
    "kathmandu": 28045,
    "##bai": 26068,
    "births": 18250,
    "miller": 4679,
    "albans": 26311,
    "\u014b": 1106,
    "swearing": 25082,
    "palatine": 22202,
    "knuckles": 13513,
    "gene": 4962,
    "interim": 9455,
    "enhancement": 22415,
    "\u7af9": 1933,
    "[unused424]": 429,
    "##pool": 16869,
    "##mony": 22847,
    "##enna": 24397,
    "##qu": 28940,
    "tasting": 18767,
    "muscle": 6740,
    "med": 19960,
    "frightened": 10363,
    "cargo": 6636,
    "##ih": 19190,
    "tracks": 3162,
    "undisclosed": 18206,
    "call": 2655,
    "bauer": 17838,
    "survivors": 8643,
    "protecting": 8650,
    "##uary": 24384,
    "swallows": 26436,
    "zoology": 22405,
    "##\u00bf": 29666,
    "tape": 6823,
    "nearer": 20388,
    "prohibiting": 26325,
    "week": 2733,
    "craftsmen": 25736,
    "clade": 21697,
    "regulates": 26773,
    "masterpiece": 17743,
    "psychiatric": 13691,
    "dallas": 5759,
    "critique": 16218,
    "camouflage": 21356,
    "##berry": 9766,
    "exhausted": 9069,
    "[unused16]": 17,
    "##around": 24490,
    "##anna": 25789,
    "adultery": 29169,
    "tammy": 19971,
    "thirties": 26313,
    "disappeared": 5419,
    "##\u0445": 29750,
    "cy": 22330,
    "vanessa": 13226,
    "journalists": 8845,
    "kilograms": 18857,
    "setup": 16437,
    "##ayan": 25868,
    "##ente": 15781,
    "hanging": 5689,
    "##good": 24146,
    "rms": 29311,
    "formation": 4195,
    "##ste": 13473,
    "teens": 13496,
    "##gating": 16961,
    "##eno": 16515,
    "##hma": 22444,
    "masjid": 27779,
    "musical": 3315,
    "##iana": 11410,
    "1807": 13206,
    "washington": 2899,
    "downstream": 13248,
    "##\u83ef": 30468,
    "factions": 13815,
    "virgin": 6261,
    "[unused613]": 618,
    "\u3048": 1649,
    "crept": 13147,
    "[unused102]": 107,
    "multiplication": 24856,
    "rig": 19838,
    "marianne": 19887,
    "wizards": 16657,
    "patience": 11752,
    "republican": 3951,
    "[unused462]": 467,
    "##ural": 11137,
    "loaded": 8209,
    "latvia": 12429,
    "shaw": 8233,
    "lance": 9993,
    "questionable": 21068,
    "delaney": 22101,
    "##\u58eb": 30333,
    "vocational": 13099,
    "1635": 27426,
    "sofa": 10682,
    "genres": 11541,
    "##\u028e": 29701,
    "hard": 2524,
    "fernandez": 12023,
    "\u1d9c": 1511,
    "appreciation": 12284,
    "monitoring": 8822,
    "packs": 15173,
    "blanca": 27538,
    "##tension": 29048,
    "advances": 9849,
    "spiral": 12313,
    "screenings": 25437,
    "##mut": 28120,
    "##\u2021": 30062,
    "trips": 9109,
    "forbes": 10822,
    "guru": 11972,
    "future": 2925,
    "##nted": 14706,
    "bodily": 20445,
    "tango": 17609,
    "##jou": 23099,
    "protectorate": 20394,
    "variance": 23284,
    "mabel": 19486,
    "820": 26667,
    "dragoons": 28069,
    "similarity": 14402,
    "cs": 20116,
    "cardinal": 7185,
    "##15": 16068,
    "far": 2521,
    "free": 2489,
    "##ation": 3370,
    "complimented": 27175,
    "grassy": 22221,
    "jaipur": 28355,
    "flick": 17312,
    "##gat": 20697,
    "greenwich": 13861,
    "death": 2331,
    "jacob": 6213,
    "##leaf": 19213,
    "##ffled": 28579,
    "##asurable": 28329,
    "shelters": 17177,
    "across": 2408,
    "##rdes": 26371,
    "blockbuster": 27858,
    "pri": 26927,
    "shouldered": 29383,
    "meadows": 13524,
    "##wg": 27767,
    "sunny": 11559,
    "oregon": 5392,
    "governments": 6867,
    "solely": 9578,
    "mayor": 3664,
    "vance": 16672,
    "q": 1053,
    "resided": 12427,
    "wander": 17677,
    "\u10dd": 1450,
    "\u79c0": 1928,
    "rpg": 22531,
    "punishment": 7750,
    "##uter": 19901,
    "mathew": 25436,
    "satisfying": 17087,
    "commencement": 20561,
    "site": 2609,
    "karen": 8129,
    "##rchy": 29389,
    "shoes": 6007,
    "\u00a7": 1073,
    "##ern": 11795,
    "improvements": 8377,
    "hiram": 27410,
    "lowe": 14086,
    "gone": 2908,
    "##uted": 12926,
    "##vid": 17258,
    "jaya": 24120,
    "likewise": 10655,
    "arteries": 28915,
    "##dana": 25917,
    "verdi": 20580,
    "madame": 10602,
    "feral": 18993,
    "acc": 16222,
    "spanning": 13912,
    "tracked": 12808,
    "atlantic": 4448,
    "330": 14210,
    "arguing": 9177,
    "590": 25186,
    "amusing": 19142,
    "untouched": 22154,
    "##bius": 17028,
    "synthesized": 23572,
    "councils": 10784,
    "chun": 20979,
    "candle": 13541,
    "journalist": 4988,
    "crosby": 14282,
    "assault": 6101,
    "##using": 18161,
    "##mmon": 24521,
    "sighted": 19985,
    "celeste": 21113,
    "cumulative": 23260,
    "##alia": 22786,
    "##mx": 22984,
    "too": 2205,
    "callie": 20072,
    "quan": 24110,
    "cutler": 24975,
    "porte": 25927,
    "annoyance": 17466,
    "barre": 23189,
    "stucco": 27443,
    "aeronautics": 27459,
    "excused": 28512,
    "see": 2156,
    "##ulent": 27581,
    "##iff": 13355,
    "council": 2473,
    "branding": 16140,
    "dismantled": 17293,
    "analytical": 17826,
    "wasting": 18313,
    "twinkle": 29038,
    "*": 1008,
    "##\u2f65": 30160,
    "watches": 12197,
    "fly": 4875,
    "marketed": 11625,
    "ballroom": 14307,
    "yourselves": 25035,
    "##anta": 26802,
    "iowa": 5947,
    "##qing": 19784,
    "xii": 14371,
    "finest": 10418,
    "ballad": 11571,
    "revenue": 6599,
    "softer": 19013,
    "kaiser": 15676,
    "portray": 17279,
    "ounce": 19471,
    "veracruz": 23741,
    "reaper": 19559,
    "illustrates": 24899,
    "narcotics": 27290,
    "rudy": 18254,
    "defenders": 12534,
    "chord": 13924,
    "##ian": 2937,
    "lana": 16554,
    "[unused596]": 601,
    "##rana": 16737,
    "kumar": 9600,
    "divides": 20487,
    "belgrade": 10291,
    "1870": 6940,
    "##liner": 20660,
    "##kumar": 18494,
    "mat": 13523,
    "302": 22060,
    "condensed": 25011,
    "cassette": 13903,
    "trajectory": 22793,
    "tweed": 26922,
    "replies": 14054,
    "bloody": 6703,
    "whatsoever": 18971,
    "violence": 4808,
    "##\u0bae": 29925,
    "champagne": 12327,
    "dense": 9742,
    "alternately": 23554,
    "1624": 28531,
    "ignorant": 21591,
    "warden": 13745,
    "eighteenth": 12965,
    "54": 5139,
    "1894": 6539,
    "jungle": 8894,
    "corrections": 20983,
    "proliferation": 20250,
    "wealth": 7177,
    "vocabulary": 16188,
    "systematically": 23087,
    "santana": 21158,
    "accompanied": 5642,
    "fujian": 29551,
    "sable": 23492,
    "equivalence": 27841,
    "proposes": 17146,
    "steered": 23424,
    "enthusiastic": 14727,
    "[unused666]": 671,
    "caste": 14542,
    "window": 3332,
    "moisture": 14098,
    "tornadoes": 22668,
    "obtaining": 11381,
    "kenya": 7938,
    "iqbal": 28111,
    "pulsed": 24107,
    "##\u10e3": 29990,
    "explored": 10641,
    "[unused374]": 379,
    "eliza": 13234,
    "##rin": 6657,
    "staten": 24161,
    "gui": 26458,
    "hooker": 17074,
    "notably": 5546,
    "northeastern": 8763,
    "paces": 24785,
    "minnie": 26188,
    "intervening": 26623,
    "##bbed": 15499,
    "photos": 7760,
    "boxed": 27554,
    "casino": 9270,
    "ducked": 13781,
    "poll": 8554,
    "##mates": 15416,
    "julie": 7628,
    "boyle": 16694,
    "##founded": 21001,
    "inputs": 20407,
    "designs": 5617,
    "recipes": 19328,
    "[unused620]": 625,
    "debris": 11385,
    "alfonso": 13591,
    "melinda": 23721,
    "1743": 25615,
    "wheeler": 12819,
    "agitated": 21568,
    "comprises": 8681,
    "armored": 10612,
    "blessing": 13301,
    "firth": 25138,
    "donations": 11440,
    "##fus": 25608,
    "crusader": 25237,
    "preceded": 11677,
    "invest": 15697,
    "##dh": 16425,
    "##\u0576": 29778,
    "##oic": 19419,
    "kidding": 12489,
    "carrying": 4755,
    "jett": 22962,
    "freiburg": 22871,
    "quartz": 20971,
    "affirmed": 19768,
    "##sett": 21678,
    "quantitative": 20155,
    "##lind": 27164,
    "harrison": 6676,
    "ancient": 3418,
    "billing": 25640,
    "gonzaga": 26840,
    "broke": 3631,
    "infinite": 10709,
    "oil": 3514,
    "##tson": 25656,
    "antonia": 24272,
    "axel": 18586,
    "crying": 6933,
    "involvement": 6624,
    "reunited": 11653,
    "##\u0f60": 29969,
    "destroyed": 3908,
    "publications": 5523,
    "##oria": 11069,
    "place": 2173,
    "[unused859]": 864,
    "##nated": 23854,
    "decker": 20946,
    "growls": 27825,
    "stroll": 27244,
    "requiring": 9034,
    "[unused303]": 308,
    "willem": 18811,
    "##3d": 29097,
    "\u05da": 1251,
    "exposure": 7524,
    "\u20a9": 1573,
    "cramped": 22766,
    "##se": 3366,
    "arches": 13540,
    "eps": 20383,
    "seaman": 21626,
    "chorus": 7165,
    "1822": 12307,
    "impress": 17894,
    "produces": 7137,
    "fission": 27521,
    "web": 4773,
    "exist": 4839,
    "valkyrie": 26696,
    "\u043e": 1193,
    "1759": 21667,
    "owls": 22388,
    "asa": 17306,
    "dissemination": 28170,
    "traces": 10279,
    "##gon": 7446,
    "alice": 5650,
    "buddy": 8937,
    "[unused873]": 878,
    "given": 2445,
    "arcs": 29137,
    "##rit": 14778,
    "seeks": 11014,
    "excellent": 6581,
    "distributed": 5500,
    "##sions": 27466,
    "tt": 23746,
    "##ctum": 27272,
    "castro": 11794,
    "parameter": 16381,
    "bloc": 15984,
    "ingredients": 12760,
    "classify": 26268,
    "sanctuary": 8493,
    "coloring": 22276,
    "\uff1f": 1994,
    "medicinal": 20632,
    "##wind": 11101,
    "##ivist": 21997,
    "middletown": 28747,
    "##ko": 3683,
    "##naud": 26160,
    "aria": 9342,
    "1700": 16601,
    "costly": 17047,
    "##xx": 20348,
    "near": 2379,
    "starters": 29400,
    "amin": 24432,
    "marathi": 18388,
    "wife": 2564,
    "1968": 3380,
    "##dur": 24979,
    "deny": 9772,
    "ascot": 29036,
    "amphibious": 16182,
    "indy": 18214,
    "n": 1050,
    "gate": 4796,
    "[unused111]": 116,
    "stands": 4832,
    "reaches": 6561,
    "sponge": 25742,
    "elimination": 9614,
    "##\u0dba": 29940,
    "cliffs": 13333,
    "preference": 12157,
    "deception": 17575,
    "deepest": 17578,
    "##yt": 22123,
    "dynasty": 5321,
    "net": 5658,
    "dairy": 11825,
    "erotic": 14253,
    "learns": 10229,
    "jewish": 3644,
    "claiming": 6815,
    "proudly": 18067,
    "slower": 12430,
    "##une": 9816,
    "##ral": 7941,
    "montevideo": 22460,
    "longevity": 26906,
    "pitched": 8219,
    "cornwall": 10387,
    "charged": 5338,
    "markham": 26197,
    "hawthorn": 21671,
    "wills": 17234,
    "neutrality": 21083,
    "harmless": 19741,
    "endings": 21306,
    "##ful": 3993,
    "montpellier": 28153,
    "opportunity": 4495,
    "algorithm": 9896,
    "##jun": 19792,
    "hush": 20261,
    "handcuffs": 28338,
    "shakespeare": 8101,
    "##nh": 25311,
    "##net": 7159,
    "pendant": 23152,
    "225": 14993,
    "\u0915": 1315,
    "germans": 7074,
    "##iner": 26455,
    "\u062f": 1278,
    "departed": 7745,
    "prayer": 7083,
    "##uder": 29190,
    "shelby": 15294,
    "fourier": 26899,
    "fund": 4636,
    "column": 5930,
    "issue": 3277,
    "synthesis": 10752,
    "##aha": 23278,
    "change": 2689,
    "colossal": 29523,
    "growl": 13349,
    "weekdays": 19759,
    "possible": 2825,
    "kit": 8934,
    "skin": 3096,
    "separation": 8745,
    "##\u516c": 30298,
    "##dp": 18927,
    "translation": 5449,
    "martinique": 29365,
    "occasional": 8138,
    "advocated": 11886,
    "sync": 26351,
    "[unused185]": 190,
    "crambidae": 21585,
    "colored": 6910,
    "rodney": 13898,
    "which": 2029,
    "[unused764]": 769,
    "begins": 4269,
    "lighted": 26390,
    "mcdonnell": 23149,
    "##owe": 29385,
    "eugen": 29273,
    "fucked": 21746,
    "[unused667]": 672,
    "##iel": 9257,
    "##ality": 23732,
    "suggestions": 15690,
    "hart": 7530,
    "carleton": 22273,
    "\u5b50": 1816,
    "joachim": 17286,
    "rate": 3446,
    "##jured": 26949,
    "seamen": 28671,
    "negotiated": 13630,
    "##thic": 23048,
    "grandchildren": 13628,
    "perch": 21836,
    "xiv": 15939,
    "##hunter": 25629,
    "##wright": 26460,
    "##zzled": 17269,
    "packaged": 21972,
    "drum": 6943,
    "coastal": 5780,
    "##ista": 11921,
    "##\u03b5": 29723,
    "##night": 15864,
    "caroline": 7981,
    "kiev": 12100,
    "mart": 20481,
    "##nse": 12325,
    "##inia": 23309,
    "interviews": 7636,
    "sorry": 3374,
    "portrayed": 6791,
    "pathways": 16910,
    "##von": 17789,
    "retain": 9279,
    "heated": 9685,
    "narrowing": 21978,
    "pixel": 22138,
    "495": 29302,
    "azerbaijani": 18325,
    "reportedly": 7283,
    "spends": 15970,
    "dd": 20315,
    "supervisory": 26653,
    "reacher": 22970,
    "##rop": 18981,
    "acquainted": 19056,
    "tube": 7270,
    "handicapped": 26920,
    "funded": 6787,
    "\u9999": 1979,
    "misconduct": 23337,
    "reason": 3114,
    "[unused465]": 470,
    "laughing": 5870,
    "commenced": 8420,
    "umar": 27981,
    "ethernet": 26110,
    "[unused813]": 818,
    "halves": 23672,
    "##psis": 18409,
    "facilities": 4128,
    "beacon": 14400,
    "justices": 19867,
    "##bilities": 14680,
    "risen": 13763,
    "saxe": 24937,
    "275": 17528,
    "overseas": 6931,
    "##ed": 2098,
    "##writer": 15994,
    "[unused960]": 965,
    "pyramid": 11918,
    "comments": 7928,
    "titan": 16537,
    "frequency": 6075,
    "players": 2867,
    "\u0679": 1301,
    "##borough": 10235,
    "merry": 12831,
    "cai": 29080,
    "##ill": 8591,
    "crested": 25413,
    "third": 2353,
    "damaged": 5591,
    "void": 11675,
    "microwave": 18302,
    "##gil": 20142,
    "racism": 14398,
    "parisian": 24262,
    "formed": 2719,
    "unix": 19998,
    "pu": 16405,
    "alphabet": 12440,
    "##zaki": 18637,
    "##ntine": 26730,
    "##bbies": 27982,
    "wylie": 29152,
    "recoil": 27429,
    "scares": 29421,
    "##sar": 10286,
    "jade": 12323,
    "primal": 22289,
    "declines": 26451,
    "truman": 15237,
    "cerebral": 18439,
    "havre": 28890,
    "powerplant": 19526,
    "maverick": 27187,
    "chip": 9090,
    "determining": 12515,
    "##star": 14117,
    "poets": 9736,
    "dex": 20647,
    "1792": 13414,
    "##isman": 20257,
    "sneaking": 20727,
    "les": 4649,
    "rubbed": 7503,
    "contributing": 8020,
    "della": 8611,
    "panther": 15133,
    "musician": 5455,
    "##sity": 17759,
    "romantic": 6298,
    "emotion": 7603,
    "##turn": 22299,
    "jing": 21536,
    "technicians": 20202,
    "trusts": 20278,
    "areas": 2752,
    "wang": 7418,
    "rebirth": 22785,
    "##udeau": 27627,
    "\u5dde": 1836,
    "pearson": 12874,
    "##42": 20958,
    "chuckles": 26088,
    "cartoons": 13941,
    "routines": 23964,
    "##leen": 24129,
    "##zano": 24147,
    "mecklenburg": 22007,
    "coli": 27441,
    "[unused346]": 351,
    "syndicate": 16229,
    "maclean": 22528,
    "harvey": 7702,
    "##\u0906": 29848,
    "godfrey": 18238,
    "disputed": 11621,
    "##ham": 3511,
    "vacation": 10885,
    "interact": 11835,
    "machines": 6681,
    "timing": 10984,
    "paperwork": 17397,
    "pictorial": 28304,
    "jaime": 14519,
    "##\u6c0f": 30417,
    "adrenaline": 14963,
    "ethiopia": 11154,
    "vhs": 17550,
    "enactment": 26465,
    "includes": 2950,
    "bobbie": 27731,
    "middleton": 17756,
    "rudd": 25298,
    "madam": 21658,
    "covenant": 16077,
    "1620": 24259,
    "##fulness": 20938,
    "pulpit": 23134,
    "hounds": 27772,
    "fourteenth": 15276,
    "analytics": 25095,
    "cone": 13171,
    "colonists": 15526,
    "rigged": 25216,
    "##86": 20842,
    "##\u30d2": 30245,
    "delegate": 11849,
    "\u02b7": 1143,
    "glendale": 27649,
    "\u02e1": 1151,
    "##hit": 16584,
    "amalgamated": 17143,
    "explanations": 17959,
    "hurts": 13403,
    "\u0565": 1223,
    "lace": 12922,
    "##zam": 20722,
    "berth": 17064,
    "clerk": 7805,
    "rent": 9278,
    "faults": 19399,
    "troy": 9553,
    "closed": 2701,
    "consolidation": 17439,
    "[SEP]": 102,
    "overshadowed": 28604,
    "city": 2103,
    "[unused746]": 751,
    "fingertips": 12206,
    "werner": 14121,
    "saunders": 15247,
    "##rates": 20370,
    "\uff1a": 1993,
    "symmetric": 19490,
    "fleeing": 14070,
    "rhetoric": 17871,
    "[unused688]": 693,
    "##ulin": 18639,
    "hs": 26236,
    "oxidation": 19577,
    "substitutes": 29200,
    "\u0647": 1297,
    "manor": 6952,
    "##odes": 19847,
    "indefinite": 25617,
    "##rud": 28121,
    "##ological": 10091,
    "\u03b2": 1156,
    "assumptions": 17568,
    "[unused988]": 993,
    "altitude": 7998,
    "indirect": 14958,
    "##\u2084": 17004,
    "fremantle": 20358,
    "\u043b": 1190,
    "yerevan": 23383,
    "hazy": 26710,
    "invitations": 29492,
    "##logist": 10727,
    "##ych": 17994,
    "##nets": 22781,
    "disperse": 28736,
    "headlights": 18167,
    "catherine": 6615,
    "[unused963]": 968,
    "colin": 6972,
    "gesturing": 22317,
    "##\u00b3": 18107,
    "##\u5cf6": 30359,
    "##jad": 27875,
    "##\u529b": 30304,
    "mer": 21442,
    "oppose": 15391,
    ".": 1012,
    "##nu": 11231,
    "descend": 18855,
    "##sf": 22747,
    "onto": 3031,
    "ufo": 24321,
    "##\u6cb3": 30425,
    "noises": 14950,
    "headquarters": 4075,
    "mathematical": 8045,
    "buys": 23311,
    "towns": 4865,
    "anatomy": 13336,
    "ordering": 13063,
    "erika": 24900,
    "further": 2582,
    "candles": 14006,
    "##wark": 24298,
    "preface": 18443,
    "boxers": 18508,
    "##lr": 20974,
    "cree": 27831,
    "1967": 3476,
    "crabs": 26076,
    "1873": 7612,
    "##\u09a6": 29900,
    "thorns": 28408,
    "monmouth": 20433,
    "baronet": 8693,
    "finally": 2633,
    "##igen": 29206,
    "claims": 4447,
    "##ht": 11039,
    "exhaled": 16242,
    "courtesy": 14571,
    "michaels": 17784,
    "mundo": 25989,
    "researchers": 6950,
    "##bus": 8286,
    "oven": 17428,
    "ultimatum": 29227,
    "recipient": 7799,
    "rob": 6487,
    "##usion": 14499,
    "racehorse": 25068,
    "calgary": 10112,
    "##\u0564": 29769,
    "\u2091": 1561,
    "20th": 3983,
    "eleventh": 11911,
    "\u110a": 1462,
    "disaster": 7071,
    "scotland": 3885,
    "##line": 4179,
    "gym": 9726,
    "projected": 11310,
    "triangular": 14023,
    "circulating": 22458,
    "seduce": 23199,
    "nearby": 3518,
    "tend": 7166,
    "trieste": 25199,
    "strategies": 9942,
    "animals": 4176,
    "[unused363]": 368,
    "leicester": 11258,
    "entertainer": 21751,
    "outright": 13848,
    "clinic": 9349,
    "centro": 18120,
    "2013": 2286,
    "##led": 3709,
    "[unused336]": 341,
    "depend": 12530,
    "repeated": 5567,
    "##cturing": 19159,
    "1768": 19793,
    "chao": 22455,
    "ua": 25423,
    "##\u9ad8": 30507,
    "##bler": 16213,
    "##wyl": 27740,
    "maker": 9338,
    "junta": 22450,
    "improvisation": 24584,
    "columns": 7753,
    "clipped": 20144,
    "producer": 3135,
    "confesses": 22826,
    "law": 2375,
    "electrified": 18042,
    "francesco": 11400,
    "ra": 10958,
    "521": 26963,
    "##\u1da0": 30047,
    "marion": 10115,
    "[unused178]": 183,
    "invaded": 10836,
    "negotiate": 13676,
    "showing": 4760,
    "bow": 6812,
    "\u211d": 1579,
    "2001": 2541,
    "operational": 6515,
    "beatty": 27305,
    "football": 2374,
    "scenario": 11967,
    "senators": 10153,
    "pitching": 14696,
    "rejects": 19164,
    "retaining": 12823,
    "bart": 12075,
    "ds": 16233,
    "rein": 27788,
    "dyed": 28432,
    "##nami": 28987,
    "martian": 20795,
    "hose": 21290,
    "\u026a": 1119,
    "driving": 4439,
    "obesity": 24552,
    "hydraulic": 14761,
    "qi": 18816,
    "rome": 4199,
    "\u798f": 1926,
    "par": 11968,
    "alignment": 12139,
    "crude": 13587,
    "##wald": 11191,
    "darker": 9904,
    "pawn": 19175,
    "liable": 20090,
    "karel": 28021,
    "screened": 12238,
    "citizen": 6926,
    "contrast": 5688,
    "goddamn": 16477,
    "suicide": 5920,
    "##\u05be": 29787,
    "##cape": 19464,
    "universities": 5534,
    "keller": 16155,
    "catcher": 13795,
    "blaming": 24114,
    "harden": 28751,
    "soy": 25176,
    "befriended": 23386,
    "##uber": 21436,
    "##uer": 13094,
    "redhead": 26705,
    "\u767d": 1915,
    "elk": 18995,
    "##kney": 26993,
    "widow": 7794,
    "inch": 4960,
    "messy": 18307,
    "fake": 8275,
    "larvae": 9673,
    "horseback": 19926,
    "truth": 3606,
    "circuit": 4984,
    "##tial": 20925,
    "uncles": 27328,
    "jc": 29175,
    "sir": 2909,
    "##ington": 7853,
    "homemade": 25628,
    "\\": 1032,
    "marry": 5914,
    "cardiff": 10149,
    "gradually": 6360,
    "management": 2968,
    "bugs": 12883,
    "tripped": 21129,
    "##\u0569": 29771,
    "240": 11212,
    "gifford": 29360,
    "##jack": 17364,
    "robbins": 18091,
    "sellers": 19041,
    "unacceptable": 21873,
    "robb": 26211,
    "taunting": 29442,
    "older": 3080,
    "fractures": 28929,
    "cambrian": 29228,
    "cats": 8870,
    "[unused498]": 503,
    "district": 2212,
    "cooperative": 10791,
    "visibly": 19397,
    "commemorates": 25530,
    "dissatisfaction": 28237,
    "module": 11336,
    "##tly": 14626,
    "retreating": 17512,
    "exits": 16639,
    "incapable": 19907,
    "\u0637": 1286,
    "##orn": 9691,
    "matrices": 21520,
    "\u6c38": 1896,
    "stops": 6762,
    "gaelic": 11196,
    "\u99ac": 1980,
    "changes": 3431,
    "rumor": 19075,
    "quiet": 4251,
    "[unused293]": 298,
    "##ding": 4667,
    "amateur": 5515,
    "men": 2273,
    "sabotage": 20223,
    "slapping": 22021,
    "heterosexual": 28229,
    "blowing": 11221,
    "sphere": 10336,
    "wine": 4511,
    "kirby": 15129,
    "cholera": 25916,
    "prehistoric": 14491,
    "davenport": 16273,
    "caves": 10614,
    "\u5c0f": 1829,
    "##ade": 9648,
    "rick": 6174,
    "ecstasy": 19069,
    "[unused142]": 147,
    "385": 24429,
    "##bey": 19182,
    "##kker": 23793,
    "woodlands": 19268,
    "engineers": 6145,
    "\u5c1a": 1830,
    "minded": 13128,
    "prepared": 4810,
    "understanding": 4824,
    "migratory": 22262,
    "yourself": 4426,
    "refinery": 21034,
    "##away": 9497,
    "\u05e5": 1262,
    "voting": 6830,
    "antagonist": 17379,
    "dashed": 18198,
    "yanked": 10963,
    "explain": 4863,
    "poke": 26202,
    "flirt": 27978,
    "##qi": 14702,
    "corn": 9781,
    "beautiful": 3376,
    "wandering": 13071,
    "##\u0938": 29874,
    "##verted": 26686,
    "ve": 2310,
    "stacy": 18566,
    "petite": 20146,
    "failures": 15428,
    "\u304a": 1650,
    "##leton": 19263,
    "sheen": 20682,
    "[unused725]": 730,
    "\u2016": 1519,
    "clarissa": 25260,
    "musik": 28076,
    "##\u0637": 29828,
    "ear": 4540,
    "countries": 3032,
    "ama": 25933,
    "##aint": 22325,
    "payload": 18093,
    "revolutionaries": 24517,
    "bleak": 21657,
    "shuffling": 24770,
    "decay": 13121,
    "foxes": 24623,
    "random": 6721,
    "maid": 10850,
    "ramsey": 15092,
    "solicitor": 15468,
    "negatively": 19762,
    "replica": 15059,
    "escaping": 13002,
    "##ifolia": 29244,
    "brady": 10184,
    "rams": 13456,
    "accompany": 12673,
    "demonstrating": 14313,
    "dinosaurs": 18148,
    "probation": 19703,
    "##bee": 11306,
    "##logic": 27179,
    "growth": 3930,
    "[unused532]": 537,
    "blazing": 17162,
    "stu": 24646,
    "humane": 23369,
    "audiences": 9501,
    "adamant": 29502,
    "youthful": 22446,
    "middleweight": 18741,
    "admissions": 20247,
    "cheerleading": 25721,
    "hasty": 27151,
    "detailed": 6851,
    "woven": 17374,
    "disabilities": 13597,
    "##\u060c": 29814,
    "##turing": 16037,
    "##hrer": 17875,
    "nguyen": 16577,
    "ao": 20118,
    "disappearing": 14489,
    "sole": 7082,
    "basis": 3978,
    "##hia": 12995,
    "sheep": 8351,
    "sparsely": 24961,
    "##valent": 24879,
    "target": 4539,
    "reactions": 9597,
    "jealous": 9981,
    "\u6c11": 1892,
    "[unused175]": 180,
    "kerry": 11260,
    "flemish": 15427,
    "doubted": 12979,
    "rq": 28134,
    "mines": 7134,
    "ellington": 21630,
    "[unused914]": 919,
    "\u0e07": 1410,
    "officials": 4584,
    "professors": 12655,
    "agree": 5993,
    "outer": 6058,
    "moor": 16808,
    "##rling": 22036,
    "rust": 18399,
    "expressive": 22570,
    "lcd": 27662,
    "##mbs": 29232,
    "mutually": 20271,
    "##kh": 10023,
    "##ats": 11149,
    "mathematician": 13235,
    "##\u98a8": 30503,
    "norris": 15466,
    "stepfather": 21481,
    "agreements": 10540,
    "sail": 9498,
    "fines": 21892,
    "laura": 6874,
    "medallist": 28595,
    "##heater": 27847,
    "##gra": 17643,
    "owed": 12232,
    "envisioned": 18035,
    "##ch": 2818,
    "upstate": 29530,
    "[unused405]": 410,
    "qualifying": 6042,
    "ideology": 13165,
    "succeeding": 13034,
    "##pped": 11469,
    "[unused895]": 900,
    "unsigned": 27121,
    "[unused304]": 309,
    "cleveland": 6044,
    "activity": 4023,
    "melody": 8531,
    "variations": 8358,
    "comparisons": 18539,
    "breakers": 24742,
    "cleavage": 28691,
    "##dt": 11927,
    "##18": 15136,
    "pauline": 15595,
    "synagogue": 13067,
    "brunswick": 9192,
    "[unused122]": 127,
    "deliberately": 9969,
    "aisle": 12485,
    "architect": 4944,
    "nineteenth": 9137,
    "grading": 26886,
    "intentions": 11174,
    "kaplan": 22990,
    "acre": 7456,
    "earned": 3687,
    "crisis": 5325,
    "shouts": 15701,
    "##bird": 9001,
    "adapt": 15581,
    "criticisms": 19628,
    "fate": 6580,
    "##oration": 21223,
    "hatred": 11150,
    "crouch": 21676,
    "freighter": 27945,
    "flavour": 28126,
    "cones": 23825,
    "##dance": 25514,
    "##inates": 28184,
    "witness": 7409,
    "##iae": 19001,
    "repeat": 9377,
    "squared": 19942,
    "incredible": 9788,
    "mixtape": 18713,
    "birthplace": 14508,
    "##evic": 17726,
    "million": 2454,
    "##tle": 9286,
    "lia": 22393,
    "nitrate": 29607,
    "monarch": 11590,
    "##ajan": 28869,
    "##*": 29621,
    "figuring": 23218,
    "successful": 3144,
    "##ria": 4360,
    "vault": 11632,
    "seattle": 5862,
    "\u1d35": 1493,
    "pueblo": 18273,
    "go": 2175,
    "loses": 12386,
    "[unused918]": 923,
    "salzburg": 18369,
    "modify": 19933,
    "nicaragua": 15448,
    "prologue": 18877,
    "570": 24902,
    "pine": 7222,
    "##orno": 26295,
    "pg": 18720,
    "\u05ea": 1267,
    "plug": 13354,
    "remembering": 10397,
    "interspersed": 25338,
    "steer": 20634,
    "improving": 9229,
    "prosecutor": 12478,
    "flatly": 24295,
    "implemented": 7528,
    "graz": 26918,
    "jaguars": 24017,
    "suspicious": 10027,
    "\u2297": 1613,
    "transplant": 22291,
    "components": 6177,
    "denomination": 18683,
    "reflective": 21346,
    "expo": 16258,
    "southampton": 11833,
    "tens": 15295,
    "##lmer": 23398,
    "quit": 8046,
    "steak": 21475,
    "sao": 7509,
    "ransom": 16540,
    "mitchell": 6395,
    "168": 16923,
    "##\u03c3": 29733,
    "\ufb01": 1984,
    "advance": 5083,
    "guarding": 17019,
    "islamabad": 26905,
    "##\u9234": 30491,
    "eels": 29317,
    "flock": 19311,
    "wolfe": 14212,
    "now": 2085,
    "##koff": 26126,
    "pereira": 23857,
    "##mament": 28119,
    "leger": 26523,
    "##\u2089": 30085,
    "follow": 3582,
    "trip": 4440,
    "decisions": 6567,
    "awareness": 7073,
    "unopposed": 17123,
    "[unused614]": 619,
    "##ible": 7028,
    "[unused636]": 641,
    "extremely": 5186,
    "1907": 5528,
    "##lev": 20414,
    "viewpoint": 21386,
    "##cco": 21408,
    "##lellan": 25839,
    "abbas": 17532,
    "madhya": 20841,
    "##pet": 22327,
    "drafts": 28967,
    "gundam": 26152,
    "34th": 20460,
    "afraid": 4452,
    "granted": 4379,
    "beans": 13435,
    "mavericks": 28330,
    "devote": 23313,
    "cameron": 7232,
    "\u30c1": 1710,
    "400": 4278,
    "[unused975]": 980,
    "124": 13412,
    "##im": 5714,
    "upward": 10745,
    "spot": 3962,
    "thy": 15177,
    "scanned": 11728,
    "##iu": 17922,
    "mall": 6670,
    "bowing": 26690,
    "malmo": 23643,
    "belfast": 10330,
    "typical": 5171,
    "##\u1175": 30019,
    "##osing": 18606,
    "alpine": 10348,
    "dail": 26181,
    "archbishop": 6507,
    "saxon": 10038,
    "caitlin": 27555,
    "spectacle": 21177,
    "412": 25873,
    "dubious": 22917,
    "##tic": 4588,
    "barrister": 19805,
    "profitable": 15282,
    "paving": 28007,
    "\u2010": 1513,
    "fuller": 12548,
    "korean": 4759,
    "[unused370]": 375,
    "rotterdam": 15632,
    "ravi": 16806,
    "inspected": 20456,
    "siena": 23754,
    "scholastic": 24105,
    "##ate": 3686,
    "hire": 10887,
    "kidnapping": 15071,
    "examines": 20798,
    "##\u661f": 30392,
    "tiled": 26510,
    "creole": 21414,
    "intimidation": 28973,
    "hydrogen": 9732,
    "decreed": 28447,
    "shave": 27545,
    "scholarly": 12683,
    "projectile": 25921,
    "likelihood": 16593,
    "swallow": 10577,
    "blinking": 15997,
    "inactive": 16389,
    "byzantine": 8734,
    "cindy": 15837,
    "##uno": 27819,
    "dam": 5477,
    "feared": 8615,
    "##gman": 25494,
    "among": 2426,
    "immigrant": 11560,
    "warriors": 6424,
    "irene": 12855,
    "mcdowell": 25005,
    "conway": 14783,
    "##90": 21057,
    "##\u5bbf": 30352,
    "sudbury": 26487,
    "pizza": 10733,
    "##la": 2721,
    "fatigue": 16342,
    "maui": 28566,
    "expanded": 4423,
    "sunni": 18883,
    "##\u771f": 30447,
    "##nburg": 22642,
    "jackson": 4027,
    "prosecution": 11537,
    "##pg": 26952,
    "unification": 16905,
    "introduced": 3107,
    "unable": 4039,
    "boundary": 6192,
    "##pire": 20781,
    "\u0436": 1186,
    "horizontally": 23190,
    "reflex": 22259,
    "dan": 4907,
    "shaking": 5513,
    "##xious": 25171,
    "\uff09": 1988,
    "##outh": 17167,
    "contrasted": 22085,
    "##\u660e": 30391,
    "fans": 4599,
    "##\u82b1": 30466,
    "ram": 8223,
    "friars": 24037,
    "1801": 12410,
    "plotted": 27347,
    "errors": 10697,
    "regina": 12512,
    "##mina": 22311,
    "salts": 23480,
    "reliefs": 27670,
    "cameras": 8629,
    "definitive": 15764,
    "manifesto": 17124,
    "##gl": 23296,
    "juveniles": 25406,
    "algiers": 22947,
    "cosmos": 21182,
    "##pi": 8197,
    "[unused337]": 342,
    "\u529b": 1778,
    "ha": 5292,
    "shapes": 10466,
    "##scopic": 24895,
    "technology": 2974,
    "dickinson": 17590,
    "sheet": 7123,
    "##bound": 15494,
    "brought": 2716,
    "nwa": 15737,
    "##pop": 16340,
    "xi": 8418,
    "##shot": 19040,
    "stretch": 7683,
    "1825": 11384,
    "dominance": 13811,
    "input": 7953,
    "aw": 22091,
    "rather": 2738,
    "celebrities": 12330,
    "##plex": 19386,
    "lastly": 22267,
    "[unused662]": 667,
    "##icle": 25128,
    "atrium": 26204,
    "plastic": 6081,
    "monte": 10125,
    "om": 18168,
    "clan": 6338,
    "fields": 4249,
    "afrikaans": 28673,
    "favorite": 5440,
    "playoff": 7808,
    "cavalry": 5945,
    "##sie": 11741,
    "purity": 18433,
    "winfield": 24739,
    "##kari": 20224,
    "[unused65]": 66,
    "indifference": 25920,
    "upset": 6314,
    "mock": 12934,
    "instructors": 19922,
    "parting": 20254,
    "ashby": 28729,
    "ancestors": 10748,
    "premiered": 5885,
    "scales": 9539,
    "mornings": 16956,
    "longed": 23349,
    "147": 16471,
    "tae": 22297,
    "##talk": 28014,
    "impairment": 25172,
    "championship": 2528,
    "losers": 23160,
    "##made": 21565,
    "supports": 6753,
    "altering": 22552,
    "mandela": 26887,
    "lunar": 11926,
    "##ws": 9333,
    "suspicion": 10928,
    "frantically": 16460,
    "history": 2381,
    "butcher": 14998,
    "solomon": 9168,
    "pumpkin": 25730,
    "indonesian": 9003,
    "marquess": 17391,
    "kb": 21677,
    "sired": 26940,
    "harmonic": 19452,
    "fundamentally": 24670,
    "specimens": 9908,
    "gould": 14913,
    "propelled": 15801,
    "reggie": 17963,
    "villages": 4731,
    "dare": 8108,
    "raion": 24235,
    "stood": 2768,
    "virus": 7865,
    "righteous": 19556,
    "[unused529]": 534,
    "\u3084": 1682,
    "nana": 17810,
    "cattle": 7125,
    "haunt": 24542,
    "der": 4315,
    "exhibited": 8176,
    "baking": 21522,
    "nantes": 25387,
    "guides": 12468,
    "shoot": 5607,
    "\u6c34": 1893,
    "##\u4e0d": 30270,
    "sizes": 10826,
    "deserves": 17210,
    "achievement": 6344,
    "##kushima": 24917,
    "roasted": 28115,
    "dwarfs": 28984,
    "##ben": 10609,
    "medalist": 12968,
    "serpent": 16517,
    "cornerback": 26857,
    "tall": 4206,
    "##eum": 14820,
    "bicycles": 21066,
    "glazed": 19724,
    "powell": 8997,
    "sienna": 20210,
    "dwarves": 29281,
    "cursed": 10678,
    "translator": 11403,
    "gentle": 7132,
    "alberto": 12007,
    "[unused947]": 952,
    "naturally": 8100,
    "##hwa": 18663,
    "boilers": 20412,
    "fair": 4189,
    "##\u2116": 30106,
    "patty": 17798,
    "tiberius": 28411,
    "##rge": 20800,
    "pentagon": 20864,
    "rookie": 8305,
    "necks": 26082,
    "consistent": 8335,
    "hysteria": 29004,
    "parks": 6328,
    "backgrounds": 15406,
    "fife": 20537,
    "[unused279]": 284,
    "gland": 25320,
    "liang": 16982,
    "laboratories": 12030,
    "501": 16202,
    "##ection": 18491,
    "commentators": 15957,
    "##lla": 4571,
    "roared": 14242,
    "linux": 11603,
    "##eri": 11124,
    "[unused165]": 170,
    "sideways": 12579,
    "intercontinental": 18725,
    "b1": 29491,
    "sails": 17553,
    "##\u2076": 30075,
    "cassandra": 15609,
    "says": 2758,
    "##ten": 6528,
    "[unused426]": 431,
    "cupped": 13740,
    "respond": 6869,
    "##tag": 15900,
    "##hre": 28362,
    "pete": 6969,
    "unofficial": 11982,
    "berries": 22681,
    "1550": 26245,
    "exhibition": 4538,
    "villa": 6992,
    "impose": 17607,
    "asbestos": 29191,
    "byrne": 14928,
    "revelation": 11449,
    "##ams": 13596,
    "\u026f": 1122,
    "warmth": 8251,
    "tops": 13284,
    "##gpur": 25758,
    "ponds": 16879,
    "attache": 29489,
    "maccabi": 24055,
    "destroyer": 9799,
    "achilles": 23167,
    "##haya": 26115,
    "loyalty": 9721,
    "marin": 16400,
    "[unused329]": 334,
    "pit": 6770,
    "stiffly": 27499,
    "1928": 4662,
    "bosch": 25936,
    "hp": 6522,
    "##bh": 23706,
    "disqualification": 27782,
    "inauguration": 17331,
    "540": 20263,
    "jimenez": 22790,
    "\u0928": 1327,
    "golf": 5439,
    "songwriting": 14029,
    "##\u308a": 30212,
    "##por": 17822,
    "##\u6587": 30387,
    "##tique": 28437,
    "morgan": 5253,
    "opposition": 4559,
    "##\u00a2": 29645,
    "percussion": 6333,
    "ellis": 8547,
    "gabon": 23129,
    "boer": 19945,
    "1b": 26314,
    "uniforms": 11408,
    "spirit": 4382,
    "stems": 12402,
    "chattanooga": 23351,
    "##taka": 28412,
    "doctrine": 8998,
    "seriously": 5667,
    "##\u05d1": 29789,
    "claimed": 3555,
    "kata": 29354,
    "anchor": 8133,
    "daze": 28918,
    "boyd": 12164,
    "##ib": 12322,
    "barton": 12975,
    "lucivar": 21401,
    "planned": 3740,
    "moscow": 4924,
    "jonah": 15617,
    "##isch": 19946,
    "nasser": 26099,
    "tech": 6627,
    "##xia": 14787,
    "legislator": 22964,
    "willoughby": 24919,
    "summons": 24814,
    "lehman": 28444,
    "emma": 5616,
    "undone": 25757,
    "betray": 20895,
    "symptoms": 8030,
    "caesar": 11604,
    "notification": 26828,
    "emmett": 25685,
    "maru": 26280,
    "somerset": 9198,
    "hushed": 24033,
    "##\u5fe0": 30378,
    "touching": 7244,
    "horizon": 9154,
    "transforms": 21743,
    "##drich": 23335,
    "favour": 7927,
    "admiralty": 14179,
    "sep": 19802,
    "henri": 8863,
    "pursue": 7323,
    "##lke": 28143,
    "poem": 5961,
    "whoa": 23281,
    "tierney": 26198,
    "storey": 11676,
    "##ril": 15928,
    "low": 2659,
    "creek": 3636,
    "seine": 16470,
    "metaphor": 19240,
    "centered": 8857,
    "francs": 24313,
    "susquehanna": 26361,
    "notice": 5060,
    "##rna": 12789,
    "priest": 5011,
    "rival": 6538,
    "commemorate": 13415,
    "42nd": 21373,
    "##\u793a": 30449,
    "##kshi": 27488,
    "##vna": 29207,
    "sheridan": 13243,
    "certainty": 15855,
    "deutschland": 28668,
    "ambrose": 15675,
    "bounded": 10351,
    "##enham": 23580,
    "cassie": 8869,
    "##bbling": 15343,
    "##ignon": 24796,
    "[unused120]": 125,
    "##rland": 18324,
    "stumble": 21811,
    "habit": 10427,
    "##berto": 21201,
    "nodded": 3368,
    "uss": 7234,
    "tipping": 25486,
    "hovering": 16349,
    "seaside": 20276,
    "quasi": 17982,
    "fourteen": 7426,
    "narrows": 25142,
    "slang": 21435,
    "powered": 6113,
    "obtained": 4663,
    "##\u2297": 30140,
    "restricted": 7775,
    "##mmy": 18879,
    "##17": 16576,
    "subset": 16745,
    "\u0575": 1230,
    "two": 2048,
    "rescued": 10148,
    "savings": 10995,
    "lingered": 17645,
    "stainless": 18676,
    "authorization": 20104,
    "##nary": 24041,
    "volga": 26459,
    "designers": 11216,
    "beale": 28371,
    "amp": 23713,
    "[unused310]": 315,
    "##edging": 28002,
    "##app": 29098,
    "##ales": 23266,
    "##tze": 23102,
    "solidarity": 14657,
    "teach": 6570,
    "inducted": 8120,
    "predecessors": 16372,
    "seeking": 6224,
    "##ert": 8743,
    "hop": 6154,
    "demos": 18267,
    "galilee": 28928,
    "[unused254]": 259,
    "contain": 5383,
    "##weather": 28949,
    "oscar": 7436,
    "bergen": 12674,
    "pointer": 20884,
    "hasan": 17000,
    "\u65e5": 1864,
    "batted": 12822,
    "spur": 12996,
    "esther": 14631,
    "breathless": 16701,
    "ferns": 25715,
    "##\u2295": 30139,
    "##tila": 26065,
    "isla": 25340,
    "##\u304a": 30176,
    "adams": 5922,
    "potsdam": 26554,
    "places": 3182,
    "assembled": 9240,
    "telephone": 7026,
    "yunnan": 21607,
    "abolitionist": 29554,
    "royce": 14789,
    "baghdad": 13952,
    "normally": 5373,
    "##46": 21472,
    "##sworth": 12255,
    "heartland": 27399,
    "interesting": 5875,
    "unanimous": 13604,
    "##\u05e6": 29809,
    "[unused412]": 417,
    "vest": 17447,
    "seneca": 21224,
    "pandit": 29331,
    "measurement": 10903,
    "bonds": 9547,
    "[unused939]": 944,
    "cosmetics": 25381,
    "downloadable": 26720,
    "mountainous": 14897,
    "density": 4304,
    "conspicuous": 19194,
    "##\u0925": 29860,
    "##umber": 29440,
    "\u05e2": 1259,
    "squares": 14320,
    "saharan": 24505,
    "##orescence": 20030,
    "##\u09b9": 29913,
    "screenwriter": 11167,
    "##\u0578": 29779,
    "\u3072": 1673,
    "animated": 6579,
    "##hema": 28433,
    "tactic": 19717,
    "##nica": 12782,
    "dolly": 19958,
    "640": 19714,
    "criticism": 6256,
    "##mussen": 29134,
    "##ets": 8454,
    "##ocks": 25384,
    "\u0111": 1102,
    "editing": 9260,
    "pere": 23976,
    "770": 29065,
    "sure": 2469,
    "secondly": 16378,
    "duc": 26363,
    "##ulo": 18845,
    "##rial": 14482,
    "dorothea": 24052,
    "##kali": 28613,
    "##kulam": 28871,
    "protagonists": 21989,
    "gust": 26903,
    "grady": 19011,
    "##\u00a9": 29652,
    "authority": 3691,
    "adding": 5815,
    "\u0280": 1127,
    "lasts": 16180,
    "pulse": 8187,
    "sergio": 13983,
    "channels": 6833,
    "##leigh": 13615,
    "robotics": 21331,
    "serials": 28172,
    "##lid": 21273,
    "consuming": 15077,
    "##cite": 17847,
    "smelling": 19773,
    "##suka": 26544,
    "implicated": 20467,
    "firearms": 13780,
    "clothes": 4253,
    "walker": 5232,
    "famed": 15607,
    "medallion": 22541,
    "climbs": 18881,
    "foraging": 26912,
    "discuss": 6848,
    "inexpensive": 23766,
    "opposing": 10078,
    "##ence": 10127,
    "[unused781]": 786,
    "sunken": 23470,
    "milton": 9660,
    "had": 2018,
    "##\u043e": 14150,
    "brand": 4435,
    "southport": 27494,
    "mandated": 16714,
    "censorship": 15657,
    "song": 2299,
    "parasitic": 26045,
    "ramon": 12716,
    "##pants": 27578,
    "founder": 3910,
    "thornton": 14630,
    "sticky": 15875,
    "##owing": 14138,
    "##typical": 27086,
    "[unused163]": 168,
    "serbian": 6514,
    "organise": 22933,
    "tributary": 8914,
    "client": 7396,
    "baskets": 25946,
    "##wes": 18192,
    "chatting": 22331,
    "carry": 4287,
    "heaved": 19970,
    "revolutionary": 6208,
    "armed": 4273,
    "strewn": 25259,
    "harder": 6211,
    "##iso": 19565,
    "vida": 19830,
    "scores": 7644,
    "counterparts": 14562,
    "sim": 21934,
    "participant": 13180,
    "erich": 17513,
    "alley": 8975,
    "convinces": 19480,
    "portraying": 17274,
    "coordinating": 19795,
    "advise": 18012,
    "212": 18164,
    "brazil": 4380,
    "hopes": 8069,
    "\u0997": 1355,
    "link": 4957,
    "disabled": 9776,
    "pitt": 15091,
    "violet": 8766,
    "\u00b1": 1081,
    "barcelona": 7623,
    "majors": 15279,
    "describe": 6235,
    "hungarians": 24027,
    "pivotal": 20369,
    "##ory": 10253,
    "##esa": 22447,
    "flush": 13862,
    "settled": 3876,
    "item": 8875,
    "crumpled": 19814,
    "paler": 24489,
    "avoid": 4468,
    "invariant": 23915,
    "jacobs": 12988,
    "cathy": 18305,
    "plaque": 11952,
    "profiles": 17879,
    "##ulously": 21227,
    "statesman": 17689,
    "denton": 23906,
    "rusty": 13174,
    "bangalore": 14022,
    "fluent": 19376,
    "foil": 17910,
    "[unused798]": 803,
    "knox": 11994,
    "plateau": 9814,
    "[unused354]": 359,
    "189": 20500,
    "lecturer": 9162,
    "cleric": 29307,
    "german": 2446,
    "##vn": 16022,
    "##\u3053": 30181,
    "mistress": 10414,
    "thumping": 25996,
    "##osa": 8820,
    "1958": 3845,
    "\u6cbb": 1900,
    "suspects": 13172,
    "modernization": 20181,
    "headache": 14978,
    "irwin": 17514,
    "examined": 8920,
    "pmid": 20117,
    "1728": 26833,
    "gnome": 25781,
    "potomac": 18854,
    "tread": 29449,
    "##\u65b0": 30388,
    "##r": 2099,
    "sanjay": 29590,
    "misunderstanding": 24216,
    "lyrics": 4581,
    "##out": 5833,
    "fe": 10768,
    "indicators": 20390,
    "magnetic": 8060,
    "utilization": 27891,
    "[unused248]": 253,
    "superior": 6020,
    "lilith": 25576,
    "salvage": 18340,
    "contingent": 15445,
    "workings": 24884,
    "renovations": 15576,
    "fanny": 17813,
    "450": 10332,
    "cultural": 3451,
    "resentment": 20234,
    "etc": 4385,
    "1835": 10150,
    "havilland": 23994,
    "pregnant": 6875,
    "wong": 11789,
    "63": 6191,
    "corporal": 14265,
    "empathy": 26452,
    "[unused321]": 326,
    "topped": 9370,
    "tribunal": 12152,
    "renamed": 4096,
    "spa": 12403,
    "mirage": 21483,
    "lombard": 23441,
    "obeyed": 22665,
    "anthologies": 25675,
    "wildlife": 6870,
    "ca": 6187,
    "\u306a": 1667,
    "grain": 8982,
    "brute": 26128,
    "##\u0254": 29679,
    "tipped": 11182,
    "\u2206": 1594,
    "intensity": 8015,
    "lending": 18435,
    "principal": 4054,
    "facebook": 9130,
    "stiff": 10551,
    "mere": 8210,
    "assisting": 13951,
    "##rator": 16259,
    "##ground": 16365,
    "344": 29386,
    "evaluated": 16330,
    "finite": 10713,
    "festivals": 7519,
    "##use": 8557,
    "##folia": 21710,
    "austin": 5899,
    "contents": 8417,
    "ref": 25416,
    "slowly": 3254,
    "launching": 12106,
    "11": 2340,
    "poznan": 18320,
    "hierarchy": 12571,
    "1400": 20652,
    "finger": 4344,
    "decades": 5109,
    "rosalie": 29564,
    "directional": 20396,
    "sims": 18135,
    "sabre": 22002,
    "sketches": 12741,
    "unnoticed": 22719,
    "crossings": 20975,
    "##ura": 4648,
    "levant": 24485,
    "eras": 28500,
    "finnish": 6983,
    "##child": 19339,
    "evelyn": 12903,
    "prices": 7597,
    "bremen": 16314,
    "bo": 8945,
    "schleswig": 21173,
    "rave": 23289,
    "packard": 24100,
    "nathaniel": 13961,
    "extent": 6698,
    "cliff": 7656,
    "##son": 3385,
    "##cha": 7507,
    "outfits": 22054,
    "hal": 11085,
    "\u110c": 1464,
    "bastards": 21123,
    "1997": 2722,
    "conservation": 5680,
    "tu": 10722,
    "markus": 23030,
    "##rlin": 19403,
    "aggression": 14974,
    "##sic": 19570,
    "scooted": 24289,
    "lured": 26673,
    "discover": 7523,
    "atomic": 9593,
    "sesame": 23605,
    "declare": 13520,
    "examiner": 19684,
    "wa": 11333,
    "geology": 13404,
    "blouse": 18149,
    "##gua": 19696,
    "old": 2214,
    "##nberger": 28825,
    "##lou": 23743,
    "##\u524d": 30302,
    "noble": 7015,
    "\u592a": 1812,
    "\u8a01": 1949,
    "supervision": 10429,
    "wetland": 22217,
    "##lved": 26832,
    "cairns": 21731,
    "annie": 8194,
    "##ider": 18688,
    "lillian": 19344,
    "##lier": 14355,
    "turk": 22883,
    "geo": 20248,
    "arjun": 26024,
    "sears": 18493,
    "##ban": 8193,
    "\u592b": 1813,
    "##vil": 14762,
    "##\u1166": 30009,
    "mormon": 15111,
    "boise": 23193,
    "needs": 3791,
    "criminals": 12290,
    "##olved": 16116,
    "intervals": 14025,
    "fumble": 19576,
    "[UNK]": 100,
    "mama": 9588,
    "initiative": 6349,
    "jude": 12582,
    "following": 2206,
    "##king": 6834,
    "additionally": 5678,
    "itv": 11858,
    "35": 3486,
    "biker": 28988,
    "##\u0e01": 29945,
    "etat": 17997,
    "asks": 5176,
    "jet": 6892,
    "##iere": 21253,
    "##eke": 23941,
    "promotion": 4712,
    "unavailable": 20165,
    "prof": 11268,
    "##inas": 15227,
    "##dry": 21190,
    "plot": 5436,
    "##isa": 14268,
    "jakarta": 14426,
    "exponential": 27258,
    "##\u0bbf": 29932,
    "mara": 13955,
    "argyll": 27365,
    "manitoba": 10512,
    "banner": 9484,
    "utilities": 16548,
    "blessings": 24618,
    "[unused238]": 243,
    "advice": 6040,
    "bra": 11655,
    "shrewsbury": 18174,
    "nell": 20970,
    "shuddering": 25735,
    "jagged": 18187,
    "\u0634": 1283,
    "stairs": 5108,
    "open": 2330,
    "signed": 2772,
    "1864": 6717,
    "aim": 6614,
    "winston": 10180,
    "##evich": 16277,
    "atp": 12649,
    "hates": 16424,
    "mustafa": 19683,
    "result": 2765,
    "participate": 5589,
    "##\u0644": 23673,
    "suppose": 6814,
    "moaned": 12557,
    "israel": 3956,
    "avant": 14815,
    "honors": 7836,
    "##mail": 21397,
    "##sco": 9363,
    "kings": 5465,
    "##\u305b": 30185,
    "adorned": 19189,
    "nicely": 19957,
    "\u5341": 1783,
    "mk": 12395,
    "manfred": 19149,
    "rachel": 5586,
    "messaging": 24732,
    "helmet": 10412,
    "##romatic": 23645,
    "moderate": 8777,
    "##logists": 18738,
    "stigma": 26453,
    "\u1019": 1437,
    "atm": 27218,
    "wits": 25433,
    "##\u4f1a": 30289,
    "warships": 15964,
    "[unused544]": 549,
    "type": 2828,
    "robertson": 9923,
    "unemployment": 12163,
    "lois": 15815,
    "forged": 16158,
    "[unused155]": 160,
    "80": 3770,
    "mosquito": 22529,
    "##\u767d": 30441,
    "[unused757]": 762,
    "sucking": 13475,
    "keynes": 22152,
    "##\u10d1": 29975,
    "filed": 6406,
    "\u72ac": 1908,
    "bathrooms": 28942,
    "burkina": 23089,
    "##phile": 24862,
    "##un": 4609,
    "##\u5206": 30301,
    "unleashed": 22416,
    "vegetables": 11546,
    "arsenic": 29596,
    "accused": 5496,
    "\u0283": 1130,
    "##vas": 12044,
    "electoral": 6092,
    "semester": 13609,
    "splinter": 27546,
    "70": 3963,
    "workshops": 9656,
    "country": 2406,
    "courageous": 26103,
    "pharmaceuticals": 24797,
    "collingwood": 20044,
    "##yi": 10139,
    "randolph": 13031,
    "##ink": 19839,
    "harshly": 21052,
    "##pas": 19707,
    "reforms": 8818,
    "invade": 18445,
    "caring": 11922,
    "koppen": 20139,
    "phyllis": 20328,
    "##anian": 26032,
    "characters": 3494,
    "refer": 6523,
    "##uki": 14228,
    "[unused2]": 3,
    "their": 2037,
    "[unused27]": 28,
    "whore": 17219,
    "opted": 12132,
    "bushes": 14568,
    "rounding": 26939,
    "flies": 10029,
    "pursed": 21954,
    "properly": 7919,
    "##ses": 8583,
    "##\u5973": 30341,
    "of": 1997,
    "delle": 24121,
    "sleep": 3637,
    "caleb": 10185,
    "regarding": 4953,
    "exiled": 14146,
    "##hua": 14691,
    "admitting": 17927,
    "silence": 4223,
    "junction": 5098,
    "sinai": 20837,
    "orioles": 18893,
    "als": 25520,
    "ribs": 10335,
    "ministerial": 18645,
    "rendering": 14259,
    "nmi": 22484,
    "rumored": 22710,
    "[unused511]": 516,
    "[unused938]": 943,
    "landscape": 5957,
    "org": 8917,
    "##ssed": 29417,
    "cradled": 23774,
    "flyer": 23821,
    "billed": 14843,
    "avery": 12140,
    "##\u00bb": 29663,
    "fundraiser": 28536,
    "politician": 3761,
    "me": 2033,
    "bile": 23974,
    "[unused242]": 247,
    "##\u0574": 29776,
    "senior": 3026,
    "oliver": 6291,
    "horrible": 9202,
    "rhys": 13919,
    "birmingham": 6484,
    "pact": 14790,
    "##onal": 16026,
    "walt": 10598,
    "100th": 16919,
    "envoy": 19918,
    "##fp": 22540,
    "gun": 3282,
    "##cam": 28727,
    "bmw": 13154,
    "##tile": 15286,
    "##aker": 22626,
    "auditioned": 23008,
    "[unused473]": 478,
    "waterloo": 13784,
    "snaps": 20057,
    "sailor": 11803,
    "138": 15028,
    "finch": 16133,
    "calculus": 19276,
    "capitalist": 19640,
    "vanished": 9955,
    "myths": 17218,
    "instance": 6013,
    "274": 25586,
    "umm": 26114,
    "[unused340]": 345,
    "delay": 8536,
    "[unused232]": 237,
    "\u85e4": 1944,
    "averages": 20185,
    "##raphy": 26228,
    "##400": 29537,
    "[unused90]": 91,
    "analyzing": 20253,
    "moran": 17866,
    "hound": 19598,
    "bared": 23485,
    "derek": 7256,
    "##oured": 16777,
    "stilled": 22791,
    "lifted": 4196,
    "multiple": 3674,
    "gail": 18576,
    "##foil": 24323,
    "##put": 18780,
    "incurred": 22667,
    "brandy": 17951,
    "incorporates": 12374,
    "reed": 7305,
    "seal": 7744,
    "##joy": 24793,
    "entry": 4443,
    "persecution": 14522,
    "divers": 18612,
    "tito": 20712,
    "##35": 19481,
    "\u02d0": 1150,
    "garbage": 13044,
    "mansfield": 15352,
    "andreas": 12460,
    "propaganda": 10398,
    "istanbul": 9960,
    "drifting": 15013,
    "##ue": 5657,
    "drummond": 19266,
    "designated": 4351,
    "inclination": 21970,
    "javanese": 27344,
    "gilmore": 22999,
    "fence": 8638,
    "crash": 5823,
    "##free": 23301,
    "condo": 25805,
    "every": 2296,
    "1810": 11786,
    "congratulations": 23156,
    "##\u0bb3": 29929,
    "dungeon": 16633,
    "implementation": 7375,
    "tilt": 17010,
    "1890s": 13678,
    "##dler": 21222,
    "dollar": 7922,
    "satirical": 17251,
    "steppe": 29096,
    "papers": 4981,
    "engines": 5209,
    "seizures": 25750,
    "220": 10545,
    "petrol": 17141,
    "traditions": 7443,
    "maharashtra": 12434,
    "##oja": 22918,
    "##nais": 28020,
    "applause": 20737,
    "apple": 6207,
    "crushed": 10560,
    "##\u52a0": 30305,
    "1630": 24994,
    "##\u0294": 29705,
    "sturdy": 23073,
    "described": 2649,
    "\u2218": 1599,
    "suburbs": 9435,
    "sociological": 24846,
    "drop": 4530,
    "1738": 28009,
    "##wny": 22251,
    "ae": 29347,
    "horace": 12757,
    "booked": 17414,
    "polk": 20819,
    "mfa": 26913,
    "aleppo": 22973,
    "\u3008": 1637,
    "##vance": 21789,
    "\u5c07": 1828,
    "##ay": 4710,
    "##0": 2692,
    "engaged": 5117,
    "##\u1165": 30008,
    "jim": 3958,
    "kurt": 9679,
    "##owski": 15249,
    "##gne": 10177,
    "##rked": 19849,
    "philharmonic": 12355,
    "##tock": 17406,
    "easiest": 25551,
    "featherweight": 27145,
    "ek": 23969,
    "legislators": 22680,
    "gulf": 6084,
    "economy": 4610,
    "propagation": 20594,
    "finalized": 23575,
    "taken": 2579,
    "usb": 18833,
    "##\u1174": 30018,
    "1990s": 4134,
    "nipple": 14298,
    "towels": 24213,
    "imports": 17589,
    "##bil": 14454,
    "or": 2030,
    "setting": 4292,
    "1893": 6489,
    "dynamic": 8790,
    "ella": 11713,
    "backyard": 16125,
    "aqueduct": 24016,
    "gideon": 12137,
    "troubles": 13460,
    "##uto": 16161,
    "sandra": 12834,
    "crossed": 4625,
    "proving": 13946,
    "theme": 4323,
    "proportional": 14267,
    "museo": 19713,
    "begging": 12858,
    "##60": 16086,
    "[unused276]": 281,
    "##aran": 20486,
    "merger": 7660,
    "ed": 3968,
    "lennon": 14294,
    "mega": 13164,
    "##dda": 25062,
    "02": 6185,
    "spinning": 9419,
    "angola": 13491,
    "miami": 5631,
    "skye": 16590,
    "invasions": 23536,
    "emphasizes": 20618,
    "dorset": 15367,
    "pittsburgh": 6278,
    "vhf": 27527,
    "[unused765]": 770,
    "aspects": 5919,
    "ringo": 25589,
    "however": 2174,
    "##ling": 2989,
    "argentine": 8511,
    "assassinated": 16370,
    "reissue": 17173,
    "sad": 6517,
    "trainer": 10365,
    "##chers": 21844,
    "fairly": 7199,
    "##lim": 17960,
    "trait": 18275,
    "eastern": 2789,
    "churning": 26765,
    "symmetrical": 23476,
    "but": 2021,
    "counts": 9294,
    "##ded": 5732,
    "##rites": 28884,
    "rooney": 24246,
    "complained": 10865,
    "without": 2302,
    "vamps": 24064,
    "ezekiel": 28743,
    "laying": 10201,
    "folder": 19622,
    "cultures": 8578,
    "clover": 25133,
    "##cta": 25572,
    "unless": 4983,
    "heroes": 7348,
    "vienna": 6004,
    "workshop": 8395,
    "fraction": 12884,
    "scenic": 12916,
    "crane": 11308,
    "burlington": 15552,
    "lyon": 10241,
    "shiva": 12535,
    "punch": 8595,
    "##akes": 20060,
    "constructive": 26157,
    "rockets": 12496,
    "\u3082": 1681,
    "##than": 21604,
    "economists": 22171,
    "sachs": 22818,
    "##broken": 29162,
    "ferrari": 13632,
    "routing": 16972,
    "##wil": 29602,
    "echoing": 17142,
    "perth": 9300,
    "pia": 24624,
    "registered": 5068,
    "sign": 3696,
    "involved": 2920,
    "##gizing": 28660,
    "screwing": 29082,
    "##\u00b1": 29657,
    "\u1112": 1469,
    "encore": 19493,
    "end": 2203,
    "accessible": 7801,
    "##nch": 12680,
    "##rod": 14127,
    "lakshmi": 21352,
    "elder": 6422,
    "sc": 8040,
    "inland": 9514,
    "reuters": 26665,
    "startled": 9696,
    "##\u064a": 14498,
    "##eca": 19281,
    "##orio": 27416,
    "[unused844]": 849,
    "drones": 24633,
    "brood": 25565,
    "##ters": 7747,
    "gall": 26033,
    "[unused720]": 725,
    "papal": 12156,
    "environmentally": 25262,
    "lb": 6053,
    "geek": 29294,
    "##rzy": 28534,
    "30": 2382,
    "okinawa": 15052,
    "##laya": 22923,
    "logistics": 12708,
    "222": 19015,
    "##rae": 16652,
    "intensely": 20531,
    "valley": 3028,
    "carmichael": 23537,
    "fuss": 28554,
    "modest": 10754,
    "##xton": 14226,
    "complicated": 8552,
    "chloride": 19057,
    "\u2044": 1535,
    "promotes": 14067,
    "preached": 21491,
    "undo": 25672,
    "gustave": 27973,
    "surveys": 12265,
    "cyclic": 23750,
    "[unused435]": 440,
    "atlantis": 16637,
    "squeeze": 11025,
    "relationships": 6550,
    "slide": 7358,
    "1724": 26423,
    "mythological": 21637,
    "favors": 21191,
    "1699": 28718,
    "\u03c0": 1170,
    "consciousness": 8298,
    "vulture": 27588,
    "##air": 11215,
    "##ization": 3989,
    "\u09aa": 1367,
    "took": 2165,
    "persians": 27229,
    "grapes": 16575,
    "##dus": 17619,
    "steam": 5492,
    "##zuka": 22968,
    "[unused79]": 80,
    "titans": 13785,
    "sydney": 3994,
    "event": 2724,
    "[unused314]": 319,
    "contrasts": 23347,
    "skeletal": 20415,
    "##oslav": 23085,
    "iso": 11163,
    "nov": 13292,
    "liver": 11290,
    "\u2193": 1586,
    "##\u056b": 29772,
    "communes": 16569,
    "northwest": 4514,
    "copyright": 9385,
    "greenwood": 16827,
    "paddle": 20890,
    "handful": 9210,
    "##ibar": 26656,
    "ants": 16111,
    "lasers": 23965,
    "app": 10439,
    "ascribed": 28025,
    "image": 3746,
    "aliens": 12114,
    "realities": 22213,
    "effectively": 6464,
    "jocelyn": 23786,
    "greenhouse": 16635,
    "squinting": 29156,
    "commanding": 7991,
    "spice": 17688,
    "mira": 18062,
    "##ining": 24002,
    "hardest": 18263,
    "##cor": 27108,
    "##w": 2860,
    "##\u5343": 30310,
    "slightest": 15989,
    "kyiv": 25669,
    "##trix": 29184,
    "disputes": 11936,
    "premises": 10345,
    "840": 28122,
    "jeremy": 7441,
    "##fall": 13976,
    "spaces": 7258,
    "attacking": 7866,
    "read": 3191,
    "hewitt": 19482,
    "total": 2561,
    "oddly": 15056,
    "[unused209]": 214,
    "##\u00ab": 29654,
    ";": 1025,
    "##eta": 12928,
    "baird": 20866,
    "covered": 3139,
    "psychologist": 15034,
    "aristocracy": 22706,
    "tried": 2699,
    "bearer": 20905,
    "secretaries": 23660,
    "searching": 6575,
    "alps": 13698,
    "ce": 8292,
    "shandong": 25768,
    "marlins": 27055,
    "herzegovina": 11453,
    "directorial": 21635,
    "glamorgan": 23861,
    "silesian": 20453,
    "edinburgh": 5928,
    "councillors": 13189,
    "##ike": 17339,
    "291": 27173,
    "##\u5916": 30335,
    "stores": 5324,
    "crop": 10416,
    "##ster": 6238,
    "redding": 26687,
    "stellar": 17227,
    "differentiated": 24374,
    "endeavors": 28809,
    "regiment": 3483,
    "##\u5e74": 30366,
    "\u0449": 1204,
    "##islav": 19834,
    "1789": 13739,
    "dividing": 16023,
    "empowered": 26480,
    "##grave": 12830,
    "evidenced": 21328,
    "##uri": 9496,
    "exposed": 6086,
    "grief": 9940,
    "hailey": 21664,
    "foul": 12487,
    "##cave": 27454,
    "##ingham": 16445,
    "partly": 6576,
    "iraqi": 8956,
    "verify": 20410,
    "\u2082": 1549,
    "##drum": 21884,
    "##enting": 26951,
    "##dly": 18718,
    "diesel": 7937,
    "hailed": 16586,
    "feasibility": 24010,
    "[unused388]": 393,
    "galician": 28830,
    "success": 3112,
    "f": 1042,
    "[unused944]": 949,
    "attractive": 8702,
    "escaped": 6376,
    "##med": 7583,
    "overwhelmed": 13394,
    "penguin": 13987,
    "meade": 26501,
    "##ctic": 13306,
    "##aer": 27867,
    "forks": 19896,
    "dementia": 28767,
    "[unused189]": 194,
    "##ini": 5498,
    "##\u6c38": 30422,
    "salon": 11090,
    "marines": 9622,
    "surgery": 5970,
    "##ve": 3726,
    "brooks": 8379,
    "##\u221a": 30127,
    "##\u00df": 19310,
    "##rga": 28921,
    "##num": 19172,
    "knock": 7324,
    "transform": 10938,
    "##hic": 16066,
    "storing": 23977,
    "badge": 10780,
    "1931": 4739,
    "vapor": 20064,
    "##\u9999": 30505,
    "ready": 3201,
    "##\u30d5": 30246,
    "##amina": 27651,
    "persuasion": 27577,
    "fresh": 4840,
    "cells": 4442,
    "debra": 28762,
    "praised": 5868,
    "##lle": 6216,
    "baden": 12189,
    "\u10d3": 1441,
    "mocking": 19545,
    "##abe": 16336,
    "##erence": 20935,
    "ya": 8038,
    "peeled": 20956,
    "effect": 3466,
    "whoever": 9444,
    "hung": 5112,
    "commissioner": 5849,
    "diamond": 6323,
    "really": 2428,
    "container": 11661,
    "sincere": 18006,
    "##escu": 19434,
    "magdalena": 23984,
    "bottled": 26071,
    "classified": 6219,
    "##ido": 13820,
    "\u6708": 1872,
    "storytelling": 20957,
    "dune": 21643,
    "nawab": 26543,
    "detail": 6987,
    "hayes": 10192,
    "staggered": 14648,
    "casualty": 19844,
    "brackets": 19719,
    "palatinate": 18990,
    "online": 3784,
    "##\u2033": 30067,
    "##itative": 29293,
    "payne": 13470,
    "excitement": 8277,
    "spat": 14690,
    "loading": 10578,
    "##kel": 11705,
    "xv": 15566,
    "##38": 22025,
    "enthusiasm": 12024,
    "720": 22857,
    "308": 24232,
    "willard": 19138,
    "##aria": 10980,
    "##ounded": 26240,
    "immortals": 26796,
    "gum": 16031,
    "##life": 15509,
    "schumann": 29448,
    "gabe": 12900,
    "crocodile": 21843,
    "huts": 23326,
    "genetic": 7403,
    "184": 19681,
    "##ulton": 22145,
    "providing": 4346,
    "\u0926": 1325,
    "clans": 16411,
    "falcon": 11684,
    "cornered": 25878,
    "lac": 18749,
    "pioneered": 16193,
    "eyeing": 19285,
    "intersections": 26540,
    "everybody": 7955,
    "accurate": 8321,
    "og": 13958,
    "mile": 3542,
    "picnic": 12695,
    "xbox": 12202,
    "just": 2074,
    "abundance": 14531,
    "wit": 15966,
    "imitation": 20017,
    "hume": 20368,
    "labourers": 24043,
    "arterial": 25543,
    "quake": 27785,
    "##worth": 5172,
    "divorce": 8179,
    "dani": 19522,
    "pounded": 13750,
    "adopt": 11092,
    "posed": 13686,
    "1921": 4885,
    "thou": 15223,
    "ida": 16096,
    "marseille": 16766,
    "spirituality": 21244,
    "500": 3156,
    "1625": 26263,
    "mice": 12328,
    "##ati": 10450,
    "bratislava": 22992,
    "[unused447]": 452,
    "undermine": 25174,
    "hiroshi": 26882,
    "##inga": 28234,
    "laval": 26205,
    "hospice": 29277,
    "aids": 8387,
    "##thing": 20744,
    "disturb": 22995,
    "beau": 17935,
    "negotiations": 7776,
    "laps": 10876,
    "threaded": 26583,
    "laszlo": 28226,
    "##\u4e09": 30267,
    "houses": 3506,
    "jose": 4560,
    "rule": 3627,
    "streets": 4534,
    "lots": 7167,
    "asian": 4004,
    "blanche": 18158,
    "canonical": 18562,
    "norms": 17606,
    "metre": 7924,
    "texted": 24637,
    "announced": 2623,
    "select": 7276,
    "obligations": 14422,
    "lukas": 23739,
    "reinforcement": 23895,
    "weekend": 5353,
    "sum": 7680,
    "fragile": 13072,
    "displaying": 14962,
    "ivanov": 26333,
    "[unused223]": 228,
    "equatorial": 21333,
    "##itive": 13043,
    "[unused3]": 4,
    "intern": 25204,
    "##nti": 16778,
    "varied": 9426,
    "166": 18610,
    "\u060c": 1268,
    "combinations": 14930,
    "ancestral": 14947,
    "ave": 13642,
    "hadley": 21681,
    "##aj": 13006,
    "throws": 11618,
    "carolyn": 15611,
    "iona": 22347,
    "##antes": 24985,
    "walton": 14290,
    "martyrs": 18945,
    "caressing": 25296,
    "provided": 3024,
    "concordia": 24982,
    "billboard": 4908,
    "parallel": 5903,
    "parma": 19177,
    "##ev": 6777,
    "destroyers": 13242,
    "##khar": 22510,
    "sucker": 26476,
    "literally": 6719,
    "##ours": 22957,
    "\u30c4": 1712,
    "helm": 16254,
    "dominion": 13738,
    "##ively": 14547,
    "taylor": 4202,
    "bathed": 24614,
    "appeared": 2596,
    "fame": 4476,
    "yun": 22854,
    "sold": 2853,
    "betrayal": 14583,
    "[unused66]": 67,
    "moderately": 17844,
    "sparks": 12300,
    "qur": 23183,
    "hooves": 28399,
    "hats": 16717,
    "basha": 26074,
    "sloan": 19024,
    "##fest": 14081,
    "enabled": 9124,
    "##quin": 12519,
    "laughed": 4191,
    "demand": 5157,
    "##vine": 20534,
    "307": 24559,
    "disliked": 18966,
    "reminds": 15537,
    "subfamily": 10946,
    "addresses": 11596,
    "tai": 13843,
    "samba": 29086,
    "potion": 26722,
    "##idon": 28201,
    "baldwin": 10970,
    "hydro": 18479,
    "##water": 5880,
    "weights": 15871,
    "violated": 14424,
    "mecca": 21340,
    "omar": 13192,
    "prohibits": 25822,
    "##nal": 12032,
    "kepler": 28219,
    "cancellation": 16990,
    "##miento": 28883,
    "analogous": 19639,
    "baccalaureate": 27802,
    "##\u4eac": 30281,
    "levy": 12767,
    "concepts": 8474,
    "avoids": 26777,
    "til": 18681,
    "##\u21cc": 30118,
    "1842": 10008,
    "respiratory": 16464,
    "[unused353]": 358,
    "thanksgiving": 15060,
    "woke": 8271,
    "unicorn": 21830,
    "\u5fd7": 1851,
    "##tlan": 28922,
    "##raj": 14220,
    "##ament": 24996,
    "acoustic": 6490,
    "sipping": 24747,
    "encouragement": 15846,
    "##iam": 25107,
    "passports": 19494,
    "##mill": 19912,
    "\u0f63": 1435,
    "##hita": 23935,
    "pluto": 26930,
    "buren": 29470,
    "presenter": 10044,
    "##berries": 20968,
    "drilling": 15827,
    "nomenclature": 23718,
    "clive": 14675,
    "porto": 13809,
    "1910": 4976,
    "causes": 5320,
    "hannah": 8410,
    "freak": 11576,
    "renault": 14605,
    "\u10d1": 1439,
    "visual": 5107,
    "##ending": 18537,
    "twenty20": 22240,
    "##ruck": 29314,
    "fried": 13017,
    "scuba": 28651,
    "phillips": 8109,
    "originates": 16896,
    "residents": 3901,
    "bowen": 16208,
    "[unused436]": 441,
    "vinyl": 8877,
    "martinez": 10337,
    "defendant": 13474,
    "[unused129]": 134,
    "##rted": 17724,
    "##eptive": 22048,
    "village": 2352,
    "\u8a9e": 1950,
    "academies": 20994,
    "steady": 6706,
    "\u540c": 1794,
    "##\u062f": 15394,
    "choreographer": 17334,
    "dea": 26709,
    "##cise": 18380,
    "1800s": 19878,
    "##itating": 16518,
    "core": 4563,
    "##dio": 20617,
    "commando": 15054,
    "timed": 22313,
    "##mum": 27147,
    "methyl": 25003,
    "ty": 5939,
    "divide": 11443,
    "quarters": 7728,
    "analyze": 17908,
    "yukon": 19898,
    "chick": 14556,
    "nutrients": 20435,
    "##rom": 21716,
    "condemning": 28525,
    "petition": 9964,
    "wei": 11417,
    "assassination": 10102,
    "gospels": 24131,
    "[unused771]": 776,
    "nobody": 6343,
    "##ien": 9013,
    "##osh": 17369,
    "slave": 6658,
    "bahrain": 15195,
    "botanist": 17098,
    "judiciary": 14814,
    "##oms": 22225,
    "pleading": 16418,
    "brew": 24702,
    "\u0438": 1188,
    "announce": 14970,
    "negligence": 27988,
    "truncated": 25449,
    "##lithic": 28508,
    "kara": 13173,
    "garments": 21902,
    "genre": 6907,
    "laser": 9138,
    "drifted": 10070,
    "sylvia": 13378,
    "deaf": 12419,
    "audrey": 14166,
    "perfume": 17013,
    "##\u092f": 29868,
    "mac": 6097,
    "form": 2433,
    "wounds": 8710,
    "indicted": 21801,
    "##drive": 23663,
    "##crats": 23423,
    "wage": 11897,
    "##odies": 27391,
    "##zic": 27586,
    "treatise": 15326,
    "##stor": 23809,
    "[unused926]": 931,
    "token": 19204,
    "\u30b3": 1704,
    "##gi": 5856,
    "permission": 6656,
    "exaggerated": 16903,
    "##toy": 29578,
    "manned": 15371,
    "otago": 21831,
    "##nsk": 25564,
    "##ification": 9031,
    "helen": 6330,
    "limp": 14401,
    "ic": 24582,
    "incentives": 21134,
    "highlighting": 20655,
    "encircled": 25759,
    "montana": 8124,
    "sculptors": 28417,
    "##een": 12129,
    "anticipating": 26481,
    "emerson": 12628,
    "angie": 14835,
    "##arion": 27548,
    "92": 6227,
    "##dia": 9032,
    "bowling": 9116,
    "filipino": 10275,
    "weakness": 11251,
    "spying": 22624,
    "##\u044e": 29757,
    "planet": 4774,
    "lighthouse": 10171,
    "##uy": 26230,
    "242": 22431,
    "600": 5174,
    "arrangement": 6512,
    "doors": 4303,
    "##fying": 14116,
    "clauses": 24059,
    "equator": 26640,
    "[unused805]": 810,
    "terry": 6609,
    "\u6f22": 1904,
    "tangle": 24453,
    "##stic": 10074,
    "[unused909]": 914,
    "nods": 11232,
    "arise": 13368,
    "dumped": 14019,
    "prop": 17678,
    "bays": 13933,
    "##cal": 9289,
    "##eve": 18697,
    "knowledge": 3716,
    "melodies": 16106,
    "addict": 26855,
    "##drik": 28730,
    "##\u25aa": 30145,
    "##eye": 17683,
    "limiting": 14879,
    "largely": 4321,
    "take": 2202,
    "possess": 10295,
    "felipe": 17095,
    "restrict": 21573,
    "salford": 23001,
    "nouns": 19211,
    "territorial": 7894,
    "skyscraper": 24581,
    "memorabilia": 28663,
    "##\u79c0": 30454,
    "bernard": 6795,
    "gingerly": 26961,
    "##\u10d5": 29979,
    "versailles": 18346,
    "qualify": 7515,
    "##entation": 19304,
    "hourly": 21462,
    "rainer": 28035,
    "##\u00fe": 29670,
    "##imov": 25299,
    "hunts": 28526,
    "inc": 4297,
    "evie": 26400,
    "conservatives": 11992,
    "tongue": 4416,
    "pseudo": 18404,
    "cavity": 17790,
    "sar": 18906,
    "capable": 5214,
    "risky": 19188,
    "curator": 13023,
    "cites": 17248,
    "julian": 6426,
    "unclear": 10599,
    "dupont": 22848,
    "intuition": 26406,
    "linda": 8507,
    "1770": 17711,
    "halls": 9873,
    "lids": 26122,
    "gleamed": 25224,
    "md": 9108,
    "thence": 23166,
    "lucian": 18218,
    "##meo": 26247,
    "bumps": 18548,
    "\u0905": 1311,
    "netball": 25034,
    "natives": 12493,
    "chopin": 25479,
    "rouen": 27030,
    "recalls": 17722,
    "corbin": 24003,
    "##llar": 17305,
    "costs": 5366,
    "gala": 16122,
    "serialized": 27289,
    "manga": 8952,
    "[unused518]": 523,
    "##nts": 7666,
    "##fle": 21031,
    "sloping": 24724,
    "dakota": 7734,
    "ukrainian": 5969,
    "static": 10763,
    "\u56db": 1798,
    "##lain": 15987,
    "##dson": 25112,
    "##00": 8889,
    "##balance": 26657,
    "##\u1d64": 30044,
    "mongolian": 17855,
    "beds": 9705,
    "struggle": 5998,
    "packets": 23730,
    "including": 2164,
    "orphan": 18211,
    "[unused151]": 156,
    "1791": 14362,
    "photographic": 12416,
    "weapons": 4255,
    "##\u5185": 30299,
    "ming": 11861,
    "##mi": 4328,
    "personally": 7714,
    "resonance": 17011,
    "##gues": 22967,
    "julia": 6423,
    "alam": 26234,
    "louvre": 25110,
    "##nik": 8238,
    "[unused901]": 906,
    "stifled": 27146,
    "rockies": 22366,
    "vol": 5285,
    "reigned": 21236,
    "leaped": 16900,
    "##riders": 28116,
    "speeds": 10898,
    "[unused48]": 49,
    "vegetarian": 23566,
    "gov": 18079,
    "historical": 3439,
    "culturally": 20547,
    "murderers": 28882,
    "wichita": 18614,
    "unbroken": 29505,
    "##real": 22852,
    "designation": 8259,
    "vanilla": 21161,
    "simulation": 12504,
    "investigated": 10847,
    "reasons": 4436,
    "yelled": 7581,
    "grown": 4961,
    "limitations": 12546,
    "##pura": 21228,
    "##ential": 24271,
    "renewed": 9100,
    "##kle": 19099,
    "terri": 26568,
    "publication": 4772,
    "##aring": 22397,
    "##meister": 28824,
    "##\u3046": 30174,
    "panzer": 16946,
    "ducks": 14875,
    "historians": 7862,
    "hacker": 23307,
    "brentford": 26550,
    "##rney": 27114,
    "\u0925": 1324,
    "##ial": 4818,
    "fencing": 15962,
    "##bies": 20536,
    "328": 25256,
    "resembling": 15525,
    "donna": 10972,
    "randomly": 18154,
    "[unused109]": 114,
    "sofia": 8755,
    "zipper": 22082,
    "##hora": 16977,
    "someplace": 24956,
    "mckenna": 21749,
    "512": 24406,
    "anna": 4698,
    "shot": 2915,
    "243": 22884,
    "##kins": 14322,
    "antony": 16262,
    "pena": 19409,
    "fluffy": 27036,
    "##ceptive": 28687,
    "tuscany": 23322,
    "projects": 3934,
    "rebranded": 18233,
    "metropolis": 18236,
    "silesia": 21872,
    "countryside": 10833,
    "interrupting": 22602,
    "trance": 16588,
    "passive": 13135,
    "mathematicians": 29374,
    "endemic": 7320,
    "endure": 18094,
    "tasmania": 12343,
    "groom": 18087,
    "[unused682]": 687,
    "school": 2082,
    "##sd": 16150,
    "playable": 16854,
    "cookie": 17387,
    "whitman": 21311,
    "receiving": 4909,
    "##tors": 6591,
    "##da": 2850,
    "flickered": 15999,
    "ono": 21058,
    "motorsport": 21044,
    "lucie": 28831,
    "##\u4e3b": 30273,
    "climb": 7105,
    "1884": 6988,
    "freelance": 15919,
    "manson": 21440,
    "bikes": 18105,
    "quantum": 8559,
    "practitioners": 14617,
    "##yard": 14132,
    "visually": 17453,
    "##viere": 27087,
    "dreadful": 21794,
    "boring": 11771,
    "sculpted": 19921,
    "migrants": 16836,
    "##\u203a": 30068,
    "##lal": 13837,
    "##uw": 25974,
    "abandoned": 4704,
    "patel": 20455,
    "gough": 29124,
    "chevrolet": 14724,
    "duran": 22959,
    "[unused492]": 497,
    "\u6587": 1861,
    "glover": 20012,
    "footballers": 27784,
    "##ean": 11219,
    "1612": 29186,
    "pumped": 16486,
    "few": 2261,
    "wars": 5233,
    "##ids": 9821,
    "[unused284]": 289,
    "##gled": 11533,
    "##routed": 25849,
    "trace": 7637,
    "46": 4805,
    "decline": 6689,
    "slacks": 27786,
    "black": 2304,
    "##\u0dbb": 29941,
    "##boards": 15271,
    "mechanic": 15893,
    "johan": 13093,
    "thick": 4317,
    "unnecessary": 14203,
    "daniels": 13196,
    "id": 8909,
    "braun": 21909,
    "##enity": 20693,
    "##\u2090": 30089,
    "montgomery": 8482,
    "stacks": 20829,
    "frederick": 5406,
    "pam": 14089,
    "lbs": 20702,
    "burma": 11050,
    "michele": 15954,
    "ivory": 11554,
    "unison": 18732,
    "layered": 21323,
    "##ragan": 28905,
    "##ties": 7368,
    "[unused843]": 848,
    "served": 2366,
    "dia": 22939,
    "dusty": 12727,
    "zane": 6944,
    "lyricist": 19489,
    "tun": 27112,
    "##ete": 12870,
    "##ople": 27469,
    "avatar": 22128,
    "##\u110e": 30001,
    "padded": 20633,
    "peter": 2848,
    "beirut": 15335,
    "lime": 14123,
    "halifax": 10475,
    "##\u3048": 30175,
    "##\u1111": 30004,
    "\u03b1": 1155,
    "christi": 21359,
    "[unused257]": 262,
    "opium": 21075,
    "uefa": 6663,
    "ethan": 6066,
    "km\u00b2": 3186,
    "valve": 10764,
    "##\u0442": 22919,
    "cheng": 15898,
    "refrain": 20703,
    "##yah": 17560,
    "barges": 27712,
    "##more": 5974,
    "importantly": 14780,
    "##tet": 22513,
    "matthews": 12351,
    "coal": 5317,
    "[unused484]": 489,
    "999": 25897,
    "endeavour": 26911,
    "five": 2274,
    "[unused456]": 461,
    "deep": 2784,
    "naomi": 12806,
    "characteristics": 6459,
    "regents": 22832,
    "neurons": 15698,
    "papacy": 25097,
    "glitter": 27566,
    "discussing": 10537,
    "donetsk": 29151,
    "##eger": 26320,
    "##lp": 14277,
    "woodward": 19133,
    "##bine": 16765,
    "pembroke": 21457,
    "[unused910]": 915,
    "##ules": 16308,
    "\u03c7": 1177,
    "surfaced": 15791,
    "principality": 18018,
    "comics": 5888,
    "##edge": 24225,
    "realising": 27504,
    "pursued": 9505,
    "conclude": 16519,
    "reared": 23295,
    "cringed": 23952,
    "juice": 10869,
    "##\u5bfa": 30353,
    "becky": 14407,
    "##rdi": 17080,
    "wrenched": 26971,
    "sewer": 22365,
    "70th": 26934,
    "##tan": 5794,
    "sentencing": 23280,
    "rising": 4803,
    "##ault": 23505,
    "constraint": 27142,
    "firearm": 23646,
    "##icides": 22698,
    "##\u0f53": 29965,
    "symmetry": 14991,
    "strangled": 21384,
    "identities": 15702,
    "1670": 26253,
    "\u0646": 1296,
    "imperfect": 29238,
    "stil": 25931,
    "##\u201a": 30057,
    "organized": 4114,
    "##ello": 15350,
    "masks": 15806,
    "honduras": 14373,
    "ultimately": 4821,
    "klaus": 16536,
    "funny": 6057,
    "##ology": 6779,
    "threatening": 8701,
    "resign": 12897,
    "1862": 6889,
    "accountability": 17842,
    "drinking": 5948,
    "grimace": 25898,
    "wrath": 14532,
    "refuge": 9277,
    "jew": 16522,
    "tub": 14366,
    "shrinking": 28375,
    "cancers": 25409,
    "stripped": 10040,
    "##nda": 8943,
    "cartoon": 9476,
    "mistaken": 13534,
    "##sef": 20106,
    "surgical": 11707,
    "enduring": 16762,
    "divine": 7746,
    "##harat": 28074,
    "drafting": 21168,
    "##quest": 15500,
    "##riety": 27840,
    "loved": 3866,
    "unexpectedly": 14153,
    "alton": 26374,
    "unified": 10562,
    "\u6771": 1879,
    "carmen": 11425,
    "onward": 15834,
    "filing": 15242,
    "bids": 20723,
    "dominique": 18165,
    "tian": 23401,
    "unusually": 12890,
    "groove": 14100,
    "pau": 29025,
    "##nical": 20913,
    "masked": 16520,
    "shankar": 17429,
    "pensions": 22024,
    "amor": 16095,
    "arson": 24912,
    "##gins": 16529,
    "learned": 4342,
    "djs": 23837,
    "yet": 2664,
    "liz": 9056,
    "consolation": 24831,
    "afl": 10028,
    "maximize": 25845,
    "enrichment": 27226,
    "automated": 12978,
    "vimes": 28482,
    "siren": 19558,
    "www": 7479,
    "rei": 24964,
    "militias": 29271,
    "aided": 11553,
    "inline": 23881,
    "cbc": 13581,
    "sequels": 25815,
    "##ki": 3211,
    "agra": 29542,
    "prominence": 12144,
    "switches": 15924,
    "anchorage": 21086,
    "##lines": 12735,
    "adequately": 23613,
    "lucille": 28016,
    "welch": 17939,
    "bryson": 26845,
    "\u1da0": 1512,
    "originate": 21754,
    "##tonic": 25009,
    "##stis": 29472,
    "speedy": 26203,
    "buffet": 28305,
    "awesome": 12476,
    "regulators": 25644,
    "505": 28952,
    "graded": 21976,
    "[unused638]": 643,
    "warring": 28509,
    "avenge": 24896,
    "pulses": 23894,
    "proper": 5372,
    "generally": 3227,
    "\u0437": 1187,
    "hadn": 2910,
    "thoughtful": 16465,
    "rhineland": 21640,
    "##\u00d7": 26306,
    "[unused362]": 367,
    "joe": 3533,
    "bubbles": 17255,
    "nodding": 11863,
    "thug": 26599,
    "##elt": 20042,
    "[unused40]": 41,
    "auction": 10470,
    "enlarged": 11792,
    "##ows": 15568,
    "hazel": 14015,
    "##script": 22483,
    "chores": 27091,
    "detonated": 28110,
    "valet": 27238,
    "##\u0f63": 29971,
    "bulky": 27446,
    "textiles": 18762,
    "buildings": 3121,
    "almeida": 29555,
    "freezing": 12809,
    "[unused421]": 426,
    "float": 14257,
    "boiler": 15635,
    "posthumous": 19086,
    "virgil": 17270,
    "##int": 18447,
    "economics": 5543,
    "1993": 2857,
    "liga": 8018,
    "recovered": 6757,
    "duet": 11979,
    "ulrich": 19619,
    "sleeps": 25126,
    "nz": 20008,
    "##vina": 17948,
    "oblivious": 18333,
    "##horpe": 22044,
    "##abas": 27537,
    "buffalo": 6901,
    "reproduce": 21376,
    "forward": 2830,
    "smiley": 27420,
    "soldiers": 3548,
    "sacred": 6730,
    "hugging": 17662,
    "##aja": 22734,
    "mohan": 18529,
    "bingham": 24579,
    "shredded": 29022,
    "netflix": 20907,
    "descendant": 12608,
    "korea": 4420,
    "aware": 5204,
    "##\u05d7": 29794,
    "regard": 7634,
    "kashmir": 13329,
    "lowry": 27281,
    "bali": 20222,
    "tq": 28816,
    "niccolo": 27033,
    "cora": 17195,
    "\u0638": 1287,
    "borders": 6645,
    "##nsky": 25655,
    "scare": 12665,
    "mandatory": 10915,
    "storage": 5527,
    "##sson": 7092,
    "neill": 11511,
    "mortality": 13356,
    "proteins": 8171,
    "appleton": 26050,
    "valuation": 26004,
    "[unused600]": 605,
    "dinner": 4596,
    "leinster": 15684,
    "[unused110]": 115,
    "fragrance": 24980,
    "attached": 4987,
    "boarded": 17383,
    "skate": 17260,
    "##llum": 20845,
    "1783": 15331,
    "cedric": 26170,
    "westminster": 9434,
    "##gas": 12617,
    "bending": 14457,
    "exchanged": 10573,
    "railing": 15747,
    "verification": 22616,
    "2021": 25682,
    "andre": 7213,
    "erik": 10240,
    "##uate": 20598,
    "eisenhower": 16551,
    "vital": 8995,
    "##enburg": 12059,
    "##\u0127": 29672,
    "bladed": 27402,
    "##dles": 27822,
    "##ols": 27896,
    "margot": 29210,
    "youth": 3360,
    "emergency": 5057,
    "\u00ba": 1089,
    "begun": 5625,
    "borneo": 15688,
    "arbitration": 18010,
    "discoveries": 15636,
    "eh": 15501,
    "triad": 25355,
    "model": 2944,
    "carousel": 27628,
    "kathryn": 20484,
    "76": 6146,
    "slip": 7540,
    "breeding": 8119,
    "manually": 21118,
    "choke": 16769,
    "##ult": 11314,
    "hermann": 12224,
    "employers": 12433,
    "susan": 6294,
    "biennale": 21140,
    "dj": 6520,
    "rasped": 28459,
    "employ": 12666,
    "##illon": 20343,
    "engages": 24255,
    "clapped": 18310,
    "##\u116d": 30013,
    "##\u0627": 25573,
    "dinamo": 22306,
    "temporarily": 8184,
    "choir": 6596,
    "wee": 16776,
    "communion": 15661,
    "##dor": 7983,
    "venetian": 15510,
    "ideological": 17859,
    "march": 2233,
    "seriousness": 27994,
    "frankfurt": 9780,
    "radial": 15255,
    "parkinson": 20310,
    "silky": 18848,
    "ymca": 26866,
    "dismiss": 19776,
    "jaw": 5730,
    "##ppe": 21512,
    "huff": 21301,
    "ulster": 11059,
    "brightest": 26849,
    "\u062d": 1276,
    "poisonous": 22641,
    "universal": 5415,
    "[unused854]": 859,
    "settlers": 7322,
    "espionage": 21003,
    "recalled": 7383,
    "seismic": 22630,
    "##havan": 24652,
    "greeted": 11188,
    "iaaf": 21259,
    "##nington": 23155,
    "matthew": 5487,
    "##\u0292": 29704,
    "##block": 23467,
    "fatty": 19101,
    "crimes": 6997,
    "correction": 18140,
    "##olf": 28027,
    "curb": 13730,
    "penn": 9502,
    "heirs": 15891,
    "classes": 4280,
    "el": 3449,
    "charter": 6111,
    "##ogenic": 24278,
    "acquaintances": 29409,
    "##\u0917": 29853,
    "##cho": 9905,
    "fremont": 22550,
    "nebula": 25677,
    "surrounded": 5129,
    "shelf": 11142,
    "\ufb02": 1985,
    "jacket": 6598,
    "kissing": 7618,
    "assets": 7045,
    "mongols": 22235,
    "nearest": 7205,
    "frequently": 4703,
    "##\u7cf9": 30460,
    "##ingly": 15787,
    "##ooping": 29046,
    "caldwell": 16589,
    "orphans": 21478,
    "pink": 5061,
    "juniors": 16651,
    "premise": 18458,
    "pieter": 23759,
    "233": 22115,
    "karl": 6382,
    "178": 19289,
    "[unused98]": 99,
    "ahead": 3805,
    "redevelopment": 15582,
    "health": 2740,
    "holden": 9988,
    "dazed": 19720,
    "##firm": 27972,
    "distances": 12103,
    "fauna": 15018,
    "single": 2309,
    "\u092f": 1332,
    "drunk": 7144,
    "minor": 3576,
    "saudi": 8174,
    "ass": 4632,
    "thompson": 5953,
    "widely": 4235,
    "anarchy": 26395,
    "[unused991]": 996,
    "sound": 2614,
    "indirectly": 17351,
    "enriched": 25202,
    "luckily": 15798,
    "receptionist": 23775,
    "\u05e3": 1260,
    "retired": 3394,
    "simulations": 24710,
    "fraternity": 13577,
    "scrap": 15121,
    "myrtle": 21381,
    "##\u2154": 30110,
    "magnum": 19691,
    "relegated": 7049,
    "slipping": 11426,
    "aa": 9779,
    "dull": 10634,
    "somali": 16831,
    "homestead": 14473,
    "[unused246]": 251,
    "##lassified": 24938,
    "##ity": 3012,
    "interceptions": 18387,
    "statehood": 28000,
    "##ma": 2863,
    "carole": 24348,
    "##ites": 7616,
    "tucson": 17478,
    "[unused167]": 172,
    "youths": 19634,
    "bend": 8815,
    "##ability": 8010,
    "note": 3602,
    "enables": 12939,
    "confessed": 14312,
    "##itarian": 25691,
    "frederic": 15296,
    "muslims": 7486,
    "sadness": 12039,
    "tumor": 13656,
    "created": 2580,
    "1632": 28216,
    "autobiographical": 18534,
    "monograph": 24039,
    "mouse": 8000,
    "nominated": 4222,
    "[unused333]": 338,
    "harpsichord": 26504,
    "hummed": 26747,
    "dorsal": 12759,
    "amos": 13744,
    "motto": 12652,
    "chair": 3242,
    "productivity": 15836,
    "book": 2338,
    "rowing": 12037,
    "unpopular": 19657,
    "rugby": 4043,
    "cum": 13988,
    "macleod": 23075,
    "wc": 15868,
    "525": 25621,
    "new": 2047,
    "1714": 25241,
    "venues": 9356,
    "##lau": 17298,
    "leon": 6506,
    "swear": 8415,
    "venus": 11691,
    "bonnet": 24367,
    "fx": 23292,
    "elliot": 11759,
    "##me": 4168,
    "constituent": 13794,
    "op": 6728,
    "harta": 26283,
    "##bner": 29388,
    "wallis": 24029,
    "longer": 2936,
    "pension": 11550,
    "325": 19652,
    "echoed": 10187,
    "disadvantaged": 27322,
    "ban": 7221,
    "hospitals": 8323,
    "simplest": 21304,
    "smallest": 10479,
    "sharks": 12004,
    "dorian": 16092,
    "##kind": 18824,
    "educated": 5161,
    "elena": 9060,
    "delaying": 29391,
    "luz": 26214,
    "stokes": 18716,
    "becoming": 3352,
    "##ains": 28247,
    "innovative": 9525,
    "lurking": 24261,
    "##beam": 28302,
    "hoarse": 21221,
    "when": 2043,
    "friendship": 6860,
    "##jhl": 29001,
    "com": 4012,
    "##iest": 10458,
    "[unused113]": 118,
    "barnes": 9957,
    "evolutionary": 12761,
    "bureaucracy": 25934,
    "##may": 27871,
    "lifelong": 13506,
    "elegance": 27745,
    "aggregate": 9572,
    "phenomenon": 9575,
    "winding": 12788,
    "##tung": 21847,
    "taxis": 25964,
    "lc": 29215,
    "chieftain": 26625,
    "lap": 5001,
    "alive": 4142,
    "##tus": 5809,
    "264": 21611,
    "##cer": 17119,
    "hammered": 25756,
    "media": 2865,
    "gloucester": 13370,
    "klan": 26613,
    "worked": 2499,
    "eagerly": 17858,
    "asthma": 26180,
    "roberts": 7031,
    "sumatra": 18262,
    "relaunched": 26391,
    "seemingly": 9428,
    "interactive": 9123,
    "wouldn": 2876,
    "fascist": 14870,
    "vatican": 12111,
    "software": 4007,
    "accessory": 25339,
    "essential": 6827,
    "sentiments": 23541,
    "stump": 22475,
    "occurred": 4158,
    "helps": 7126,
    "kylie": 9008,
    "##lick": 25230,
    "ariel": 16126,
    "insane": 9577,
    "mata": 22640,
    "secretly": 10082,
    "chill": 10720,
    "greenberg": 24190,
    "viper": 17947,
    "exile": 8340,
    "hyderabad": 13624,
    "##tford": 26341,
    "moon": 4231,
    "ceramics": 17314,
    "mitochondrial": 23079,
    "scarf": 18982,
    "traumatic": 19686,
    "pinyin": 9973,
    "secretariat": 15128,
    "joking": 16644,
    "gallery": 3916,
    "wanderers": 14237,
    "billionaire": 22301,
    "happiness": 8404,
    "panicked": 16035,
    "commanders": 11437,
    "positively": 13567,
    "cooke": 16546,
    "vita": 19300,
    "writer": 3213,
    "circuits": 13782,
    "samurai": 16352,
    "america": 2637,
    "maintaining": 8498,
    "victorious": 13846,
    "[unused878]": 883,
    "guinness": 17323,
    "closely": 4876,
    "attested": 18470,
    "emerges": 19391,
    "characterised": 17253,
    "cheltenham": 18763,
    "shirts": 11344,
    "##\u0e07": 29946,
    "vernon": 11447,
    "jarrett": 24503,
    "[unused835]": 840,
    "##tral": 21493,
    "chase": 5252,
    "1755": 21417,
    "galileo": 21514,
    "vidhan": 28590,
    "refuses": 10220,
    "[unused319]": 324,
    "sandwich": 11642,
    "sphinx": 27311,
    "\u209b": 1570,
    "marks": 6017,
    "illuminated": 14640,
    "written": 2517,
    "##ehan": 24660,
    "119": 13285,
    "wounding": 27285,
    "canterbury": 9976,
    "pounder": 20091,
    "gleaming": 18242,
    "cortes": 22242,
    "inspired": 4427,
    "harding": 15456,
    "oval": 9242,
    "cantor": 26519,
    "fascinating": 17160,
    "royalties": 25335,
    "drums": 3846,
    "##elled": 21148,
    "##text": 18209,
    "smile": 2868,
    "kolkata": 13522,
    "haired": 10681,
    "\u0987": 1349,
    "##\u540c": 30320,
    "orange": 4589,
    "rosary": 28291,
    "phd": 8065,
    "newport": 9464,
    "langley": 19094,
    "julio": 15090,
    "compact": 9233,
    "lounge": 11549,
    "bullshit": 14636,
    "##chu": 20760,
    "tunis": 25317,
    "literature": 3906,
    "##inations": 22045,
    "controllers": 21257,
    "lauded": 26507,
    "darrell": 23158,
    "rabbi": 7907,
    "attending": 7052,
    "##word": 18351,
    "##eded": 19082,
    "davey": 20436,
    "havana": 15278,
    "populations": 7080,
    "gretchen": 21625,
    "##\u5dff": 30363,
    "betty": 9306,
    "beam": 7504,
    "issued": 3843,
    "\u05d5": 1246,
    "ar": 12098,
    "##drome": 29171,
    "sant": 15548,
    "cardiovascular": 22935,
    "lama": 18832,
    "bodyguard": 16174,
    "recognition": 5038,
    "lips": 2970,
    "sweep": 11740,
    "##mento": 23065,
    "##ak": 4817,
    "feeding": 8521,
    "debt": 7016,
    "deborah": 15555,
    "en": 4372,
    "experienced": 5281,
    "editors": 10195,
    "encouraging": 11434,
    "siblings": 9504,
    "maintain": 5441,
    "richie": 14411,
    "devastated": 13879,
    "veto": 22102,
    "typed": 21189,
    "carpathian": 26349,
    "##nos": 15460,
    "##<": 29629,
    "kitten": 18401,
    "##rh": 25032,
    "announcement": 8874,
    "[unused989]": 994,
    "reluctant": 11542,
    "##walker": 26965,
    "asked": 2356,
    "\u0445": 1200,
    "##\u308c": 30214,
    "##nac": 18357,
    "viable": 14874,
    "noise": 5005,
    "aviator": 24035,
    "original": 2434,
    "wagons": 14525,
    "protects": 18227,
    "\u0993": 1352,
    "expulsion": 18272,
    "sexual": 4424,
    "uncomfortably": 22502,
    "thereby": 8558,
    "motorcycles": 18580,
    "blades": 10491,
    "hidalgo": 24715,
    "um": 8529,
    "saxony": 13019,
    "\u1162": 1471,
    "[unused740]": 745,
    "##lewood": 26580,
    "prompting": 15870,
    "ripley": 25231,
    "bipolar": 29398,
    "##\u0928": 29863,
    "amore": 26297,
    "vein": 12818,
    "tended": 11121,
    "moose": 17716,
    "serial": 7642,
    "##,": 29623,
    "allows": 4473,
    "admiral": 5902,
    "armoured": 11104,
    "edith": 13257,
    "##tsky": 26824,
    "travers": 29053,
    "walls": 3681,
    "cody": 13326,
    "##owed": 15096,
    "observers": 14009,
    "option": 5724,
    "drain": 12475,
    "freestyle": 9817,
    "domination": 17882,
    "claim": 4366,
    "ni": 9152,
    "tooth": 11868,
    "##lings": 11227,
    "shin": 12277,
    "regulate": 15176,
    "bose": 21299,
    "##lynn": 27610,
    "##\u05da": 29797,
    "essex": 8862,
    "crystals": 14438,
    "earl": 4656,
    "connection": 4434,
    "\u308c": 1688,
    "requirement": 9095,
    "##uram": 27618,
    "##zh": 27922,
    "thus": 2947,
    "pcs": 27019,
    "charlotte": 5904,
    "philips": 19087,
    "buckled": 26368,
    "##lat": 20051,
    "##yne": 9654,
    "certificate": 8196,
    "wasp": 19411,
    "bastion": 26829,
    "##dos": 12269,
    "armchair": 29372,
    "[unused25]": 26,
    "stereo": 12991,
    "iihf": 26904,
    "69": 6353,
    "##\u209a": 30097,
    "shreveport": 23740,
    "##\uff0c": 30515,
    "cease": 13236,
    "dynasties": 23014,
    "entirety": 15700,
    "##ezer": 25733,
    "measured": 7594,
    "autonomy": 12645,
    "34": 4090,
    "coefficient": 19064,
    "shop": 4497,
    "##uming": 24270,
    "grasses": 21620,
    "horsemen": 25431,
    "##\u057d": 29781,
    "sustainable": 9084,
    "sidewalk": 11996,
    "movement": 2929,
    "murray": 6264,
    "riddle": 21834,
    "\u2f65": 1634,
    "carp": 29267,
    "pilgrimage": 14741,
    "bypass": 11826,
    "complexes": 15420,
    "carolina": 3792,
    "implication": 25323,
    "##\u0f58": 29968,
    "raked": 22438,
    "##nding": 15683,
    "salle": 18005,
    "dom": 14383,
    "bartender": 15812,
    "pots": 18911,
    "##hli": 27766,
    "creations": 20677,
    "redskins": 17461,
    "hell": 3109,
    "coordinator": 10669,
    "##lord": 19980,
    "##ude": 12672,
    "almost": 2471,
    "\u044b": 1206,
    "text": 3793,
    "somewhat": 5399,
    "\u0b95": 1382,
    "##qa": 19062,
    "restraints": 28054,
    "\u00b0c": 6362,
    "hand": 2192,
    "fault": 6346,
    "playful": 18378,
    "dreams": 5544,
    "##fles": 28331,
    "##uaries": 22579,
    "emphasizing": 22671,
    "danny": 6266,
    "zeta": 23870,
    "whole": 2878,
    "yi": 12316,
    "##ishment": 21808,
    "doubling": 19383,
    "\u6211": 1855,
    "##\u00a6": 29649,
    "blending": 23293,
    "16": 2385,
    "ordained": 9492,
    "weimar": 20695,
    "remarks": 12629,
    "blue": 2630,
    "[unused862]": 867,
    "recreation": 8640,
    "[unused444]": 449,
    "wisdom": 9866,
    "property": 3200,
    "quincy": 16141,
    "milling": 22491,
    "1760": 19096,
    "delegates": 10284,
    "callum": 15229,
    "stamps": 12133,
    "[unused551]": 556,
    "transmitted": 11860,
    "born": 2141,
    "memorial": 3986,
    "loire": 20399,
    "bridges": 7346,
    "enveloped": 25407,
    "feelings": 5346,
    "##lass": 27102,
    "##lda": 15150,
    "warmly": 22775,
    "\u1105": 1458,
    "romney": 19615,
    "streams": 9199,
    "\u0435": 1185,
    "archers": 23118,
    "pendleton": 24349,
    "hill": 2940,
    "courses": 5352,
    "indictment": 24265,
    "bum": 26352,
    "attempted": 4692,
    "jogging": 28233,
    "resigned": 5295,
    "surveyor": 17169,
    "bus": 3902,
    "knowles": 22815,
    "contribution": 6691,
    "##aus": 20559,
    "rebuild": 14591,
    "scared": 6015,
    "aimed": 6461,
    "clash": 13249,
    "shrub": 15751,
    "##eis": 17580,
    "voyages": 21993,
    "##lls": 12718,
    "yucatan": 28631,
    "hastily": 15789,
    "\u091c": 1319,
    "seymour": 13254,
    "latin": 3763,
    "dh": 28144,
    "realises": 25924,
    "1889": 6478,
    "inferno": 21848,
    "manchu": 26650,
    "pointedly": 28713,
    "tragic": 13800,
    "panel": 5997,
    "graduates": 10845,
    "##cake": 17955,
    "cp": 18133,
    "blooms": 29037,
    "index": 5950,
    "##\u30b3": 30230,
    "informing": 21672,
    "[unused365]": 370,
    "clones": 24418,
    "1832": 10212,
    "assess": 14358,
    "##rco": 29566,
    "dolores": 21544,
    "zimmerman": 27946,
    "atletico": 16132,
    "rum": 19379,
    "flower": 6546,
    "elm": 17709,
    "sisters": 5208,
    "warner": 6654,
    "severe": 5729,
    "##gis": 17701,
    "[unused186]": 191,
    "optic": 22816,
    "\u2502": 1616,
    "turbulence": 29083,
    "daytona": 18226,
    "suburb": 7575,
    "mirza": 18366,
    "migrate": 22806,
    "inflation": 14200,
    "##\u1109": 29997,
    "determines": 16463,
    "##istan": 23137,
    "cmll": 25395,
    "blossoms": 28766,
    "innsbruck": 28914,
    "##vir": 21663,
    "319": 26499,
    "ashes": 11289,
    "denoted": 19537,
    "grades": 7022,
    "humid": 14178,
    "inaugural": 7725,
    "[unused775]": 780,
    "provides": 3640,
    "jed": 24401,
    "tactics": 9887,
    "assumption": 11213,
    "##lese": 24527,
    "behavior": 5248,
    "receives": 8267,
    "charm": 11084,
    "appointing": 28050,
    "\u2078": 1542,
    "fingered": 28842,
    "angrily": 14136,
    "apples": 18108,
    "##\u043b": 29436,
    "priests": 8656,
    "chapter": 3127,
    "adored": 28456,
    "newman": 10625,
    "lump": 15116,
    "collaborations": 17437,
    "##bre": 13578,
    "pools": 12679,
    "295": 21679,
    "undrafted": 21347,
    "announcements": 25674,
    "isn": 3475,
    "oath": 11292,
    "insert": 19274,
    "clare": 11152,
    "hands": 2398,
    "##32": 16703,
    "sultanate": 21308,
    "stefano": 19618,
    "businessman": 6883,
    "pained": 22295,
    "hana": 26048,
    "msc": 23794,
    "fascination": 18987,
    "anatolia": 23747,
    "1685": 25053,
    "wealthiest": 27809,
    "singing": 4823,
    "policeman": 14460,
    "##hdi": 22960,
    "##ndi": 16089,
    "residues": 22644,
    "\u68ee": 1882,
    "academia": 16926,
    "hellenic": 23122,
    "admission": 9634,
    "\u1103": 1457,
    "detected": 11156,
    "lewis": 4572,
    "wizard": 10276,
    "##cca": 16665,
    "protests": 8090,
    "oils": 20631,
    "##oki": 23212,
    "dwellings": 16707,
    "egg": 8288,
    "heating": 10808,
    "express": 4671,
    "possessions": 13689,
    "[unused916]": 921,
    "##uo": 19098,
    "##yal": 21095,
    "av": 20704,
    "raj": 11948,
    "gibbs": 15659,
    "##smith": 21405,
    "voss": 24878,
    "pga": 14198,
    "##logy": 6483,
    "##dun": 27584,
    "adhere": 25276,
    "struggled": 6915,
    "##\u03bf": 29730,
    "brave": 9191,
    "##ision": 19969,
    "prostitute": 19215,
    "\u0927": 1326,
    "biological": 6897,
    "runways": 24578,
    "air": 2250,
    "##\u8857": 30472,
    "timothy": 10805,
    "\u30b5": 1705,
    "demons": 7942,
    "outfit": 11018,
    "##verance": 21998,
    "mill": 4971,
    "reviewing": 15252,
    "ghetto": 17276,
    "vegetation": 10072,
    "whorls": 25637,
    "[unused879]": 884,
    "month": 3204,
    "##ls": 4877,
    "engravings": 28611,
    "##bbing": 23200,
    "##stellar": 29028,
    "##\u0628": 29816,
    "##\u98df": 30504,
    "\u3051": 1654,
    "systematic": 11778,
    "confinement": 21551,
    "##\u03b7": 24824,
    "division": 2407,
    "selma": 28112,
    "asleep": 6680,
    "##vet": 19510,
    "deserve": 10107,
    "removal": 8208,
    "conversation": 4512,
    "120": 6036,
    "##words": 22104,
    "ness": 23384,
    "##\u00a1": 29644,
    "burns": 7641,
    "##rro": 18933,
    "dragged": 7944,
    "tulsa": 16631,
    "\u79be": 1927,
    "kyushu": 25885,
    "hernandez": 13688,
    "die": 3280,
    "planting": 14685,
    "[unused295]": 300,
    "diversity": 8906,
    "##tal": 9080,
    "##uation": 14505,
    "1715": 22606,
    "obscured": 23649,
    "##il": 4014,
    "visitation": 28877,
    "bothered": 11250,
    "rouge": 12801,
    "\u52a0": 1779,
    "##ressed": 16119,
    "##es": 2229,
    "noun": 15156,
    "confessions": 21444,
    "rbis": 23583,
    "##ego": 20265,
    "duties": 5704,
    "verse": 7893,
    "resumed": 7943,
    "voltage": 10004,
    "##itz": 8838,
    "##oped": 24174,
    "nelly": 29498,
    "investigator": 14064,
    "roughly": 5560,
    "##kus": 22332,
    "tabloid": 24173,
    "kerr": 14884,
    "tasmanian": 21394,
    "postseason": 17525,
    "lark": 23404,
    "dozens": 9877,
    "photographs": 7008,
    "electro": 16175,
    "regretted": 18991,
    "cyclone": 11609,
    "lara": 13679,
    "stung": 19280,
    "##lette": 27901,
    "denis": 11064,
    "robbery": 13742,
    "bust": 13950,
    "clinics": 17865,
    "boardwalk": 29496,
    "##ating": 5844,
    "##just": 29427,
    "modernized": 27140,
    "extended": 3668,
    "##tm": 21246,
    "instead": 2612,
    "##\u3051": 30180,
    "hickory": 28158,
    "populated": 10357,
    "\u1d49": 1499,
    "jumps": 14523,
    "oxford": 4345,
    "hardness": 23608,
    "noticeable": 17725,
    "\u0bbf": 1396,
    "##ddling": 21814,
    "banker": 13448,
    "[unused373]": 378,
    "mace": 19382,
    "exploding": 20728,
    "undergoes": 29129,
    "integral": 9897,
    "dev": 16475,
    "##\u963f": 30497,
    "urdu": 12454,
    "spaced": 19835,
    "1648": 22533,
    "wide": 2898,
    "immersed": 26275,
    "##ance": 6651,
    "##fted": 18915,
    "impact": 4254,
    "##tered": 14050,
    "\u5973": 1815,
    "analytic": 23521,
    "envy": 21103,
    "outgoing": 22011,
    "siberia": 16881,
    "blew": 8682,
    "75th": 25092,
    "##meyer": 24344,
    "equity": 10067,
    "ignited": 22395,
    "##rra": 11335,
    "1823": 12522,
    "bei": 21388,
    "achievements": 10106,
    "commissioning": 21612,
    "veins": 9607,
    "[unused503]": 508,
    "town": 2237,
    "ptolemy": 23517,
    "structured": 14336,
    "cardboard": 19747,
    "pilot": 4405,
    "95": 5345,
    "##late": 13806,
    "cornice": 27848,
    "##\u0915": 29851,
    "\u2116": 1578,
    "##\u2264": 30135,
    "\u05db": 1252,
    "##economic": 23035,
    "norwegian": 5046,
    "motivated": 12774,
    "cook": 5660,
    "val": 11748,
    "thief": 12383,
    "hated": 6283,
    "greenfield": 26713,
    "philadelphia": 4407,
    "instructed": 10290,
    "##ear": 14644,
    "illnesses": 24757,
    "freight": 8441,
    "elephant": 10777,
    "remarried": 19316,
    "to": 2000,
    "pass": 3413,
    "turrets": 21088,
    "ashland": 24346,
    "obliged": 14723,
    "gonzales": 24334,
    "kazakhstan": 11769,
    "representatives": 4505,
    "[unused780]": 785,
    "##ect": 22471,
    "##borg": 11755,
    "purchasing": 13131,
    "burnett": 13829,
    "wavelengths": 29263,
    "worlds": 8484,
    "solitary": 14348,
    "##(": 29619,
    "gibbons": 22194,
    "compressor": 29329,
    "privileges": 14310,
    "##\u0905": 29847,
    "formula": 5675,
    "believing": 8929,
    "meaningful": 15902,
    "depending": 5834,
    "[unused213]": 218,
    "include": 2421,
    "##dalen": 26414,
    "example": 2742,
    "1901": 5775,
    "edouard": 21627,
    "priorities": 18402,
    "##kovich": 28195,
    "wishes": 8996,
    "[unused560]": 565,
    "lame": 20342,
    "subcommittee": 18052,
    "franciscan": 19420,
    "\u4e0b": 1743,
    "winter": 3467,
    "##our": 8162,
    "kimberly": 23729,
    "aztec": 25245,
    "annum": 28907,
    "ourselves": 9731,
    "violating": 20084,
    "posse": 25751,
    "\u6cd5": 1901,
    "attend": 5463,
    "beyond": 3458,
    "wendy": 12815,
    "##kur": 18569,
    "52": 4720,
    "\u795e": 1925,
    "##neil": 27276,
    "priority": 9470,
    "jul": 21650,
    "constrained": 27570,
    "geneva": 9810,
    "cleopatra": 22003,
    "[unused565]": 570,
    "interfaces": 19706,
    "lodged": 20451,
    "reputed": 22353,
    "purple": 6379,
    "rains": 15811,
    "taipei": 14004,
    "projecting": 18398,
    "##icing": 23553,
    "1750": 18171,
    "portugal": 5978,
    "spain": 3577,
    "immortality": 20107,
    "weeds": 20777,
    "##lita": 27606,
    "flying": 3909,
    "##ritan": 25279,
    "khan": 4967,
    "brigade": 4250,
    "spikes": 19547,
    "rail": 4334,
    "vents": 28287,
    "manager": 3208,
    "##wei": 19845,
    "battista": 28422,
    "cocoa": 22940,
    "##lock": 7878,
    "burke": 9894,
    "ipa": 24531,
    "is": 2003,
    "##atus": 15590,
    "remington": 25282,
    "unmanned": 24075,
    "##llus": 20159,
    "1712": 28460,
    "kat": 10645,
    "pistol": 8779,
    "upgrade": 12200,
    "##essed": 23656,
    "filmmakers": 16587,
    "suggests": 6083,
    "protocol": 8778,
    "email": 10373,
    "lan": 17595,
    "frozen": 7708,
    "[unused942]": 947,
    "passing": 4458,
    "polymer": 17782,
    "desk": 4624,
    "##ache": 15395,
    "1800": 9807,
    "alexandria": 10297,
    "##wick": 7184,
    "bellevue": 26756,
    "placement": 11073,
    "##5": 2629,
    "jimmy": 5261,
    "lyle": 21971,
    "blinded": 20641,
    "pe": 21877,
    "discussions": 10287,
    "lucha": 25390,
    "shape": 4338,
    "chat": 11834,
    "pike": 12694,
    "scholars": 5784,
    "janice": 20029,
    "##anov": 25417,
    "##yar": 13380,
    "pressed": 4508,
    "##z": 2480,
    "merged": 5314,
    "blackness": 19573,
    "##nte": 10111,
    "previously": 3130,
    "emi": 12495,
    "##\u30af": 30228,
    "prematurely": 28179,
    "dean": 4670,
    "na": 6583,
    "scandinavian": 17660,
    "grimly": 22561,
    "solvent": 23735,
    "partnership": 5386,
    "throbbing": 17061,
    "##rot": 21709,
    "dame": 8214,
    "##eson": 21421,
    "calling": 4214,
    "cannon": 8854,
    "streamed": 18498,
    "hopper": 20517,
    "weeping": 19750,
    "##bel": 8671,
    "chicago": 3190,
    "##bridge": 6374,
    "creed": 16438,
    "3": 1017,
    "##quet": 12647,
    "1951": 4131,
    "##wash": 28556,
    "conserved": 19995,
    "##\u0434": 29742,
    "##\u0255": 29680,
    "version": 2544,
    "tan": 9092,
    "##nivorous": 29193,
    "storylines": 22628,
    "intelligence": 4454,
    "##nde": 13629,
    "##chman": 19944,
    "##ore": 5686,
    "mates": 14711,
    "[unused927]": 932,
    "shafts": 20542,
    "should": 2323,
    "[unused685]": 690,
    "commodities": 21955,
    "recognise": 17614,
    "\u0930": 1333,
    "privileged": 21598,
    "##al": 2389,
    "respondents": 25094,
    "convection": 23849,
    "\u09a8": 1366,
    "colleen": 28385,
    "##\u967d": 30499,
    "food": 2833,
    "giorgio": 17697,
    "cow": 11190,
    "arresting": 28427,
    "celebration": 7401,
    "cake": 9850,
    "##\u03bf\u03c5": 26789,
    "##nable": 22966,
    "296": 27200,
    "downhill": 19448,
    "viscount": 12182,
    "rented": 12524,
    "##tok": 18715,
    "elf": 17163,
    "slain": 19668,
    "\u30e7": 1730,
    "disgust": 12721,
    "decor": 25545,
    "wicket": 12937,
    "humboldt": 19249,
    "escape": 4019,
    "breaks": 7807,
    "dunedin": 22020,
    "joker": 19318,
    "lied": 9828,
    "caspian": 25893,
    "##\u2011": 30049,
    "\u028e": 1135,
    "##olis": 20872,
    "reflection": 9185,
    "specialization": 28031,
    "falling": 4634,
    "recipe": 17974,
    "spitfire": 28323,
    "conceal": 19819,
    "rolf": 23381,
    "##iating": 15370,
    "mojo": 28017,
    "assistants": 16838,
    "laden": 14887,
    "coded": 22402,
    "actors": 5889,
    "comparatively": 20172,
    "\u06ba": 1306,
    "##wc": 16526,
    "trousers": 15292,
    "annually": 6604,
    "relieve": 15804,
    "carved": 7844,
    "disgusting": 19424,
    "wrists": 12150,
    "whites": 12461,
    "alright": 10303,
    "iconic": 14430,
    "square": 2675,
    "trap": 8132,
    "mustang": 18851,
    "hike": 21857,
    "trick": 7577,
    "\u3009": 1638,
    "mysteries": 15572,
    "obsession": 17418,
    "polly": 17543,
    "websites": 11744,
    "diabetes": 14671,
    "liquor": 13207,
    "quarry": 12907,
    "swim": 9880,
    "gliding": 20292,
    "engagements": 20583,
    "enjoy": 5959,
    "cash": 5356,
    "roofs": 15753,
    "cas": 25222,
    "stat": 28093,
    "##rien": 23144,
    "devastation": 25594,
    "##ng": 3070,
    "series": 2186,
    "barrage": 19359,
    "explodes": 27583,
    "drugs": 5850,
    "initiatives": 11107,
    "exposing": 14944,
    "juris": 27551,
    "georgie": 20280,
    "accountants": 29114,
    "block": 3796,
    "weren": 4694,
    "charcoal": 18872,
    "cambodian": 24417,
    "##fting": 26169,
    "replacement": 6110,
    "trams": 19216,
    "proceedings": 8931,
    "##lated": 13776,
    "guthrie": 19952,
    "tung": 27079,
    "\u0bb5": 1394,
    "##etto": 20082,
    "help": 2393,
    "crawl": 13529,
    "##unas": 23904,
    "faerie": 27498,
    "connections": 7264,
    "ferguson": 11262,
    "55": 4583,
    "affection": 12242,
    "sherry": 22268,
    "cruise": 8592,
    "enjoying": 9107,
    "thirsty": 24907,
    "drip": 27304,
    "##\u56d7": 30323,
    "pseudonym": 13881,
    "torpedoes": 18544,
    "jacques": 7445,
    "##rda": 13639,
    "contradictory": 27894,
    "##\u5b50": 30342,
    "archway": 28189,
    "frog": 10729,
    "terrorist": 9452,
    "egyptian": 6811,
    "eileen": 20495,
    "constitutes": 17367,
    "zeke": 18270,
    "##ivision": 24607,
    "##cute": 26869,
    "##or": 2953,
    "sloane": 17558,
    "##ncies": 14767,
    "shortlisted": 21353,
    "aggravated": 25817,
    "bucharest": 14261,
    "cooling": 11520,
    "openings": 16556,
    "##yme": 25219,
    "lilly": 14765,
    "innocence": 12660,
    "codex": 15763,
    "centers": 6401,
    "introductory": 23889,
    "bandits": 19088,
    "paranormal": 20725,
    "fortunes": 18023,
    "[unused296]": 301,
    "wil": 19863,
    "archaeological": 7611,
    "expect": 5987,
    "schemes": 11683,
    "1937": 4347,
    "scala": 26743,
    "adoptive": 24787,
    "bases": 7888,
    "register": 4236,
    "will": 2097,
    "tribes": 6946,
    "inspect": 22459,
    "##mini": 25300,
    "leagues": 8121,
    "somebody": 8307,
    "##phic": 17926,
    "pantheon": 24152,
    "germanic": 15139,
    "paterson": 19162,
    "mirrors": 13536,
    "complex": 3375,
    "pointe": 26119,
    "magnificent": 12047,
    "[unused930]": 935,
    "reins": 19222,
    "referencing": 28789,
    "dome": 8514,
    "belongings": 20033,
    "##uch": 10875,
    "[unused183]": 188,
    "##bal": 10264,
    "footage": 8333,
    "multitude": 20889,
    "eastwood": 24201,
    "kato": 27496,
    "calhoun": 22982,
    "carpet": 10135,
    "rows": 10281,
    "hearts": 8072,
    "wasn": 2347,
    "drives": 9297,
    "conscience": 13454,
    "##yad": 25152,
    "##cl": 20464,
    "provide": 3073,
    "foliage": 19624,
    "pains": 20398,
    "##\u2208": 30124,
    "luzon": 21622,
    "smithsonian": 15720,
    "frey": 20068,
    "imaging": 12126,
    "delhi": 6768,
    "contained": 4838,
    "varieties": 9903,
    "khyber": 28416,
    "walnut": 18489,
    "customer": 8013,
    "southbound": 19751,
    "wastewater": 28269,
    "##stand": 21515,
    "addressed": 8280,
    "poses": 22382,
    "##yde": 18124,
    "leaps": 29195,
    "leash": 26834,
    "[unused706]": 711,
    "query": 23032,
    "accreditation": 14893,
    "gasp": 12008,
    "concentrating": 16966,
    "isil": 19600,
    "\u662d": 1868,
    "creditors": 23112,
    "pickering": 27078,
    "jack": 2990,
    "##in": 2378,
    "nuevo": 22250,
    "transporting": 18276,
    "unreasonable": 29205,
    "##onic": 12356,
    "##oed": 29099,
    "mcdonald": 9383,
    "woods": 5249,
    "bias": 13827,
    "fatima": 27596,
    "renegade": 28463,
    "captained": 16041,
    "vulnerable": 8211,
    "year": 2095,
    "peas": 26072,
    "nonlinear": 27400,
    "ironic": 19313,
    "##\u5dde": 30362,
    "nocturnal": 23789,
    "forth": 5743,
    "[unused224]": 229,
    "disrepair": 27799,
    "revisions": 24699,
    "countdown": 18144,
    "1914": 4554,
    "stare": 6237,
    "faith": 4752,
    "wait": 3524,
    "screenplay": 9000,
    "ditch": 14033,
    "consonant": 18265,
    "punching": 19477,
    "biking": 28899,
    "##mour": 20360,
    "subdistrict": 24150,
    "watched": 3427,
    "programs": 3454,
    "##rist": 15061,
    "claudia": 13479,
    "##ock": 7432,
    "done": 2589,
    "##shire": 7430,
    "traders": 13066,
    "lesser": 8276,
    "1658": 28944,
    "geometry": 10988,
    "niagara": 15473,
    "nationalist": 8986,
    "ingram": 23231,
    "183": 18677,
    "safe": 3647,
    "fidelity": 22625,
    "ticked": 26019,
    "rite": 14034,
    "nitrogen": 14114,
    "deleted": 17159,
    "lacy": 19959,
    "arrange": 13621,
    "multiplayer": 17762,
    "dickson": 22076,
    "comedic": 21699,
    "qualifiers": 18956,
    "mu": 14163,
    "romeo": 12390,
    "alternatives": 15955,
    "100": 2531,
    "austro": 16951,
    "##adia": 25205,
    "relegation": 9591,
    "sikhs": 26697,
    "handy": 18801,
    "bravery": 16534,
    "weber": 13351,
    "podium": 14502,
    "ape": 23957,
    "patiently": 19080,
    "jonathan": 5655,
    "cops": 10558,
    "convenience": 15106,
    "sampling": 16227,
    "edo": 18314,
    "##lani": 21141,
    "clarify": 25037,
    "cal": 10250,
    "historia": 19891,
    "##bber": 29325,
    "janet": 9965,
    "alarmed": 19260,
    "##\u1d56": 30040,
    "nc": 13316,
    "domenico": 18638,
    "appearance": 3311,
    "discourse": 15152,
    "zur": 17924,
    "argument": 6685,
    "##atal": 27815,
    "syllable": 16353,
    "adaptive": 19293,
    "membrane": 10804,
    "sighing": 19381,
    "protagonist": 10191,
    "mc": 11338,
    "[unused692]": 697,
    "lettering": 25782,
    "upton": 26900,
    "superiors": 22983,
    "##merie": 28677,
    "##\u2086": 30082,
    "ground": 2598,
    "1803": 12651,
    "estrada": 26482,
    "##\u2248": 30133,
    "localities": 19664,
    "told": 2409,
    "su": 10514,
    "sights": 15925,
    "##ars": 11650,
    "alma": 11346,
    "hind": 17666,
    "quintet": 18109,
    "##clops": 28659,
    "leroy": 19103,
    "piazza": 22463,
    "ontario": 4561,
    "dancing": 5613,
    "6000": 25961,
    "a": 1037,
    "beta": 8247,
    "they": 2027,
    "wholesale": 17264,
    "somehow": 5064,
    "scorer": 10835,
    "##ov": 4492,
    "1991": 2889,
    "payton": 28666,
    "[unused535]": 540,
    "winner": 3453,
    "airlift": 20019,
    "bobbed": 29579,
    "##tablished": 28146,
    "whipping": 23016,
    "balls": 7395,
    "concerts": 6759,
    "352": 28906,
    "undefeated": 15188,
    "[unused860]": 865,
    "china": 2859,
    "cows": 17188,
    "enacted": 11955,
    "belt": 5583,
    "couldn": 2481,
    "safely": 9689,
    "proved": 4928,
    "wetlands": 16630,
    "swiped": 24452,
    "jurgen": 23171,
    "upgraded": 9725,
    "##trip": 24901,
    "parts": 3033,
    "##oe": 8913,
    "tyrone": 18770,
    "slams": 25967,
    "austria": 5118,
    "##lein": 19856,
    "coldly": 24745,
    "1621": 27037,
    "slack": 19840,
    "\u702c": 1905,
    "##dar": 7662,
    "brands": 9639,
    "229": 22777,
    "relied": 13538,
    "post": 2695,
    "##\u0e21": 29951,
    "plaza": 8232,
    "bruise": 24851,
    "\u306e": 1671,
    "brisbane": 7717,
    "##lav": 14973,
    "racetrack": 28435,
    "province": 2874,
    "generation": 4245,
    "fragmentation": 28424,
    "tavern": 13090,
    "##\u056f": 29774,
    "175": 12862,
    "denounced": 17787,
    "institution": 5145,
    "##etic": 16530,
    "##\u1105": 29994,
    "carriages": 17744,
    "##hr": 8093,
    "courthouse": 10816,
    "endless": 10866,
    "magical": 8687,
    "conversion": 7584,
    "##rso": 25301,
    "computational": 15078,
    "platt": 28005,
    "[unused210]": 215,
    "1943": 3826,
    "colon": 16844,
    "offs": 12446,
    "macau": 16878,
    "pillar": 14809,
    "guo": 22720,
    "influx": 18050,
    "##lina": 13786,
    "##osomal": 27642,
    "##vb": 26493,
    "pleasantly": 27726,
    "##pres": 28994,
    "##\u738b": 30435,
    "##nator": 27413,
    "hassan": 13222,
    "anya": 21728,
    "[unused258]": 263,
    "traits": 12955,
    "realistic": 12689,
    "swaying": 21826,
    "differential": 11658,
    "##river": 24352,
    "elsewhere": 6974,
    "##nall": 22270,
    "readiness": 19822,
    "##mbre": 19908,
    "\u30a4": 1695,
    "33": 3943,
    "tremor": 27734,
    "##olt": 27914,
    "torres": 13101,
    "adolescents": 25947,
    "pronouns": 26028,
    "warfare": 8309,
    "lee": 3389,
    "##gur": 27390,
    "##\u0995": 29889,
    "\u672c": 1876,
    "##how": 14406,
    "zones": 10019,
    "taboo": 27505,
    "champions": 3966,
    "miss": 3335,
    "##sed": 6924,
    "non": 2512,
    "allow": 3499,
    "hen": 21863,
    "portion": 4664,
    "inning": 12994,
    "restricting": 26996,
    "saved": 5552,
    "bolsheviks": 28755,
    "##\u0563": 29768,
    "hari": 21291,
    "pepper": 11565,
    "diving": 9404,
    "1645": 26081,
    "backing": 5150,
    "supplied": 8127,
    "jennie": 27557,
    "resolved": 10395,
    "apocalypse": 16976,
    "screen": 3898,
    "\u6a4b": 1885,
    "handkerchief": 23975,
    "1834": 10700,
    "244": 24194,
    "##\u2265": 30136,
    "retribution": 25928,
    "saratoga": 23136,
    "##market": 20285,
    "psychiatry": 18420,
    "notions": 21951,
    "creature": 6492,
    "chop": 24494,
    "##oting": 20656,
    "lancashire": 9638,
    "ava": 10927,
    "##\u22c5": 30141,
    "design": 2640,
    "##pies": 13046,
    "##ray": 9447,
    "stab": 17079,
    "globalization": 24370,
    "mated": 28795,
    "##man": 2386,
    "##zione": 20574,
    "contentious": 29308,
    "1814": 10977,
    "predominant": 21047,
    "dentistry": 26556,
    "heights": 7535,
    "disturbing": 14888,
    "geoff": 14915,
    "composure": 23619,
    "ranking": 5464,
    "610": 19827,
    "gothenburg": 22836,
    "la": 2474,
    "\u0baf": 1390,
    "grin": 5861,
    "##awa": 10830,
    "##nta": 12380,
    "nuremberg": 19346,
    "seeker": 29444,
    "coast": 3023,
    "yarn": 27158,
    "flip": 11238,
    "[unused407]": 412,
    "##\u30d8": 30247,
    "##zza": 20715,
    "bonnie": 12220,
    "\u0f56": 1431,
    "remnants": 11270,
    "glared": 9400,
    "##ldon": 19932,
    "adjutant": 20690,
    "ctv": 28720,
    "deviation": 24353,
    "cuff": 26450,
    "auto": 8285,
    "benefits": 6666,
    "\u0142": 1105,
    "##\u5c1a": 30356,
    "2003": 2494,
    "dealer": 11033,
    "emigrated": 11367,
    "1692": 28622,
    "##manship": 21530,
    "adherence": 29235,
    "array": 9140,
    "smiles": 8451,
    "maxwell": 10691,
    "russo": 17023,
    "institut": 17126,
    "preseason": 20038,
    "aviation": 5734,
    "[unused800]": 805,
    "##\u2032": 30066,
    "caressed": 21473,
    "georgina": 27358,
    "##\u20b1": 30103,
    "consecutive": 5486,
    "[unused305]": 310,
    "guessing": 16986,
    "guerrilla": 15722,
    "depict": 17120,
    "navajo": 22440,
    "grains": 17588,
    "potassium": 18044,
    "pea": 26034,
    "leaks": 29324,
    "##\u092e": 29867,
    "##chi": 5428,
    "poisoning": 16149,
    "\u0290": 1136,
    "fell": 3062,
    "meter": 8316,
    "disposal": 13148,
    "modular": 19160,
    "##om": 5358,
    "absent": 9962,
    "crooked": 15274,
    "##\u66f8": 30397,
    "quoting": 27394,
    "##\u5fc4": 30376,
    "songs": 2774,
    "coronation": 12773,
    "littered": 24777,
    "##\u0e2a": 29956,
    "functions": 4972,
    "##ul": 5313,
    "[unused900]": 905,
    "##tower": 23196,
    "sooner": 10076,
    "ten": 2702,
    "[unused626]": 631,
    "mcguire": 23872,
    "bony": 22678,
    "revoked": 22837,
    "\u06be": 1307,
    "##mm": 7382,
    "gregg": 18281,
    "hoop": 27669,
    "terminology": 18444,
    "[unused750]": 755,
    "beethoven": 15461,
    "[unused573]": 578,
    "exceeds": 23651,
    "furiously": 20322,
    "accommodation": 11366,
    "danzig": 26669,
    "prepare": 7374,
    "properties": 5144,
    "carts": 25568,
    "variety": 3528,
    "theft": 11933,
    "cary": 20533,
    "frs": 25188,
    "[unused483]": 488,
    "##\u6771": 30405,
    "reelected": 20847,
    "cia": 9915,
    "session": 5219,
    "rovers": 9819,
    "plane": 4946,
    "herbert": 7253,
    "137": 14989,
    "cents": 16653,
    "prize": 3396,
    "continual": 27222,
    "astonishment": 23819,
    "shared": 4207,
    "##\u7f8e": 30461,
    "cl": 18856,
    "favourable": 18731,
    "forum": 7057,
    "streaming": 11058,
    "nominal": 15087,
    "ultrasound": 27312,
    "\u11a8": 1484,
    "vera": 12297,
    "looting": 29367,
    "silicon": 13773,
    "situation": 3663,
    "markings": 13967,
    "##kon": 19648,
    "apparel": 26278,
    "mane": 23055,
    "mar": 9388,
    "intimate": 10305,
    "economies": 18730,
    "425": 23285,
    "scripture": 18919,
    "tentacles": 24719,
    "##iving": 14966,
    "jaenelle": 20757,
    "apologize": 12134,
    "##vot": 22994,
    "##zer": 6290,
    "matching": 9844,
    "picks": 11214,
    "stuffed": 11812,
    "\u00f7": 1099,
    "reclaimed": 23119,
    "ascended": 19644,
    "saves": 13169,
    "##ggy": 22772,
    "infrared": 14611,
    "pioneer": 7156,
    "1887": 6837,
    "##iki": 17471,
    "##ml": 19968,
    "1720": 23535,
    "##hp": 22269,
    "[unused943]": 948,
    "led": 2419,
    "slowed": 9784,
    "entrepreneurs": 17633,
    "##tera": 14621,
    "robust": 15873,
    "resigning": 24642,
    "java": 9262,
    "breuning": 18177,
    "afterlife": 25115,
    "stalls": 19753,
    "muscles": 6650,
    "legends": 9489,
    "shifts": 12363,
    "averaging": 14985,
    "aug": 15476,
    "aston": 14327,
    "##ora": 6525,
    "inspire": 18708,
    "astonishing": 26137,
    "##ciful": 26336,
    "battles": 7465,
    "mongolia": 13906,
    "periphery": 23275,
    "intrigued": 18896,
    "martial": 7761,
    "dependent": 7790,
    "##dm": 22117,
    "rallies": 22867,
    "applicant": 23761,
    "consider": 5136,
    "loosen": 29476,
    "odi": 21045,
    "rendezvous": 20558,
    "pierce": 9267,
    "realization": 12393,
    "specialists": 15744,
    "shen": 21882,
    "exceptionally": 17077,
    "mcconnell": 28514,
    "lively": 17133,
    "##\u30cf": 30244,
    "shrieked": 22383,
    "tensions": 13136,
    "spare": 8622,
    "simplified": 11038,
    "##31": 21486,
    "majestic": 22337,
    "slipped": 5707,
    "1881": 7005,
    "##fare": 17883,
    "exhibiting": 22922,
    "qing": 13282,
    "##sti": 16643,
    "elegant": 11552,
    "##mble": 19661,
    "highland": 10983,
    "hellenistic": 27464,
    "eponymous": 15248,
    "warned": 7420,
    "##keeper": 13106,
    "adler": 17969,
    "##ciation": 23247,
    "fledged": 26712,
    "milk": 6501,
    "##arts": 20591,
    "##masters": 27751,
    "##lman": 12624,
    "exchequer": 28889,
    "similar": 2714,
    "urbana": 27929,
    "[unused461]": 466,
    "broken": 3714,
    "amounts": 8310,
    "longitudinal": 20134,
    "celaena": 29252,
    "benito": 23595,
    "madeline": 16974,
    "[unused647]": 652,
    "pba": 21563,
    "##eria": 11610,
    "##urity": 25137,
    "june": 2238,
    "##nga": 13807,
    "las": 5869,
    "##ogan": 21131,
    "1690": 24765,
    "admired": 12749,
    "##\u90e1": 30485,
    "##ai": 4886,
    "102": 9402,
    "tissues": 14095,
    "agreed": 3530,
    "townships": 13991,
    "arose": 10375,
    "remains": 3464,
    "glacier": 10046,
    "##isi": 17417,
    "##ove": 21818,
    "##pack": 23947,
    "taps": 25316,
    "maia": 23478,
    "bundle": 14012,
    "tissue": 8153,
    "possessed": 8679,
    "dick": 5980,
    "##mate": 8585,
    "weigh": 17042,
    "gentlemen": 11218,
    "rayon": 26810,
    "##lizer": 28863,
    "franklin": 5951,
    "##ency": 11916,
    "modernism": 27254,
    "[unused368]": 373,
    "shows": 3065,
    "congregation": 7769,
    "president": 2343,
    "civilian": 6831,
    "##\u5b89": 30346,
    "555": 29541,
    "[unused37]": 38,
    "boxing": 8362,
    "[unused550]": 555,
    "colombia": 7379,
    "regards": 12362,
    "tackled": 26176,
    "##dora": 24562,
    "##\u0f44": 29963,
    "discovering": 13648,
    "gen": 8991,
    "eyelids": 16544,
    "holiday": 6209,
    "chairs": 8397,
    "requesting": 17942,
    "texas": 3146,
    "intervene": 18793,
    "hook": 8103,
    "patented": 16719,
    "conceptual": 17158,
    "cade": 18615,
    "advisory": 7319,
    "fargo": 23054,
    "phoenix": 6708,
    "foreword": 23059,
    "estates": 8707,
    "auditor": 20964,
    "zip": 14101,
    "leap": 11679,
    "[unused779]": 784,
    "##oof": 21511,
    "##\u90ce": 30484,
    "##a1": 27717,
    "kingdoms": 12028,
    "synth": 24203,
    "malaga": 27382,
    "commons": 7674,
    "ivy": 7768,
    "augusta": 13635,
    "turmoil": 17930,
    "bracing": 25919,
    "rich": 4138,
    "[unused78]": 79,
    "##bes": 12681,
    "declaring": 13752,
    "tubes": 10868,
    "liberties": 18271,
    "##rsten": 19020,
    "empirical": 17537,
    "##nca": 20909,
    "[unused563]": 568,
    "wise": 7968,
    "procession": 14385,
    "daemon": 12828,
    "birds": 5055,
    "marquez": 27320,
    "funds": 5029,
    "dating": 5306,
    "regret": 9038,
    "savage": 9576,
    "moments": 5312,
    "status": 3570,
    "1905": 5497,
    "##ail": 12502,
    "##fort": 13028,
    "##wice": 23425,
    "probing": 28664,
    "gaga": 23332,
    "churchill": 10888,
    "toro": 23790,
    "matters": 5609,
    "plots": 14811,
    "presented": 3591,
    "##bc": 9818,
    "smallpox": 25765,
    "casting": 9179,
    "uno": 27776,
    "serena": 14419,
    "##town": 4665,
    "##bon": 11735,
    "immune": 11311,
    "##hm": 14227,
    "##del": 9247,
    "cheshire": 13789,
    "doorstep": 26581,
    "sting": 12072,
    "##nz": 14191,
    "[unused143]": 148,
    "brandt": 19407,
    "##zek": 24506,
    "deployment": 10813,
    "committees": 9528,
    "1580": 28278,
    "skip": 13558,
    "1934": 4579,
    "##stones": 29423,
    "undoubtedly": 17319,
    "plays": 3248,
    "##kala": 26907,
    "sponsors": 13162,
    "\u0bbe": 1395,
    "bayer": 26367,
    "forthcoming": 16875,
    "easily": 4089,
    "syed": 19740,
    "\u9fb8": 1983,
    "##cision": 28472,
    "adjoining": 13562,
    "laughs": 11680,
    "abel": 16768,
    "nothing": 2498,
    "##ates": 8520,
    "step": 3357,
    "##unes": 26639,
    "willingly": 18110,
    "##stick": 21354,
    "##\u90fd": 30487,
    "werewolf": 12797,
    "pedestal": 24496,
    "fda": 17473,
    "supposed": 4011,
    "45": 3429,
    "accomplishment": 24718,
    "pulitzer": 17618,
    "##art": 8445,
    "he": 2002,
    "##mp": 8737,
    "\u0e15": 1411,
    "stairwell": 22109,
    "nfc": 22309,
    "cole": 5624,
    "nostrils": 15325,
    "##gee": 18372,
    "##\u057f": 29783,
    "vortex": 23463,
    "compton": 18592,
    "subtly": 28797,
    "bernhard": 21432,
    "##nded": 25848,
    "1701": 26059,
    "consultant": 8930,
    "fertile": 14946,
    "hacking": 23707,
    "[unused911]": 916,
    "inhibitors": 25456,
    "##weiler": 22384,
    "domestic": 4968,
    "flavors": 26389,
    "philanthropist": 15246,
    "jana": 23341,
    "sensors": 13907,
    "##isk": 20573,
    "repeal": 21825,
    "toss": 10055,
    "##ttle": 26328,
    "##ucci": 16835,
    "no": 2053,
    "instant": 7107,
    "##rita": 17728,
    "finely": 22126,
    "shortly": 3859,
    "cricket": 4533,
    "[unused755]": 760,
    "##rne": 12119,
    "sundance": 20140,
    "latham": 28737,
    "dewey": 20309,
    "minorities": 14302,
    "jamal": 24132,
    "[unused694]": 699,
    "##tc": 13535,
    "penetrated": 21653,
    "ara": 19027,
    "inviting": 15085,
    "cigar": 19135,
    "japanese": 2887,
    "centimeters": 18119,
    "ruben": 19469,
    "\u1d2e": 1491,
    "\u793e": 1924,
    "hodge": 23148,
    "grupo": 26678,
    "adequate": 11706,
    "2009": 2268,
    "covers": 4472,
    "scots": 12196,
    "liberated": 19553,
    "improves": 24840,
    "##\u30ec": 30260,
    "beetles": 14538,
    "kan": 22827,
    "sabine": 18578,
    "devil": 6548,
    "##sy": 6508,
    "malaya": 19979,
    "29": 2756,
    "kristen": 22435,
    "everett": 15160,
    "nestor": 25397,
    "\u0f66": 1436,
    "portrait": 6533,
    "deteriorated": 20111,
    "glittering": 20332,
    "##\u56fd": 30325,
    "##rup": 21531,
    "numbers": 3616,
    "shoe": 10818,
    "##uche": 19140,
    "injected": 19737,
    "##hom": 23393,
    "tirana": 24631,
    "align": 25705,
    "05": 5709,
    "knesset": 27899,
    "une": 16655,
    "profoundly": 28089,
    "\u5343": 1784,
    "##vik": 13309,
    "bribe": 26470,
    "cunningham": 13652,
    "stein": 14233,
    "bare": 6436,
    "feather": 15550,
    "tyrol": 27193,
    "akin": 17793,
    "prisoner": 7267,
    "##\u05e2": 29805,
    "gunshot": 22077,
    "feast": 9831,
    "prosecuted": 21651,
    "referred": 3615,
    "linguist": 22978,
    "\u03b9": 1163,
    "fleet": 4170,
    "##nden": 25915,
    "receptors": 13833,
    "officially": 3985,
    "career": 2476,
    "repeatedly": 8385,
    "furnished": 19851,
    "competence": 22219,
    "lindsay": 12110,
    "ratings": 8599,
    "immortal": 12147,
    "rumble": 15658,
    "strauss": 16423,
    "250": 5539,
    "contra": 24528,
    "ivo": 28346,
    "migrant": 20731,
    "american": 2137,
    "demi": 27668,
    "palms": 9486,
    "reaching": 4285,
    "regain": 12452,
    "recreated": 29414,
    "##\u7530": 30437,
    "cfl": 18830,
    "uncle": 4470,
    "transfer": 4651,
    "[unused887]": 892,
    "[unused125]": 130,
    "preceding": 11003,
    "##rix": 17682,
    "clayton": 11811,
    "bottle": 5835,
    "romans": 10900,
    "##\u677e": 30406,
    "references": 7604,
    "##wk": 26291,
    "##recht": 28109,
    "accession": 16993,
    "collaborative": 12317,
    "monasteries": 15947,
    "143": 16065,
    "[unused481]": 486,
    "##\u2153": 30109,
    "\u0e27": 1419,
    "ga": 11721,
    "##gina": 20876,
    "##nagar": 14346,
    "900": 7706,
    "15": 2321,
    "##ular": 7934,
    "jackie": 9901,
    "tipperary": 17333,
    "shadows": 6281,
    "##28": 22407,
    "142": 16087,
    "plum": 22088,
    "barnsley": 25139,
    "##raine": 26456,
    "grenada": 29153,
    "greater": 3618,
    "##sham": 21010,
    "incumbent": 7703,
    "lily": 7094,
    "textbook": 16432,
    "expectation": 17626,
    "relief": 4335,
    "artillery": 4893,
    "idiots": 28781,
    "appointed": 2805,
    "dane": 14569,
    "rolling": 5291,
    "##gia": 10440,
    "##b": 2497,
    "bray": 19743,
    "\u4ebb": 1757,
    "feel": 2514,
    "frustrated": 10206,
    "##dorf": 11592,
    "marginal": 14785,
    "trenches": 19874,
    "wilson": 4267,
    "sal": 16183,
    "##lifting": 26644,
    "##vity": 24872,
    "britain": 3725,
    "wolverine": 22162,
    "superhero": 16251,
    "juniper": 29425,
    "wan": 14071,
    "romero": 18290,
    "##wheel": 22920,
    "\u044f": 1210,
    "##wan": 7447,
    "1829": 11523,
    "bernie": 15941,
    "rip": 10973,
    "angelo": 12262,
    "sri": 5185,
    "kidnapped": 11364,
    "conspiracy": 9714,
    "##eza": 28640,
    "planted": 8461,
    "goat": 13555,
    "hears": 14994,
    "challenge": 4119,
    "##ual": 8787,
    "##krishna": 23017,
    "\u02b0": 1140,
    "headlining": 26533,
    "hurricane": 7064,
    "mentoring": 29192,
    "##\uff08": 30513,
    "bitter": 8618,
    "messiah": 22112,
    "ambitions": 19509,
    "iceland": 10399,
    "remembers": 17749,
    "fold": 10671,
    "flames": 7311,
    "##ph": 8458,
    "##ever": 22507,
    "nets": 16996,
    "frequent": 6976,
    "sipped": 17735,
    "tam": 17214,
    "participating": 8019,
    "##ouk": 27967,
    "##log": 21197,
    "hugh": 6621,
    "kenton": 25446,
    "platinum": 8899,
    "ipswich": 15435,
    "##\u6c37": 30421,
    "\u4e5f": 1750,
    "##git": 23806,
    "##sc": 11020,
    "1570": 28881,
    "braves": 13980,
    "##belt": 21561,
    "owned": 3079,
    "thinking": 3241,
    "##odle": 26156,
    "pins": 16300,
    "francais": 22357,
    "classmate": 23175,
    "hopped": 17230,
    "squirrel": 18197,
    "rebellious": 22614,
    "accredited": 11459,
    "##\u2019": 30056,
    "\u03c4": 1174,
    "gregor": 16973,
    "expeditionary": 15372,
    "##sov": 23230,
    "ribbon": 10557,
    "dwell": 23120,
    "outcomes": 13105,
    "\u11b7": 1487,
    "##mat": 18900,
    "directed": 2856,
    "intriguing": 23824,
    "dept": 29466,
    "\u0254": 1112,
    "##otte": 28495,
    "ago": 3283,
    "groaned": 9655,
    "variants": 10176,
    "samantha": 11415,
    "disagree": 21090,
    "killers": 15978,
    "fright": 25966,
    "landlord": 18196,
    "##ulsive": 23004,
    "[unused119]": 124,
    "persisted": 19035,
    "loans": 10940,
    "##bf": 29292,
    "killer": 6359,
    "physical": 3558,
    "##\u09b6": 29910,
    "##\u0bbe": 29931,
    "grand": 2882,
    "standard": 3115,
    "##ibly": 17296,
    "pronunciation": 15498,
    "who": 2040,
    "suddenly": 3402,
    "gestures": 18327,
    "watered": 27129,
    "racing": 3868,
    "gmbh": 18289,
    "bandage": 24446,
    "##lide": 24198,
    "puerto": 5984,
    "quantity": 11712,
    "puzzles": 19672,
    "denver": 7573,
    "anthony": 4938,
    "##lc": 15472,
    "dade": 27647,
    "chris": 3782,
    "athletic": 5188,
    "din": 11586,
    "caliber": 15977,
    "##ung": 5575,
    "gdansk": 21942,
    "##ume": 17897,
    "##lver": 26229,
    "tertiary": 13553,
    "haas": 22996,
    "seam": 25180,
    "newfound": 27608,
    "silent": 4333,
    "##scent": 27654,
    "fairness": 26935,
    "analyzed": 16578,
    "##do": 3527,
    "settle": 7392,
    "atom": 13787,
    "wildcats": 19495,
    "cooks": 26929,
    "##falls": 28067,
    "contributions": 5857,
    "elvis": 12280,
    "topographic": 24254,
    "##nation": 9323,
    "impossible": 5263,
    "##\u0251": 29677,
    "##bert": 8296,
    "fascism": 23779,
    "bay": 3016,
    "proposal": 6378,
    "arcade": 10877,
    "##loading": 18570,
    "inched": 25330,
    "lange": 21395,
    "##\u043a\u0430": 28598,
    "swinging": 11820,
    "administrator": 8911,
    "submerged": 13563,
    "hubert": 15346,
    "committee": 2837,
    "island": 2479,
    "annals": 16945,
    "triggers": 27099,
    "pig": 10369,
    "patch": 8983,
    "##iti": 25090,
    "ter": 28774,
    "loser": 10916,
    "currents": 14731,
    "twenty": 3174,
    "##ns": 3619,
    "consonants": 19694,
    "unpredictable": 21446,
    "tinted": 25577,
    "garrison": 8427,
    "reddy": 18998,
    "alderman": 18977,
    "[unused592]": 597,
    "##tine": 10196,
    "obligation": 14987,
    "drown": 19549,
    "disclose": 26056,
    "malibu": 29047,
    "\u1109": 1461,
    "wat": 28194,
    "##erted": 28728,
    "[unused876]": 881,
    "mbe": 20301,
    "containment": 29174,
    "[unused493]": 498,
    "rim": 11418,
    "oder": 27215,
    "##ities": 6447,
    "[unused316]": 321,
    "bishop": 3387,
    "##roid": 22943,
    "witchcraft": 21599,
    "timber": 7227,
    "hits": 4978,
    "then": 2059,
    "welcoming": 18066,
    "pouring": 13053,
    "jolt": 22538,
    "anastasia": 19447,
    "boroughs": 21413,
    "##tica": 22723,
    "exhibit": 8327,
    "board": 2604,
    "sixteenth": 14683,
    "ling": 17002,
    "lucknow": 23571,
    "ant": 14405,
    "revue": 17480,
    "log": 8833,
    "##mable": 24088,
    "##dhi": 19114,
    "annette": 22521,
    "captures": 19566,
    "yuki": 24924,
    "strip": 6167,
    "provincial": 4992,
    "##pf": 14376,
    "studies": 2913,
    "fitted": 7130,
    "##\u207a": 12744,
    "isotope": 28846,
    "negative": 4997,
    "[unused719]": 724,
    "operative": 12160,
    "minnesota": 5135,
    "privateer": 26790,
    "chet": 25157,
    "chesapeake": 20867,
    "hostage": 13446,
    "guinea": 7102,
    "kgb": 25467,
    "rwanda": 17591,
    "##ya": 3148,
    "aggregation": 28041,
    "accent": 9669,
    "[unused440]": 445,
    "head": 2132,
    "recently": 3728,
    "doi": 9193,
    "defect": 21262,
    "reclamation": 27389,
    "fuck": 6616,
    "[unused401]": 406,
    "herald": 9536,
    "sharma": 14654,
    "fixed": 4964,
    "staging": 15308,
    "vargas": 20556,
    "##\u2500": 30142,
    "scandals": 29609,
    "donated": 6955,
    "##ving": 6455,
    "astros": 22058,
    "dutch": 3803,
    "brief": 4766,
    "plea": 14865,
    "swirling": 16499,
    "##rock": 16901,
    "[unused857]": 862,
    "sa": 7842,
    "##km": 22287,
    "weiss": 17889,
    "670": 25535,
    "unaware": 11499,
    "glow": 8652,
    "mandir": 22700,
    "elliptical": 27213,
    "strain": 10178,
    "elton": 19127,
    "yellow": 3756,
    "##oge": 23884,
    "jake": 5180,
    "1890": 6193,
    "procedures": 8853,
    "philosophical": 9569,
    "wins": 5222,
    "deity": 12764,
    "ciudad": 20759,
    "grover": 25242,
    "comrade": 27661,
    "\u3059": 1658,
    "second": 2117,
    "creators": 17277,
    "205": 16327,
    "fulfillment": 29362,
    "##\u10d0": 29974,
    "depths": 11143,
    "katy": 17870,
    "##rzburg": 29136,
    "##ech": 15937,
    "23rd": 13928,
    "assure": 14306,
    "nay": 29349,
    "gemma": 19073,
    "##\u05dd": 29800,
    "calderon": 28129,
    "munro": 20923,
    "radiation": 8249,
    "##nty": 29405,
    "lila": 19286,
    "airplay": 15341,
    "cinder": 29399,
    "chong": 24008,
    "[unused132]": 137,
    "##osi": 20049,
    "reassuring": 21093,
    "townspeople": 27938,
    "ecclesiastical": 12301,
    "candace": 22905,
    "##ngo": 16656,
    "microscopy": 29105,
    "flexible": 12379,
    "cyclones": 26069,
    "2000": 2456,
    "brothel": 27308,
    "##alis": 13911,
    "granville": 24926,
    "ale": 15669,
    "nikita": 29106,
    "##ited": 17572,
    "[unused261]": 266,
    "vendors": 17088,
    "belle": 9852,
    "facial": 13268,
    "bancroft": 29351,
    "combining": 11566,
    "timor": 19746,
    "ss": 7020,
    "ma": 5003,
    "specific": 3563,
    "risking": 26875,
    "ren": 14916,
    "oxfordshire": 20124,
    "identifies": 14847,
    "wished": 6257,
    "s": 1055,
    "belong": 7141,
    "relic": 24933,
    "pondered": 28347,
    "comprehensive": 7721,
    "##ree": 9910,
    "brianna": 25558,
    "##\u5408": 30318,
    "##vocation": 19152,
    "##dot": 27364,
    "[unused58]": 59,
    "shawn": 13218,
    "smoothly": 15299,
    "insulting": 23979,
    "##guide": 28582,
    "consensus": 10465,
    "##ils": 12146,
    "connector": 19400,
    "[unused936]": 941,
    "[unused482]": 487,
    "find": 2424,
    "millimetres": 13388,
    "##note": 22074,
    "\u201a": 1522,
    "reporters": 12060,
    "\u6e05": 1903,
    "epa": 19044,
    "345": 23785,
    "##oons": 27174,
    "[unused526]": 531,
    "##ense": 16700,
    "object": 4874,
    "johann": 8968,
    "##kra": 22272,
    "##onus": 24891,
    "scroll": 17186,
    "##urable": 23086,
    "ai": 9932,
    "salsa": 26509,
    "closing": 5494,
    "outlines": 22106,
    "treasurer": 10211,
    "##morphism": 19539,
    "sincerely": 25664,
    "curate": 27530,
    "fontaine": 25749,
    "johns": 11545,
    "provisions": 8910,
    "experimented": 20918,
    "demon": 5698,
    "wheelchair": 13204,
    "lille": 22479,
    "ct": 14931,
    "##aris": 23061,
    "liverpool": 6220,
    "combination": 5257,
    "distorted": 19112,
    "dna": 6064,
    "compassionate": 29353,
    "[unused360]": 365,
    "[unused418]": 423,
    "friction": 15012,
    "drying": 17462,
    "overlapping": 20567,
    "[unused227]": 232,
    "fox": 4419,
    "exists": 6526,
    "scored": 3195,
    "spanned": 18212,
    "inhibitor": 24054,
    "##itha": 26054,
    "monetary": 12194,
    "legislative": 4884,
    "showcasing": 27696,
    "volunteer": 6951,
    "builder": 12508,
    "##\u043d": 18947,
    "proximity": 10039,
    "jay": 6108,
    "spread": 3659,
    "##eur": 11236,
    "##hiro": 18334,
    "##estra": 26199,
    "notion": 9366,
    "medical": 2966,
    "[unused226]": 231,
    "checking": 9361,
    "pitches": 19299,
    "##smo": 25855,
    "comeback": 12845,
    "adventurer": 29506,
    "##aia": 27131,
    "numerical": 15973,
    "##atic": 12070,
    "stretches": 14082,
    "changing": 5278,
    "##ort": 11589,
    "lineage": 13321,
    "ea": 19413,
    "##\u0580": 29784,
    "casa": 14124,
    "brewing": 16005,
    "##boot": 27927,
    "staged": 9813,
    "backstage": 20212,
    "nemesis": 21363,
    "yells": 22114,
    "##rained": 27361,
    "##\u026b": 29686,
    "##\u03c9": 29739,
    "##\u201c": 30058,
    "##anda": 13832,
    "##dition": 20562,
    "##\u592b": 30339,
    "obstacles": 15314,
    "1711": 28455,
    "uptown": 28539,
    "##list": 9863,
    "confirmed": 4484,
    "asphalt": 16295,
    "\u77f3": 1922,
    "##sun": 19729,
    "casts": 23942,
    "marx": 13518,
    "##itic": 18291,
    "dangling": 18737,
    "##\u026f": 29688,
    "au": 8740,
    "##\u30e0": 30251,
    "reserves": 8269,
    "administrators": 15631,
    "wolf": 4702,
    "\u2096": 1565,
    "##ggio": 20650,
    "bulldog": 28628,
    "evil": 4763,
    "##rcle": 21769,
    "huskies": 29471,
    "##wr": 13088,
    "flash": 5956,
    "##sle": 25016,
    "mansion": 7330,
    "##dock": 14647,
    "##ln": 19666,
    "independence": 4336,
    "wallet": 15882,
    "pocket": 4979,
    "stomped": 21918,
    "sincerity": 23997,
    "antennae": 28624,
    "salt": 5474,
    "somalia": 14717,
    "attracting": 15411,
    "flyers": 16217,
    "##py": 7685,
    "##urrent": 29264,
    "##miya": 29312,
    "retains": 14567,
    "tonight": 3892,
    "##tadt": 18808,
    "gi": 21025,
    "understand": 3305,
    "failed": 3478,
    "##ulating": 10924,
    "leighton": 26873,
    "##wari": 20031,
    "disguised": 17330,
    "connolly": 21018,
    "##\u30eb": 30259,
    "##itt": 12474,
    "retrieval": 26384,
    "behaviors": 15592,
    "##nova": 13455,
    "critics": 4401,
    "diplomats": 23473,
    "campaigning": 18524,
    "padua": 24941,
    "##\u0268": 29684,
    "stony": 16104,
    "installing": 23658,
    "corpse": 11547,
    "odds": 10238,
    "##ata": 6790,
    "dialects": 11976,
    "##ver": 6299,
    "inmate": 24467,
    "jd": 26219,
    "occurrence": 14404,
    "##\u0570": 29775,
    "##ms": 5244,
    "vfl": 13480,
    "guildford": 26353,
    "swift": 9170,
    "premier": 4239,
    "##cine": 16567,
    "sacks": 14918,
    "tapestry": 25213,
    "anatomical": 28141,
    "159": 18914,
    "doing": 2725,
    "commuter": 14334,
    "##ser": 8043,
    "titanic": 20753,
    "navarro": 23524,
    "leyte": 27214,
    "\u4f50": 1764,
    "[unused137]": 142,
    "debbie": 16391,
    "does": 2515,
    "hectares": 9076,
    "\u1165": 1472,
    "marketing": 5821,
    "hedge": 17834,
    "##\u300d": 30168,
    "chatham": 16727,
    "flank": 12205,
    "leaders": 4177,
    "waterway": 23668,
    "##\u0432": 25529,
    "##hum": 28600,
    "trust": 3404,
    "acquaintance": 18363,
    "kitchens": 26051,
    "liar": 16374,
    "goethe": 23173,
    "##ken": 7520,
    "medicines": 20233,
    "##cope": 16186,
    "osman": 28609,
    "episode": 2792,
    "arena": 5196,
    "constitution": 4552,
    "clothed": 24963,
    "[unused154]": 159,
    "demographics": 28321,
    "##\u2663": 30151,
    "\u092c": 1329,
    "97": 5989,
    "route": 2799,
    "barriers": 13500,
    "flared": 14937,
    "during": 2076,
    "##bir": 17706,
    "##\u0575": 29777,
    "choice": 3601,
    "townland": 23635,
    "pointed": 4197,
    "martina": 23508,
    "shifted": 5429,
    "swept": 7260,
    "##ologies": 20792,
    "peacekeeping": 28364,
    "109": 11518,
    "comparative": 12596,
    "nathan": 7150,
    "405": 23988,
    "##kou": 24861,
    "##ctus": 22675,
    "preferring": 21393,
    "##mir": 14503,
    "shove": 14738,
    "advertisements": 14389,
    "##had": 16102,
    "godfather": 23834,
    "shrink": 22802,
    "regiments": 10435,
    "excelled": 23081,
    "stations": 3703,
    "noon": 11501,
    "lacked": 10858,
    "tailored": 21727,
    "forrest": 16319,
    "obey": 15470,
    "terms": 3408,
    "##ic": 2594,
    "1906": 5518,
    "ian": 4775,
    "04": 5840,
    "pour": 10364,
    "stool": 14708,
    "acidic": 24171,
    "anglia": 24217,
    "##tua": 26302,
    "##usia": 24118,
    "##fies": 14213,
    "replicate": 28024,
    "supplemented": 20585,
    "experiences": 6322,
    "giving": 3228,
    "##\u2202": 30120,
    "happen": 4148,
    "##hism": 23108,
    "hanover": 14393,
    "study": 2817,
    "hilary": 22744,
    "alleging": 23294,
    "##shi": 6182,
    "\u03c1": 1171,
    "49th": 25726,
    "##gawa": 21188,
    "##mc": 12458,
    "1876": 7326,
    "coffee": 4157,
    "selection": 4989,
    "prostate": 25086,
    "##\u6c34": 30419,
    "czechoslovak": 21282,
    "armenia": 10110,
    "erupted": 12591,
    "departing": 15971,
    "regulator": 21618,
    "libya": 12917,
    "##ka": 2912,
    "enabling": 12067,
    "improvement": 7620,
    "citizenship": 9068,
    "\u1d30": 1492,
    "##thi": 15222,
    "honestly": 9826,
    "were": 2020,
    "variables": 10857,
    "garage": 7381,
    "caused": 3303,
    "challenger": 12932,
    "outset": 26674,
    "architecture": 4294,
    "passages": 13768,
    "##bbs": 17226,
    "hundred": 3634,
    "rbi": 16929,
    "glided": 26936,
    "##ulum": 25100,
    "azerbaijan": 8365,
    "auschwitz": 24363,
    "##66": 28756,
    "proton": 20843,
    "bind": 14187,
    "outcome": 9560,
    "\u30b9": 1707,
    "pradesh": 7970,
    "upland": 25770,
    "##pal": 12952,
    "fortifications": 14507,
    "inscriptions": 12920,
    "##ify": 8757,
    "stafford": 15064,
    "1780": 15051,
    "lions": 7212,
    "father": 2269,
    "strait": 11195,
    "##ieving": 25587,
    "influenced": 5105,
    "component": 6922,
    "unexpected": 9223,
    "[unused96]": 97,
    "##astic": 20875,
    "pamphlets": 24752,
    "bursting": 21305,
    "telescope": 12772,
    "k": 1047,
    "passengers": 5467,
    "mo": 9587,
    "performances": 4616,
    "cabinet": 5239,
    "sl": 22889,
    "timer": 25309,
    "traffic": 4026,
    "##are": 12069,
    "bricks": 14219,
    "sergey": 22703,
    "coarse": 20392,
    "##rr": 12171,
    "sanitation": 18723,
    "\u4e3b": 1747,
    "##ches": 8376,
    "ronnie": 11688,
    "gregorian": 25847,
    "credits": 6495,
    "1860": 7313,
    "##liest": 21292,
    "upon": 2588,
    "warehouses": 23319,
    "jason": 4463,
    "motions": 15323,
    "dt": 26718,
    "introducing": 10449,
    "[unused240]": 245,
    "pumping": 14107,
    "indications": 24936,
    "##\u2082": 8229,
    "retrieved": 5140,
    "balloon": 13212,
    ":": 1024,
    "coil": 17085,
    "##\u2030": 30065,
    "[unused128]": 133,
    "##\u00b4": 29658,
    "\u201c": 1523,
    "2019": 10476,
    "\u00b7": 1087,
    "156": 16734,
    "##ii": 6137,
    "collier": 20466,
    "##rte": 19731,
    "project": 2622,
    "##mos": 15530,
    "twitched": 16767,
    "##mind": 23356,
    "massacre": 9288,
    "cavendish": 23570,
    "petersen": 22615,
    "[unused742]": 747,
    "bag": 4524,
    "##\u300b": 30166,
    "hearted": 18627,
    "afc": 10511,
    "innocent": 7036,
    "forests": 6138,
    "sobs": 21503,
    "scattered": 7932,
    "variation": 8386,
    "replacements": 23936,
    "gruff": 27038,
    "spirits": 8633,
    "encouraged": 6628,
    "hopeless": 20625,
    "1837": 9713,
    "harassed": 28186,
    "248": 24568,
    "##wen": 12449,
    "grasp": 10616,
    "refueling": 23026,
    "fabric": 8313,
    "whirled": 17097,
    "##pa": 4502,
    "dinosaur": 15799,
    "hostility": 18258,
    "vinnie": 24214,
    "volunteers": 7314,
    "##eron": 26534,
    "absorbed": 9063,
    "consulate": 19972,
    "maria": 3814,
    "bribes": 29117,
    "individuals": 3633,
    "\u091f": 1320,
    "attendance": 5270,
    "return": 2709,
    "consultation": 16053,
    "sussex": 9503,
    "win": 2663,
    "brick": 5318,
    "remixes": 15193,
    "admits": 14456,
    "baxter": 14664,
    "operation": 3169,
    "jews": 5181,
    "##kia": 21128,
    "electronically": 28926,
    "mid": 3054,
    "betsy": 22396,
    "clouded": 26761,
    "namely": 8419,
    "##\u5ba3": 30349,
    "amber": 8994,
    "pop": 3769,
    "alexei": 21219,
    "pediatric": 23614,
    "bernardino": 21370,
    "batter": 23801,
    "prove": 6011,
    "unusual": 5866,
    "tragedy": 10576,
    "kensington": 17775,
    "\u3044": 1647,
    "peyton": 17931,
    "kuwait": 13085,
    "earle": 23888,
    "tightly": 7371,
    "watershed": 12547,
    "##gel": 12439,
    "shrug": 13409,
    "##sl": 14540,
    "inventions": 21644,
    "750": 9683,
    "specialist": 8325,
    "holders": 13304,
    "alba": 18255,
    "obedience": 22645,
    "bees": 13734,
    "##tones": 11115,
    "dizzy": 14849,
    "permanent": 4568,
    "##\u05db": 29798,
    "croix": 18733,
    "haji": 28174,
    "magnitude": 10194,
    "bravo": 17562,
    "blindly": 25734,
    "ridden": 15230,
    "##als": 9777,
    "##tails": 22081,
    "deficiency": 18888,
    "##\u6226": 30382,
    "aeronautical": 25010,
    "praises": 27128,
    "airmen": 29437,
    "ordinary": 6623,
    "nucleus": 13502,
    "[unused516]": 521,
    "hydra": 26018,
    "##thy": 16921,
    "hoped": 5113,
    "[unused138]": 143,
    "machinery": 10394,
    "##dra": 7265,
    "porter": 8716,
    "adjusting": 19158,
    "flagship": 10565,
    "postgraduate": 15438,
    "##tri": 18886,
    "bach": 10384,
    "overthrow": 16857,
    "rift": 16931,
    "11th": 6252,
    "bal": 28352,
    "vice": 3580,
    "educators": 19156,
    "arab": 5424,
    "camera": 4950,
    "muscular": 13472,
    "##orf": 16347,
    "poe": 18922,
    "lobes": 24423,
    "astro": 28625,
    "hanson": 17179,
    "extinct": 8548,
    "##ulia": 20922,
    "tuck": 18029,
    "nephew": 7833,
    "##val": 10175,
    "violation": 11371,
    "konstantin": 23989,
    "claudius": 25017,
    "flooded": 10361,
    "sporting": 7419,
    "gradual": 16612,
    "##swick": 27720,
    "kerala": 8935,
    "homer": 11525,
    "taft": 19911,
    "##inatory": 28230,
    "canadiens": 21247,
    "bells": 10118,
    "killings": 16431,
    "##hold": 12640,
    "liv": 22135,
    "hotter": 22302,
    "281": 22955,
    "indexed": 25331,
    "small": 2235,
    "grant": 3946,
    "handle": 5047,
    "kids": 4268,
    "1626": 28818,
    "privacy": 9394,
    "1828": 11517,
    "[unused480]": 485,
    "\u0909": 1313,
    "owning": 19273,
    "edna": 21051,
    "licensing": 13202,
    "red": 2417,
    "[unused70]": 71,
    "proposition": 14848,
    "sigh": 6682,
    "[unused687]": 692,
    "kernel": 16293,
    "promoter": 15543,
    "emptiness": 23397,
    "##vita": 28403,
    "exercises": 11110,
    "##avi": 18891,
    "slot": 10453,
    "warwick": 13283,
    "highs": 26836,
    "damascus": 16094,
    "##\u30e3": 30254,
    "penguins": 18134,
    "1863": 6899,
    "rendered": 10155,
    "##\u03bb": 29727,
    "##ega": 29107,
    "billions": 25501,
    "##try": 11129,
    "feudal": 16708,
    "stockings": 26412,
    "tackles": 10455,
    "recommendations": 11433,
    "##mond": 11442,
    "outlets": 11730,
    "nl": 17953,
    "stating": 5517,
    "\u611b": 1853,
    "organizes": 22013,
    "[unused726]": 731,
    "imagery": 13425,
    "\u516b": 1771,
    "buzzed": 21377,
    "seton": 28796,
    "##ili": 18622,
    "hero": 5394,
    "peppers": 23582,
    "##\u2666": 30153,
    "90": 3938,
    "rivers": 5485,
    "\u30ec": 1734,
    "##lub": 27959,
    "nerves": 10627,
    "##leg": 23115,
    "lineup": 10515,
    "[unused970]": 975,
    "##rable": 16670,
    "relocating": 26811,
    "trailer": 9117,
    "spokesman": 14056,
    "illicit": 25049,
    "##ikh": 28209,
    "abs": 14689,
    "blamed": 11248,
    "diagram": 16403,
    "##mac": 22911,
    "ghana": 9701,
    "quoted": 9339,
    "##cian": 14483,
    "taxi": 10095,
    "floated": 13715,
    "repetitive": 23563,
    "bishops": 8414,
    "benefited": 19727,
    "##bit": 16313,
    "wilde": 18575,
    "adherents": 25712,
    "schedules": 20283,
    "1974": 3326,
    "##ent": 4765,
    "ut": 21183,
    "##ron": 4948,
    "[unused976]": 981,
    "sherwood": 19427,
    "##qvist": 28705,
    "##inge": 23496,
    "munchen": 25802,
    "breakup": 19010,
    "explains": 7607,
    "corner": 3420,
    "##ahl": 28083,
    "1086": 28196,
    "##ably": 8231,
    "danish": 5695,
    "proficient": 27029,
    "educator": 11490,
    "presbyterian": 10133,
    "molten": 23548,
    "migrated": 13447,
    "toyota": 11742,
    "right": 2157,
    "perez": 10730,
    "intake": 13822,
    "terrifying": 17082,
    "##kura": 28260,
    "execution": 7781,
    "mccartney": 15320,
    "lao": 18805,
    "makeshift": 19368,
    "[unused68]": 69,
    "episodes": 4178,
    "pairing": 22778,
    "gates": 6733,
    "necklace": 13016,
    "\u0f42": 1426,
    "cheung": 22632,
    "partnerships": 13797,
    "daniela": 28541,
    "rag": 17768,
    "polished": 12853,
    "tossing": 15021,
    "disadvantage": 20502,
    "vicar": 12340,
    "iroquois": 23015,
    "reveal": 7487,
    "imprint": 15738,
    "audi": 20075,
    "##he": 5369,
    "witch": 6965,
    "##ffe": 16020,
    "drainage": 11987,
    "##nds": 18376,
    "possibility": 6061,
    "entity": 9178,
    "mcpherson": 24332,
    "character": 2839,
    "searches": 17193,
    "caller": 20587,
    "hillsborough": 29330,
    "waitress": 13877,
    "\u09a7": 1365,
    "douglas": 5203,
    "felony": 24648,
    "down": 2091,
    "dwellers": 28857,
    "##ho": 6806,
    "liturgical": 19246,
    "zhang": 9327,
    "stunning": 14726,
    "bronze": 4421,
    "evade": 26399,
    "1805": 13126,
    "conferred": 15186,
    "##dle": 10362,
    "novelty": 21160,
    "allegro": 25319,
    "cousins": 12334,
    "defendants": 16362,
    "humiliating": 28284,
    "##rned": 21119,
    "wrongly": 29116,
    "morale": 19292,
    "print": 6140,
    "1908": 5316,
    "\u30e1": 1726,
    "generations": 8213,
    "##ivate": 21466,
    "intimately": 29024,
    "dusk": 18406,
    "affairs": 3821,
    "talks": 7566,
    "stall": 13498,
    "##df": 20952,
    "ranch": 8086,
    "##inian": 15830,
    "percy": 11312,
    "glare": 10982,
    "ruling": 6996,
    "queens": 8603,
    "honored": 8686,
    "delicately": 28814,
    "berber": 27514,
    "marche": 28791,
    "possessive": 22105,
    "hurriedly": 23878,
    "##otic": 20214,
    "fridays": 26587,
    "##via": 9035,
    "reported": 2988,
    "clothing": 5929,
    "salmon": 11840,
    "[unused796]": 801,
    "commandant": 15254,
    "migrating": 28636,
    "oceania": 20526,
    "distinguishes": 27343,
    "probe": 15113,
    "participants": 6818,
    "##wicz": 21355,
    "##ssa": 11488,
    "##lative": 26255,
    "ba": 8670,
    "intricate": 17796,
    "ventilation": 19536,
    "schoolhouse": 26301,
    "bin": 8026,
    "pp": 4903,
    "adventures": 7357,
    "ludwig": 10302,
    "world": 2088,
    "##khand": 25910,
    "victor": 5125,
    "danced": 10948,
    "lea": 12203,
    "partnering": 27001,
    "bristol": 7067,
    "##chuk": 26516,
    "prolific": 12807,
    "shire": 13182,
    "advantages": 12637,
    "socialist": 6102,
    "era": 3690,
    "ocean": 4153,
    "omaha": 12864,
    "usher": 20774,
    "affair": 6771,
    "benevolent": 25786,
    "avalon": 18973,
    "towering": 20314,
    "fran": 23151,
    "##achal": 24409,
    "ore": 10848,
    "aren": 4995,
    "someday": 13834,
    "elijah": 14063,
    "flinched": 19201,
    "##gami": 26517,
    "bayou": 24818,
    "playboy": 18286,
    "biography": 8308,
    "aba": 19557,
    "uniformly": 27423,
    "internationally": 7587,
    "##\u5bb6": 30351,
    "sink": 7752,
    "term": 2744,
    "twenties": 18946,
    "testament": 9025,
    "##rad": 12173,
    "positions": 4460,
    "339": 28977,
    "wave": 4400,
    "graphics": 8389,
    "packages": 14555,
    "[unused624]": 629,
    "plural": 13994,
    "##otype": 26305,
    "dalton": 12413,
    "leaping": 21216,
    "electronics": 8139,
    "##virus": 23350,
    "republished": 24476,
    "##\u304d": 30178,
    "deutsche": 11605,
    "northampton": 15944,
    "refusing": 11193,
    "##en": 2368,
    "196": 20035,
    "watch": 3422,
    "favorites": 20672,
    "##fied": 10451,
    "##ens": 6132,
    "\u898b": 1948,
    "tc": 22975,
    "hague": 14575,
    "suns": 19352,
    "saliva": 26308,
    "colonization": 18962,
    "compares": 22963,
    "donnie": 28486,
    "chad": 9796,
    "##\u092c": 29865,
    "##vyn": 23487,
    "seat": 2835,
    "chaotic": 19633,
    "\u03c9": 1179,
    "marriage": 3510,
    "merchandise": 16359,
    "[unused840]": 845,
    "survive": 5788,
    "##sma": 26212,
    "##ieri": 21939,
    "harley": 13653,
    "dazzling": 28190,
    "golden": 3585,
    "licked": 11181,
    "monitors": 15410,
    "congresses": 24460,
    "affirmative": 27352,
    "20s": 27074,
    "\u3081": 1680,
    "\u0989": 1350,
    "##ila": 11733,
    "purge": 24694,
    "pegasus": 26606,
    "adi": 27133,
    "testing": 5604,
    "[unused101]": 106,
    "25th": 10965,
    "salisbury": 13817,
    "tuna": 24799,
    "oldham": 18285,
    "anticipated": 11436,
    "##tron": 15312,
    "##vard": 25911,
    "announces": 17472,
    "fishes": 21995,
    "gesellschaft": 27482,
    "grants": 8624,
    "erasmus": 26809,
    "overlooking": 12549,
    "##raya": 29539,
    "simplicity": 17839,
    "coffin": 13123,
    "oracle": 14721,
    "rotor": 18929,
    "reversed": 11674,
    "spraying": 29035,
    "calls": 4455,
    "zachary": 19474,
    "[unused294]": 299,
    "##\u6c35": 30420,
    "##tani": 17681,
    "##au": 4887,
    "301": 19123,
    "1709": 28955,
    "despair": 13905,
    "signal": 4742,
    "doctoral": 11316,
    "##umatic": 25360,
    "manufacturers": 8712,
    "abstraction": 24504,
    "\u671d": 1874,
    "federal": 2976,
    "accessories": 16611,
    "becomes": 4150,
    "91": 6205,
    "mathews": 23287,
    "\u09c0": 1380,
    "##jima": 19417,
    "##\u00a7": 29650,
    "##aw": 10376,
    "##uro": 10976,
    "last": 2197,
    "johnny": 5206,
    "picturesque": 23273,
    "duncan": 7343,
    "##haw": 14238,
    "ortiz": 19439,
    "archdeacon": 21742,
    "integrating": 22380,
    "[unused487]": 492,
    "scaled": 18953,
    "[unused586]": 591,
    "##oya": 18232,
    "##lization": 22731,
    "lash": 25210,
    "[unused121]": 126,
    "cathedral": 5040,
    "frigates": 22833,
    "##stock": 14758,
    "sacked": 14159,
    "brandon": 8825,
    "fooled": 25857,
    "jordanian": 26276,
    "324": 27234,
    "##ccus": 27631,
    "##\u99ac": 30506,
    "plague": 11629,
    "statutes": 18574,
    "date": 3058,
    "skill": 8066,
    "##vie": 13469,
    "hawaiian": 12188,
    "magistrate": 14351,
    "outlawed": 29131,
    "preparing": 8225,
    "##inking": 29377,
    "bout": 10094,
    "exasperated": 24379,
    "##worthy": 13966,
    "##lase": 25002,
    "confines": 25722,
    "maurice": 7994,
    "reused": 26513,
    "thoughts": 4301,
    "##sus": 13203,
    "\u2282": 1610,
    "##\u30e9": 30257,
    "ev": 23408,
    "[unused50]": 51,
    "traitor": 17328,
    "##tter": 12079,
    "\u00b0f": 8157,
    "##ft": 6199,
    "##ised": 5084,
    "facades": 28708,
    "##tting": 13027,
    "continuation": 13633,
    "##if": 10128,
    "arya": 26140,
    "##-": 29624,
    "##west": 19650,
    "isaiah": 18850,
    "semifinal": 16797,
    "southern": 2670,
    "dignitaries": 27960,
    "takeover": 15336,
    "##dro": 22196,
    "partially": 6822,
    "larsen": 20094,
    "bridget": 19218,
    "##iac": 20469,
    "promoters": 26512,
    "momentarily": 16032,
    "bafta": 22284,
    "pursuant": 27081,
    "##ucher": 22368,
    "withdrawn": 9633,
    "balanced": 12042,
    "hercules": 15067,
    "threatens": 17016,
    "salman": 28542,
    "nod": 7293,
    "institute": 2820,
    "paranoia": 27890,
    "##\u0e15": 29947,
    "##zen": 10431,
    "##nsis": 11745,
    "towel": 10257,
    "57th": 28623,
    "well": 2092,
    "syndrome": 8715,
    "script": 5896,
    "horn": 7109,
    "##dom": 9527,
    "##rcus": 29006,
    "scientists": 6529,
    "send": 4604,
    "slopes": 10314,
    "tate": 9902,
    "kei": 26679,
    "inward": 20546,
    "incorrectly": 19721,
    "named": 2315,
    "za": 23564,
    "rio": 5673,
    "angelina": 23847,
    "eerie": 18823,
    "##ad": 4215,
    "realize": 5382,
    "activate": 20544,
    "##\u091c": 29855,
    "gills": 29468,
    "antibodies": 22931,
    "apartment": 4545,
    "telecom": 18126,
    "##jord": 24876,
    "##giri": 23243,
    "insistent": 29204,
    "1880": 6756,
    "outreach": 15641,
    "hardship": 26479,
    "##\u043c": 29745,
    "connectivity": 20831,
    "recital": 25521,
    "reynolds": 9579,
    "##pp": 9397,
    "##class": 26266,
    "falkland": 25257,
    "introductions": 25795,
    "explorer": 10566,
    "spectators": 12405,
    "##bula": 28507,
    "electrons": 15057,
    "##\u4f8d": 30291,
    "floating": 8274,
    "played": 2209,
    "vertical": 7471,
    "patio": 19404,
    "aroused": 18391,
    "seminole": 28909,
    "solutions": 7300,
    "##missible": 26770,
    "illuminating": 27816,
    "cruelty": 18186,
    "sweater": 14329,
    "postage": 22981,
    "##crow": 24375,
    "women": 2308,
    "unease": 27880,
    "jerked": 8245,
    "associates": 9228,
    "ligue": 18374,
    "withstand": 19319,
    "rallied": 24356,
    "continuously": 10843,
    "\u4e00": 1740,
    "crescent": 13152,
    "subjective": 20714,
    "claremont": 23716,
    "amid": 13463,
    "credited": 5827,
    "sheila": 15062,
    "rated": 6758,
    "troopers": 26246,
    "adversary": 27248,
    "##tto": 9284,
    "susannah": 20471,
    "ceiling": 5894,
    "commuted": 26704,
    "[unused584]": 589,
    "georg": 12062,
    "vishnu": 17647,
    "belize": 18867,
    "zombie": 11798,
    "modeling": 11643,
    "##\u4e16": 30271,
    "results": 3463,
    "maintenance": 6032,
    "stalled": 20659,
    "[unused384]": 389,
    "cfa": 28125,
    "poly": 26572,
    "\u0dbd": 1406,
    "headlines": 19377,
    "terrace": 11134,
    "sexuality": 13798,
    "##ied": 6340,
    "bride": 8959,
    "skull": 7412,
    "dispatch": 18365,
    "assessments": 20794,
    "##zee": 23940,
    "##oin": 28765,
    "strive": 29453,
    "##onda": 29067,
    "require": 5478,
    "nj": 19193,
    "squeak": 29552,
    "cramer": 29433,
    "psychiatrist": 18146,
    "sylvester": 20016,
    "##ently": 28198,
    "smoothed": 17966,
    "bakery": 18112,
    "aidan": 12643,
    "revolves": 19223,
    "margaret": 5545,
    "inflated": 29561,
    "26th": 14935,
    "\u5fc4": 1850,
    "borrow": 17781,
    "germain": 19192,
    "sealed": 10203,
    "flourishing": 29571,
    "gong": 17242,
    "ranging": 7478,
    "accident": 4926,
    "##itia": 29050,
    "filming": 7467,
    "exploit": 18077,
    "wilkinson": 16237,
    "fresno": 20840,
    "lipstick": 22359,
    "highlights": 11637,
    "studios": 4835,
    "kabul": 21073,
    "1722": 26689,
    "lester": 14131,
    "asking": 4851,
    "janata": 20308,
    "278": 24709,
    "##\u2018": 30055,
    "especially": 2926,
    "unchanged": 15704,
    "##sper": 17668,
    "huntsville": 28492,
    "##pro": 21572,
    "convened": 19596,
    "muttered": 6250,
    "##urus": 20089,
    "maze": 15079,
    "##nna": 9516,
    "largest": 2922,
    "went": 2253,
    "offered": 3253,
    "emphasized": 13155,
    "beverly": 12218,
    "deities": 17091,
    "princely": 22771,
    "intercourse": 23198,
    "[unused973]": 978,
    "undertaker": 27568,
    "##encia": 27742,
    "stresses": 23253,
    "essentially": 7687,
    "servants": 8858,
    "clubhouse": 22067,
    "kid": 4845,
    "reilly": 13875,
    "talents": 11725,
    "profile": 6337,
    "nausea": 19029,
    "##car": 10010,
    "\u03c6": 1176,
    "scan": 13594,
    "stalks": 29594,
    "##beck": 12750,
    "##genesis": 23737,
    "##cchi": 25955,
    "cheering": 24867,
    "1830s": 20400,
    "\u0629": 1272,
    "frank": 3581,
    "swamps": 22722,
    "dent": 21418,
    "conversely": 18868,
    "slade": 18048,
    "creaked": 28068,
    "##and": 5685,
    "##ische": 13719,
    "jameson": 22324,
    "breaker": 24733,
    "eyre": 26975,
    "heart": 2540,
    "sacrifice": 8688,
    "neighbourhood": 10971,
    "pastoral": 13645,
    "##iques": 19516,
    "testify": 19919,
    "##ulated": 8898,
    "[unused871]": 876,
    "paws": 24392,
    "vogue": 17734,
    "grows": 7502,
    "orlando": 10108,
    "leased": 12019,
    "##tead": 14565,
    "lacey": 16355,
    "patterson": 12424,
    "chandra": 16469,
    "dear": 6203,
    "chronology": 17873,
    "sidekick": 29240,
    "bilingual": 17636,
    "##oto": 11439,
    "##arney": 25831,
    "assisted": 7197,
    "313": 22997,
    "##brates": 25258,
    "trees": 3628,
    "rec": 28667,
    "transformed": 8590,
    "disappointed": 9364,
    "marina": 9985,
    "##cd": 19797,
    "[unused689]": 694,
    "##eley": 22352,
    "##ra\u00dfe": 27807,
    "riga": 17557,
    "explosions": 18217,
    "debuting": 24469,
    "gnu": 27004,
    "##ist": 2923,
    "scent": 6518,
    "gatherings": 21403,
    "##ris": 6935,
    "cue": 16091,
    "leader": 3003,
    "##key": 14839,
    "artwork": 8266,
    "temperate": 16868,
    "##\u10d8": 29981,
    "helene": 20149,
    "premiership": 11264,
    "columbus": 8912,
    "usaf": 18531,
    "wrestled": 20615,
    "##kaya": 20718,
    "politics": 4331,
    "attaining": 26615,
    "surviving": 6405,
    "leans": 12671,
    "amelie": 25285,
    "##ale": 9453,
    "selections": 16310,
    "sensed": 10596,
    "preserve": 7969,
    "##ika": 7556,
    "##vao": 24682,
    "##\u2212": 22543,
    "greatest": 4602,
    "[unused749]": 754,
    "nationwide": 9053,
    "frightening": 17115,
    "narrated": 17356,
    "malicious": 24391,
    "surname": 11988,
    "356": 27509,
    "launcher": 22742,
    "larkin": 25570,
    "treaties": 16013,
    "comparing": 13599,
    "doomed": 20076,
    "##\u0f51": 29964,
    "strings": 7817,
    "##ados": 28118,
    "##lux": 25148,
    "ears": 5551,
    "##neas": 26737,
    "spilled": 13439,
    "prom": 20877,
    "##horn": 9769,
    "##erian": 27549,
    "##wall": 9628,
    "gurney": 25061,
    "gardner": 11764,
    "appears": 3544,
    "domed": 29208,
    "attendant": 16742,
    "impulse": 14982,
    "starving": 18025,
    "##cade": 21869,
    "lucan": 20764,
    "sega": 16562,
    "seats": 4272,
    "copy": 6100,
    "mackenzie": 11407,
    "##ncia": 22750,
    "##osity": 25949,
    "identify": 6709,
    "develop": 4503,
    "decorations": 14529,
    "renee": 17400,
    "##arable": 25236,
    "##hand": 11774,
    "##hee": 21030,
    "\u03b6": 1160,
    "pretending": 12097,
    "\u04cf": 1218,
    "##tooth": 19392,
    "wavelength": 19934,
    "hawthorne": 23440,
    "bunk": 25277,
    "russia": 3607,
    "km": 2463,
    "brasil": 21133,
    "##hein": 26496,
    "\u967d": 1973,
    "bamboo": 15216,
    "correspondent": 11370,
    "important": 2590,
    "##\uff1a": 30519,
    "1877": 7557,
    "past": 2627,
    "##kian": 28545,
    "##\u30e1": 30252,
    "often": 2411,
    "lovely": 8403,
    "executives": 12706,
    "language": 2653,
    "##stle": 22516,
    "shatter": 27271,
    "##card": 11522,
    "center": 2415,
    "trillion": 23458,
    "soul": 3969,
    "lau": 21360,
    "implant": 27159,
    "\u1173": 1481,
    "antonio": 4980,
    "##tree": 13334,
    "##onte": 28040,
    "path": 4130,
    "##kei": 29501,
    "quebec": 5447,
    "finances": 16156,
    "locomotives": 7830,
    "estimate": 10197,
    "fellowship": 7881,
    "ze": 27838,
    "##ffey": 24513,
    "ramsay": 19460,
    "subtropical": 11935,
    "marta": 18950,
    "ireland": 3163,
    "##pace": 15327,
    "camille": 16675,
    "##hampton": 21946,
    "substrates": 23725,
    "[unused231]": 236,
    "diplomatic": 8041,
    "sox": 9175,
    "fool": 7966,
    "vector": 9207,
    "##tum": 11667,
    "adjacent": 5516,
    "shed": 8328,
    "derbyshire": 15207,
    "yusuf": 23495,
    "\u82f1": 1941,
    "custom": 7661,
    "cock": 10338,
    "massey": 21402,
    "smacked": 19203,
    "##otide": 26601,
    "##\u1162": 30007,
    "revolt": 10073,
    "48th": 27787,
    "dana": 11271,
    "barred": 15605,
    "[unused747]": 752,
    "install": 16500,
    "lift": 6336,
    "##\u0291": 29703,
    "##sies": 14625,
    "grassland": 20331,
    "[unused807]": 812,
    "##alle": 24164,
    "discontinued": 8944,
    "reminded": 6966,
    "response": 3433,
    "detained": 14620,
    "retire": 11036,
    "fingernails": 21243,
    "someone": 2619,
    "##rmed": 29540,
    "enzyme": 9007,
    "atkins": 21087,
    "seahawks": 21390,
    "sql": 29296,
    "fiona": 13073,
    "antwerp": 14003,
    "192": 17613,
    "premium": 12882,
    "shocked": 7135,
    "better": 2488,
    "inverted": 20037,
    "game": 2208,
    "borne": 15356,
    "pinched": 18521,
    "oblast": 10379,
    "##ara": 5400,
    "sharp": 4629,
    "televised": 13762,
    "[unused244]": 249,
    "cinema": 5988,
    "pdf": 11135,
    "mosques": 21922,
    "##\u092a": 29864,
    "##ischen": 24488,
    "passage": 6019,
    "##itis": 13706,
    "hoover": 17443,
    "glory": 8294,
    "extremes": 28800,
    "hinges": 25484,
    "##trick": 22881,
    "kristin": 25130,
    "deng": 26957,
    "flaming": 19091,
    "##ogen": 23924,
    "##vitt": 28656,
    "gardiner": 21143,
    "##\u6c11": 30418,
    "##aging": 16594,
    "century": 2301,
    "salim": 27490,
    "clearance": 14860,
    "[unused46]": 47,
    "##ants": 11390,
    "loco": 28046,
    "baptist": 7550,
    "westfield": 26584,
    "ne": 11265,
    "##eurs": 26744,
    "defending": 6984,
    "lieu": 22470,
    "newspaper": 3780,
    "stove": 16247,
    "lowers": 24950,
    "57": 5401,
    "edges": 7926,
    "[unused289]": 294,
    "support": 2490,
    "simultaneously": 7453,
    "clint": 16235,
    "pune": 16920,
    "##ement": 13665,
    "trevor": 8672,
    "commended": 22429,
    "65": 3515,
    "sony": 8412,
    "##mering": 27851,
    "junior": 3502,
    "directive": 16449,
    "##ulate": 9869,
    "##\u4ec1": 30284,
    "##lag": 17802,
    "celestial": 17617,
    "1642": 24061,
    "xx": 22038,
    "##\u0989": 29886,
    "\u4e45": 1748,
    "sky": 3712,
    "stanza": 29509,
    "demeanor": 21745,
    "contractors": 16728,
    "rules": 3513,
    "similarities": 12319,
    "viral": 13434,
    "waste": 5949,
    "##gna": 16989,
    "[unused233]": 238,
    "ware": 16283,
    "levin": 20206,
    "##\u209b": 30098,
    "jug": 26536,
    "aura": 15240,
    "throwing": 6886,
    "atkinson": 18646,
    "temperatures": 7715,
    "marne": 25823,
    "prompt": 25732,
    "whisper": 7204,
    "serious": 3809,
    "iphone": 18059,
    "hear": 2963,
    "erebidae": 25875,
    "[unused602]": 607,
    "##ok": 6559,
    "leone": 13363,
    "bois": 19651,
    "##patient": 24343,
    "recognize": 6807,
    "##iano": 15668,
    "devils": 13664,
    "myers": 13854,
    "forget": 5293,
    "hub": 9594,
    "oakland": 9182,
    "applicable": 12711,
    "##dent": 16454,
    "##ffen": 18032,
    "##itaire": 29422,
    "age": 2287,
    "subjected": 13532,
    "mcleod": 25363,
    "debut": 2834,
    "rugged": 17638,
    "leiden": 20329,
    "crawford": 10554,
    "##aceous": 25560,
    "##with": 24415,
    "\u00ac": 1078,
    "mars": 7733,
    "\u30d2": 1719,
    "guy": 3124,
    "contributor": 12130,
    "corridors": 17506,
    "##fell": 23510,
    "shaman": 23610,
    "physiology": 16127,
    "critically": 11321,
    "ipad": 25249,
    "[unused398]": 403,
    "teasing": 12216,
    "strife": 27865,
    "fallon": 16443,
    "pat": 6986,
    "\u2013": 1516,
    "divert": 27345,
    "responses": 10960,
    "barlow": 17803,
    "gilles": 21717,
    "programming": 4730,
    "introduces": 13999,
    "##\u897f": 30473,
    "huffed": 25014,
    "round": 2461,
    "northwestern": 7855,
    "1623": 29056,
    "out": 2041,
    "waited": 4741,
    "assaults": 22664,
    "casualties": 8664,
    "letting": 5599,
    "scotia": 9676,
    "friday": 5958,
    "##ss": 4757,
    "raphael": 12551,
    "##physics": 15638,
    "skies": 15717,
    "lexington": 14521,
    "newsletter": 17178,
    "##ty": 3723,
    "fl": 13109,
    "reich": 14365,
    "##nah": 15272,
    "verbs": 16025,
    "\u307b": 1676,
    "airs": 14369,
    "porn": 22555,
    "##ppet": 29519,
    "##anor": 27869,
    "subunit": 24312,
    "chests": 28717,
    "sci": 16596,
    "spine": 8560,
    "1927": 4764,
    "delgado": 26532,
    "meat": 6240,
    "##otted": 26174,
    "coordinate": 13530,
    "shock": 5213,
    "minh": 19538,
    "terminates": 28790,
    "locations": 5269,
    "##sume": 23545,
    "##neo": 23585,
    "##aceae": 18339,
    "1781": 16788,
    "sinister": 16491,
    "corp": 13058,
    "[unused133]": 138,
    "acting": 3772,
    "warm": 4010,
    "commitment": 8426,
    "treacherous": 26648,
    "##enter": 29110,
    "wired": 17502,
    "##ngen": 25997,
    "##\u2097": 30095,
    "ernesto": 22428,
    "offers": 4107,
    "[unused327]": 332,
    "animation": 7284,
    "rapid": 5915,
    "syracuse": 11736,
    "mapped": 17715,
    "##runa": 26605,
    "edgar": 9586,
    "acts": 4490,
    "fairs": 21947,
    "rhea": 24775,
    "[unused543]": 548,
    "gel": 21500,
    "momentum": 11071,
    "cervical": 28711,
    "##dai": 21351,
    "creepy": 17109,
    "##lves": 20899,
    "narrower": 22546,
    "das": 8695,
    "[unused847]": 852,
    "##suke": 16867,
    "mechanism": 7337,
    "eclectic": 20551,
    "##gated": 11644,
    "vertigo": 28246,
    "foundations": 10100,
    "jai": 17410,
    "cascade": 16690,
    "adoption": 9886,
    "spotlight": 17763,
    "scar": 11228,
    "1754": 22593,
    "erica": 19295,
    "[unused22]": 23,
    "\u02b3": 1142,
    "ill": 5665,
    "anzac": 29224,
    "implementations": 24977,
    "harness": 17445,
    "##rem": 28578,
    "ascent": 16354,
    "attributes": 12332,
    "neglected": 15486,
    "downing": 22501,
    "##nam": 13129,
    "supplement": 12448,
    "\u02e4": 1154,
    "car": 2482,
    "pitchfork": 22355,
    "corners": 8413,
    "##\u044c": 23742,
    "##ras": 8180,
    "##uf": 16093,
    "purchases": 17402,
    "agriculture": 5237,
    "taluk": 23140,
    "losses": 6409,
    "jalan": 28410,
    "\u10e2": 1453,
    "environment": 4044,
    "diagnosis": 11616,
    "numb": 15903,
    "length": 3091,
    "andhra": 14065,
    "\u1175": 1483,
    "diane": 12082,
    "##uled": 18696,
    "spacious": 22445,
    "peeling": 28241,
    "candidacy": 17057,
    "mainstream": 7731,
    "##sir": 29481,
    "impressions": 19221,
    "honolulu": 16598,
    "##sum": 17421,
    "##ao": 7113,
    "salem": 10389,
    "fitzgerald": 11864,
    "appellate": 23240,
    "yields": 16189,
    "taxonomy": 25274,
    "bounce": 17523,
    "\u1d58": 1506,
    "##ging": 4726,
[...]
