{"harrah": 19603, "mud": 19139, "realizing": 11070, "newsprint": 15124, "##can": 8635, "restated": 2899, "canned": 23681, "viii": 8663, "born": 14825, "rms": 21492, "outlook": 6715, "ignition": 23698, "cilcorp": 17279, "##crip": 2685, "glut": 20161, "racetracks": 19721, "multiples": 9944, "##ough": 1006, "guilty": 20337, "pneum": 15599, "unearned": 7153, "rob": 7552, "npi": 15996, "##omycin": 24190, "channel": 3431, "\u215e": 343, "acreage": 7692, "epil": 20894, "915": 11120, "pvr": 14954, "agon": 17871, "##elo": 18346, "ocular": 20155, "prototy": 9254, "aik": 24890, "\u00df": 204, "chrom": 12984, "tenor": 28628, "joe": 14477, "lo": 918, "tiff": 20368, "##ish": 1293, "cities": 8085, "actu": 4498, "##haul": 11538, "terminalling": 19335, "reper": 29028, "##vas": 21051, "##group": 7590, "hanson": 19233, "roundup": 27835, "incub": 23786, "sheng": 17237, "whenever": 5479, "tumbleweed": 27058, "receipts": 5124, "gigabit": 21565, "disinfect": 25277, "inject": 11272, "wich": 18861, "transformed": 26046, "prize": 23129, "cinemedia": 27175, "htm": 16237, "importation": 14982, "aggressive": 7102, "chip": 8282, "edc": 17321, "##uso": 19693, "dried": 20324, "crock": 25320, "##tronics": 13403, "consents": 10298, "alag": 18240, "clifford": 21877, "##trol": 21150, "away": 9197, "cbr": 28495, "beneficial": 2506, "kos": 16808, "iron": 7802, "bulgaria": 26663, "amber": 26979, "piece": 15260, "perishable": 23113, "mandatorily": 10064, "pci": 10194, "sws": 27907, "nfa": 15126, "advanta": 21886, "##ingo": 28950, "principles": 2246, "physi": 20443, "lawyer": 24338, "535": 10875, "globe": 14263, "copd": 27544, "containment": 9971, "radio": 4502, "leahy": 21352, "circuitry": 22399, "vitamins": 19019, "##urgical": 11789, "vent": 8850, "prepaid": 4739, "traffic": 5271, "ccb": 22370, "measured": 3172, "##rupt": 2990, "affirmed": 11573, "nhr": 29131, "weil": 25214, "heritage": 9696, "##universal": 23026, "tpg": 14858, "attained": 11771, "##avar": 24311, "impaired": 3234, "##\u00fe": 540, "recomp": 15709, "infringement": 4797, "nti": 25435, "\uff1b": 440, "okl": 6311, "cognitive": 20688, "grids": 23082, "advertisement": 14544, "hq": 21759, "proshares": 24526, "##\u0153": 494, "refined": 7406, "metc": 26517, "nal": 28338, "boulevard": 12729, "xped": 29932, "##go": 2446, "##csa": 24753, "irre": 20248, "warranty": 4260, "aia": 27338, "##oding": 21980, "##ula": 11437, "coin": 12772, "favor": 2789, "##etm": 20349, "##oria": 12172, "permanently": 7719, "quoti": 24652, "dans": 25561, "coordinate": 12972, "##astle": 29592, "switch": 5702, "virtual": 8559, "erie": 17595, "##onto": 11165, "upturn": 29311, "segments": 2724, "liaison": 23344, "1x": 27059, "crab": 28233, "mitsubishi": 17046, "demonstrations": 20116, "preferential": 10473, "manager": 3244, "peoples": 8222, "fluids": 11095, "mhi": 28708, "inaccurate": 9149, "constituent": 23307, "##tro": 17377, "##duct": 4484, "##encing": 4048, "attract": 4120, "shareowners": 14992, "finishes": 22636, "yourself": 22485, "narr": 6856, "morale": 25993, "deliverability": 26387, "##rc": 12407, "mws": 16970, "##\u0440": 587, "minnes": 6099, "##look": 6578, "environments": 7318, "debt": 1223, "157": 4638, "##anced": 2951, "##haeuser": 25878, "##ewear": 18937, "batch": 13913, "bankunited": 21250, "ltc": 18970, "hsn": 22621, "nodes": 19782, "itc": 10992, "664": 12441, "devon": 13855, "importantly": 18153, "ferrellgas": 8827, "burn": 8478, "inhibiting": 20392, "nam": 2786, "must": 2242, "hit": 13152, "##emic": 7702, "##tifiable": 17857, "clarifies": 7012, "543": 11980, "tw": 1467, "##idos": 22876, "trc": 16849, "panda": 20583, "##ser": 18133, "jamaica": 24816, "excessive": 9017, "asu": 2924, "prevalent": 15182, "frequent": 4702, "fork": 16938, "accompan": 2136, "archit": 6625, "mobil": 11755, "##iger": 8363, "##itar": 26337, "refractory": 15187, "##uter": 12050, "##ither": 2206, "reorgan": 3939, "junc": 19707, "equates": 20580, "drag": 18359, "converting": 9416, "circ": 2091, "481": 11650, "fill": 8291, "myron": 26340, "streamlining": 16338, "gam": 3401, "kramer": 22633, "alg": 20187, "capitalizable": 24505, "##loyment": 13001, "histories": 11972, "694": 12756, "gw": 15621, "richards": 14164, "rb": 13012, "lot": 7285, "degree": 3499, "isch": 19953, "##ola": 7378, "rou": 5113, "brentwood": 26354, "usable": 19114, "rus": 6011, "geoffrey": 23809, "hawthorne": 26494, "turnkey": 12197, "phmsa": 21397, "project": 2572, "office": 2277, "precision": 7721, "hire": 6213, "seminars": 14481, "bmi": 23635, "competes": 6154, "vies": 7183, "924": 13149, "god": 15665, "harris": 8412, "archrock": 27483, "##forward": 16265, "dau": 27688, "everest": 13493, "heilong": 23248, "greenhill": 28330, "contemplated": 6651, "payer": 14760, "cvd": 22729, "completely": 8758, "referrals": 10401, "broadly": 10885, "polish": 18187, "buffer": 12114, "##action": 4001, "##rain": 27649, "##opolis": 28004, "mah": 15471, "\ufd3f": 429, "npr": 27061, "prosper": 15045, "highway": 9238, "dew": 22188, "##ogenicity": 23969, "geron": 26519, "3b": 22854, "##iffer": 25205, "unable": 2580, "perme": 20483, "inherent": 3270, "ja": 21213, "adt": 23043, "arab": 13301, "thoroughbred": 21545, "july": 1827, "railway": 13645, "documents": 4014, "ivax": 22763, "pharmacokine": 15631, "supers": 21457, "kimball": 25574, "movements": 6422, "lies": 19916, "dropped": 14305, "downsizing": 18994, "stratified": 26848, "sps": 13044, "unen": 10045, "##uled": 3476, "examples": 9208, "repos": 9530, "cu": 10771, "uterine": 28598, "##eee": 27959, "earthqu": 8157, "reinstated": 15577, "fem": 13327, "adapt": 8315, "[unused86]": 87, "rosenthal": 20646, "1970s": 22885, "quintiles": 28633, "quantities": 4991, "tiered": 14056, "meas": 1559, "reconstruction": 18088, "78": 3744, "declares": 22138, "##nt": 20323, "oecd": 29626, "##rus": 16903, "voba": 17646, "busey": 22219, "hai": 24677, "game": 7588, "##acon": 10188, "fort": 7204, "nause": 22190, "filer": 15461, "##uzumab": 24425, "is": 686, "eip": 16233, "cgmp": 9940, "ritux": 24995, "routers": 17654, "cookie": 28493, "sustain": 4116, "simpson": 18739, "##assee": 28204, "rotary": 17934, "enum": 18198, "centers": 3535, "[SEP]": 103, "malfeasance": 22943, "substantiated": 24254, "perkins": 18352, "applic": 1285, "undergoing": 12010, "angiomax": 23488, "five": 2188, "customary": 5105, "fei": 21363, "##igs": 28572, "smallest": 24497, "pesticide": 27419, "randy": 23869, "walker": 12930, "254": 9812, "##aham": 8565, "reade": 23712, "champion": 17657, "visited": 28528, "nicholas": 15897, "085": 12776, "deple": 23271, "advocacy": 20007, "smoke": 19847, "nih": 14800, "spar": 17025, "##abil": 6529, "gli": 19781, "moreover": 5115, "acous": 17584, "##\u00bc": 504, "catastrophes": 14712, "##abel": 20442, "refrain": 17969, "##zen": 16536, "##uto": 23340, "##strateg": 19661, "##100": 20203, "cele": 15777, "boomer": 26579, "sacramento": 14445, "economically": 7060, "cablevision": 13775, "kind": 6121, "lightning": 26406, "workout": 17323, "##avian": 29039, "milford": 28811, "tsc": 23366, "geographic": 3767, "esop": 6805, "757": 12243, "bfi": 23138, "madrid": 25070, "proliferation": 15299, "choose": 5755, "antibiotic": 17463, "##urring": 3235, "ate": 26251, "ict": 26686, "ld": 11928, "ready": 7460, "yates": 26270, "ivan": 22134, "\ufd3e": 428, "adverse": 1326, "gdpr": 21606, "expensed": 4071, "facilitation": 26507, "beverage": 6460, "amends": 6768, "##itech": 10364, "perm": 3639, "g2": 25607, "miff": 25116, "##worth": 6073, "rejecting": 24795, "powders": 22172, "prodrug": 27872, "!": 105, "brown": 7271, "wpi": 28606, "deducted": 9205, "theft": 10386, "borrowing": 3533, "compl": 1670, "shor": 5429, "last": 3043, "ulcers": 21715, "adher": 10535, "ccr": 13494, "##ylated": 29869, "continents": 26544, "smur": 25600, "statis": 6014, "anth": 8949, "springfield": 16506, "lighting": 8197, "armed": 15737, "tnmp": 13226, "consp": 14150, "##2000": 21724, "##west": 4311, "tensions": 28678, "cab": 6986, "##ocation": 19996, "sheff": 22250, "##ulted": 18993, "cartr": 14551, "adopting": 7264, "unitil": 20333, "##17": 9677, "supr": 6779, "collaboration": 4878, "delek": 18841, "china": 3364, "butt": 26840, "reven": 969, "marketing": 1787, "enjoy": 10398, "supermarkets": 11855, "suned": 22723, "advantage": 4165, "extremely": 8312, "cartil": 24881, "##\u221e": 539, "degradation": 17295, "##omide": 25683, "cnb": 20765, "arg": 11714, "oppos": 6451, "textiles": 19177, "plugging": 14645, "operable": 27304, "##aud": 3068, "extended": 3707, "##cp": 5587, "retail": 2176, "subsections": 28460, "functional": 4208, "negotiable": 20944, "phc": 21575, "abo": 19207, "grass": 16765, "##ellas": 15912, "refinancing": 5356, "wacker": 23599, "##iron": 15676, "cures": 27165, "simplif": 6577, "blank": 8150, "changes": 1218, "}": 171, "##bro": 10085, "leasehold": 4977, "cadiz": 26061, "recapitalize": 23244, "organizations": 3335, "##ofix": 28324, "ppos": 29867, "reaffirmed": 22317, "textual": 23272, "coherent": 23763, "clearinghouse": 15335, "##vington": 26323, "amerisourcebergen": 27241, "##osen": 9216, "superconduct": 27523, "austr": 4581, "775": 10627, "failures": 6070, "electrom": 15787, "banctrust": 25636, "earning": 4821, "microphone": 29066, "mtm": 23020, "##using": 6612, "##\u0459": 544, "wip": 21620, "resume": 13473, "cps": 16574, "afforded": 10822, "ky": 12728, "##beam": 24457, "##stex": 16164, "rsa": 15501, "template": 28050, "implements": 14898, "gordon": 13258, "al": 729, "lnc": 20062, "limitations": 2930, "predictive": 12861, "dpa": 28868, "biomarkers": 20311, "glim": 29983, "magnesium": 20807, "##light": 4809, "bookkeeping": 20493, "fh": 11606, "het": 27469, "suspend": 8208, "hollinger": 27249, "fayette": 20619, "summar": 2839, "belo": 19225, "aw": 1623, "heard": 15058, "repurchasing": 16458, "fifty": 8235, "treasure": 24883, "pdl": 24196, "accomplish": 7065, "billboards": 19147, "submit": 5486, "786": 12766, "solub": 20005, "cdc": 17534, "movie": 11232, "morphine": 29491, "pools": 7467, "\u0f8a": 289, "variation": 10986, "predictable": 10170, "##cra": 10551, "bri": 13831, "fish": 7651, "siting": 19195, "dft": 27786, "##tern": 1940, "gatx": 18097, "aggregation": 13545, "apts": 24843, "##quer": 17250, "##gines": 7524, "dore": 29052, "pdufa": 25817, "093": 13703, "##tured": 22206, "worldwide": 3623, "202": 2874, "##utaneous": 17781, "893": 13280, "therm": 6102, "bates": 18399, "##earch": 1891, "##anapali": 28937, "predicted": 7795, "printing": 6836, "##hares": 10249, "nextgen": 27804, "fore": 1592, "267": 9863, "##ervision": 26279, "mapping": 14259, "##ogenesis": 17697, "foley": 23300, "appli": 9708, "standardized": 7772, "fruit": 11496, "##esley": 27799, "##otides": 24785, "##bound": 10338, "amplif": 11925, "220": 7051, "seagate": 19566, "arlp": 15455, "phs": 24722, "affects": 6944, "##uses": 4867, "scrutinize": 29756, "pipeline": 3787, "eld": 10856, "##cious": 17610, "##\u043c": 505, "pro": 656, "\u0441": 266, "giving": 5835, "eos": 22561, "homebuilder": 27528, "rpp": 26158, "berkley": 29444, "conservator": 15558, "##health": 13709, "packing": 15722, "hbc": 27451, "##igan": 5562, "maric": 27788, "sag": 15469, "supplementary": 3985, "leh": 8973, "sunday": 15585, "commissioner": 9769, "minim": 2084, "trop": 15202, "mckinn": 22870, "sql": 21762, "outlier": 26939, "##load": 7097, "uncon": 7448, "sier": 9318, "yel": 12869, "##\u03c0": 593, "datab": 5812, "bow": 8579, "pipel": 3293, "##etec": 18598, "negotiate": 6709, "cooperating": 15670, "##isers": 14257, "edgewater": 22142, "productions": 14286, "hurdles": 22192, "marketer": 10984, "mcneil": 16329, "pennsylvan": 4425, "standing": 6818, "chips": 10061, "fayetteville": 23285, "pcaob": 7990, "basic": 3174, "attainment": 9601, "westfield": 19424, "institutions": 2770, "##oche": 26571, "##antz": 28714, "\u00a2": 174, "754": 12625, "##olid": 928, "##persons": 23351, "##graduate": 17843, "unn": 13210, "balance": 1454, "manufactures": 5889, "michaels": 22906, "jw": 26828, "concer": 2591, "contest": 10613, "downward": 7911, "rock": 5163, "sugg": 8071, "prediction": 18366, "guideline": 14142, "cats": 25520, "##ilm": 28854, "##ther": 760, "mmcfe": 23312, "weinberg": 23944, "pipes": 22231, "simul": 13371, "amph": 19178, "whitman": 24564, "##house": 4003, "862": 12892, "nitrogen": 8942, "bankruptcy": 3346, "##cin": 16300, "aero": 14155, "##isure": 11048, "files": 6127, "abnor": 11412, "reluctant": 18459, "ihop": 22975, "possibility": 5735, "syd": 17930, "election": 3996, "solvents": 18655, "conce": 5558, "lifo": 8902, "inadequacy": 26523, "bos": 16440, "ameritrade": 28747, "##ece": 10414, "[unused7]": 8, "##ouch": 13384, "##ogee": 25949, "rack": 14713, "facilitating": 13053, "ear": 1182, "commences": 12036, "458": 11051, "supervisory": 7151, "enables": 5687, "texaco": 19370, "spot": 6669, "environ": 1838, "detecting": 19652, "\u2074": 315, "##ans": 805, "cac": 15405, "##leblow": 17865, "ws": 15934, "##asive": 6590, "##prc": 17275, "kangas": 26283, "simulcasting": 26417, "horm": 13817, "helm": 24597, "beij": 10454, "slu": 23203, "voy": 12327, "janu": 1400, "conferences": 14091, "whar": 17104, "prince": 19183, "cleanu": 7495, "laps": 14755, "newsday": 28859, "albertson": 27386, "radian": 17998, "powered": 11410, "gan": 17840, "##iesel": 6392, "complexity": 7009, "antitrust": 9016, "954": 13159, "grace": 9790, "voip": 9921, "identifying": 6021, "bep": 25989, "em": 2153, "pso": 16225, "unsolicited": 14166, "investigational": 10096, "redesign": 10844, "defer": 4098, "nca": 29950, "dysfunction": 19108, "transist": 19218, "propose": 12228, "plains": 9731, "anderson": 8740, "scores": 13106, "atc": 14118, "technological": 4299, "duck": 26968, "greystone": 20416, "suez": 22813, "prototypes": 18071, "performance": 1523, "sach": 10131, "\u1d43": 292, "evang": 22708, "plane": 24587, "unitedhealth": 25789, "##avour": 22860, "deed": 7999, "##og": 893, "client": 3877, "bareboat": 23392, "pig": 10121, "cashless": 10937, "jam": 15569, "37": 2765, "facultative": 18941, "gab": 12583, "sussex": 28261, "weyerhaeuser": 26078, "shipboard": 26983, "knows": 15816, "242": 9579, "##cence": 7982, "hola": 21260, "wu": 14188, "mbs": 7701, "wnc": 13971, "[unused61]": 62, "astor": 18238, "aerg": 21797, "perfor": 23338, "nand": 24811, "pleasant": 21453, "oceanic": 28684, "pmp": 28623, "clec": 18417, "lined": 28442, "##ypsum": 15701, "pscs": 26305, "deceased": 22932, "pte": 16613, "ost": 29289, "ems": 14531, "dulu": 28447, "afm": 25137, "establishments": 15197, "##ensor": 26926, "morrison": 19274, "photo": 14769, "iec": 20214, "iac": 15788, "races": 18124, "disadvantaged": 28944, "evaluates": 5068, "distillers": 14930, "antibodies": 9781, "kgaa": 20342, "corrob": 9462, "automobile": 5796, "woodbridge": 22786, "bring": 5593, "aggr": 28857, "for": 645, "bottlen": 28188, "##vue": 19317, "unclaimed": 22076, "creativity": 28587, "pronouncement": 9269, "synd": 5819, "anchored": 19080, "painful": 29663, "##ype": 25097, "##vera": 29985, "##wal": 20615, "antibacter": 29836, "behavioral": 12355, "##chain": 24069, "unforeseen": 8295, "depicts": 19802, "deregulation": 12229, "managing": 3074, "gues": 10030, "ags": 23820, "evaluable": 28752, "##tment": 23404, "quantitative": 4302, "02": 3616, "together": 3557, "mlai": 20100, "mch": 20012, "provisional": 8892, "hoy": 26808, "policy": 2339, "##million": 28533, "capco": 19401, "android": 21450, "405": 9404, "foam": 14318, "##lyn": 11387, "896": 13160, "##pres": 19914, "derecognized": 22145, "availability": 3082, "draf": 17663, "retrosp": 5366, "jama": 23060, "interested": 7315, "rena": 11874, "lpsc": 16973, "lags": 24047, "\u044c": 271, "talents": 24672, "sunoco": 13250, "##mit": 1823, "sunedison": 22734, "invoiced": 10739, "endometr": 28394, "distributing": 9217, "chi": 15854, "insuff": 6025, "silicon": 7697, "499": 10954, "investigation": 4748, "##ateral": 2276, "complimentary": 17151, "quad": 11504, "spur": 19754, "367": 10708, "optimum": 16816, "rulings": 10752, "airtran": 26785, "hence": 15933, "remarketed": 20860, "amortiz": 1621, "clearly": 10512, "##path": 18378, "noranda": 27133, "##fish": 19058, "arl": 21001, "##dock": 14689, "205": 6530, "pulte": 29389, "##bird": 20162, "conformed": 24271, "wed": 25649, "ronald": 9630, "tuc": 13390, "refine": 13560, "frequency": 5977, "miscalculations": 26249, "cendant": 15727, "pls": 24576, "bid": 4516, "delivered": 4090, "leadership": 6486, "181": 8712, "mb": 9567, "##ement": 662, "correspondingly": 15559, "kforce": 22392, "dinner": 21699, "ami": 15810, "##isse": 11096, "reno": 13761, "inconclusive": 23992, "rotation": 17457, "inser": 11960, "microsc": 19455, "annexed": 25810, "deliberations": 22211, "##strategy": 21223, "src": 25379, "zinc": 10125, "rolling": 9712, "##working": 19588, "678": 12483, "notable": 18919, "infant": 16375, "450": 6142, "see": 1354, "intent": 5045, "besides": 21985, "greeting": 27197, "handy": 29670, "ponds": 20098, "##ek": 13294, "##uvant": 22798, "amounting": 9257, "##19": 10198, "rust": 23975, "prospecting": 20955, "draper": 25640, "promo": 3825, "##nessee": 6365, "hann": 19752, "congressional": 14688, "thereby": 4756, "photomas": 28645, "constip": 27673, "antidumping": 27372, "##ecess": 1960, "recalled": 27056, "improper": 7164, "##uities": 29449, "whx": 24228, "[unused91]": 92, "sears": 10279, "catherine": 26205, "recompletions": 27509, "buchanan": 25695, "joyce": 23702, "geopol": 14661, "cape": 18171, "borrowers": 4283, "important": 3789, "types": 3400, "##ista": 8135, "oss": 25414, "uninten": 21703, "clawback": 19265, "409a": 17215, "lamp": 15250, "potentially": 3777, "pv": 7423, "complaint": 3766, "drying": 19858, "lend": 9699, "##dis": 24352, "norms": 25266, "accountant": 5245, "##row": 13917, "technician": 23676, "terminology": 14236, "irbs": 24019, "dry": 6528, "intermitt": 22353, "declare": 6732, "##urization": 26271, "hypog": 26835, "denotes": 16978, "ambig": 21057, "anthem": 24416, "er": 2855, "##stown": 16635, "bailey": 16136, "inhibition": 18691, "##ermes": 19639, "tianjin": 17617, "outcr": 25629, "sji": 21085, "plot": 25312, "constantly": 11824, "insiders": 14213, "gang": 27378, "waterstone": 29403, "stam": 16908, "##sch": 13019, "kraft": 15042, "##ominium": 9822, "worsening": 18091, "##metal": 23319, "superv": 5444, "glb": 16086, "##ulf": 4443, "lar": 14433, "greenville": 16139, "cmi": 19307, "shells": 29322, "verte": 27716, "cooking": 17494, "srk": 27511, "subhead": 25702, "reinterp": 23123, "smg": 24308, "cryogenic": 21004, "##idence": 3059, "lag": 9090, "##ence": 991, "##ous": 984, "teles": 10939, "centralizing": 29272, "thereunto": 5054, "taj": 13386, "uninterru": 16421, "designation": 6076, "kel": 8835, "challenged": 7959, "975": 10930, "s3": 27392, "collaborators": 6801, "gsu": 16294, "covered": 3131, "##vis": 11449, "suffers": 22592, "883": 12814, "pbc": 26678, "safe": 4482, "endurance": 18421, "##hel": 24330, "pres": 1074, "fairfield": 17206, "annum": 3960, "verm": 10212, "containers": 6980, "starb": 18260, "13d": 12474, "acp": 20107, "resili": 19291, "601": 7830, "republic": 6564, "488": 11329, "exception": 5186, "460": 9778, "agil": 16730, "##orrow": 19477, "tumor": 8530, "safeguards": 14191, "loop": 13874, "execution": 5243, "##ocratic": 26485, "overseas": 8729, "och": 20381, "boundaries": 18146, "heating": 7270, "until": 2123, "cashing": 21899, "backs": 20452, "concerns": 5515, "discip": 8331, "lf": 23940, "plastic": 7071, "controller": 5537, "\u03c5": 248, "##jack": 16703, "intellic": 29224, "shrimp": 29046, "installing": 13767, "prescribe": 12767, "##amor": 25590, "emphasis": 7256, "waterway": 28512, "confined": 23759, "coach": 11997, "dispute": 7152, "counterfeiting": 26452, "accreditation": 12151, "##emer": 20872, "opinions": 8381, "15": 1169, "carlos": 21866, "revaluation": 12478, "##119": 28756, "arbitrations": 23425, "912": 12803, "##tiv": 1002, "unfavor": 4721, "ho": 8320, "evaporation": 29376, "##exchange": 17147, "aon": 17591, "investig": 4174, "##wind": 12979, "##arters": 3375, "tag": 12421, "bul": 4218, "triglycer": 28026, "910": 11871, "ni": 7706, "crafts": 19905, "13g": 26568, "##tail": 5582, "##lich": 19240, "##acent": 7242, "hed": 25533, "##usen": 22884, "endoscopes": 29752, "bausch": 24025, "##med": 9810, "bgs": 17005, "substitute": 7447, "lpl": 29235, "impairment": 1632, "schiller": 29868, "crediting": 14590, "uni": 6473, "359": 10921, "give": 4866, "284": 10086, "library": 9995, "premarket": 13142, "##ist": 1197, "passengers": 13938, "grubb": 24533, "nit": 19038, "ilec": 17951, "avoc": 21523, "import": 3269, "fines": 5292, "pass": 3259, "abdominal": 23507, "partially": 2753, "endos": 27454, "##moil": 15210, "sigeco": 21586, "attribution": 13833, "net": 903, "##ovol": 15796, "unsolic": 14163, "pione": 8693, "treating": 8646, "lef": 28486, "decreases": 4246, "polyureth": 18782, "krupp": 20117, "##ater": 2226, "##omon": 13558, "##ate": 671, "expired": 5023, "swapped": 20888, "overnight": 9831, "wd": 16726, "price": 1130, "##etr": 3297, "floyd": 24891, "##etro": 27220, "##emedia": 19871, "sugarcane": 26762, "printed": 8956, "roche": 9718, "logos": 18154, "metastases": 28890, "considerably": 13081, "gemini": 20309, "lon": 15259, "timing": 3024, "##he": 2971, "##ness": 2085, "divested": 10008, "repeatedly": 28819, "##aki": 22714, "##aff": 2454, "conditioned": 12497, "perpet": 7085, "\u0153": 214, "mounting": 25333, "due": 1125, "ceasing": 17648, "configuration": 10646, "registered": 2530, "enumerated": 19784, "\u27a2": 412, "demutual": 25269, "arb": 10450, "avid": 20674, "filers": 19311, "drilling": 3545, "##va": 6907, "accompanied": 11727, "casey": 23019, "147": 7793, "murphy": 13040, "arrangements": 2326, "detailing": 16869, "engines": 7589, "artes": 18720, "tenders": 26487, "hudson": 8828, "fischer": 20940, "stripping": 22280, "underwrites": 20532, "automation": 7974, "phased": 10537, "##\u0eff": 566, "man": 807, "refineries": 10716, "##shares": 7413, "32": 2598, "fence": 29978, "arthur": 7412, "##imed": 21806, "bread": 8480, "audio": 7220, "taxable": 2816, "inadvertent": 18416, "bpc": 17784, "##vasive": 15234, "chester": 15222, "conflict": 7137, "novellus": 28883, "\u03b5": 238, "eaton": 14209, "##hegan": 16515, "exploiting": 21774, "##ro": 2957, "767": 11406, "notwithstanding": 7771, "fia": 29949, "oversaw": 22991, "ware": 4358, "048": 13590, "##vin": 9685, "citations": 26755, "christian": 17235, "underwriters": 6754, "simultaneous": 13893, "##ectiveness": 2707, "bgc": 16042, "##itoneal": 28661, "subjects": 7443, "##ersburg": 26594, "markets": 1684, "calculate": 6091, "mtbe": 18680, "thc": 26481, "digest": 21222, "##36": 15247, "##axy": 12371, "flux": 23930, "olympia": 29708, "absorbed": 15628, "sanchez": 22223, "cba": 28259, "gg": 19366, "732": 12261, "##less": 2192, "apple": 9324, "##paired": 15376, "##imilar": 14215, "vomiting": 27704, "consist": 2212, "underm": 20059, "reps": 20622, "asahi": 29865, "deaths": 16785, "cach": 26129, "qf": 20798, "ulti": 26693, "harken": 18621, "sba": 8237, "##use": 5745, "866": 12825, "transponders": 20264, "collected": 4902, "1200": 22518, "138": 7135, "ebc": 27007, "accomplished": 10431, "oneida": 23757, "approvals": 4191, "prol": 7062, "narrowly": 22116, "atmi": 27753, "##deon": 24092, "##ari": 1241, "lucky": 22785, "luck": 21163, "futurefuel": 28880, "sarc": 29141, "awarding": 16620, "ingers": 24852, "pab": 22471, "##abr": 23461, "brod": 25879, "accelerated": 4838, "##nard": 26899, "condensate": 12209, "\u2030": 308, "saxon": 27604, "veterans": 16628, "branding": 12430, "attributes": 7373, "multipoint": 25399, "alti": 24750, "runner": 26024, "staples": 16943, "dutch": 12634, "\u00a1": 173, "morg": 20572, "seniors": 18727, "tcs": 21766, "soft": 2014, "theore": 18108, "influenced": 6889, "acs": 14223, "##bancorp": 26508, "lining": 21723, "##olas": 13117, "familiarity": 19798, "transparency": 10112, "securitiz": 4172, "disseminated": 21335, "##lusions": 9044, "contemporaneous": 20134, "rigid": 15174, "exen": 29373, "sunopta": 26391, "communic": 4293, "us12of": 22851, "norm": 3153, "metrop": 23474, "recommendation": 9085, "jackup": 22093, "jiu": 29833, "##ecomm": 26296, "loud": 22256, "probable": 3760, "361": 10750, "protections": 9671, "failure": 2590, "nea": 21048, "deployment": 7464, "navigators": 28440, "guidelines": 4072, "api": 10732, "##yls": 24362, "discrete": 9101, "fico": 12688, "disag": 4417, "medi": 11058, "apria": 26180, "cardholder": 18800, "division": 3054, "arrest": 28412, "held": 1739, "foreclosure": 5467, "goss": 27404, "altisource": 28530, "mcmoran": 19558, "##cience": 12606, "ship": 3033, "colum": 4282, "percentages": 6251, "formal": 6346, "disregard": 16299, "loews": 20108, "kear": 20792, "524": 11367, "fitzgerald": 20852, "##ds": 5855, "nasal": 17180, "modems": 15093, "##usal": 8745, "downtown": 12664, "responded": 11422, "investments": 1501, "sher": 13074, "agric": 5241, "gaseous": 25740, "technolog": 1377, "synov": 18276, "##ypt": 24906, "scots": 26982, "mineable": 27838, "ecp": 28523, "impax": 26665, "viruses": 9872, "guess": 22687, "sunrise": 12504, "avon": 17236, "##place": 4777, "##psc": 6648, "tllp": 29487, "driving": 9632, "progressed": 20070, "enclosed": 19191, "##stemp": 14217, "dcm": 29538, "guarantees": 3900, "crom": 28924, "##inski": 19015, "exch": 1269, "532": 11557, "mip": 16802, "tension": 20656, "akam": 25135, "cools": 27339, "tenet": 21999, "##odi": 26782, "renegotiating": 26021, "swedish": 16863, "los": 6128, "recs": 20307, "culminating": 28389, "multitude": 22180, "cataract": 27750, "176": 8604, "merc": 5777, "pierre": 21734, "discretion": 3443, "discontinuation": 13239, "indeterminate": 16175, "consensus": 9989, "##ptin": 26912, "768": 12594, "anticip": 2105, "iridium": 13150, "federally": 7831, "##los": 1416, "##wick": 10049, "##urion": 22865, "##hole": 19970, "documentary": 23509, "unamortized": 5251, "activating": 28603, "volunt": 4848, "visualization": 19237, "656": 12012, "ipi": 28826, "screened": 24631, "lmc": 23540, "metlife": 11863, "gladstone": 21269, "sauer": 29995, "##assis": 11481, "fsic": 25957, "##estinal": 15904, "modulators": 25442, "##banco": 18703, "anita": 26119, "absence": 6241, "ico": 24543, "##pots": 27983, "\u01c2": 218, "589": 12360, "##itures": 2184, "esg": 27075, "definite": 9829, "ze": 14664, "rtfc": 27703, "pegas": 13369, "rfid": 18429, "realized": 2739, "##nr": 9066, "banked": 27790, "glyc": 25765, "autodesk": 18707, "##lassified": 28895, "nqs": 26625, "biod": 9776, "##5s": 25327, "pax": 22406, "##ident": 1598, "ultimately": 4392, "magnitude": 9276, "patent": 2399, "##ecl": 26969, "inability": 4181, "afl": 16570, "measuring": 5793, "canal": 15818, "cancelable": 6465, "inlet": 25268, "social": 5843, "njdep": 19292, "##essing": 18504, "87": 3508, "vasce": 25553, "months": 2049, "059": 13804, "checks": 8946, "jumbo": 19442, "cle": 2668, "agro": 25676, "##asing": 2157, "##rap": 2677, "fine": 8377, "wallace": 17118, "temper": 7143, "supervalu": 24490, "shuttle": 20593, "incidents": 10274, "nucle": 14202, "blockbuster": 19397, "recognizable": 20969, "##ved": 1462, "individually": 5226, "602": 11571, "square": 3066, "pdu": 25042, "fasteners": 19027, "warehousing": 9095, "##ourn": 8337, "paints": 20320, "vacant": 10153, "##ett": 5396, "##uco": 17852, "impco": 29386, "synergies": 8671, "snacks": 18663, "get": 9861, "hilfiger": 23201, "microb": 17003, "spray": 14767, "unguaranteed": 23489, "##pace": 22689, "531": 11742, "intercarrier": 25142, "claimed": 8184, "undergo": 10373, "styles": 12820, "exhibited": 18094, "sherman": 14991, "##uson": 16684, "##\u00bd": 517, "##iving": 4475, "preclinical": 5788, "deductible": 5174, "mineralization": 11932, "clara": 14082, "ios": 20060, "##ulus": 15865, "156": 7814, "honor": 11366, "ghg": 9244, "entity": 2366, "elementary": 24422, "necessary": 2333, "##pez": 27282, "nondisc": 13559, "excav": 17350, "nonmon": 12683, "##tiz": 1457, "##utory": 7345, "strains": 18112, "##clc": 19691, "indemnity": 6588, "ensu": 19713, "freed": 11553, "ftc": 10475, "sweeth": 28748, "exclusive": 3423, "##owski": 16206, "schum": 28274, "prejud": 9195, "foothill": 17333, "ceilings": 21281, "forecast": 6399, "trss": 15353, "forum": 12343, "\uff0c": 436, "##oso": 26781, "phosphates": 23069, "assembles": 22940, "obligor": 9908, "##ented": 8250, "rod": 8722, "tricare": 24445, "gather": 5288, "tow": 4775, "merge": 8137, "excip": 29818, "nano": 16374, "##ring": 6160, "tribun": 20862, "ghana": 21011, "logan": 17514, "##q": 480, "arrangers": 22342, "##shan": 25297, "salad": 24992, "protest": 17614, "prescrib": 7630, "mckee": 27120, "quicks": 23892, "\u2463": 372, "quote": 16041, "sunset": 17911, "programm": 16258, "##fums": 24350, "isps": 18067, "##gian": 17112, "unrestricted": 8477, "disallowances": 24710, "bonuses": 5859, "ban": 8648, "coli": 18227, "cosmetic": 10947, "infrastructures": 16343, "##acter": 3429, "twe": 12424, "mck": 11001, "##89": 16248, "macro": 8975, "off": 1415, "directv": 11500, "sog": 21265, "slightly": 6583, "scorecard": 28400, "outstanding": 1348, "suburban": 11819, "subtracted": 26376, "##000": 12251, "##tist": 12173, "alb": 15123, "arth": 6773, "##try": 11599, "pentair": 27310, "##zel": 21327, "##ury": 2716, "##are": 1111, "tub": 7138, "way": 3874, "spinal": 14206, "tiers": 15101, "##ured": 1695, "unforesee": 29738, "hypers": 29777, "weighed": 27101, "estrogen": 24961, "incentivize": 22604, "credibility": 19873, "cultivation": 19662, "##vi": 7753, "priced": 6068, "npdes": 22427, "dsi": 16510, "overcome": 13637, "##upon": 23528, "##cements": 4261, "##vesting": 13445, "##oil": 25176, "rhythm": 26331, "joa": 21214, "503": 10998, "##retable": 13851, "identi": 8545, "brazilian": 9705, "acceptance": 4133, "736": 12894, "hampshire": 9902, "redeem": 3567, "veba": 19031, "sanction": 13899, "malpractice": 15337, "##102": 22710, "715": 9847, "##itrust": 24764, "##etric": 10765, "saturday": 14528, "##uz": 17800, "arlington": 16475, "roaming": 12864, "sessions": 14542, "braun": 22570, "differentiation": 15393, "variances": 10588, "alaska": 9025, "652": 12220, "solicits": 28217, "liens": 5638, "glenn": 15326, "receptor": 11456, "##come": 20145, "##tson": 22313, "197": 3909, "##etition": 14512, "ferg": 17467, "counts": 11600, "deriving": 22424, "##ologically": 26420, "dol": 10941, "do": 1222, "637": 11721, "reorganization": 4221, "gale": 26584, "liver": 10578, "dismemberment": 29304, "eugene": 15564, "acetylene": 26062, "##ends": 1484, "chilcott": 28649, "sem": 3617, "nasd": 13181, "foundation": 6814, "heavy": 7394, "\u0640": 281, "##istic": 5642, "##lized": 21304, "cur": 4365, "microsystems": 17085, "allegations": 6501, "voicemail": 27948, "##loid": 26070, "distillation": 27512, "katy": 25239, "##enton": 14772, "furniture": 5391, "removed": 5895, "##icher": 19659, "cowen": 19930, "#": 107, "sino": 17672, "carg": 17520, "posed": 17937, "and": 624, "##ices": 3384, "126": 7488, "##onda": 23721, "yank": 10534, "rong": 28911, "sew": 12363, "closed": 4123, "##inatory": 14050, "445": 10753, "felcor": 17386, "colored": 26515, "haze": 21109, "##onia": 15789, "xix": 29694, "amkor": 28393, "##osta": 26774, "fibreboard": 29426, "overdr": 9848, "probabilities": 18315, "jus": 6901, "##aging": 3170, "melbourne": 20424, "receiv": 1219, "##umph": 17006, "topical": 14098, "saif": 11712, "repor": 875, "waddell": 25700, "964": 13679, "##hold": 1123, "gray": 13016, "tul": 11327, "##atell": 4551, "competed": 23595, "amortizing": 8697, "wholly": 2808, "pharmacy": 7311, "earth": 6286, "demurr": 21188, "meris": 22945, "[unused74]": 75, "remedi": 7221, "stor": 2142, "734": 12607, "proced": 1944, "accumulating": 25551, "##dl": 26798, "develops": 6894, "tcf": 15403, "refrigerated": 15340, "advising": 16315, "contribute": 5053, "rain": 9390, "unconditionally": 10741, "##worthy": 28247, "20": 650, "fraudulent": 8464, "brackets": 26403, "opus": 27323, "behav": 6812, "##emi": 20357, "nalco": 17579, "pincus": 20312, "stabilizing": 21310, "fdicia": 11881, "##alon": 15460, "wmg": 29967, "ecol": 24373, "anti": 3197, "258": 9745, "commodities": 5697, "##lets": 7767, "winds": 15598, "pult": 27179, "partnerships": 3511, "##walls": 25861, "##ization": 1816, "met": 2290, "inadvert": 13816, "kl": 14495, "landlord": 6884, "ond": 27347, "##structures": 26321, "confronted": 29405, "underes": 19988, "isaac": 19202, "##ibles": 4509, "##arten": 24324, "##aney": 27582, "cubist": 23174, "nationalization": 19915, "verif": 18070, "valentine": 28602, "abf": 24376, "theatre": 11176, "##\u0432": 568, "cautionary": 9680, "contacts": 11383, "##k": 464, "impacting": 7871, "designees": 17074, "replenish": 20283, "cholesterol": 18155, "reinvested": 7438, "medic": 2970, "impacts": 5700, "ai": 15874, "##you": 18337, "ert": 29746, "flammable": 28080, "fronts": 28614, "anchorage": 21339, "mcmill": 27970, "bifurc": 12044, "##coin": 19703, "practiced": 18367, "##ity": 700, "##ilateral": 10902, "selects": 16514, "##echan": 4672, "##ac": 663, "friction": 19656, "##dy": 12866, "seab": 12790, "##irco": 25468, "securely": 20189, "paramount": 15198, "##emis": 22867, "##al": 621, "introduction": 5441, "coca": 13993, "amherst": 27574, "montg": 12727, "summarizing": 22199, "##esa": 8562, "ims": 15552, "1500": 22668, "assurances": 6026, "excise": 7765, "landscaping": 20853, "##urch": 2249, "endow": 20316, "inad": 13550, "crda": 21962, "garcia": 21042, "minneapolis": 12518, "##ylam": 24909, "restrict": 4903, "interpret": 3455, "##\u20ac": 493, "loads": 15618, "suddenly": 28917, "##ute": 2094, "attempts": 7439, "##ominated": 4363, "christmas": 17656, "1986": 4842, "payable": 1976, "firmware": 24209, "rout": 7393, "679": 12596, "brace": 27632, "fairway": 27284, "ell": 10070, "armor": 18199, "would": 1306, "illiquidity": 13824, "196": 5490, "exporting": 17096, "modest": 9249, "unus": 7260, "941": 13420, "insider": 8585, "herbst": 29014, "irrig": 14440, "thereunder": 6475, "rehabil": 28818, "##aline": 24318, "distinguish": 10275, "transamerica": 22108, "intellectual": 2908, "deprec": 4957, "dir": 4969, "naco": 24153, "##cen": 28415, "patronage": 14670, "pride": 16347, "sonet": 25345, "##atm": 25866, "dereg": 9821, "democratic": 26680, "precise": 9103, "carrington": 26297, "##oxi": 21749, "##iven": 2584, "displaying": 21582, "##repr": 8417, "\u02c9": 227, "bedford": 18846, "##uy": 19039, "pope": 21745, "tiv": 14871, "##par": 1411, "biol": 20470, "##sville": 20097, "##ode": 6995, "##lane": 22005, "transported": 10352, "anal": 1793, "seasonality": 6784, "grill": 14738, "##rable": 16972, "##afind": 28914, "solvay": 28515, "secure": 4308, "installment": 6658, "15c": 22229, "##man": 2057, "ngc": 20313, "seizures": 16413, "populated": 19715, "oxide": 11200, "bidding": 9957, "transf": 4560, "netherland": 28930, "hotline": 24295, "benefitted": 24519, "falk": 28079, "suggesting": 22279, "progressive": 11459, "##fication": 9580, "reuse": 20163, "distances": 20024, "besp": 18017, "enacting": 27477, "confirm": 6004, "[unused29]": 30, "safeguarded": 18671, "##arco": 15950, "moment": 14366, "organics": 26783, "install": 2871, "alagasco": 18268, "injected": 18447, "##aba": 17909, "philos": 9401, "moratorium": 16144, "cantor": 14931, "adviser": 6992, "means": 4345, "harvey": 14710, "airtime": 19413, "myelo": 24083, "strength": 3959, "gaylord": 20279, "elek": 28402, "schultz": 26469, "enforced": 11813, "##ides": 7516, "swan": 24478, "seeing": 24723, "carr": 1387, "572": 11756, "simulation": 8039, "documentation": 6052, "pledges": 16288, "tbas": 26128, "spectrometry": 26511, "fits": 24176, "dpac": 29888, "jameson": 27416, "brachytherapy": 20776, "mainly": 5225, "springerville": 23090, "sock": 22697, "different": 2885, "chicago": 5775, "bene": 2319, "verifying": 21920, "##ocs": 16203, "sarb": 4656, "macintosh": 26348, "shot": 22304, "nature": 2910, "orthop": 11350, "mas": 9922, "pico": 20579, "b2b": 21476, "compar": 1291, "dollars": 2722, "ribbon": 22254, "special": 2257, "summarizes": 3849, "autol": 24033, "engine": 2767, "mathe": 28656, "dedication": 18629, "catheters": 15756, "deferral": 6086, "keny": 24287, "chec": 4870, "tours": 20308, "determin": 5589, "##ided": 29416, "recomm": 4294, "sav": 2779, "xvi": 24178, "untrue": 11549, "prizes": 29780, "weighing": 21628, "separately": 4545, "mezz": 8411, "gst": 19390, "##nedy": 15542, "etch": 19516, "warner": 7749, "041": 13669, "##members": 26892, "486": 11590, "compati": 8575, "capacity": 2493, "##aring": 20717, "acknow": 10166, "##uling": 9117, "magazines": 10363, "logical": 25439, "intervention": 11241, "##lerosis": 17804, "##ying": 1300, "t2": 23987, "attitudes": 25099, "##mo": 7826, "alf": 14423, "pap": 11895, "verticals": 20036, "argon": 25050, "happen": 19173, "fmc": 16201, "creditworthy": 15875, "##isons": 8233, "sign": 1031, "tms": 20821, "initiates": 24628, "##idien": 18849, "##econd": 20124, "superseded": 15334, "permit": 3356, "##dress": 2986, "corrections": 9000, "liter": 8992, "whe": 7122, "##\u0131": 547, "\u06d5": 283, "clinician": 29118, "nev": 4329, "contacted": 17670, "perry": 12507, "fatigue": 20970, "exploratory": 9057, "vonage": 24096, "outst": 1347, "janssen": 15827, "close": 3717, "industrialized": 28498, "underwrite": 14522, "women": 7822, "##anova": 25504, "reconcil": 4111, "illustrate": 19476, "avoidance": 17129, "avondale": 29906, "tonn": 15104, "presidents": 14138, "[unused59]": 60, "rotor": 28590, "led": 5455, "demonstrated": 7227, "pack": 3363, "genta": 27893, "pucn": 16963, "orthodon": 19072, "##proof": 24262, "downgraded": 13806, "jp": 10544, "##ople": 19393, "logic": 11071, "scenario": 10861, "[unused32]": 33, "volati": 2734, "stipulates": 22470, "acme": 19509, "reac": 10865, "evening": 27258, "nonemployee": 13164, "##ophilia": 23256, "dredge": 28281, "skel": 22972, "vg": 24887, "cinc": 10532, "diablo": 28878, "##oleum": 4660, "motions": 8616, "outpar": 28057, "chees": 26184, "batesville": 28138, "bornh": 26502, "surviving": 8398, "static": 14110, "depositary": 10680, "mae": 7484, "density": 10016, "ffi": 25910, "potassium": 22437, "reflects": 3556, "##iod": 958, "pony": 29263, "damaging": 21086, "immunosup": 28276, "pallets": 28995, "cuisine": 28703, "uncollectable": 23000, "tong": 17481, "impermissible": 24009, "kre": 19150, "plano": 23960, "telewest": 26569, "roa": 25486, "problem": 3958, "fracture": 17018, "rober": 27763, "upb": 23439, "crush": 15189, "wing": 14994, "relie": 11395, "##cribed": 2223, "classifying": 17664, "cabling": 24800, "punch": 26496, "##bron": 27489, "solo": 26003, "moderately": 16715, "reclassifications": 6030, "promulg": 5539, "toy": 11682, "phage": 27456, "##agh": 24717, "broken": 16350, "677": 12631, "prevail": 9432, "responses": 10040, "unpr": 7864, "##\u215c": 525, "inserts": 19728, "assembled": 10793, "mechanically": 29565, "optim": 4944, "retrie": 13345, "refiner": 28083, "smartphones": 17932, "973": 13321, "engage": 4215, "regr": 20549, "www": 4731, "cancell": 4380, "shapiro": 23441, "announcements": 8805, "013": 13222, "alder": 29549, "improperly": 13092, "873": 13382, "redesigned": 22037, "fulfillment": 7601, "reclaimed": 25157, "therefrom": 14656, "##olytic": 22680, "alleviate": 17461, "beat": 19201, "genco": 12232, "emerald": 20494, "pix": 16598, "stephens": 18835, "recognizing": 6983, "statistical": 8274, "hardware": 4544, "##ancorp": 27847, "entreprene": 13538, "9001": 16289, "leg": 1679, "aro": 10731, "fmr": 26713, "##ounded": 18903, "##orship": 25632, "medication": 13336, "ophthalmic": 15911, "hole": 11738, "tracking": 7829, "shadow": 24265, "##vak": 21805, "exact": 10288, "##lia": 15017, "usability": 29108, "controll": 2886, "##teen": 6513, "glax": 14648, "##aces": 6557, "ket": 21561, "duplicate": 14018, "fah": 21697, "##odon": 17227, "founder": 7324, "##as": 634, "gla": 13296, "orthopa": 20477, "ncr": 15021, "150": 3888, "centralize": 26980, "benef": 1248, "pu": 6387, "coyote": 27438, "qcii": 24541, "discrep": 22577, "##abl": 11325, "winner": 24614, "dilution": 5309, "thanks": 29090, "apco": 16298, "bargain": 14121, "trou": 7513, "amerisource": 23311, "power": 1814, "##loo": 26011, "##urf": 23411, "rene": 2621, "kirkland": 25060, "enbridge": 14711, "bcbs": 24885, "gul": 20232, "nederland": 26500, "vinci": 24336, "florence": 24021, "411": 10718, "##fc": 5570, "representatives": 5234, "firm": 2331, "brands": 4388, "path": 6292, "447": 11158, "nysdec": 26135, "greer": 27967, "methodology": 5208, "fastener": 27326, "perquisites": 11564, "2042": 27815, "qualification": 6847, "aureus": 28679, "buy": 3763, "tempor": 2799, "##itable": 5790, "netting": 8804, "ortho": 16334, "troubleshooting": 28882, "synthes": 19355, "##thor": 1602, "workflow": 13701, "reasons": 4984, "club": 5510, "omagine": 26894, "interpol": 25901, "interlocking": 28669, "\u2500": 375, "stocking": 17337, "minn": 24613, "speculative": 6808, "comcast": 12063, "emcore": 22525, "cultures": 18371, "##enn": 5471, "mother": 17752, "594": 12254, "281": 9896, "bes": 18190, "reborrow": 23943, "budget": 5487, "earns": 10788, "bits": 21736, "heal": 27155, "beauty": 10778, "##alized": 2810, "cfo": 6977, "taur": 27177, "##uccess": 7529, "delin": 4879, "azur": 27224, "intermodal": 14205, "exams": 28497, "##ida": 3654, "illustrated": 18512, "indefinitely": 8072, "aiv": 23084, "rectif": 25673, "potent": 17720, "differing": 9973, "chairman": 2964, "nondeductible": 14949, "##pos": 1067, "##affiliated": 5936, "oled": 19331, "jury": 9876, "hexcel": 23146, "##zynski": 27114, "##rella": 13900, "vill": 7827, "##annah": 12931, "compared": 1513, "##igh": 891, "##otechn": 24231, "agl": 20234, "##atlantic": 13111, "workover": 14425, "##ow": 808, "possible": 2804, "monoxide": 25245, "##stor": 16846, "extensions": 6781, "perryville": 26223, "##ig": 713, "spok": 17315, "genome": 17456, "equinix": 27609, "##oro": 13556, "elim": 6369, "##omo": 11330, "bergen": 22498, "magnes": 18810, "airbus": 15790, "recap": 10059, "weaknesses": 5417, "peso": 13784, "943": 13262, "219": 9351, "impairs": 28285, "regal": 16809, "##atur": 15127, "##etech": 15801, "cpl": 15581, "##ancere": 22812, "tree": 11209, "cors": 26587, "setoff": 25995, "heart": 6638, "rag": 25613, "load": 5679, "conagra": 22858, "produces": 7111, "wals": 18756, "montgomery": 12752, "harb": 5992, "pesticides": 22422, "noteholders": 11687, "hastings": 23497, "rox": 18989, "regeneration": 19814, "former": 2673, "apac": 18633, "richman": 23007, "tapes": 17701, "restructuring": 2643, "px": 14807, "uaw": 25791, "##wide": 3228, "intercontinental": 22238, "yard": 15253, "925": 10980, "infil": 27051, "unallocated": 8328, "mex": 3878, "viking": 19301, "venetian": 26415, "3c": 29410, "iber": 21963, "fcx": 18476, "outdoor": 8191, "developmental": 12692, "presented": 2434, "\u201d": 300, "##lot": 5690, "##brand": 13189, "##align": 27812, "\uff47": 441, "##tend": 24120, "interconn": 6520, "##oor": 13603, "now": 3676, "blow": 13172, "weekend": 24786, "loom": 23400, "##market": 7004, "induced": 14461, "gf": 19731, "##igne": 20405, "bethesda": 21661, "je": 8380, "##field": 5153, "reputational": 11283, "##icians": 10002, "founders": 11213, "##i": 449, "tear": 19512, "flor": 3671, "diminishes": 25809, "##tib": 5402, "volume": 2727, "##thern": 3091, "peti": 5213, "ffp": 27032, "veb": 18044, "##fed": 18842, "loy": 25802, "assimilating": 21704, "clust": 15862, "valve": 13650, "print": 6876, "##ometr": 11110, "beds": 11944, "preopening": 20290, "treasury": 3444, "auditor": 6207, "notifying": 20803, "intercable": 20407, "##born": 22078, "##emark": 20169, "leaving": 10128, "prioritizes": 12431, "##andez": 22741, "name": 3147, "canadian": 4203, "disrupted": 12473, "paper": 3916, "lancaster": 17897, "##idan": 22179, "consumer": 2486, "nfp": 26108, "equipment": 1560, "ara": 29790, "residue": 19300, "##hc": 6320, "undertaken": 7211, "usap": 16517, "mineralized": 13995, "crews": 17436, "die": 7387, "owens": 13229, "mart": 10133, "config": 7426, "887": 13341, "dalian": 19501, "usb": 17761, "##\u03b5": 524, "\u300b": 420, "methodologies": 6458, "##cat": 26422, "improving": 5920, "feedstock": 9247, "iris": 19758, "sithe": 22519, "allowance": 2008, "tulsa": 14365, "##lic": 985, "alll": 14591, "lia": 18271, "hung": 12850, "mgh": 29343, "msp": 20216, "automatic": 6947, "nepa": 26811, "un": 776, "pms": 22769, "generale": 25217, "haver": 25800, "matt": 28677, "apollo": 8522, "##point": 5816, "##\u00af": 537, "island": 7169, "span": 9662, "radiological": 21084, "dsp": 15476, "##\u221a": 520, "interiors": 19488, "break": 6087, "deepwater": 12356, "diem": 16460, "citicorp": 16603, "1934": 2928, "health": 1866, "##feng": 21017, "thresholds": 8476, "##inated": 1980, "##ke": 1134, "jimmy": 27520, "iceland": 22816, "##iera": 20981, "anthr": 22306, "pars": 14892, "##anks": 19066, "##quez": 25601, "##rook": 17224, "##iture": 3914, "federated": 15363, "rescinded": 17936, "depressed": 12249, "##iley": 10490, "entrepr": 13490, "spud": 28568, "##vereign": 9817, "evolved": 17383, "mccull": 29229, "severity": 6979, "##\u00b4": 489, "##ef": 1000, "hyde": 28406, "york": 2680, "sovran": 29599, "cok": 29567, "wax": 13621, "endangered": 15518, "##argo": 4586, "pretr": 22278, "panasonic": 25742, "ira": 10873, "delist": 27901, "ches": 11419, "autos": 26438, "baa3": 20350, "epidemic": 26185, "truth": 14190, "petitions": 11188, "ratemaking": 11169, "pbx": 24322, "bci": 25828, "##oplasty": 18319, "##anche": 18642, "foundries": 13768, "prc": 4823, "shoppes": 20771, "valu": 1723, "gps": 13442, "##reit": 16541, "too": 10056, "guil": 17501, "gcc": 27689, "gsc": 22167, "boehringer": 22995, "bren": 23207, "biochemical": 22314, "sprink": 27080, "processes": 3551, "phones": 10893, "heco": 14044, "recipient": 9559, "kinder": 12392, "forming": 9655, "deciding": 12379, "majes": 15883, "poor": 6450, "condominiums": 16937, "stopp": 9054, "\u03b6": 239, "chea": 27040, "metastatic": 15674, "brun": 11520, "disab": 13416, "necessitated": 18854, "146": 6476, "##enex": 22764, "sms": 17185, "##abilities": 3844, "campus": 9286, "diminished": 10500, "tracked": 16202, "successive": 10590, "##acters": 18516, "dus": 22086, "mcd": 9519, "\u0268": 220, "debar": 17570, "chooses": 16005, "1952": 29369, "athens": 24377, "summarize": 9152, "numer": 3687, "rea": 27680, "treatment": 2821, "deposited": 7731, "filtering": 21146, "##like": 6321, "##usted": 8059, "1994": 2175, "reptron": 29943, "2016": 1505, "array": 7729, "underperform": 11494, "tax": 869, "regulation": 2306, "1031": 19922, "thorough": 11700, "subcontractor": 11719, "ambul": 13241, "necessarily": 4695, "legis": 3171, "chand": 15409, "vanguard": 15757, "##onom": 6439, "wishing": 23313, "##emax": 18713, "05": 3721, "fears": 26258, "reassessments": 26524, "textbook": 23781, "beacon": 16341, "proton": 24546, "incap": 19538, "exercise": 2101, "asterisk": 18923, "marketable": 4375, "discontinu": 2993, "##icides": 23087, "##inding": 16167, "burd": 8691, "abetting": 23693, "replac": 3263, "ifc": 21156, "shipyard": 19111, "showtime": 27123, "52": 3107, "##ala": 12499, "deploy": 5010, "relig": 20910, "accessory": 15265, "absorbing": 27232, "uter": 24472, "bernardino": 23483, "excite": 24269, "cooled": 21733, "nmc": 19884, "k405": 19541, "fewer": 6623, "berm": 7397, "##ustar": 14393, "boyd": 16754, "endanger": 23791, "preliminarily": 17496, "trades": 6537, "cancellations": 10046, "percentile": 17029, "gbc": 26920, "demol": 15346, "alcohol": 9458, "allison": 25077, "ts": 7350, "awi": 19637, "infom": 21847, "enroll": 5554, "braking": 25384, "reset": 8307, "flat": 6452, "biovaxid": 29573, "bachelor": 7487, "mile": 7885, "congr": 14537, "harland": 22343, "precluding": 28654, "retains": 8034, "molecules": 12136, "coyle": 28340, "##er": 607, "profic": 20384, "solicitation": 7888, "orthopaedic": 22059, "inheritance": 28860, "ols": 24442, "charterer": 29247, "##\ufb00": 571, "infer": 16759, "outages": 9310, "irb": 14950, "transmission": 3463, "tpa": 23380, "molybden": 18910, "gds": 22103, "kw": 12995, "empress": 28939, "021": 13315, "newco": 21190, "begin": 2068, "selections": 19102, "her2": 22796, "steph": 16452, "disallowed": 15144, "therapeutic": 5996, "dynamics": 10516, "crisis": 8785, "noncredit": 26410, "##umbered": 11034, "arn": 14588, "urban": 8830, "colleges": 14517, "desires": 15367, "mul": 2241, "bottles": 15369, "003": 11334, "ud": 16390, "tooling": 11660, "patents": 2769, "lojack": 24518, "##uded": 20897, "stack": 12757, "##oduc": 10993, "##ified": 1388, "vast": 10354, "rouge": 17169, "irvine": 13554, "baux": 23851, "tallahassee": 29314, "pfl": 26869, "337": 10011, "##\u03c6": 581, "##pot": 17983, "\ufb03": 427, "boots": 17016, "##umab": 12420, "defers": 13176, "security": 1922, "robot": 28456, "dane": 28293, "ein": 23587, "resonance": 24467, "easements": 14563, "worsen": 17439, "continuity": 10723, "westmor": 20596, "thcr": 12396, "achieve": 3393, "##utch": 10023, "warehouse": 5055, "unexpected": 6609, "##ycom": 28768, "redund": 9657, "telemetry": 23096, "refresh": 19362, "tribe": 12328, "countermeas": 22584, "##ivid": 1240, "##ory": 1054, "involve": 3796, "encumbrance": 22051, "traction": 27294, "##chr": 21371, "abraham": 27190, "nic": 9583, "aac": 22110, "critically": 11251, "##fax": 17015, "inmate": 25583, "maxxam": 28265, "dangerous": 20880, "##ach": 983, "exemptive": 20485, "##ical": 1001, "spir": 10009, "##quential": 24510, "reimbursements": 6670, "##essional": 12751, "##ayment": 27170, "equipped": 11835, "featuring": 13949, "toro": 27845, "all": 946, "faculty": 15847, "534": 11900, "788": 12816, "subsid": 7218, "##tam": 29422, "unim": 11821, "469": 11455, "##selves": 6303, "niss": 26933, "dil": 2266, "biopharm": 8301, "reporting": 1261, "2002": 1405, "##forming": 23102, "assure": 4449, "denying": 11211, "headquarter": 7748, "tractor": 16854, "aer": 5748, "##return": 28957, "eic": 24119, "npns": 27411, "insolvencies": 24877, "notification": 7334, "hul": 22334, "sometime": 22966, "cellco": 29628, "ry": 8467, "corresponding": 4104, "caremark": 25040, "carrybacks": 25452, "chol": 28833, "impair": 1412, "relicensing": 26591, "liberty": 6825, "##therapy": 17388, "##feas": 18323, "science": 6165, "customization": 12914, "##mere": 28504, "##acycline": 25036, "pioneering": 29290, "nonproduc": 27724, "dishonesty": 22984, "##inical": 2108, "guardian": 16722, "electron": 3052, "mti": 18327, "\u0f6b": 288, "september": 1530, "preparation": 3118, "gro": 15451, "hdtv": 24365, "signage": 16108, "arbitrary": 24825, "aerospace": 6893, "adm": 14821, "serial": 14577, "##in": 616, "##olent": 29334, "reti": 4015, "sweeping": 24784, "60": 2462, "livestock": 15159, "tpc": 20247, "isobut": 20682, "smok": 11479, "snfs": 25450, "gpsc": 26149, "reclassify": 12511, "##v": 481, "objectively": 19929, "distributes": 7786, "watson": 12523, "ssl": 27828, "##reated": 21493, "retainage": 23417, "##bane": 28078, "fra": 26659, "gau": 14927, "environmentally": 13021, "tutor": 26442, "lobb": 25456, "945": 11966, "atsi": 20491, "precautions": 14926, "zip": 18925, "mat": 908, "##atis": 2510, "lying": 28282, "aav": 20242, "considers": 4080, "coins": 12724, "proceedings": 2639, "profession": 2791, "ruled": 10391, "libraries": 13794, "francisco": 7725, "graham": 9660, "retirees": 9444, "sharp": 9965, "walmart": 21929, "ibx": 24004, "equities": 8399, "where": 2082, "nominees": 7943, "dismissing": 14897, "##phase": 21881, "##ts": 641, "shipper": 19674, "dcr": 27373, "orc": 26790, "##reet": 13953, "asi": 17161, "##lese": 21373, "906": 6887, "liv": 2092, "better": 4340, "purported": 7783, "contingency": 7031, "wex": 15711, "##aluations": 19686, "771": 13190, "comprom": 8106, "##tian": 19165, "##contr": 4128, "wisconsin": 5858, "retrof": 13537, "hills": 8512, "thl": 20651, "occupational": 10184, "infrared": 17039, "michel": 28106, "creations": 27869, "hub": 8227, "td": 10492, "transplants": 29018, "pets": 19051, "brain": 10378, "monroe": 15096, "cns": 17176, "dpi": 28869, "ned": 24969, "maxx": 21362, "terrain": 19322, "repaired": 20569, "associate": 7853, "overal": 22713, "gt": 12087, "##ocrine": 24319, "tlc": 19889, "youth": 16804, "sar": 7938, "cautioned": 14364, "owed": 5264, "##bio": 22112, "daimler": 18673, "abrupt": 29975, "webmd": 18927, "blade": 23463, "merrill": 8336, "franchisor": 15870, "##ovan": 20488, "\u00d7": 203, "broader": 7593, "pathologists": 27319, "multiplexing": 25812, "tab": 7608, "2029": 12821, "forthcoming": 23381, "constructive": 12884, "simult": 7379, "colle": 26791, "niger": 17503, "levine": 19849, "whom": 5008, "uts": 28862, "##estar": 15511, "303": 8649, "qef": 29167, "revise": 8288, "##ersham": 28033, "chat": 17300, "detection": 5781, "belie": 1344, "phot": 6821, "informally": 27558, "incur": 1610, "implicit": 14701, "emerge": 11754, "unattractive": 23612, "tickets": 12422, "##word": 15602, "desktop": 9695, "later": 4253, "##ces": 8198, "##astar": 17035, "purchased": 2335, "dg": 13114, "113": 7146, "transmonta": 21983, "##ligh": 4303, "drawn": 7226, "##missions": 7781, "elapse": 26608, "laurel": 18201, "##overy": 28672, "transtrend": 29853, "margar": 21274, "##nation": 29427, "##etta": 14480, "##opath": 27154, "involvement": 6587, "reopened": 24327, "roads": 14128, "mechanism": 7547, "efficacious": 24595, "arkansas": 7560, "smurfit": 25687, "interconnections": 19964, "understand": 7303, "nich": 7951, "##xin": 16697, "hurr": 6673, "649": 12534, "recoverable": 4130, "actively": 5378, "privileges": 9124, "retin": 18189, "feeder": 16729, "antisense": 18781, "eas": 4337, "uncured": 17320, "##fil": 17190, "533": 11598, "pier": 10770, "stockholm": 28704, "diy": 25984, "shu": 27350, "incorrectly": 17282, "unimproved": 19000, "##iana": 4032, "scatter": 29000, "wave": 10343, "advisory": 4107, "dozen": 25753, "appeals": 5805, "spans": 22862, "407": 9352, "overruns": 12531, "qvc": 16154, "shaped": 22376, "platform": 3322, "sto": 27891, "spare": 10667, "\u2219": 359, "updating": 15750, "nordstrom": 22226, "##acqu": 29965, "penins": 16264, "photovolta": 17558, "cleco": 8982, "g": 149, "##timely": 23423, "coordinator": 25560, "defeas": 21396, "governors": 11441, "enthusiast": 29339, "lacks": 18719, "amounted": 4587, "optimizing": 14463, "outerwear": 23100, "describing": 15675, "maloney": 27937, "##atherm": 24691, "zyn": 28277, "angi": 12373, "students": 6988, "##agues": 22956, "##frames": 26895, "hubs": 16926, "antibio": 13109, "##orp": 3674, "freighter": 29597, "protected": 7986, "synerg": 17856, "inappropriate": 13744, "luggage": 26592, "woven": 19787, "fcm": 17033, "tucker": 20040, "unavailable": 9055, "refocus": 26756, "ru": 9374, "292": 9997, "domin": 12714, "continuing": 2877, "undertake": 6923, "tin": 14245, "indicate": 4298, "previously": 2273, "liquidator": 26841, "##ti": 609, "economy": 4524, "##able": 732, "13": 1349, "inov": 27013, "pleasure": 17059, "richmond": 12098, "registrants": 6141, "relies": 7478, "kem": 10707, "7th": 25261, "##cast": 8834, "war": 4856, "deposits": 2536, "suntrust": 14448, "pret": 6185, "##ral": 3354, "##cale": 23314, "arguments": 17197, "309": 10427, "+": 115, "juris": 3076, "dolan": 22356, "ruling": 6948, "chapman": 20278, "locally": 11408, "transferable": 9969, "417": 10728, "wrote": 8929, "##lines": 5903, "ecg": 25956, "seed": 9201, "##ena": 7823, "nutraceutical": 19617, "cif": 27257, "org": 16008, "forecasted": 5607, "##ington": 3809, "deutsch": 23718, "quantifiable": 21833, "^": 140, "##mons": 13937, "618": 12204, "belk": 26739, "nrg": 9794, "deactiv": 24111, "##wood": 4518, "loi": 24960, "unexercisable": 21058, "certifies": 18669, "fail": 1966, "[unused64]": 65, "inergy": 16948, "##ack": 1436, "leaf": 14693, "##ted": 810, "vineyard": 23814, "clair": 25410, "[unused39]": 40, "mr": 1413, "roy": 12941, "##urance": 1166, "subpoen": 11392, "\u27a4": 413, "regard": 1815, "uga": 18641, "kickbacks": 28288, "ngpa": 28577, "deteriorating": 14390, "patio": 27634, "garage": 15301, "patterson": 16272, "398": 11003, "##grad": 12521, "characterize": 17918, "honey": 13122, "##dp": 15637, "gi": 11589, "diaz": 29945, "breakeven": 22324, "wilmington": 10220, "reex": 15643, "crowne": 29677, "recognized": 1554, "bak": 7155, "sequentially": 22354, "ampligen": 28765, "##acy": 2745, "phy": 20638, "integrated": 3221, "glass": 7607, "elm": 17837, "moderate": 8400, "930": 11731, "orthodontic": 24347, "##ahan": 18444, "cremation": 27674, "critical": 3271, "interruptible": 16583, "speculation": 16259, "lapse": 9767, "jack": 6256, "caaa": 28583, "aep": 8527, "##inders": 16262, "infections": 11941, "airports": 13101, "interp": 3216, "50": 1873, "subjecting": 17036, "##ot": 1089, "align": 7500, "mif": 25177, "compon": 1993, "\u00e6": 205, "hypothe": 7127, "nonpublic": 15635, "obvious": 26583, "surveyed": 27337, "attempted": 11752, "neck": 17340, "resol": 3312, "instal": 29991, "067": 13582, "nareit": 14830, "bethes": 21658, "architectures": 17009, "190": 7269, "ratified": 12498, "genetic": 9889, "arising": 3683, "enact": 6671, "dispersion": 17730, "alignment": 14863, "marketed": 5130, "dun": 10267, "programmer": 26087, "tad": 28069, "continuum": 22602, "calenergy": 23315, "##metric": 23236, "electromechanical": 23302, "24": 2043, "gte": 14561, "amfm": 28871, "nex": 2869, "visitor": 23677, "billboard": 20566, "aeg": 13989, "borr": 1600, "ti": 15508, "##pert": 17002, "physiological": 26171, "##by": 2657, "cynthia": 24640, "lmas": 29576, "##oids": 29233, "purdue": 20305, "\u0454": 273, "airgas": 14289, "849": 13219, "financing": 1809, "adventure": 23346, "brit": 17723, "minus": 8710, "multic": 14690, "talon": 28668, "##ft": 1646, "ginna": 29583, "497": 11536, "considerations": 6356, "colleg": 6159, "designers": 14189, "speaking": 19745, "##oway": 27622, "ecommerce": 15594, "ine": 16454, "leverage": 3655, "artis": 18393, "capitalization": 4910, "cali": 2650, "stim": 8353, "##enting": 2894, "weston": 18829, "vancouver": 15125, "##istown": 29680, "##pec": 22141, "similarities": 25315, "alban": 14204, "infringe": 7291, "##acin": 18933, "ubs": 9713, "##lium": 15423, "ebay": 19308, "zil": 19833, "reality": 19809, "hardship": 22107, "isis": 17117, "laund": 8367, "##andi": 24412, "c4": 25923, "financials": 15945, "##funds": 28148, "organizational": 7029, "##heit": 27143, "##arge": 14505, "##tilus": 25149, "subfacility": 25019, "##tr": 695, "dss": 19733, "callable": 10638, "branded": 5879, "deltic": 26619, "comptroller": 10524, "outsourced": 9074, "nmtc": 28841, "body": 6404, "synovus": 19471, "mos": 14316, "raising": 6819, "accrediting": 18722, "yun": 25103, "utilities": 4062, "ram": 9079, "ease": 9342, "estimation": 7028, "dow": 9214, "resid": 2448, "maximize": 6290, "committee": 1843, "##ocean": 17694, "westminster": 24065, "enog": 18930, "##erving": 14750, "##alone": 11091, "penetration": 8192, "##inder": 9005, "##liness": 23683, "majeure": 16933, "##iw": 7243, "prohib": 3487, "deficit": 4416, "whatever": 20093, "adequacy": 5167, "commonwealth": 8347, "assignees": 22109, "children": 7251, "reflected": 3019, "tallah": 28785, "transtex": 25690, "##28": 14392, "antif": 21199, "tribes": 18019, "tone": 20088, "\u2628": 396, "meyers": 21069, "sans": 25844, "cancellation": 6225, "495": 10644, "879": 13076, "counterfe": 17202, "amsterdam": 22657, "espn": 25466, "concealing": 29878, "syringes": 25112, "homebuilders": 17900, "salar": 8957, "geological": 8633, "idex": 27765, "antigen": 14377, "directory": 11032, "940": 11125, "dermal": 25326, "afg": 13553, "##ilium": 24187, "misstatements": 5625, "geochemical": 26234, "w": 165, "sen": 1640, "embe": 24694, "visibility": 10225, "asa": 17020, "##ryst": 23443, "##liner": 23662, "tesoro": 18721, "airplane": 19806, "##heresis": 29524, "colorado": 5367, "bnsf": 15966, "imperm": 23054, "appro": 892, "welding": 13875, "trended": 25628, "ga": 2833, "ice": 8986, "apparatus": 18454, "millennium": 11138, "anatom": 29675, "alon": 17747, "eleven": 8784, "amending": 11137, "nets": 11816, "hemat": 14562, "insurance": 1471, "yale": 17309, "theat": 9759, "emergent": 25851, "mmcf": 12186, "aligning": 18127, "marke": 1232, "comm": 758, "reaches": 11695, "psco": 16100, "discharg": 5295, "building": 3213, "nan": 8876, "random": 10215, "intelligent": 11934, "aware": 5437, "clad": 23098, "##enture": 2235, "react": 8457, "allow": 1419, "cruises": 17401, "arithmetic": 21719, "oshkosh": 23065, "##stand": 13112, "situ": 5050, "##oplastic": 23305, "provides": 1875, "lem": 14781, "##tronix": 19246, "dolby": 24944, "cummins": 21313, "appreciate": 18620, "ncb": 16016, "board": 1262, "\u2611": 394, "##anka": 25945, "disaggreg": 13481, "##ower": 1251, "unusual": 8052, "quotas": 14595, "baa2": 27437, "review": 1897, "dvd": 11171, "841": 13387, "##endant": 14637, "##iii": 17965, "sin": 1789, "dac": 9980, "ethernet": 12762, "corrective": 6272, "##erman": 4541, "affinion": 17071, "resolve": 6909, "613": 12170, "089": 13988, "sk": 3612, "regulated": 3882, "carbonless": 29494, "##houses": 9115, "rebranding": 27039, "297": 10333, "stratus": 20321, "disrupt": 7634, "yielded": 18018, "seabrook": 18266, "##ild": 2222, "##zing": 16444, "thompson": 12262, "hat": 14865, "ips": 16067, "191": 8484, "triang": 16585, "conclusions": 9319, "chongqing": 29753, "bunker": 26367, "dolphin": 19325, "\u2153": 338, "prop": 5721, "euro": 5631, "ch2": 25313, "##red": 817, "justin": 29201, "utica": 18953, "gpu": 12143, "\u2264": 365, "modalities": 23967, "converged": 21010, "confident": 20030, "ech": 8529, "desalination": 25311, "scientific": 5373, "rise": 5426, "century": 7852, "##plp": 22531, "evolve": 10737, "soviet": 28565, "##sion": 1199, "eure": 20670, "##atch": 5447, "##team": 28371, "cdi": 17502, "interpretive": 15175, "detailed": 5084, "nass": 20182, "subcommittee": 24164, "techn": 1242, "619": 12101, "kmp": 24796, "654": 12297, "nis": 15697, "possesses": 14509, "smoking": 15167, "csa": 14099, "hof": 22685, "chadwick": 26586, "rev": 868, "emil": 29803, "##ication": 6704, "tenure": 13763, "similarity": 24704, "employer": 5315, "fans": 19261, "monticello": 27097, "relates": 4688, "allo": 15772, "##pr": 734, "141r": 10940, "reinforcement": 27369, "extracted": 14958, "monetized": 27607, "sbm": 28594, "846": 12836, "##face": 4985, "##coke": 25772, "launched": 6863, "612": 11832, "ep": 5503, "chew": 22977, "##it": 630, "kit": 12438, "gloss": 17959, "81": 3497, "delaying": 9754, "##lim": 5198, "lke": 14265, "##qi": 23015, "bossier": 22783, "statut": 2942, "ecd": 27995, "insomnia": 29399, "residents": 7648, "phel": 16843, "##egr": 2017, "mini": 10632, "indebtedness": 2841, "brok": 2798, "bonding": 13731, "\u20ac": 330, "##coast": 18974, "dock": 11117, "sjg": 16047, "nutrition": 7803, "##boro": 12072, "tough": 28197, "##idge": 4125, "lts": 17972, "##002": 21204, "aff": 1097, "mitig": 4682, "distill": 9395, "bp": 7505, "drought": 17493, "leth": 27675, "deeper": 18492, "camb": 18570, "##ylan": 15806, "elan": 15137, "freestanding": 12854, "##anets": 22382, "##fter": 1429, "hortic": 28107, "congestive": 29618, "cicero": 29275, "mps": 15620, "suffolk": 21390, "##ura": 9260, "events": 2171, "follow": 1041, "##leg": 2633, "pitney": 24636, "446": 11458, "hovnanian": 27979, "##era": 7784, "nda": 6484, "812": 12391, "foreclosures": 12620, "##xpress": 24604, "cinemas": 17829, "uncleared": 28037, "genesys": 24757, "ogl": 15240, "##cane": 24727, "##located": 7845, "disagreement": 14403, "logistic": 22096, "duc": 17187, "blizz": 27802, "multicenter": 27554, "##mac": 18986, "requires": 2063, "chrome": 26081, "351": 10502, "msha": 26137, "vectors": 22011, "candle": 24181, "drain": 15903, "bsc": 22873, "forg": 8355, "744": 12739, "dining": 11026, "osh": 13015, "harley": 20731, "##air": 879, "combin": 26888, "##oth": 6751, "paydowns": 20886, "hispan": 16180, "##atures": 3313, "eqm": 16983, "##c": 454, "855": 9910, "aesthetics": 23343, "tranches": 10915, "##14": 9733, "vision": 7249, "bhca": 13614, "sterilization": 19927, "announces": 21477, "flint": 23889, "placebo": 9723, "drives": 10439, "israel": 7382, "exempl": 22241, "##win": 9233, "733": 12812, "##umen": 19675, "##ook": 15156, "uniden": 17417, "alleged": 4349, "furnishings": 14418, "236": 9473, "global": 2488, "huntsman": 12848, "commens": 9427, "##ifer": 10468, "ksb": 11527, "fordham": 28643, "##oni": 18477, "yrs": 28992, "aew": 29825, "tournament": 26431, "ikon": 26384, "unex": 5342, "nonre": 13840, "##ochemistry": 29636, "composite": 7068, "panels": 12224, "surf": 13224, "cit": 8470, "##rews": 16415, "ameristar": 25578, "tsmc": 25054, "bi": 2977, "read": 3056, "959": 13508, "reag": 10967, "rate": 1072, "rci": 20507, "dawn": 29067, "##guan": 28977, "\u2079": 319, "##perform": 5270, "fraudulently": 23879, "consumm": 4160, "fidel": 8886, "joins": 28629, "korean": 14453, "premier": 8210, "sizable": 21430, "##amax": 18247, "magaz": 7639, "impracticable": 15989, "compu": 3050, "teleph": 3936, "##alez": 26816, "##keting": 8298, "bern": 10281, "dis": 789, "cwip": 24500, "betterments": 12467, "government": 2168, "eluting": 28343, "style": 10088, "##onate": 21183, "referencing": 23499, "bands": 18639, "##64": 14560, "concerning": 3836, "adversary": 22800, "reser": 1578, "805": 8132, "conform": 3083, "operationally": 23051, "thirty": 7098, "uri": 27213, "vict": 11019, "edwin": 20699, "fragr": 12597, "incompatible": 23335, "dmd": 27341, "##oger": 21144, "compacts": 28999, "tran": 14227, "version": 8047, "6th": 25254, "scrubbers": 23521, "cpsc": 27557, "enert": 28750, "boron": 29551, "brazos": 24975, "medicines": 11338, "##holder": 2209, "worthiness": 11484, "pir": 19180, "damp": 22969, "shr": 10624, "\"": 106, "interoperate": 28866, "arrival": 24200, "contem": 5173, "waiving": 23303, "##iggs": 17240, "brush": 22753, "explored": 20288, "##tera": 14096, "514": 11668, "\u203a": 312, "##anch": 2316, "tdrs": 11236, "1993": 2555, "exert": 14097, "##ergy": 1659, "dust": 16614, "wildfires": 26960, "##bot": 22481, "stevia": 23966, "##rox": 29329, "##amide": 19100, "##th": 682, "ranked": 14886, "dermatology": 20487, "##mr": 25850, "reconfigur": 25991, "20th": 22186, "##veland": 10214, "##onstr": 4600, "netf": 29269, "catal": 5827, "507": 11166, "lea": 27723, "##ennan": 20351, "imi": 24199, "mlp": 15200, "bona": 18188, "kais": 12131, "dentists": 17891, "tri": 7224, "ranges": 7241, "progresses": 17408, "comfort": 10776, "##evity": 21891, "gms": 24662, "accelerates": 21860, "worst": 16619, "colt": 25478, "english": 12311, "founding": 9116, "totally": 19084, "barring": 16747, "consol": 15008, "8a": 27645, "##qs": 14762, "##\u2171": 605, "325": 7799, "npamlp": 26064, "lam": 7682, "pacer": 27851, "originate": 7679, "msci": 22765, "kiss": 27895, "legisl": 5247, "429": 10909, "niagara": 14207, "commun": 2034, "wyndham": 16579, "mcgee": 21747, "baxalta": 25703, "midlands": 23995, "spansion": 21119, "englewood": 25490, "rodino": 25118, "surge": 9544, "profit": 2001, "attack": 10302, "kun": 20586, "jcp": 12402, "generation": 2999, "hierarch": 4519, "ifrss": 23003, "integrating": 7681, "delinquencies": 8738, "##entan": 20003, "appear": 4166, "mccarth": 22844, "right": 2464, "succession": 15557, "ceng": 21036, "jer": 13786, "addressed": 8215, "##gi": 7304, "procurements": 28355, "quanti": 4383, "surcharges": 12316, "##vox": 24728, "fue": 13028, "named": 3251, "rifkin": 27204, "bacon": 26396, "genetics": 15055, "nationwide": 7371, "taxing": 6324, "[unused75]": 76, "hayden": 27360, "csxt": 27944, "element": 5522, "871": 13500, "shield": 12622, "handles": 18224, "##aded": 8433, "##orn": 4081, "chemistries": 26044, "licensor": 12377, "steelworkers": 28142, "impede": 10369, "##adyne": 12805, "mact": 22803, "287": 9897, "bellsouth": 15839, "potomac": 12454, "##draw": 4678, "##anta": 5340, "opr": 24594, "publishes": 16247, "exceeded": 4996, "grand": 6510, "peripheral": 10051, "inform": 1098, "enclos": 21290, "947": 13520, "696": 12425, "##kyo": 14057, "##akes": 6248, "acid": 8526, "appalach": 12792, "continental": 7737, "nonaccrual": 6620, "cancerous": 25499, "mutual": 4459, "barcode": 28681, "hj": 27997, "marm": 24333, "584": 12093, "reconciliation": 4522, "semgroup": 27406, "stein": 13777, "electr": 1829, "argy": 27610, "closing": 2670, "networking": 7445, "##augh": 9236, "##inge": 13365, "audience": 9460, "derivatively": 26624, "discrim": 9609, "herbal": 19249, "984": 13362, "mountain": 6048, "##reted": 6786, "##due": 15623, "triumph": 20663, "mou": 15338, "coupons": 14883, "\u043e": 263, "contributors": 17052, "mind": 14793, "residency": 24469, "limited": 1489, "opted": 16567, "##ison": 3415, "blades": 22197, "##eling": 29002, "violation": 5175, "wid": 7910, "contraindic": 28450, "enova": 25763, "melting": 25006, "decides": 14606, "magistr": 26776, "bund": 8430, "equalization": 18981, "rcs": 26039, "confidence": 6566, "soon": 6384, "uhf": 23139, "##edged": 16524, "##winds": 29158, "revoc": 9749, "freeman": 22210, "ampal": 23883, "prints": 22666, "##eto": 3434, "##yme": 18062, "interpretation": 4224, "repeated": 13818, "mitsub": 17034, "manip": 11943, "##andia": 29660, "pushdown": 28494, "[unused25]": 26, "holdco": 10374, "unpatented": 12307, "neighborhoods": 17084, "revocation": 10996, "##02": 16438, "six": 2975, "dcs": 24886, "docum": 18461, "igi": 29880, "advisable": 16209, "502": 11187, "compromised": 14489, "evidenced": 9441, "janitorial": 26490, "medis": 27009, "##vement": 4017, "mechanical": 7499, "altered": 15064, "sponge": 23438, "mainland": 17433, "severities": 22824, "magnetic": 11818, "recognizes": 4570, "903": 13179, "dynamic": 9418, "recombinant": 15150, "##ologist": 14197, "pollutants": 10552, "##enyang": 27908, "provisionally": 28419, "inspection": 6495, "periodically": 4300, "673": 12721, "historic": 8551, "##cf": 6388, "prompted": 20753, "##ric": 2916, "##onucle": 21015, "trains": 18089, "equus": 28858, "inspir": 25754, "attemp": 5640, "reinstatement": 15615, "investigator": 15754, "committing": 20398, "overturn": 19050, "resale": 5998, "israeli": 10629, "twenty": 5965, "897": 13240, "hutton": 26233, "message": 13501, "accumulation": 11086, "\uff4f": 442, "physics": 16486, "categorized": 7812, "unreported": 18934, "nonemployees": 22737, "memberships": 13945, "##tility": 12828, "ss": 8309, "##opoulos": 24933, "domtar": 29901, "totalling": 17004, "lasalle": 11028, "similarly": 5676, "restating": 21319, "assembly": 6440, "##ket": 10192, "chosen": 9372, "vig": 6116, "up": 1023, "recovering": 13576, "calpine": 10509, "specifics": 27185, "nad": 25107, "travelers": 11730, "##001": 15601, "bat": 13288, "##anded": 8436, "proper": 1080, "##south": 11674, "carnegie": 26094, "880": 11154, "\u00bd": 200, "bonus": 3305, "##ayo": 27302, "]": 139, "talent": 9403, "admissions": 13254, "northland": 19439, "wilhel": 27431, "microd": 22926, "authorization": 5520, "explained": 13204, "blocks": 9788, "delisting": 14261, "organically": 19468, "bia": 27926, "shareholder": 3325, "commence": 6788, "positively": 9773, "linear": 12672, "disallow": 9709, "##okee": 17357, "tyr": 24806, "ineffective": 8057, "##eur": 14964, "##46": 16922, "cay": 9194, "maple": 21098, "surfactants": 27524, "modes": 20570, "amorphous": 29310, "forgive": 27865, "sustainable": 10167, "seasoning": 24419, "\uff05": 432, "##ause": 1480, "dn": 19009, "friedman": 14733, "331": 10504, "##arin": 15700, "##still": 16705, "scl": 27381, "ids": 16455, "##quite": 24061, "anchor": 9534, "dk": 19815, "publicly": 4118, "independently": 6659, "enzy": 16029, "specializing": 10361, "nabors": 23354, "fan": 14513, "##ders": 14652, "##87": 14279, "##ouver": 15122, "southland": 27941, "tricon": 28777, "86": 3815, "##bard": 26910, "fairs": 28563, "crow": 12982, "applied": 3308, "ele": 6433, "dormant": 22092, "gaf": 16396, "criteria": 2764, "072": 13766, "effectuated": 24351, "admitted": 11658, "frequencies": 14153, "##querque": 18401, "galleries": 28697, "heirs": 25598, "usually": 5897, "983": 13331, "prospect": 5921, "##etter": 16354, "cbs": 11580, "accur": 3799, "pasadena": 19670, "advocate": 21026, "osc": 17748, "american": 2980, "sorr": 27374, "98": 3619, "eig": 27934, "referring": 14695, "dx": 14959, "selecting": 9112, "other": 798, "interfer": 12713, "situations": 6904, "cherokee": 17430, "two": 1658, "gdp": 18181, "##atz": 26069, "##isable": 3349, "##ectivity": 7429, "baltic": 21934, "night": 12978, "assays": 12554, "citation": 22647, "holder": 3599, "merg": 2143, "intl": 29354, "biograph": 15281, "shortly": 12217, "undercapital": 6748, "usho": 26554, "repayable": 14611, "school": 5289, "galena": 27989, "1960": 17616, "radios": 14149, "millimeter": 23932, "platinum": 10110, "pharmacological": 23843, "prec": 3016, "nether": 8165, "##cement": 3904, "baron": 29013, "discour": 7502, "brothers": 9305, "instrumentality": 25318, "scan": 8364, "##omy": 13668, "##coming": 21601, "mechanisms": 8020, "dearborn": 19449, "sour": 22349, "delegate": 16887, "##quist": 20223, "stopped": 15983, "##hp": 23813, "reader": 12040, "##aries": 1298, "scheduled": 3665, "##estim": 25787, "prud": 5744, "acety": 20265, "[unused83]": 84, "##cess": 1085, "##electronics": 14933, "##icide": 23321, "##beck": 20911, "597": 12043, "proto": 9071, "establish": 1677, "##clusive": 15390, "##evaluation": 28386, "289": 10358, "make": 1770, "society": 9512, "additives": 12429, "fractionation": 16559, "sided": 26879, "##90": 15649, "294": 10195, "personalized": 11177, "##ghan": 23168, "##oderm": 25558, "##tiq": 28898, "elgin": 27667, "cbt": 23926, "eei": 18293, "quite": 21521, "probabilistic": 28449, "browser": 16829, "orland": 11257, "infine": 25167, "designate": 8599, "serp": 8546, "##ograms": 24133, "interrupt": 14777, "taken": 3451, "navigable": 26541, "physical": 4729, "easily": 9040, "makeup": 22384, "capitalizes": 11736, "reinsurance": 3634, "compact": 11883, "patron": 12293, "reactions": 15283, "occas": 7409, "strongest": 17150, "timelines": 16969, "obtains": 8473, "grantees": 23073, "engag": 6035, "dial": 6806, "liab": 1063, "##direct": 20389, "erics": 18396, "starr": 26465, "discomfort": 28446, "addiction": 23616, "adjoining": 17521, "incorpor": 1371, "comd": 18085, "##emble": 13271, "eisner": 24775, "uneven": 20499, "entit": 2701, "##port": 1299, "belts": 24055, "hill": 6837, "targa": 19270, "##jin": 16337, "##tides": 18341, "uses": 3369, "907": 13083, "ntr": 29038, "##lows": 6521, "verint": 24037, "fargo": 5206, "alumina": 17643, "dosed": 24423, "enervest": 27914, "heavily": 7579, "bioc": 14429, "touris": 15383, "effectuate": 16844, "##otal": 10426, "doors": 15740, "stu": 13838, "injunctions": 11159, "developed": 2898, "@": 136, "heloc": 24931, "exhib": 1486, "hormone": 15572, "##astate": 10639, "toll": 8455, "decentralized": 16793, "uci": 22393, "conclusive": 16405, "cp": 5716, "haft": 23636, "knight": 13787, "accountable": 17888, "##tc": 3781, "enjoyed": 19371, "burr": 18630, "slee": 23697, "##vo": 10533, "##ile": 1715, "count": 9077, "sublic": 8715, "encourage": 7866, "ritten": 27166, "##fi": 8647, "##idal": 21875, "ik": 16499, "boundary": 26007, "ug": 21817, "frontier": 7578, "cpu": 27433, "retainer": 9935, "vodaf": 28304, "##\u0438": 519, "wach": 9654, "deserve": 28535, "ordinary": 3698, "autoc": 26374, "much": 5565, "reaff": 17683, "treasuries": 16607, "##ourced": 7157, "ordinarily": 15783, "place": 3186, "##state": 4899, "expressions": 10222, "##ators": 2562, "ormat": 25484, "518": 11454, "899": 13312, "24th": 29402, "##77": 16087, "wap": 23457, "##epa": 20032, "##tigation": 2189, "instantly": 28129, "song": 16166, "##omedics": 25351, "rhd": 28701, "ensuring": 8927, "beneficiaries": 8775, "chili": 29676, "ingersoll": 24928, "telec": 3593, "pretax": 6395, "##ency": 1533, "##itage": 9522, "##ansion": 3304, "osg": 20819, "##boldt": 24389, "##erville": 18321, "##states": 26151, "interruptions": 7237, "gtl": 18749, "elaborates": 29317, "##thing": 8694, "grapes": 24434, "fer": 5573, "both": 1888, "shusa": 29917, "reins": 3194, "bancgroup": 27569, "##ms": 2982, "##sti": 964, "apart": 4763, "overhauls": 23273, "equifax": 24016, "vmware": 18054, "\u2021": 304, "supervisors": 17765, "localization": 26026, "guggen": 26101, "hier": 4517, "sustaining": 15317, "favorably": 8129, "accrue": 6163, "##ecton": 24450, "\u0430": 254, "properties": 1635, "indebted": 2826, "##88": 16085, "regular": 3843, "distin": 6799, "restriction": 8102, "condens": 11465, "##andon": 5724, "vl": 15632, "examines": 21645, "conversion": 2612, "pharm": 2738, "qualifying": 4279, "holl": 11253, "peop": 4523, "##ount": 6174, "amalg": 19606, "stiff": 28531, "provincial": 11182, "electroly": 28546, "my": 5158, "broadcom": 21198, "##weight": 14264, "cellular": 6233, "##odone": 23057, "aquatic": 23691, "##igil": 26851, "diane": 26990, "ores": 24738, "marcus": 16256, "##iz": 829, "approaches": 8212, "043": 13738, "mitsui": 24897, "boating": 25046, "stolen": 19184, "tria": 22176, "prostate": 11812, "##ona": 10814, "noncumulative": 19450, "prb": 27708, "encumbr": 12815, "affid": 29794, "corridors": 26477, "bam": 18664, "##esignated": 17014, "leak": 11884, "##aine": 11672, "optics": 13328, "covenant": 5834, "##igent": 27481, "bhc": 14226, "backed": 3913, "louisiana": 5376, "schroder": 29162, "regained": 29472, "pertaining": 6752, "stef": 22467, "mcglad": 19985, "pb": 7374, "corpor": 1119, "##icin": 21006, "sid": 14271, "hend": 21080, "##uman": 25083, "alter": 6556, "wmc": 28712, "\u00ab": 183, "lond": 6414, "##lios": 23452, "##\u00df": 518, "##ty": 977, "seamless": 12754, "wein": 15686, "##techn": 22740, "590": 11031, "##erted": 16269, "valley": 5410, "interim": 3321, "brac": 19918, "franchis": 8089, "rap": 3898, "amortizations": 29182, "annual": 1207, "revealed": 18164, "##ogr": 17818, "guangdong": 21763, "mclaughlin": 21831, "pertains": 16773, "iam": 27587, "judicial": 6826, "correlated": 14199, "construc": 5810, "defenses": 8739, "contact": 6797, "causes": 7545, "nursing": 7662, "trustee": 3548, "climates": 26580, "brack": 23909, "observed": 9070, "##ystem": 7569, "noncompete": 23545, "disconn": 19572, "kab": 28773, "##mc": 4995, "kingston": 25528, "registries": 24882, "predictably": 29505, "##oters": 10744, "purity": 14375, "stakeholder": 28491, "capsu": 20449, "handset": 14881, "roofing": 14072, "transit": 10397, "##ar": 623, "bradley": 13891, "nek": 24838, "##fusion": 29757, "##quency": 5022, "dest": 29669, "analytics": 9261, "##pters": 19242, "robin": 18569, "##ently": 12033, "flue": 22891, "transco": 15589, "infinity": 15410, "resell": 5298, "reposition": 11102, "ridge": 8696, "llp": 3287, "reconstructive": 24400, "certificateholders": 12765, "injuries": 9385, "dap": 25681, "dreamworks": 26613, "adopts": 18184, "##yst": 23241, "vintage": 17862, "microph": 21418, "##scope": 26287, "##wald": 23485, "[unused23]": 24, "##ggish": 24986, "anter": 18226, "geor": 4010, "transgenic": 26919, "rockies": 19348, "##aps": 6890, "negl": 26181, "comprehensive": 2305, "bob": 16094, "dialog": 18869, "belmond": 23235, "cider": 29257, "acre": 6063, "delay": 2622, "770": 10247, "nonclinical": 18223, "\u2212": 356, "panhand": 14631, "alloy": 9679, "trigg": 5495, "cui": 29588, "even": 3252, "bandwidth": 9347, "pilots": 17545, "rna": 16693, "##oe": 15988, "mbc": 25648, "imbalance": 15224, "579": 12237, "biovax": 27447, "##idia": 21966, "billions": 20215, "parlia": 23858, "copies": 6681, "seize": 24032, "##acting": 4668, "##anne": 22065, "##ylvan": 4421, "delegation": 21432, "counse": 17539, "iii": 2322, "ppl": 5591, "086": 13963, "alice": 28763, "098": 13776, "jenkins": 22375, "sz": 22233, "unisys": 23970, "gate": 7307, "labor": 2864, "thor": 10082, "solely": 4930, "reimburse": 6551, "dryer": 29216, "refr": 6919, "briefs": 20218, "inev": 23615, "tariff": 5857, "supports": 8096, "867": 13094, "multimedia": 11215, "gut": 25257, "waves": 22964, "##emann": 27293, "fhlmc": 13396, "bridges": 19115, "uninsured": 9150, "umb": 12141, "burton": 23099, "##annon": 18791, "vend": 3298, "show": 3863, "kellog": 20517, "groups": 4689, "##fore": 1773, "pist": 29211, "hunts": 11612, "099": 14151, "landec": 29639, "returning": 15663, "918": 13151, "##rom": 14533, "br": 1194, "nasa": 20056, "syndicates": 22893, "jose": 6104, "barnwell": 20930, "responding": 10908, "##inite": 4355, "ksop": 29150, "ah": 10239, "imposes": 7548, "optical": 6929, "manu": 1439, "cai": 20150, "augmentation": 25109, "need": 1958, "pron": 4234, "hager": 26761, "interse": 11592, "nts": 14514, "aventis": 14770, "eaf": 27398, "loc": 1382, "cdn": 11198, "ancillary": 7874, "fiserv": 25190, "consequently": 4990, "planar": 26650, "spl": 4212, "##fields": 25198, "lew": 11142, "farmout": 23161, "creditworth": 6982, "baird": 29198, "malicious": 17301, "213": 9262, "##lig": 1212, "sporadic": 19635, "##vascular": 10469, "nigeria": 19433, "bookrun": 24302, "workstation": 18289, "undelivered": 9495, "rata": 5758, "##icking": 25826, "ziff": 18705, "failing": 9782, "gins": 23838, "twelfth": 18850, "cartridge": 19030, "##other": 3353, "total": 1150, "rollo": 14999, "starter": 29366, "colonial": 12799, "reselling": 20867, "cypress": 14095, "swimwear": 27346, "brew": 9021, "frustr": 22905, "available": 1444, "plastics": 8038, "##mh": 26974, "pullen": 23834, "duties": 4850, "transport": 2987, "##obi": 24574, "##ental": 4988, "wherein": 13391, "butte": 22469, "##osity": 24332, "opio": 14260, "union": 3740, "y2": 12153, "agile": 21743, "ccc": 10857, "leap": 16828, "cerus": 29030, "incomp": 11927, "##ws": 9543, "hydrochloride": 23972, "##say": 23128, "##asys": 22825, "fw": 22459, "lawfully": 14187, "subjective": 5905, "##tibility": 6373, "divor": 28739, "fleetwood": 26768, "beaumont": 25227, "##br": 3454, "ubti": 29726, "objective": 4606, "tim": 1028, "nonforfeitable": 21952, "##intendo": 21125, "concept": 7355, "##tha": 18566, "chu": 24920, "ensure": 3530, "des": 1188, "marks": 7872, "matsush": 29630, "##portion": 4404, "##acellular": 26156, "strategically": 10747, "bliley": 13502, "acmi": 25358, "twenti": 25338, "1101": 24454, "##jo": 10783, "excursion": 26644, "\u207d": 322, "##unction": 2471, "bottling": 14132, "acqu": 976, "trail": 7555, "gour": 18265, "baylor": 26189, "relapse": 29011, "##court": 24996, "kok": 25521, "proof": 10506, "delegated": 12680, "biologic": 12100, "brigh": 16989, "pris": 29782, "sgr": 26049, "046": 13772, "\u33a1": 423, "##arrier": 21598, "unch": 8641, "norwalk": 28038, "##cript": 20629, "##onsolidated": 4869, "rican": 27988, "flows": 1547, "jay": 12242, "explos": 10423, "##learning": 28422, "913": 12860, "##encia": 19700, "068": 13230, "vander": 19702, "har": 4891, "disorders": 9891, "murray": 14478, "##icine": 27440, "ahead": 13813, "clear": 3575, "blackhawk": 23394, "merrim": 21370, "vere": 29493, "vi": 2532, "vie": 5896, "subservicers": 29690, "acceleration": 6627, "##prop": 15565, "##aday": 22539, "mma": 19396, "consistent": 3264, "subchap": 16393, "analyz": 4874, "##walk": 14064, "birming": 14745, "gsm": 16552, "builds": 16063, "earlier": 4257, "##atric": 9301, "philadelphia": 8773, "gallagher": 17328, "oracle": 11740, "718": 6402, "headings": 11193, "faults": 23053, "accidental": 13192, "##anted": 18144, "##out": 1356, "frederick": 14638, "##utes": 4099, "vessel": 7203, "unproven": 16932, "undes": 15752, "504": 10698, "##lik": 20348, "##enz": 9721, "##priate": 11470, "scaff": 22114, "lighthouse": 28816, "stationery": 26307, "##ized": 975, "describes": 9870, "humidity": 29455, "convinc": 28193, "believe": 1754, "077": 13402, "nk": 18876, "yen": 8665, "register": 6705, "quota": 11276, "satisfy": 3925, "shipbuilding": 24427, "49": 3173, "489": 11646, "newman": 21902, "179": 8856, "reassessment": 15949, "returnable": 28732, "donald": 8582, "dwyer": 28719, "857": 11745, "capp": 28961, "##pay": 7059, "##forma": 13615, "ahc": 24765, "##hca": 15095, "transpl": 11448, "##interest": 6046, "##horn": 20543, "reissuance": 24629, "spine": 14281, "magellan": 17597, "margins": 3585, "##itish": 6293, "##ercraft": 29510, "##enna": 23066, "laboratory": 5327, "albuquerque": 18410, "##yps": 14768, "variables": 8632, "omaha": 13704, "##tp": 18403, "channels": 4726, "replacing": 9659, "begun": 8031, "curative": 26329, "menu": 9905, "parachute": 15843, "recept": 9548, "emails": 22162, "cogniz": 24395, "ergonom": 25184, "chancery": 13453, "##emy": 13080, "tcc": 15819, "zoom": 22345, "edition": 13948, "pharmacokinetic": 20652, "avalon": 16859, "engagement": 7347, "##12": 7747, "please": 6607, "oly": 13063, "analyzed": 8860, "1970": 11218, "nuclear": 4341, "falcon": 13324, "pantry": 24393, "swiss": 9086, "controllable": 25168, "convey": 8046, "privacy": 5712, "skilled": 6554, "pec": 9576, "[unused92]": 93, "gos": 21925, "faulty": 15887, "repositioned": 28362, "improv": 2623, "##ine": 1027, "resistance": 11297, "method": 1626, "holding": 2397, "##inate": 6835, "identify": 3926, "asym": 28617, "sized": 8134, "##eming": 20209, "152": 8113, "2013": 1432, "##arm": 1961, "##smith": 28554, "approvable": 22416, "trade": 2583, "hern": 27330, "liability": 1601, "##rine": 24155, "signatories": 24703, "tenancy": 19230, "38": 2814, "pseud": 27171, "vivo": 15488, "##tifying": 7125, "suspected": 19073, "rendering": 13355, "viral": 12928, "claire": 25360, "meter": 11434, "logitech": 27774, "##kl": 25567, "wagering": 12886, "##osc": 9067, "turkey": 13841, "chose": 14979, "dramatic": 14307, "subparag": 24354, "guidel": 3980, "scheduling": 10738, "headquarters": 4963, "2044": 26454, "##ritic": 25729, "antibody": 9246, "pricewaterhouseco": 7079, "bearings": 17527, "rockford": 19663, "tva": 10766, "##berry": 14502, "homest": 17509, "wis": 18027, "drafted": 27476, "pecun": 16141, "aet": 15237, "##itabine": 21423, "bent": 19385, "racing": 8955, "homebu": 16296, "landscape": 12981, "attribut": 2503, "inver": 17903, "turbine": 9950, "##isson": 25885, "csd": 28271, "autom": 2693, "midcap": 20459, "surviv": 16362, "##enders": 3618, "tenth": 11602, "##ball": 10376, "decorating": 27600, "occupation": 15358, "##awa": 14235, "nicor": 15667, "\u02c2": 224, "psa": 14582, "##audited": 4305, "sgi": 18885, "appearing": 6247, "apprec": 12212, "recycling": 8583, "agreements": 1494, "srs": 23317, "betting": 22855, "than": 1138, "compil": 21803, "##avan": 25306, "about": 2021, "##ological": 5282, "lighter": 19973, "##uria": 28093, "slp": 27683, "##anor": 27773, "deconsolidated": 15384, "gor": 16788, "rsi": 25378, "pensions": 8664, "cited": 17095, "eating": 24304, "machined": 23704, "##ogas": 22818, "\u03b7": 240, "planning": 4101, "creat": 20980, "\u2103": 332, "mcgr": 16097, "##ocardial": 22582, "deviations": 17722, "##stone": 5395, "surfact": 20920, "036": 13702, "simps": 18446, "arbitrage": 19557, "moneygram": 27593, "alleviated": 29448, "winding": 10626, "exhaust": 16188, "sarbanes": 4663, "weaken": 16621, "spots": 22663, "orient": 7287, "endpoints": 13764, "pending": 3248, "ome": 11983, "##ervation": 10053, "embraer": 26016, "416": 10664, "dtv": 17699, "hbv": 20431, "##lop": 20697, "projections": 4490, "highlands": 21176, "gbp": 18404, "fdca": 18274, "cau": 19464, "##olin": 19106, "dearb": 19416, "a": 143, "explaining": 25739, "tch": 20417, "esoph": 25731, "singer": 21486, "unr": 3130, "amplified": 28499, "subsidy": 10808, "heinz": 20522, "##ighting": 21111, "insulin": 11939, "aviv": 18651, "##oning": 9489, "pellet": 27919, "senate": 15100, "##3": 473, "inh": 24754, "321": 10529, "##tile": 7948, "##bed": 18080, "##ulg": 5507, "seg": 1508, "pharmacokinetics": 20397, "vice": 2160, "tal": 6347, "##ential": 1360, "bayer": 12219, "##furt": 22637, "worked": 6599, "##epco": 14102, "catalina": 28576, "glendale": 23494, "lawsu": 3426, "ferrell": 8103, "reevaluated": 19771, "cath": 8707, "amgen": 13277, "vault": 18558, "##nia": 2658, "##ched": 11834, "##103": 21482, "stormwater": 28792, "offer": 1488, "aceto": 29939, "peabody": 19267, "balcor": 21525, "stancorp": 29897, "distillates": 26638, "hov": 22126, "bridg": 18704, "demographics": 11784, "buch": 20562, "dev": 2551, "##umping": 25091, "##ometers": 14160, "tightened": 21253, "f": 148, "composed": 7650, "##oma": 4859, "conclusively": 23736, "cliff": 11722, "reevaluates": 24166, "##lam": 6472, "saskatchewan": 22181, "attribute": 11186, "summ": 1950, "retroactively": 8895, "##econ": 24277, "rhino": 21235, "##ging": 6680, "##atar": 19732, "cyn": 17838, "wors": 12132, "tightening": 14510, "disclosed": 3848, "tio": 15298, "##hic": 2364, "##opolitan": 6569, "cx": 18545, "exemption": 6477, "kessler": 28190, "feldman": 23352, "##zyme": 10141, "webs": 3481, "mccarthy": 22946, "stop": 5572, "\u2082": 325, "008": 12633, "breeding": 21518, "conc": 2813, "aegis": 20849, "##amed": 8831, "lafayette": 18354, "intraday": 27157, "##jv": 27297, "779": 13007, "conve": 19007, "accused": 26810, "##mor": 15690, "css": 21461, "tuscarora": 29653, "equitable": 9275, "##owoc": 24758, "shoreline": 29319, "hardgoods": 22296, "tonne": 23937, "280": 7563, "##iti": 4769, "eve": 18014, "packets": 25150, "dpuc": 20327, "intermittent": 24834, "##ference": 6951, "served": 2472, "mplx": 26316, "surpass": 20954, "shivery": 27913, "advertisers": 7581, "mgi": 24046, "687": 12139, "llrw": 29147, "been": 1099, "usual": 12288, "cassette": 24826, "powerful": 14134, "lines": 2953, "massachusetts": 5236, "carrollton": 24035, "replicated": 26675, "specialists": 9890, "lsb": 23211, "963": 13543, "christ": 8880, "region": 2616, "why": 13954, "625": 6552, "[unused96]": 97, "oakland": 20815, "vest": 3562, "tile": 18020, "restruct": 2491, "cpi": 11661, "##udgment": 23195, "cardiovascular": 10603, "benjamin": 17372, "##uctures": 14671, "missouri": 6153, "##iber": 4183, "enl": 17885, "1123": 22405, "##vell": 14347, "platelet": 20419, "vicksburg": 23522, "##quent": 1939, "nons": 29568, "glycol": 25777, "negatively": 3613, "\u2220": 362, "swaps": 4006, "disk": 10462, "anomaly": 27525, "meanings": 20551, "immun": 5928, "committees": 5559, "footnote": 8396, "advisor": 4075, "depreciated": 5887, "ces": 12426, "##gin": 1453, "jon": 10665, "[PAD]": 0, "nightclub": 27138, "##ungs": 28954, "tenneco": 17513, "princess": 24948, "forefront": 24433, "2043": 27636, "merging": 15068, "peo": 17562, "proposing": 14816, "increment": 4794, "hispanic": 17194, "##gage": 26451, "danaher": 26458, "upward": 10633, "##yth": 23170, "76": 3751, "biotherap": 22836, "investigate": 9853, "hughes": 9879, "102": 6268, "announ": 3425, "##wh": 3611, "prospectively": 6687, "counted": 17038, "sulphur": 21825, "##fix": 25067, "prevent": 3258, "crt": 23558, "refusing": 23644, "fair": 1017, "merits": 8454, "screw": 23350, "zenith": 20110, "476": 11333, "understood": 16958, "cylinders": 18438, "revolving": 2604, "transtar": 28759, "newborn": 28913, "rafael": 29634, "floor": 5326, "assisting": 12716, "metr": 4968, "fpic": 29903, "##tional": 3272, "dos": 6738, "phenomena": 29864, "spher": 19742, "enablement": 27643, "schema": 17573, "benchmarking": 18166, "unannounced": 22580, "diverted": 17440, "maverick": 27601, "##idents": 7186, "##\u2460": 592, "kilow": 13984, "frames": 14060, "horses": 25758, "disability": 5705, "##la": 7842, "sensor": 11503, "outf": 7961, "appears": 6595, "prox": 12749, "determinable": 5747, "that": 716, "stephenson": 29202, "ntic": 16523, "powertrain": 22443, "promin": 11515, "droughts": 25599, "inception": 3813, "##eny": 7970, "ethylene": 15886, "counterclaim": 11744, "outlay": 21052, "##olutions": 17751, "mandate": 11627, "pivotal": 11669, "supplemented": 10152, "##hen": 6098, "decide": 7118, "##ordinated": 19443, "hydroc": 8182, "exhibitors": 23044, "harold": 15694, "carey": 15673, "propos": 2663, "zheng": 24739, "adjacent": 7434, "figures": 11299, "developers": 7296, "dwell": 15382, "784": 12787, "##itch": 4540, "##omial": 15083, "appraised": 8764, "##yles": 23337, "wickes": 29237, "275": 7399, "cea": 22374, "absorbs": 25183, "reimburs": 3069, "##rooms": 15679, "##reeze": 23023, "ordinances": 12051, "walk": 15005, "heil": 19448, "resolution": 4338, "overdraft": 11551, "schwab": 14181, "fresno": 22589, "lean": 15364, "depr": 17566, "alico": 26844, "regarding": 2022, "chaparral": 21189, "dessert": 27173, "##ortgage": 27850, "##omatic": 16916, "##tu": 14815, "adjudicated": 22456, "gn": 12532, "johan": 28359, "elk": 13659, "heater": 27168, "privile": 8567, "guides": 15129, "reproductive": 23695, "195": 6135, "instructed": 23029, "jurisdic": 3102, "beet": 28744, "fleming": 22106, "recorders": 19364, "soluble": 24006, "##antile": 13346, "nash": 11378, "##ver": 715, "meaningfully": 20737, "##losed": 13401, "congestion": 16004, "samp": 5934, "reproduction": 22938, "tor": 7321, "forens": 19176, "##ynchron": 25248, "rooft": 25092, "elmore": 22521, "gerber": 19892, "exploit": 12901, "\u0444": 269, "toronto": 11362, "##cath": 27199, "##cm": 29132, "hires": 17089, "ncs": 25585, "unst": 16158, "contributory": 11399, "barry": 12324, "hect": 19035, "rfs": 15080, "##acious": 24259, "vitamin": 15891, "gase": 25383, "##ovable": 27605, "34": 2640, "advance": 3979, "##atts": 11992, "refueling": 15838, "patented": 7553, "##unctive": 8438, "772": 12763, "inside": 10292, "##ettes": 10918, "##asite": 20048, "##gae": 22066, "##agers": 27602, ")": 113, "planters": 27104, "recently": 3757, "coco": 21022, "##ablish": 1674, "myers": 12163, "conference": 9887, "handler": 22169, "dispro": 10079, "sumitomo": 17050, "##through": 15925, "inciner": 27262, "connectic": 6200, "##vests": 27657, "restricted": 2115, "##crow": 4914, "56": 3357, "##alum": 21400, "macerich": 29578, "laclede": 14717, "sub": 801, "distribution": 1824, "approximating": 13980, "milder": 21292, "##ading": 6315, "depar": 21868, "courses": 9646, "conduit": 12285, "##rick": 8427, "agriculturals": 28536, "10b": 11204, "thickness": 16732, "astr": 10796, "systematically": 21123, "evans": 11617, "cloud": 6771, "##asm": 18472, "constituents": 19898, "mo": 1475, "tj": 18286, "desire": 8765, "avatar": 25709, "\u2173": 347, "cumulatively": 19903, "##\u2265": 492, "mono": 26068, "##ront": 7081, "##opoly": 17139, "vias": 17505, "##ermal": 17335, "hope": 12501, "regen": 16122, "##ai": 4534, "##encer": 19941, "##anton": 16645, "##erna": 28829, "logging": 19078, "afric": 6662, "undr": 12771, "americold": 25688, "dell": 12487, "cosm": 25752, "compensation": 1190, "osteopor": 19273, "oscill": 22632, "visx": 25381, "feng": 23900, "apc": 17474, "morris": 10496, "inversely": 27172, "bisc": 23957, "854": 13404, "sco": 20973, "meristar": 23304, "relay": 17024, "##etron": 24453, "vested": 3491, "230": 7392, "applies": 4938, "distillate": 20525, "1980": 7109, "assertion": 8283, "##webber": 17274, "repurch": 2321, "inherited": 26154, "##any": 11567, "anonym": 21741, "segmented": 17451, "neos": 10350, "sun": 4738, "##istr": 1128, "undermine": 22949, "capitalized": 2848, "bol": 8793, "fob": 17303, "discovery": 5162, "storage": 3238, "##um": 816, "[unused45]": 46, "unrede": 23532, "zha": 19925, "##bergen": 26411, "rosa": 26096, "interce": 28879, "decided": 7196, "##isano": 29989, "ac": 667, "theaters": 17186, "zada": 28103, "sirona": 27348, "brighthouse": 29114, "vap": 27826, "eigh": 11000, "believes": 2174, "summa": 25884, "influencing": 16169, "lengthening": 27898, "ashland": 12395, "transmitted": 12957, "cheese": 16156, "reevaluate": 19486, "healthgate": 29346, "incorporated": 1509, "##lar": 19822, "##ta": 4070, "marketers": 9984, "usefulness": 19245, "carnival": 19418, "\u2172": 346, "lou": 4613, "ri": 11873, "usury": 23413, "dms": 22963, "judge": 8864, "##ader": 17336, "hopes": 21451, "wage": 8252, "reconnaissance": 24017, "twitter": 23979, "##eland": 8661, "1985": 6093, "pesos": 19054, "landf": 11794, "qa": 23454, "omega": 12570, "pdvsa": 25987, "starting": 6961, "hcp": 16633, "imp": 944, "##my": 24090, "##co": 2356, "fighter": 29281, "laws": 1810, "liquor": 14818, "dunc": 16709, "reclassifying": 26080, "matters": 2096, "266": 9717, "antenna": 12983, "bcm": 19812, "##oca": 11050, "louisville": 14177, "fost": 18790, "075": 11260, "intensity": 15533, "authoritative": 7084, "##hand": 13356, "##apide": 29990, "performs": 6427, "closest": 15022, "sectors": 6971, "##asses": 26231, "fluorescent": 23622, "bias": 28438, "dating": 18150, "breached": 8709, "volcker": 18625, "6000": 24910, "criticized": 18123, "abroad": 8684, "##opathic": 20518, "diode": 22205, "ro": 1942, "constipation": 27890, "ark": 7048, "##uris": 3038, "calumet": 26946, "coalbed": 24258, "##icor": 18081, "associations": 7391, "concepts": 9533, "dbl": 27906, "microwave": 10630, "admitting": 22056, "bud": 17766, "exhibitions": 23665, "##lone": 23080, "dek": 19354, "lifestyle": 10872, "##list": 21550, "clyde": 27769, "mbps": 21950, "albeit": 29214, "provident": 13472, "324": 10259, "##irs": 21024, "cotton": 11946, "##end": 768, "verd": 12065, "a1": 17737, "rationalize": 24235, "mcn": 19785, "develo": 8119, "##itations": 25671, "nothing": 15208, "blowouts": 23389, "winery": 22814, "striving": 27470, "etp": 13242, "disclosing": 11651, "\u2170": 344, "nept": 29817, "##ift": 4389, "refranch": 23451, "weld": 8979, "reinstate": 24084, "bradford": 19841, "##urable": 13921, "impac": 21650, "fluctuated": 11021, "##porting": 7528, "rebalance": 28671, "nd": 10113, "portfolios": 5517, "cleantech": 28596, "bishop": 22914, "coolers": 25475, "766": 12918, "577": 12060, "incidence": 12669, "fractures": 21012, "vari": 1294, "starwood": 15035, "vpc": 24097, "cooper": 4818, "melan": 15514, "history": 4362, "pga": 16748, "##ibusiness": 20664, "braz": 5548, "afghan": 25924, "intranets": 26817, "spa": 8953, "feminine": 29464, "ultrasonic": 26244, "eyes": 24273, "reactive": 24151, "##craft": 3851, "##illed": 3348, "pines": 22388, "rarely": 20148, "consolidates": 13414, "##din": 24638, "kios": 15183, "nonconvertible": 24511, "215": 8456, "abil": 25811, "regimen": 16656, "haynesville": 23227, "employment": 2295, "allocable": 8287, "##oph": 4095, "photonics": 21771, "\u3010": 421, "antibiotics": 17083, "subscribers": 5654, "induction": 23931, "presses": 20574, "functionality": 6343, "[unused21]": 22, "flow": 1276, "qualcomm": 18539, "legs": 27658, "derivative": 2208, "sonar": 28885, "seps": 24105, "leaves": 16539, "implicated": 26117, "totality": 24010, "surveying": 25816, "confirmations": 28588, "##izumab": 22327, "panc": 14936, "1983": 7026, "##arta": 29996, "clause": 8533, "neurological": 18104, "regulates": 9075, "corruption": 12976, "823": 12967, "timet": 14218, "partic": 2378, "contractually": 6883, "areas": 2849, "intrac": 26229, "spous": 18139, "evolution": 13298, "restaurant": 4597, "wafers": 10877, "dockside": 23682, "chemco": 22123, "rics": 23426, "##ales": 11361, "a3": 14020, "caf": 13811, "1350": 7933, "departing": 27206, "nonfinancial": 10145, "acquiree": 15128, "cary": 25771, "##ays": 4604, "##erch": 26553, "##ra": 3875, "hathaway": 17675, "disallowance": 15574, "accession": 28922, "vehicles": 4532, "oid": 19446, "##well": 6390, "polices": 23948, "##eful": 7014, "prescribed": 5632, "nomura": 25367, "processing": 3149, "##alin": 28830, "##asy": 24981, "##reditor": 16814, "accretion": 6969, "laminate": 24240, "qualify": 4119, "menus": 25144, "worksh": 17945, "##isite": 5917, "##hart": 17361, "alum": 14667, "ui": 17798, "\u25ab": 382, "domain": 7923, "underpayment": 21912, "unwillingness": 21182, "atms": 14519, "granite": 13485, "sac": 10159, "weinstein": 26052, "terminates": 7156, "tobacco": 6833, "noncontr": 5212, "huawei": 26131, "970": 11800, "exco": 20509, "plr": 21103, "employing": 12524, "sjgs": 21364, "naturally": 14370, "hr": 10063, "alien": 24441, "ways": 6780, "acorn": 27592, "timely": 3017, "##igned": 3126, "##aya": 15855, "##ollo": 7660, "unenforceability": 23365, "misstatement": 4635, "##itt": 8967, "alteration": 17692, "latitude": 20781, "##elan": 28975, "marrow": 18194, "vigor": 6235, "appalachian": 15554, "unresolved": 6535, "shoulder": 25942, "subrogation": 20763, "drugstore": 23727, "kal": 14083, "automatically": 5538, "##book": 9065, "##enburg": 18125, "##add": 16333, "representation": 8873, "occupying": 21002, "nav": 5016, "##financial": 9676, "although": 2497, "visc": 20044, "executes": 18186, "dependent": 3081, "historical": 2489, "panor": 29223, "inspectors": 24697, "aaron": 20979, "737": 11055, "##mouth": 13163, "conexant": 24547, "##andoah": 25498, "shee": 25237, "nes": 20816, "subpoenas": 16595, "##ulin": 9633, "plantation": 19948, "xbox": 24085, "indexing": 22683, "[unused4]": 5, "du": 3479, "esas": 26432, "##fort": 9520, "##ino": 3135, "\u2154": 339, "##heed": 15807, "dmc": 22677, "proactive": 12913, "psychology": 24926, "carbohydrate": 27281, "nashville": 13660, "tn": 7935, "hall": 8727, "[unused49]": 50, "seen": 10001, "malkin": 21177, "##theon": 15588, "di": 1278, "coil": 16838, "brian": 10812, "polyc": 19950, "551": 12109, "heid": 29470, "downgrades": 12786, "sued": 12476, "dys": 15054, "xyr": 25645, "mmboe": 16142, "##parag": 22971, "forging": 24770, "stabilized": 11628, "##hield": 29015, "dat": 5232, "##ask": 4933, "##lett": 11318, "628": 12298, "amf": 21861, "streaming": 13864, "contin": 1082, "technology": 1762, "deductions": 5480, "fy": 10003, "sm": 2228, "adjuvant": 23466, "dta": 28430, "marco": 26226, "master": 3523, "airplanes": 14696, "trends": 3527, "theme": 13638, "curve": 7159, "encouraged": 11896, "boutique": 20174, "cintas": 23274, "mirror": 14681, "ste": 3120, "revised": 4171, "understandable": 23440, "*": 114, "##enced": 2465, "holiday": 8360, "##addin": 26409, "daisy": 29942, "drug": 2482, "hud": 7213, "cash": 914, "google": 12572, "bach": 7020, "##oy": 6425, "accoun": 871, "depreciating": 23965, "##igna": 14857, "\u0e3f": 285, "747": 11453, "wic": 27012, "##ission": 1407, "depreciates": 25022, "hiland": 26770, "cly": 24102, "noven": 22692, "architecture": 8407, "significance": 9159, "##els": 3124, "actuators": 28395, "##\uff47": 557, "##graph": 19843, "unic": 24991, "bankruptcies": 14549, "pleading": 28090, "eldorado": 17378, "tradeshows": 29256, "depended": 24725, "issue": 2750, "warrants": 2265, "sum": 1780, "sle": 10679, "##oining": 16913, "brad": 8901, "pfsweb": 29266, "degr": 19628, "biomet": 21788, "##ocytes": 22001, "qsb": 15938, "educating": 21537, "jackpot": 20683, "##roit": 11554, "waters": 9511, "sov": 23563, "##omes": 2275, "fremont": 13742, "tailored": 10704, "appeared": 18708, "##71": 18859, "##aus": 18093, "seb": 25569, "sci": 3631, "kcc": 22084, "endang": 15333, "upfront": 8035, "digim": 28187, "camel": 23230, "curtain": 23688, "marwick": 15698, "stell": 22148, "customers": 1255, "number": 1478, "francis": 15535, "##om": 628, "indictment": 27650, "848": 12855, "undeveloped": 7383, "465": 10763, "diver": 12137, "factoring": 12520, "autobytel": 26446, "kcs": 13602, "690": 11202, "pit": 7855, "migration": 10576, "##entanyl": 26763, "rapids": 17030, "343": 10446, "municipalities": 9392, "geneva": 20582, "unsatisf": 24275, "coverage": 2775, "##bled": 7432, "##\u2074": 528, "##owned": 28351, "##neys": 28326, "innovate": 19128, "weakening": 11702, "mell": 10497, "voluntary": 5552, "sjw": 23609, "##had": 29243, "##us": 750, "works": 7515, "alphar": 29032, "overlap": 12347, "pim": 14324, "outstandings": 25675, "minimize": 5637, "agree": 6029, "top": 3109, "stringent": 6546, "wilcox": 23953, "viewers": 15300, "ratepay": 17017, "nonmember": 27016, "arises": 9860, "acquires": 8344, "treadway": 5169, "ocwen": 17365, "welfare": 10013, "passenger": 8483, "italy": 8443, "reg": 839, "##urbs": 28104, "pigment": 19692, "858": 12486, "believed": 6309, "lists": 8256, "##ocin": 27855, "jacksonville": 13265, "academic": 8991, "##hythm": 20588, "trying": 19158, "litigants": 21942, "##\u2212": 490, "tallgrass": 26961, "centura": 26161, "##ecare": 17630, "culinary": 23754, "992": 13026, "accelerator": 25448, "consider": 1553, "##8": 472, "adsl": 24769, "##\u00a3": 541, "endoscope": 28428, "meals": 15814, "shock": 12455, "##ovich": 24588, "aimco": 11872, "ginn": 16675, "coffee": 8677, "tunica": 20786, "realiz": 5043, "week": 4832, "templeton": 24495, "communicated": 7283, "cass": 13276, "newsp": 7616, "figure": 13110, "sfda": 23921, "looks": 19382, "carbo": 19716, "obsc": 23606, "depleting": 25085, "helium": 26845, "control": 1113, "villas": 23210, "happens": 21631, "aur": 10585, "ingredient": 10246, "therapeu": 4808, "1112": 21379, "hammond": 19902, "slag": 23376, "mariner": 17855, "restrain": 20545, "##atum": 29686, "hs": 6885, "undetected": 16446, "telco": 24696, "dentsply": 28650, "hecla": 24261, "##ref": 23101, "##acia": 15977, "african": 13532, "subcommitt": 21587, "duncan": 17086, "nonbanking": 23353, "zlo": 29400, "fulton": 18628, "equival": 2207, "##osi": 29137, "ritch": 29421, "dps": 25915, "puhca": 15458, "##l": 450, "sothe": 19024, "mitch": 11475, "arbitrators": 28337, "tnc": 25096, "aforesaid": 25457, "##60": 10849, "encouraging": 14856, "sst": 18597, "##uro": 23890, "bdc": 11172, "\u2032": 309, "concentrate": 10277, "handb": 26528, "##olver": 6795, "teamstaff": 23872, "ultra": 10276, "abe": 27229, "##emption": 3057, "lemon": 26090, "##yn": 4050, "voltage": 12078, "##ifa": 27933, "insuring": 18646, "applicable": 1755, "preparing": 7007, "teradyne": 19620, "were": 951, "distributions": 2533, "flavored": 26209, "famil": 9397, "##bros": 29953, "echelon": 21505, "analyst": 11105, "add": 3006, "bloomberg": 18306, "bsa": 18917, "sepsis": 27825, "2045": 29278, "electric": 2363, "##lio": 21579, "##\u03b2": 516, "ibg": 28423, "oxycodone": 29557, "##ise": 1198, "historically": 3768, "dem": 1848, "pps": 15944, "deteriorated": 15867, "wes": 9128, "intral": 23713, "psp": 21228, "communicates": 26019, "inhibitors": 12077, "wer": 28200, "education": 4830, "31st": 15600, "reconditioning": 28298, "centric": 17168, "rider": 11490, "lone": 16676, "abex": 27859, "city": 3483, "barbara": 14211, "trig": 22136, "counteract": 28088, "##tine": 5097, "332": 9975, "rebar": 28327, "resumed": 15611, "indicated": 2817, "prepayment": 4687, "tand": 12070, "hourly": 8086, "vos": 29683, "sunpower": 27364, "reliably": 11324, "##bow": 14108, "leuc": 20561, "cameron": 14890, "cgm": 14539, "##olved": 5792, "##ong": 1066, "examiners": 20595, "coffees": 27892, "mcconn": 28644, "##alco": 13716, "bouti": 16786, "here": 1860, "finn": 26122, "guaranteeing": 18967, "affix": 19216, "alert": 16718, "atls": 29804, "entry": 5832, "slides": 26027, "satisfies": 13061, "outright": 19808, "focus": 3144, "bioequ": 18508, "##sed": 2518, "universities": 10617, "jet": 9202, "extern": 3835, "\u0fe0": 290, "317": 10245, "refurbishing": 27418, "ammonia": 13347, "##afe": 8843, "challeng": 3779, "coul": 20809, "bpd": 17400, "##edd": 4641, "stepped": 24690, "undisc": 4810, "resorts": 7277, "paving": 21785, "lending": 3495, "##side": 11476, "germ": 22120, "quick": 5268, "expansion": 3330, "ritz": 25138, "idacorp": 16230, "andas": 19863, "ebs": 26186, "##tig": 1819, "offshore": 5545, "compounding": 17212, "##xim": 996, "fronting": 22799, "##abo": 27564, "##lain": 25741, "belg": 10261, "transd": 14911, "validated": 14676, "impr": 14654, "\u00ac": 184, "arep": 27896, "breakfast": 23574, "dissem": 12733, "\u00f7": 207, "retired": 5611, "surcharg": 8249, "##ourne": 15028, "65": 3048, "schizoph": 24860, "##ilian": 8983, "road": 5473, "grandfather": 14319, "orbitz": 24833, "q2": 25444, "markers": 17507, "##quest": 13586, "resigned": 7491, "develop": 1037, "networks": 3834, "rounded": 15426, "##ys": 1550, "somewhat": 10021, "remits": 22674, "meco": 26548, "cogeneration": 12341, "countrywide": 11898, "igra": 29762, "intraven": 15001, "whol": 2051, "bgl": 29925, "bever": 8466, "upholstery": 20972, "using": 1704, "##uits": 7665, "mx": 20181, "wild": 9498, "synthesis": 15661, "mammoth": 26917, "1935": 18245, "norway": 14918, "comment": 10832, "##uries": 8338, "mbbl": 28775, "salable": 27617, "estimable": 8791, "vanderbilt": 26349, "##ifications": 3628, "moist": 14752, "sits": 26238, "biot": 5764, "howe": 27930, "cardiology": 18845, "pulse": 15014, "dismember": 29268, "heilongjiang": 23445, "aegon": 28047, "032": 13394, "inappro": 12653, "buyer": 6022, "##evac": 19778, "##land": 2684, "alexand": 20120, "alone": 6071, "navigate": 25276, "abbrev": 17090, "preserved": 23355, "##\u03b4": 514, "slovakia": 27486, "mortg": 1633, "pp": 6616, "crg": 26462, "##udyne": 26935, "##mans": 14808, "[unused2]": 3, "resulting": 2145, "biodegradable": 27207, "superiority": 24670, "\u0443": 268, "coord": 6423, "signing": 9343, "stagn": 26074, "treated": 4550, "##enderson": 14965, "494": 11376, "##tina": 8676, "calhoun": 21357, "ingelheim": 26907, "870": 11610, "nsr": 15116, "hhs": 14887, "bkc": 27412, "lamb": 20734, "observability": 18840, "cq": 29736, "evp": 28431, "monoclonal": 14704, "respect": 1870, "repres": 1562, "anywhere": 14362, "miami": 9607, "v": 164, "##izations": 2965, "editions": 23076, "sanofi": 12748, "##ira": 10081, "drg": 21539, "radiology": 15330, "aesthetic": 17554, "nac": 13710, "whistleblow": 17867, "maturing": 6686, "pyramid": 24213, "companies": 1473, "##amm": 8995, "telephonic": 22560, "executed": 4764, "sourced": 10252, "cam": 5647, "volks": 28731, "burk": 26666, "unal": 8207, "##eclick": 18962, "3517": 23478, "workstations": 16761, "iasb": 27991, "decre": 1323, "awar": 7489, "rsp": 21750, "conductor": 25373, "##fa": 7421, "nineteen": 21308, "##ombin": 13789, "kroger": 22890, "##is": 637, "##charg": 5221, "##estern": 4432, "##ogens": 17174, "##while": 26343, "telemarketing": 11890, "##enters": 29203, "pant": 29540, "##soe": 9123, "vocational": 24559, "cpc": 17126, "universe": 19671, "##oat": 27695, "notional": 5219, "##itance": 25069, "rx": 15152, "##mex": 9852, "ebt": 27516, "tceh": 20444, "eog": 16367, "times": 3724, "725": 10379, "mdr": 24773, "ounce": 13680, "unavailability": 13987, "743": 12718, "histor": 2098, "##etts": 5204, "revising": 18432, "ron": 16940, "##qu": 687, "wholesal": 8281, "conver": 2961, "opportunities": 3018, "018": 13018, "mus": 5601, "lorillard": 20326, "576": 11920, "labcorp": 29819, "##opia": 21827, "linac": 25264, "kent": 6278, "cephal": 23549, "congoleum": 21087, "determination": 3385, "814": 12614, "##rop": 15236, "formation": 5571, "finalizing": 17704, "naphtha": 26491, "##asters": 6257, "hob": 18831, "##olson": 25822, "evaluating": 3034, "gamma": 15027, "##ache": 11477, "planting": 19036, "##estr": 8735, "turnar": 10975, "vide": 3998, "##vie": 13653, "equally": 8435, "perils": 24326, "attr": 3051, "##cell": 17080, "furnished": 5621, "aging": 8490, "hrp": 26662, "nut": 18239, "layne": 28805, "vip": 20250, "biotech": 13289, "tool": 6480, "moral": 26002, "preservation": 11803, "delt": 19604, "icn": 28022, "megawatts": 13504, "##boy": 16456, "bakers": 23481, "done": 6916, "determinant": 28055, "q3": 27152, "immig": 17565, "contribution": 3570, "bas": 1162, "##stores": 13737, "mainframe": 16576, "##gle": 17441, "pg": 8734, "excalibur": 24654, "frameworks": 23281, "subsequent": 2287, "rambus": 20994, "grab": 29585, "eat": 22446, "rog": 9802, "rockville": 21262, "thomas": 5568, "volumes": 3801, "nissan": 23209, "##alk": 11637, "minerals": 6596, "##lox": 21208, "offic": 1018, "fant": 23233, "first": 1579, "phelps": 17298, "dsd": 25947, "differs": 8120, "possession": 7686, "intensive": 8772, "network": 2117, "ampyra": 29482, "##gro": 24639, "mcne": 15479, "uncovered": 27874, "gsp": 26949, "##etaxel": 27761, "jin": 14730, "##apers": 7868, "hang": 15430, "impossible": 9631, "trs": 7597, "##ising": 2805, "addic": 20158, "fg": 13810, "freezing": 21117, "diving": 24895, "bally": 12053, "harbin": 19090, "##oag": 29379, "sur": 2618, "winchester": 22493, "chel": 18603, "anticipate": 3428, "siding": 18788, "unp": 28296, "casual": 5156, "ambass": 21359, "batter": 6869, "euros": 10208, "advertised": 22441, "[unused8]": 9, "missiles": 29070, "kellogg": 20640, "##enas": 24118, "grey": 13476, "chino": 28927, "segundo": 29823, "evidentiary": 22937, "conf": 2631, "fraud": 4146, "##\u00a2": 502, "dwelling": 18344, "takeovers": 22837, "beazer": 26932, "##fton": 19155, "bioscience": 17252, "cwa": 17952, "##tifications": 16789, "002": 10657, "bt": 10851, "cybersecurity": 13270, "fdi": 27108, "measur": 2485, "jubil": 27237, "jd": 16680, "deli": 1985, "carson": 16856, "series": 1904, "salesforce": 23341, "##ede": 9006, "racetr": 14059, "##agic": 20736, "mercury": 9503, "tell": 17996, "smallcap": 15427, "salespeople": 22023, "preferences": 5616, "dealing": 9273, "incentive": 2214, "mpsc": 11452, "retention": 4993, "##hips": 8043, "\u2019": 296, "distiller": 25004, "##jet": 12259, "exploitable": 28996, "stops": 20335, "prod": 21083, "##oming": 4967, "trace": 14569, "bnc": 29225, "hugh": 9382, "##mant": 20105, "##izing": 3608, "flip": 23186, "og": 10636, "years": 1008, "ont": 8534, "discriminatory": 16271, "##utz": 20298, "decommissioning": 6334, "nike": 20087, "residence": 11623, "headsets": 27277, "patentable": 16775, "disaggregation": 20031, "wgp": 26605, "resched": 18109, "tdm": 28202, "spend": 7411, "tsx": 17182, "registrar": 15235, "lsg": 26831, "47": 3134, "object": 13372, "091": 14021, "##var": 28040, "monitor": 3087, "crunch": 27082, "##ethylene": 15863, "durations": 15907, "anomal": 17624, "expectancy": 17403, "radiopharmaceutical": 29467, "inefficiencies": 13348, "firewalls": 28328, "mucos": 25129, "obtaining": 3962, "stems": 24842, "answering": 25143, "##orpe": 14957, "##bus": 7863, "revalued": 14990, "effluent": 19319, "lands": 7730, "indicates": 6134, "undepreciated": 26700, "##fman": 21488, "commercials": 20811, "enbrel": 27837, "tessera": 26430, "assemble": 14382, "a320": 26997, "##ollinger": 23910, "tobac": 6794, "items": 2570, "circumvent": 10390, "through": 1109, "ris": 1076, "safeco": 26735, "##bilt": 20982, "##oke": 8160, "enterpr": 3063, "walsh": 19592, "sppc": 12302, "##ograph": 12221, "##frame": 13257, "chart": 9010, "44": 3089, "nee": 15575, "farmington": 26433, "trinity": 14985, "##cheduled": 15454, "##olving": 2453, "lt": 2896, "steve": 15889, "consumers": 4054, "ucdp": 18206, "clari": 26800, "measures": 3301, "consid": 1470, "declarations": 20971, "829": 13375, "internationally": 6523, "actual": 2116, "katrina": 14570, "gly": 13707, "copyr": 6133, "##lo": 692, "retailer": 8821, "##ogeneous": 13413, "##issan": 18174, "ric": 9470, "marijuana": 15739, "pel": 12604, "##entech": 12002, "implantation": 21870, "dsm": 16022, "ukraine": 19239, "ffel": 16855, "dnr": 29620, "799": 13048, "discouraging": 15918, "cancer": 4628, "fa": 5095, "spd": 24577, "undesir": 16313, "tower": 7462, "554": 11596, "allocated": 3015, "delineated": 27499, "winning": 14019, "cls": 28278, "##\u1d5e": 575, "nonex": 16409, "guided": 17716, "miscell": 7566, "peter": 7984, "ir": 3077, "resub": 14317, "disposables": 21160, "eq": 10615, "nonstat": 14535, "345": 9168, "##vel": 1333, "legitimate": 21669, "unre": 2807, "doubtful": 4194, "auc": 27176, "reinsurers": 8044, "malware": 21903, "sophisticated": 7792, "ships": 10432, "ex": 659, "##iliar": 11175, "##ength": 3137, "wpg": 25652, "subservicing": 25634, "##sung": 13400, "unsold": 15927, "##icient": 2198, "vang": 15357, "humans": 11761, "uncom": 13059, "borrows": 22152, "orchard": 19576, "unsatisfactory": 18567, "knowledgeable": 16372, "nonaffiliated": 16636, "liquef": 13569, "cloth": 25491, "claridge": 24939, "disclaimer": 17975, "packer": 23480, "pollock": 29092, "glenc": 25869, "zimmer": 22216, "08": 4082, "attended": 10253, "##onet": 24315, "denomin": 10123, "arc": 8999, "poses": 18031, "swimming": 18485, "kendall": 21299, "ka": 14616, "##acts": 1545, "desc": 24214, "hugoton": 26520, "mcc": 7459, "estimated": 1511, "parametric": 25968, "enabling": 7565, "want": 10982, "##50": 9698, "15d": 5360, "bernard": 13880, "specific": 2009, "##aga": 25282, "softbank": 25141, "##akis": 25692, "stif": 20850, "kindred": 22659, "##rea": 12833, "csps": 29619, "daven": 24989, "##north": 27015, "hospice": 14443, "kcsm": 18775, "mewb": 26017, "ergo": 26124, "##stem": 1245, "las": 4527, "unbund": 12643, "wmi": 25556, "\u300a": 419, "const": 5259, "635": 11618, "videocass": 24475, "terminated": 3233, "##loy": 1032, "paclit": 20023, "petitioned": 22253, "unfunded": 6900, "##ety": 2125, "rar": 28174, "##\u0ff8": 599, "kern": 18336, "maur": 19360, "alberts": 23323, "[unused78]": 79, "hel": 3746, "keys": 15536, "distant": 20073, "mutually": 10755, "enjoys": 21039, "jensen": 21050, "amend": 1372, "hfs": 26447, "custodial": 10412, "assum": 2411, "unused": 5761, "shin": 27116, "skus": 20448, "rural": 8595, "polic": 1483, "ss7": 28522, "transmontaigne": 22029, "##ophys": 10300, "exits": 26202, "disposable": 9624, "jo": 2691, "##ants": 1186, "sheraton": 23332, "maturity": 2458, "recover": 1953, "without": 2262, "immigration": 18701, "935": 12887, "prevailed": 25626, "html": 23939, "indefinite": 4386, "ramsey": 24081, "adss": 19722, "norcross": 26145, "bidder": 18055, "##enne": 18252, "##ors": 857, "##ch": 739, "simulcast": 21455, "replacements": 9020, "netherlands": 8341, "certainty": 6822, "004": 11659, "cgi": 27482, "grounds": 10218, "override": 12165, "lacking": 26294, "answ": 8354, "sauces": 25579, "##aul": 7818, "reintr": 29859, "uniformity": 24335, "##aceu": 29776, "displacement": 26142, "penetrated": 28221, "upwards": 29327, "wholesaler": 14796, "doctors": 15424, "preclud": 8332, "samuel": 14075, "##orado": 16734, "buffet": 19417, "exchangers": 26301, "##iyang": 28806, "ceb": 29956, "claib": 26358, "driver": 9321, "approximate": 4414, "commonly": 6532, "combine": 9568, "##db": 19256, "motorola": 10346, "##funded": 11846, "inmates": 29283, "cei": 17480, "threats": 9615, "secondary": 5143, "commerzbank": 24136, "##comm": 15910, "##lying": 2348, "##360": 28232, "con": 651, "expansions": 11676, "adder": 29884, "scoti": 15319, "affir": 22239, "ess": 5237, "4200": 20960, "alab": 5717, "##pa": 2360, "sweden": 12612, "lafarge": 29598, "embra": 26013, "##vision": 2879, "##ads": 14002, "roanoke": 21303, "pdi": 25253, "oncologists": 26392, "pediatr": 27508, "strata": 25496, "factories": 15986, "formulate": 18622, "registration": 2389, "complex": 3389, "friendly": 11776, "cti": 14308, "kens": 28176, "unb": 6993, "columbus": 10455, "thick": 13536, "anch": 8376, "tdma": 24683, "accountability": 11135, "##hardt": 21638, "briance": 28675, "imc": 16178, "theory": 20211, "729": 12481, "dot": 11266, "energyplus": 24869, "##iters": 6438, "calg": 18926, "wwe": 25733, "diversity": 8560, "##ared": 11998, "##ding": 8798, "r": 160, "instr": 5710, "sys": 17244, "vene": 8893, "forbes": 16702, "hu": 6541, "cystic": 22810, "colin": 26236, "transactions": 1544, "telesales": 22234, "impound": 17985, "fsa": 14988, "telemark": 28243, "payout": 7884, "##urrences": 11430, "byrne": 29572, "frozen": 8577, "context": 7952, "remarket": 16768, "commodore": 26253, "cataly": 10901, "affixed": 23724, "fibrillation": 28634, "distress": 16084, "yellow": 13634, "employers": 6295, "hendric": 28836, "manufacture": 3521, "ligand": 19582, "names": 5029, "127": 7577, "increasingly": 5513, "gsci": 22821, "##ansett": 28013, "effic": 5707, "attacks": 6591, "ivy": 24732, "lawful": 9038, "systems": 1681, "educ": 4046, "casinos": 9032, "helicopters": 19263, "lounge": 20949, "behalf": 2771, "disclaims": 10945, "expended": 9089, "lyd": 27211, "apopt": 25056, "wakefield": 28702, "##mt": 18332, "publisher": 13866, "wend": 12951, "compuc": 23642, "##autions": 13034, "myriad": 21350, "mckinney": 29160, "accommodates": 28932, "##akers": 15109, "cmrs": 24123, "kill": 19979, "##imil": 14216, "interview": 16204, "uneconom": 18689, "shirts": 19890, "buys": 17673, "kite": 27562, "[unused68]": 69, "sequencing": 16930, "prohibitively": 24286, "hv": 11381, "##bre": 13191, "wallboard": 21236, "authentic": 10404, "meeting": 2637, "drop": 7389, "dumping": 19681, "neurology": 27570, "kine": 22236, "peaks": 18676, "substation": 19410, "psoriasis": 19228, "fein": 28823, "resides": 18948, "retirement": 2515, "##\u220a": 554, "s1": 22307, "deliberate": 22935, "nm": 7794, "pecuniary": 16159, "immunology": 22889, "near": 3620, "##col": 16252, "eb": 10717, "cris": 8245, "programming": 4582, "applications": 2563, "cpo": 28915, "reacquired": 15437, "discover": 4085, "schro": 29207, "##omod": 24729, "disorder": 15498, "scandin": 26220, "australian": 7867, "esrd": 18760, "qnb": 24202, "nationally": 9120, "casc": 14015, "heaters": 21480, "expropriation": 17094, "##ported": 5445, "origin": 4998, "##peg": 21018, "##erts": 19704, "alp": 21863, "##illing": 2952, "unacc": 24121, "attaining": 15785, "memorandum": 9590, "gallons": 9837, "rems": 16305, "smb": 21402, "pinnacle": 9929, "flamm": 26160, "##deq": 22450, "y": 167, "mccoy": 29209, "barter": 15445, "neigh": 9581, "sud": 11518, "locking": 23669, "brc": 24759, "##estos": 5911, "divided": 5943, "mis": 2796, "risc": 29035, "appropriations": 15499, "##atom": 27580, "##anties": 5662, "prosecute": 16101, "mop": 16941, "##uil": 28452, "##tl": 8810, "manitoba": 23888, "sc": 1915, "crada": 28706, "detrimental": 13449, "practice": 4326, "cinema": 14349, "perman": 4612, "inapplic": 10229, "rz": 22418, "payne": 22268, "amvac": 27640, "##gia": 29103, "embodying": 28920, "originator": 15778, "##back": 4346, "phasing": 27380, "tau": 27271, "ineffici": 12946, "franchised": 9162, "prolifer": 14035, "witter": 16216, "index": 2513, "gpos": 25819, "sfx": 24572, "ps": 3984, "subsidiary": 1934, "microstrategy": 21391, "##ovascular": 23131, "vars": 15270, "champions": 19820, "protease": 26747, "stuart": 15441, "xerox": 16752, "##ronic": 8118, "titanium": 11616, "recapitalized": 27186, "constant": 6032, "ple": 9076, "2018": 1932, "##arians": 21836, "tp": 10610, "crater": 27940, "reliable": 5930, "##bey": 22468, "quantifying": 14016, "lifec": 13103, "renewal": 4288, "lifecycle": 15845, "cca": 16098, "rome": 20855, "143": 6012, "emanating": 24049, "purification": 15935, "thereto": 3762, "gy": 20479, "biopharma": 16194, "retrofit": 14849, "##gers": 15831, "java": 17659, "##ils": 13847, "binomial": 15636, "rehabilitative": 29560, "ek": 22034, "27031": 29435, "contamin": 12589, "solic": 6279, "subsidi": 1154, "affym": 22104, "child": 11426, "zfp": 29145, "##opure": 26651, "tonnage": 15531, "redeployment": 25557, "collateral": 2340, "##rich": 8808, "ntc": 27267, "economic": 1959, "exercises": 6260, "ernest": 20712, "disqualifying": 23850, "671": 12888, "asic": 19423, "177": 8724, "sulfate": 19957, "conditioning": 11418, "##enzie": 19563, "cfm": 26956, "institute": 5833, "##onal": 23699, "061": 14077, "lowered": 10493, "safely": 17821, "582": 12213, "anna": 25154, "zur": 15924, "facing": 10305, "early": 3029, "kang": 18114, "966": 13385, "demonstration": 12149, "dent": 27915, "stryker": 21192, "uncontrolled": 26369, "pasteur": 27103, "safety": 2940, "##atory": 1485, "proceeded": 24404, "swee": 20671, "values": 2304, "##fold": 25053, "extension": 3928, "nec": 16021, "secondarily": 20631, "projects": 2842, "##cul": 18586, "accreted": 9015, "paging": 15034, "spv": 18381, "##ever": 1836, "conectiv": 14644, "sj": 9612, "knowledge": 4292, "afudc": 10622, "uspb": 25909, "ground": 5042, "ao": 19896, "camera": 14058, "##ea": 7507, "##lake": 14144, "everett": 25403, "discounts": 4474, "##\u2215": 576, "cfa": 28315, "tr": 772, "937": 12646, "twentieth": 25342, "concentrations": 5435, "tubular": 13588, "portland": 10829, "detract": 25877, "##kids": 27343, "harbors": 14350, "cuts": 9515, "brownsville": 28877, "##erty": 27439, "##lon": 8866, "ral": 10487, "brochures": 21499, "accruals": 5353, "citibank": 9706, "abn": 17413, "bred": 28125, "##hook": 25228, "37475": 25337, "act": 1159, "mild": 12189, "forec": 3007, "##ending": 1832, "interven": 7610, "ual": 16363, "ahl": 20759, "greenhouse": 7998, "runoff": 16464, "harvesting": 16402, "##ant": 752, "##ets": 4222, "licenses": 3387, "searching": 19683, "denver": 9009, "robbins": 21355, "lieu": 6419, "copy": 4327, "##uccessful": 7537, "hef": 26114, "390": 9704, "\u2778": 409, "dozens": 29163, "discussion": 2191, "toggle": 22295, "catastrop": 6430, "##esson": 15699, "landing": 15434, "tighten": 26441, "yog": 22959, "welders": 14827, "ethern": 12760, "sinc": 19383, "vine": 16205, "##othy": 10935, "steady": 12945, "##m": 461, "lauderdale": 16984, "reclassification": 6846, "modal": 18160, "videoc": 23162, "classic": 14285, "tcg": 26609, "##willing": 10830, "ald": 17851, "##ports": 4557, "beef": 12265, "authorize": 8581, "lifestyles": 24380, "photovoltaic": 18647, "engelhard": 27992, "hk": 12623, "preventative": 18340, "meritor": 12161, "langu": 7485, "strikes": 13581, "##uge": 23192, "rec": 753, "##iosis": 27407, "wrongdo": 15119, "exped": 10445, "marine": 5701, "arena": 14837, "enhances": 10710, "build": 2392, "embargo": 21205, "##alis": 23145, "cct": 20958, "avery": 27188, "adjud": 13890, "224": 9344, "cre": 2593, "approximates": 5329, "ultim": 2994, "##stadt": 26320, "2021": 6411, "occ": 1702, "equitably": 29508, "speech": 13557, "intens": 10484, "summons": 25748, "twin": 14674, "##oline": 6647, "##\u00a4": 496, "dang": 25594, "independent": 1846, "asus": 17682, "ncuc": 19014, "unprofitable": 13524, "next": 2991, "vin": 12052, "pregnancy": 22036, "papa": 23906, "carries": 8944, "##rm": 25249, "coupled": 7909, "##nix": 22839, "alta": 20534, "revital": 25862, "##lace": 25832, "guaranteed": 3997, "apf": 26386, "trustmark": 16687, "photos": 21219, "dw": 12092, "\u2033": 310, "761": 12788, "[unused72]": 73, "\u02bc": 223, "displace": 28294, "gbcc": 26769, "lifts": 25223, "valeant": 21079, "hamilton": 12135, "brett": 24619, "##ercy": 20675, "eua": 23108, "endorsed": 23580, "send": 10976, "announcing": 15050, "##ree": 1282, "transcontinental": 25449, "wagered": 29336, "54": 3372, "##\u2206": 507, "kaiser": 12241, "##isa": 7504, "rehabilitation": 8625, "spx": 26510, "##formed": 26188, "##oles": 3648, "informed": 8131, "wester": 28289, "\u201a": 297, "daimlerchrysler": 23435, "tric": 28839, "##case": 18916, "schult": 21648, "[unused0]": 1, "flash": 10619, "##orily": 14475, "financial": 741, "igf": 28009, "retire": 8379, "##criptive": 20082, "nonrefundable": 14169, "##aur": 3317, "##gene": 14080, "##ocal": 21040, "inflationary": 11133, "leuk": 15078, "foot": 3803, "unimpaired": 15622, "##nick": 15216, "civic": 22641, "fidelity": 8959, "\u2193": 350, "tungsten": 23864, "exclusivity": 7398, "fract": 7773, "sums": 14789, "entitled": 2890, "##vested": 4240, "season": 3764, "csx": 15194, "##vious": 24659, "nms": 23772, "rexnord": 29633, "[unused53]": 54, "analytic": 19555, "specify": 10234, "kwh": 10217, "\u201b": 298, "chair": 2844, "workers": 4971, "inventories": 3504, "\u25ba": 384, "northfield": 23613, "vulnerable": 8574, "sizing": 25195, "surg": 5089, "alph": 8751, "##ycles": 25161, "whichever": 8293, "renaissance": 13915, "cid": 23658, "mct": 29648, "oswego": 29548, "##orate": 27492, "##olife": 25243, "adhesion": 27428, "nap": 11256, "infos": 22264, "cardiac": 10413, "##eding": 4347, "ensco": 21865, "cme": 15566, "barn": 16197, "portugal": 17121, "wind": 4296, "contacting": 17286, "rogers": 14172, "barrett": 19804, "##stead": 19799, "##iman": 19505, "valvoline": 22980, "gram": 15307, "##oti": 3227, "##omedia": 21044, "subtotal": 25867, "tfm": 29809, "threaten": 19744, "##bas": 21217, "brec": 29380, "reengine": 20793, "##vs": 10898, "diges": 24859, "tpi": 25582, "pnmr": 14474, "##alding": 29843, "appointed": 4669, "idrs": 22751, "##ogle": 12472, "greatly": 10345, "cerebral": 26718, "actel": 28790, "trane": 29899, "##oner": 27746, "##iaries": 8253, "gmbh": 8871, "genzyme": 13935, "##dong": 20400, "substantively": 26056, "founded": 7110, "##ustat": 25197, "##lem": 3265, "seacor": 23856, "overall": 2617, "fri": 9506, "##whe": 26260, "glory": 28257, "churn": 15551, "activision": 25148, "##ometry": 15982, "respected": 21995, "wedding": 23779, "vein": 15880, "peco": 8316, "commutation": 24018, "assumes": 6464, "normalized": 16753, "71": 3276, "spr": 4555, "63": 3488, "broadway": 14719, "\uff0e": 438, "caregivers": 26531, "##standing": 7506, "untreated": 24415, "cmp": 15276, "partes": 25359, "eli": 9874, "odd": 29894, "bord": 8056, "covanta": 19725, "##ution": 1237, "crlp": 19831, "##terson": 14846, "conductive": 26153, "naming": 15627, "##oscopic": 21385, "glp": 20799, "underwriting": 3966, "salomon": 17219, "forman": 27093, "hir": 6765, "infarc": 27576, "thousand": 4372, "advantaged": 21094, "deems": 8617, "capacitor": 29656, "unreasonable": 16470, "reznick": 26157, "cashier": 28309, "##gold": 25416, "##eded": 23584, "return": 1872, "metropcs": 29413, "conformity": 3712, "applicability": 12550, "apprais": 5224, "laptop": 18863, "accompany": 19936, "seasonal": 4436, "masonry": 26870, "571": 11308, "##osterone": 20125, "damage": 3993, "tar": 9710, "alzheimer": 16500, "correlates": 25839, "gbps": 27824, "subcontracts": 16557, "reckson": 27263, "attendees": 28683, "rodney": 24964, "toh": 24958, "euronext": 22147, "##iann": 11230, "optimizes": 29428, "anne": 20045, "cint": 22555, "dispense": 24814, "qp": 29773, "mandated": 8703, "happ": 13146, "measure": 3300, "ul": 2773, "western": 4926, "jason": 18939, "307": 10232, "coat": 21344, "informatics": 24942, "operations": 926, "mitsu": 14919, "nanometer": 29309, "alk": 13646, "aired": 22758, "a2": 18745, "lnr": 21857, "syntel": 25532, "janet": 26518, "green": 4496, "katz": 17717, "##sc": 5073, "engineer": 9565, "schiz": 24624, "municipal": 5106, "##rise": 12022, "responsibility": 2969, "importing": 17515, "maxtor": 27368, "perfected": 18653, "occasionally": 10172, "[unused10]": 11, "paydown": 24494, "accumulations": 21913, "##fins": 24688, "relevant": 3625, "73": 3730, "##ateralization": 26140, "conocophillips": 19304, "we": 691, "ammunition": 19919, "18": 1808, "blend": 12955, "bap": 29666, "teg": 29881, "dm": 10095, "##oded": 27711, "##avancin": 28641, "automotive": 4780, "facilitate": 5910, "triarc": 24089, "flatten": 25180, "2010": 1352, "theatr": 9062, "nc": 6921, "cables": 14251, "appointment": 7337, "longh": 27637, "postpaid": 29652, "ons": 11340, "wine": 9932, "hatfield": 28728, "practicing": 16228, "384": 10862, "shippers": 12912, "watt": 20637, "owes": 16057, "fresh": 6793, "umc": 21465, "##cos": 17127, "chamber": 14639, "krause": 28391, "recommendations": 6849, "##led": 2026, "competencies": 14456, "chocolate": 20702, "##idian": 10478, "nsf": 29693, "greg": 9447, "##amps": 23121, "dp": 9134, "certified": 4761, "##tinel": 22541, "##ipple": 24481, "302": 6383, "##master": 15477, "66": 3320, "##stitutional": 26368, "aud": 1259, "vials": 28625, "##imens": 19021, "thread": 19157, "hass": 27805, "pancreatic": 18047, "recreation": 15899, "tss": 28392, "fhlbank": 8292, "insu": 5994, "polyst": 29184, "lowell": 27719, "particularly": 3708, "##bi": 5945, "brachy": 20386, "##asonic": 19144, "navig": 9750, "952": 13095, "fractional": 10819, "##sky": 18334, "marriott": 9527, "package": 6667, "##nan": 14906, "adler": 28764, "ambulatory": 16055, "ribis": 27274, "dress": 11386, "crash": 23792, "kam": 20591, "##shaw": 23867, "partners": 2099, "curtail": 6449, "remarketing": 13444, "lys": 27779, "492": 11662, "calam": 23387, "makes": 4720, "country": 4180, "bedding": 18414, "hrg": 29107, "##ophot": 28849, "counterfeit": 21481, "albemarle": 25602, "wolfcamp": 29919, "brokering": 26753, "67": 3598, "indium": 27303, "syndrome": 14592, "subsequently": 4055, "expans": 22490, "##brands": 28791, "374": 10322, "signs": 11734, "silic": 16544, "myeloma": 24179, "lump": 7457, "nas": 3403, "boom": 16556, "molec": 6514, "rhodes": 25082, "proofs": 24746, "salmon": 19864, "tif": 29445, "magnolia": 23807, "imm": 2576, "helen": 25263, "diagnoses": 29842, "##anting": 24580, "unfamiliar": 24682, "bgss": 27225, "shareholding": 29433, "2039": 28397, "##oints": 3606, "referred": 3341, "maintained": 3865, "epco": 18955, "experienced": 3200, "vort": 29021, "windstream": 18248, "pun": 8088, "attendance": 9962, "perspectives": 26237, "reductions": 3887, "concrete": 9834, "coating": 7917, "##horse": 24401, "##ares": 5544, "commingled": 15399, "iso": 7609, "boulder": 16608, "forr": 19619, "##met": 8540, "##ovia": 9796, "vendors": 4121, "code": 2705, "present": 1491, "042": 13534, "relinquishment": 24041, "originated": 5763, "segment": 1790, "doral": 15419, "paclitaxel": 20033, "hercules": 13868, "defe": 19594, "lyon": 17143, "595": 11510, "zeb": 20344, "customize": 16361, "ties": 19151, "penetrating": 23710, "mish": 24676, "##lite": 20471, "getty": 23064, "workflows": 25187, "clarification": 13509, "naval": 18805, "##ography": 9325, "detect": 5598, "##tone": 17518, "##ulture": 21958, "satis": 2699, "late": 4814, "minds": 27142, "##istar": 10054, "ratios": 4184, "##omics": 11860, "vodafone": 28600, "ever": 3897, "defic": 3168, "bills": 8050, "comply": 2968, "unlock": 26923, "advan": 29277, "##houseco": 7075, "grow": 1662, "tolerated": 15056, "738": 12513, "ox": 4047, "sim": 1826, "camco": 28229, "dbi": 27939, "##eria": 24435, "001": 5133, "##alog": 23012, "hundredth": 18128, "neff": 27050, "eagle": 7659, "spaced": 26559, "trim": 10828, "autonomy": 27410, "nonprofit": 17939, "structure": 3586, "refinery": 7091, "ungu": 23462, "##ept": 2795, "statutorily": 20756, "antidilutive": 9734, "jean": 16291, "##20": 8180, "antimicrob": 24953, "substances": 5383, "newell": 27923, "##anto": 13575, "diminution": 19281, "golden": 7835, "post": 2525, "veg": 10355, "tuck": 28463, "subsystem": 22144, "und": 834, "1969": 13926, "mateo": 23216, "forecasting": 11807, "baby": 13780, "ung": 22950, "675": 10200, "switches": 11586, "kilroy": 23062, "chancell": 20854, "##strip": 21306, "surv": 6304, "minimis": 15597, "prescribers": 26985, "##isms": 7479, "japanese": 7415, "antimic": 24916, "transform": 8066, "biosciences": 14817, "##xy": 2696, "##thouse": 19309, "208": 8576, "proxies": 13305, "solu": 17183, "entirely": 7052, "vertex": 17200, "tucows": 24846, "cogen": 11060, "ks": 12726, "ccl": 24474, "absolute": 6376, "miz": 24208, "hierarchy": 4547, "locker": 28925, "appeal": 4616, "dosage": 11512, "buck": 13832, "arca": 14170, "##tran": 16965, "##rane": 13307, "olp": 22731, "discl": 4854, "jonway": 26324, "##ptv": 22412, "capr": 21108, "lasts": 26306, "mam": 18195, "steinberg": 27777, "##spec": 8019, "consigned": 20544, "fifo": 10387, "pershing": 26771, "2023": 7810, "##aron": 27756, "administratively": 24359, "destin": 8520, "tropical": 16498, "##\u0111": 600, "lloyd": 11461, "##arios": 8912, "##ospheric": 22013, "##child": 17709, "##ics": 2545, "woodward": 18753, "possessing": 19297, "##sts": 26852, "fiberglass": 18467, "superc": 27676, "determined": 1825, "##izes": 2649, "mallinckrodt": 21287, "tracker": 20713, "scanners": 16653, "42": 2938, "tropicana": 15895, "attracting": 7991, "defend": 3278, "nul": 19535, "biographical": 16960, "japan": 4374, "vandal": 23456, "healing": 17230, "merger": 2403, "humanized": 28551, "underwater": 23997, "dou": 3201, "##uters": 18167, "partnered": 18592, "shifts": 10269, "##etel": 19112, "saic": 20508, "metropolitan": 6601, "beth": 13774, "##antom": 8077, "philips": 14196, "fiscal": 1096, "inquir": 7396, "thin": 8556, "amli": 22616, "conditioners": 26648, "norwe": 18452, "majority": 2740, "takeover": 7728, "usair": 18950, "pelican": 23449, "validly": 19537, "kingsbridge": 29394, "deer": 13383, "reseller": 9859, "dennis": 11285, "##estry": 16667, "##aches": 28065, "write": 3422, "unlawful": 12007, "216": 8935, "berr": 29034, "streamline": 11945, "412": 10701, "covent": 22249, "irs": 5157, "chargeback": 20257, "fare": 18645, "##fkin": 23085, "amce": 26981, "downhole": 23663, "remediation": 4069, "inspects": 25856, "averaged": 9494, "##\u0446": 532, "custom": 1010, "verdict": 12813, "lgi": 28471, "influence": 5263, "##pta": 19226, "aqu": 9593, "supreme": 6905, "581": 12556, "entrust": 21907, "skywest": 23632, "therms": 27628, "taipei": 27858, "integrys": 19451, "##cher": 10178, "paulo": 21624, "claimant": 16482, "bechtel": 23885, "reid": 20676, "appra": 4713, "bimini": 27377, "profitably": 9627, "reengineering": 23696, "hid": 19329, "volcan": 19696, "quantified": 16031, "unc": 3473, "gre": 8142, "eggs": 19053, "transcanada": 22098, "774": 12994, "john": 4291, "##ennial": 12761, "tremendous": 25552, "decrees": 19454, "microproc": 13647, "##active": 3378, "columns": 15112, "woodland": 22386, "remitted": 10058, "2024": 8669, "##cs": 4901, "measurement": 3002, "bone": 8891, "##ourcing": 5311, "##goods": 18741, "##68": 15402, "cabana": 26971, "1982": 7645, "jane": 18830, "gambling": 17556, "1958": 21234, "concess": 6262, "dmg": 28231, "##alling": 18457, "upholstered": 27202, "reef": 17532, "553": 11850, "cullen": 25001, "stb": 21564, "nokia": 19117, "ranger": 27627, "grain": 8024, "lv": 15630, "characters": 18529, "reincorporation": 20438, "amounts": 1290, "contra": 18750, "cars": 9259, "possess": 7714, "##actions": 8653, "ia": 16551, "foc": 2613, "prg": 24730, "conventions": 16811, "capitol": 17154, "securities": 1062, "textainer": 29774, "blake": 22053, "##ken": 10406, "risks": 1900, "2050": 25147, "clarks": 26459, "sx": 26461, "strives": 16072, "ccp": 22819, "effect": 1447, "##99": 9323, "##ically": 1930, "##avis": 13078, "kling": 26529, "dropping": 27328, "fay": 28853, "crus": 20812, "\u2022": 305, "item": 1106, "apr": 1804, "consume": 15626, "divest": 10821, "messaging": 9974, "gynec": 20383, "prior": 1374, "captioned": 8589, "addendum": 14824, "transalta": 29611, "departure": 12268, "bluegreen": 14503, "noncontributory": 13610, "assay": 11826, "fut": 1047, "commissary": 29388, "motion": 4275, "435": 10575, "radiant": 24203, "lpc": 20913, "thing": 16009, "garrison": 25760, "turned": 18453, "ecm": 26850, "access": 2334, "travelo": 26786, "directed": 6302, "##u": 457, "final": 2949, "##iatr": 29392, "nail": 22360, "ariba": 26525, "galvanizing": 24378, "##pco": 15438, "gust": 22473, "heap": 25768, "unilever": 20276, "xiii": 15315, "fif": 4460, "depots": 27712, "characterization": 13699, "companys": 26010, "purposes": 2061, "oaktree": 17813, "tpe": 15593, "##elon": 6361, "##etrics": 16888, "probably": 18490, "expanded": 4676, "reception": 19145, "leaders": 5785, "898": 13316, "rip": 18131, "liquidation": 3816, "bench": 6146, "aly": 28828, "92": 3833, "bris": 26055, "mongolia": 24172, "powell": 19057, "protocols": 9282, "xv": 14703, "analogous": 14737, "certificated": 22719, "##tel": 6374, "kas": 20202, "undert": 5695, "newslet": 19327, "maximums": 28242, "geodyne": 8391, "transceiver": 26077, "isg": 26176, "surr": 4841, "expecting": 25045, "##bp": 13914, "backup": 10946, "outs": 1221, "breaches": 6285, "flights": 14941, "##graphic": 20729, "hansen": 17601, "donnelly": 26190, "situation": 8554, "##formatics": 29617, "landry": 29624, "sciences": 7208, "tok": 20495, "gecas": 29140, "before": 2286, "##erial": 1065, "salary": 3395, "strategy": 2679, "disc": 967, "hybrid": 8062, "sask": 19764, "conversions": 10187, "reached": 5150, "metz": 28454, "tues": 20789, "optic": 8733, "sullivan": 11275, "##agram": 22749, "cros": 10858, "chassis": 12059, "alj": 18374, "pric": 955, "hockey": 22852, "elder": 15303, "##just": 13429, "pumped": 19556, "ratch": 24169, "day": 1801, "domes": 3027, "edward": 8872, "jewelry": 9877, "itg": 19583, "noncurrent": 8626, "suble": 9457, "commercializing": 9884, "invacare": 25232, "pla": 16369, "coverages": 10256, "university": 3549, "staging": 28693, "insignia": 17779, "scha": 20167, "sce": 8796, "##oplas": 14068, "afs": 11537, "harvested": 18084, "carib": 11472, "ust": 18965, "beau": 21589, "dul": 27296, "atrial": 25755, "pregn": 18303, "scales": 21559, "litigate": 20835, "efforts": 2667, "jenrette": 26748, "inspect": 13090, "gfi": 24978, "##cord": 26558, "##abas": 29929, "##ners": 999, "remington": 18637, "##aves": 13565, "##phones": 15094, "##iegel": 17621, "fee": 2312, "\u2665": 400, "consequ": 4440, "##oung": 5407, "l": 154, "dealer": 4189, "retard": 23745, "claiming": 10757, "hol": 6631, "macquarie": 18556, "##ab": 677, "wesley": 22853, "bison": 24207, "udr": 20747, "weighting": 13135, "##olic": 9909, "##opening": 20281, "inadequately": 19232, "pdt": 29064, "packs": 19017, "##orporation": 15919, "##water": 4463, "wiltel": 29484, "##overable": 19163, "##\u0138": 602, "vishay": 20463, "ruth": 21544, "buena": 29564, "serviced": 8204, "##ysis": 7971, "##ert": 7219, "insituform": 27935, "binds": 25827, "excel": 16242, "cigar": 8795, "contrac": 13133, "enabled": 7949, "conditions": 1651, "glob": 15923, "applicants": 14368, "ing": 5614, "kaufman": 24626, "##stm": 26954, "\u02c6": 225, "naf": 28541, "bankboston": 24245, "racetrack": 17523, "prohibitions": 11492, "ibe": 19851, "varian": 16381, "##emon": 29712, "invasive": 10825, "laf": 15372, "##urers": 4920, "##zz": 6509, "kiosk": 23190, "overly": 25624, "hag": 23205, "steam": 7944, "wilder": 19984, "overwhel": 28593, "\u00b6": 193, "arith": 21502, "##yo": 16914, "lock": 5962, "kcsr": 29338, "treat": 2512, "optimally": 29613, "picher": 26702, "grown": 8517, "nebr": 9990, "##ighter": 14749, "recommend": 5139, "attorn": 5155, "contributed": 3896, "cronin": 29602, "##ariff": 5838, "whereas": 9119, "##ptibility": 24014, "cathode": 26449, "teled": 21145, "1000": 10878, "nix": 27968, "eurod": 8826, "exide": 28517, "##66": 16655, "755": 12230, "elmer": 29714, "prps": 11483, "product": 1258, "blowout": 27922, "establishment": 6053, "interchangeable": 23074, "dehydr": 23171, "motorsports": 18256, "repro": 20857, "##wise": 2372, "esche": 26401, "organic": 6602, "##illar": 14078, "graded": 11799, "but": 1763, "##long": 22381, "commerz": 23855, "vacuum": 14244, "advocates": 27149, "##ific": 942, "berth": 24312, "pbo": 19994, "preserve": 8639, "dal": 13782, "574": 12125, "nnc": 29928, "implementations": 16538, "destruction": 11907, "roles": 9098, "humph": 25780, "myr": 22166, "aven": 5913, "indirectly": 4776, "mclean": 19990, "parsippany": 27886, "##iasis": 18618, "geoscience": 26787, "fallen": 19983, "reinsuring": 27367, "credit": 1044, "swings": 21873, "waste": 3972, "brake": 16399, "cyapc": 29866, "##adustat": 27029, "elevators": 27880, "databases": 10074, "produc": 828, "psych": 11264, "banquet": 25969, "merged": 6688, "invalid": 7023, "attends": 29999, "schw": 9571, "just": 8084, "downgr": 7092, "trending": 20138, "elli": 13941, "simulator": 26942, "##check": 26208, "onsite": 16950, "imprecision": 23863, "intervest": 28054, "##produc": 14471, "solitario": 21812, "mice": 17631, "regulus": 20801, "##itone": 26289, "layout": 17933, "burdensome": 14741, "[unused13]": 14, "##icing": 7148, "they": 1913, "travelocity": 28267, "veter": 9370, "advanc": 10687, "metromedia": 29515, "showcase": 24915, "careg": 22488, "cautious": 24827, "##urrent": 5351, "##bay": 25469, "unlikely": 8173, "uncontr": 17479, "pied": 13360, "##\u03b7": 606, "influenza": 15413, "danish": 23564, "matson": 27192, "353": 10605, "wayne": 11094, "willfully": 15521, "##no": 11774, "miss": 5004, "firstcity": 23371, "counselors": 29723, "abey": 26277, "jefferies": 14400, "isa": 16068, "geoc": 28146, "survive": 16555, "supersede": 19869, "teradata": 27532, "telos": 28303, "hemp": 17948, "##56": 20238, "1990": 4244, "nga": 19685, "steer": 29069, "activation": 12238, "microsoft": 7979, "##auge": 28085, "inherently": 6848, "parentheses": 21422, "efc": 28771, "certify": 9019, "##mpa": 9346, "\u0442": 267, "##ago": 5466, "finders": 21784, "opens": 21301, "copiers": 27551, "schol": 22724, "\u2460": 369, "invented": 26164, "misrepresented": 27376, "nancy": 19747, "tubes": 15872, "pmt": 29291, "guarantor": 5422, "queries": 27702, "##digital": 21944, "##revoc": 8679, "nutrients": 19167, "##ually": 3525, "tsg": 27140, "supersedes": 9783, "qualifications": 7850, "\u00a4": 176, "triggering": 9158, "rohs": 25252, "obsolete": 6224, "ken": 9641, "communications": 2978, "irr": 8524, "imputed": 13002, "##id": 661, "exhibitor": 27900, "emeritus": 17773, "capitated": 19960, "moto": 28110, "pj": 24742, "oral": 6491, "flight": 8683, "postemp": 14220, "##anders": 28953, "broadcasts": 18635, "overage": 29047, "exist": 4142, "adul": 26264, "especially": 6089, "##ochvil": 27726, "hemophilia": 23496, "cerberus": 23875, "subtr": 17267, "##erick": 23639, "mathematical": 19636, "##organ": 3681, "receipt": 4506, "fragmented": 9823, "##ford": 4723, "templ": 16214, "ang": 5514, "##iance": 15370, "##goti": 8141, "888": 11148, "backstop": 20605, "licensing": 3771, "faa": 12310, "ea": 19105, "translate": 14486, "seventh": 11614, "2100": 29593, "leas": 17131, "nepool": 25310, "mc": 3510, "bitumen": 26976, "insitu": 27435, "continues": 3934, "##elect": 8257, "inconsistent": 10163, "elections": 12128, "originates": 10409, "\u2211": 355, "harvard": 10126, "swine": 22736, "##ifiers": 21829, "##alg": 18365, "triton": 18503, "visually": 29502, "derecogn": 12333, "classrooms": 26708, "559": 12013, "roadhouse": 25421, "##\u00be": 488, "ceoc": 18362, "pentalpha": 23475, "realization": 5335, "revisions": 6267, "interline": 27517, "sds": 24760, "collegiate": 23243, "000": 901, "##edict": 8121, "committed": 4752, "tess": 20909, "mainstream": 21286, "feas": 5964, "hurdle": 16700, "s": 161, "robotics": 19136, "appropriateness": 13495, "newmark": 21604, "produce": 3903, "unitholders": 5316, "francs": 20772, "offerings": 3590, "readiness": 12636, "recommended": 8090, "kemper": 12234, "rez": 19650, "##aluation": 9439, "subtopic": 10092, "hsp": 24894, "nongo": 17247, "asr": 16713, "gug": 25547, "516": 11467, "expo": 26121, "irregular": 15232, "customizable": 21939, "neur": 7234, "breaking": 24982, "bushels": 27066, "irrevoc": 8685, "listeners": 21924, "mediated": 20178, "pratt": 19149, "behind": 12123, "cognizant": 24804, "##station": 18763, "roz": 28487, "pursued": 10973, "##folk": 16380, "##kets": 6643, "hpci": 26930, "desks": 27432, "##yte": 17254, "cemet": 13932, "498": 11603, "authentication": 13353, "dci": 25415, "rocks": 16685, "bresnan": 28025, "marin": 20769, "connectivity": 8629, "st": 653, "piggy": 16125, "sublet": 18415, "cooperated": 23897, "priceline": 24266, "meanwhile": 27395, "extinguished": 13625, "argen": 8474, "inj": 3820, "##wire": 14247, "delivers": 10015, "vehicle": 4528, "vandalism": 23538, "##lusive": 7465, "bib": 27515, "harrington": 25362, "facilitated": 17191, "##lie": 11126, "nicaragua": 29646, "##arsat": 28642, "boone": 24268, "spi": 22347, "956": 13023, "integral": 3943, "below": 1756, "corneal": 27180, "treats": 17312, "hurt": 13594, "mosaic": 26067, "streets": 20302, "10": 931, "executive": 1254, "expiration": 3788, "unilaterally": 18488, "knoll": 20764, "included": 1307, "novelis": 27552, "proppants": 29800, "spencer": 21153, "attendant": 16954, "accept": 2840, "bahamas": 19529, "##ume": 18889, "effective": 1365, "oeh": 19409, "compel": 15896, "orion": 13618, "spirits": 15321, "##ae": 13168, "automates": 24950, "risk": 1092, "deficiencies": 5450, "weaver": 23666, "##amation": 18253, "chefs": 17297, "merrimack": 29930, "##cars": 11252, "shifted": 14633, "260": 7320, "susp": 4138, "312": 9686, "tti": 27521, "mw": 5925, "##uel": 2508, "further": 1861, "sensitive": 4918, "jump": 17954, "selection": 5652, "ncm": 13593, "archstone": 23155, "##bourne": 17778, "analyzers": 21020, "fsi": 20315, "##iated": 5321, "subrog": 19465, "forwarding": 17056, "terra": 14120, "reimbursement": 3543, "seconds": 22394, "connection": 1788, "breit": 26952, "##berg": 5854, "essentials": 29321, "##astr": 3226, "ceiling": 8920, "##issu": 7368, "##ats": 6171, "cleared": 10196, "##kee": 7968, "509": 11556, "accenture": 13568, "teppco": 20464, "##lyc": 27390, "perf": 9566, "253": 9670, "lunch": 22132, "immediately": 3489, "##15": 10180, "dra": 22912, "memphis": 14311, "metals": 5780, "proph": 20838, "surety": 8221, "[unused77]": 78, "whitt": 26152, "warehouses": 10568, "log": 4233, "##lose": 12020, "##ercial": 1583, "##ensity": 8523, "termed": 24263, "graphics": 9211, "texas": 3080, "[unused54]": 55, "##source": 14042, "espp": 6960, "inhal": 14602, "enthus": 17997, "##ondale": 24160, "sph": 29367, "insectic": 26099, "srl": 24832, "stable": 6319, "exchanged": 6123, "petroleum": 4746, "gallery": 25350, "acting": 6329, "##jor": 21651, "reo": 12315, "undrawn": 13992, "gaap": 3039, "doubl": 24689, "htt": 8420, "compilation": 24560, "saleable": 17989, "postemployment": 14225, "basel": 7416, "456": 11291, "adequ": 2479, "benefiting": 18111, "587": 12102, "routes": 12361, "tia": 17721, "wcc": 23484, "disappointing": 26673, "refuses": 23964, "glaxo": 21295, "chevy": 26672, "1974": 9697, "darling": 28591, "##clad": 28919, "##ayer": 15971, "girls": 23214, "9a": 5850, "borrowed": 5118, "documenting": 18816, "rub": 7836, "transgen": 22747, "##opter": 17251, "spss": 21566, "nonstatutory": 14555, "duff": 17304, "broadc": 4315, "avastin": 28881, "##bell": 9537, "mei": 22781, "ian": 19303, "flagship": 16135, "treaties": 12035, "##intosh": 19425, "required": 1233, "collateralizing": 17437, "withdrawals": 9591, "spt": 28662, "movies": 14434, "idea": 24605, "fulf": 8403, "immunotherapy": 17615, "cep": 15590, "##enet": 15961, "multiplier": 21038, "agricult": 5277, "##inqu": 11033, "securitizations": 8700, "modules": 8394, "route": 9452, "stories": 23316, "section": 1957, "##ommon": 21066, "##inable": 24185, "expenditure": 6592, "warrior": 20457, "indemnifying": 21401, "##weigh": 14117, "distr": 2882, "arrow": 13379, "ulh": 23061, "contemplating": 21845, "gases": 8890, "##iral": 15449, "##employment": 8091, "thornton": 11903, "herm": 23252, "gec": 13600, "subj": 4424, "outweighed": 29148, "kirk": 15304, "bruker": 24394, "unprecedented": 15213, "regenerative": 18066, "mattel": 14621, "710": 11457, "hds": 19559, "ston": 18489, "##ridge": 10571, "probabil": 28334, "commitment": 3713, "##oman": 18413, "viv": 10806, "##iciting": 10894, "reson": 19753, "##utual": 21694, "reed": 13330, "avoid": 5576, "chromium": 23022, "actors": 29469, "refinancings": 15142, "inverter": 29807, "rolled": 11316, "symb": 5101, "tolling": 14231, "464": 11336, "funds": 1831, "rcf": 28077, "schnitzer": 26379, "delivery": 2806, "statute": 6107, "firstbank": 22514, "knock": 26722, "##urer": 4076, "##odia": 24781, "countermeasures": 29719, "wounds": 24013, "conocoph": 19294, "lcr": 20711, "3rd": 14239, "redress": 29239, "max": 8568, "9002": 29138, "resilient": 26655, "##enti": 5995, "387": 10959, "duration": 5047, "sublicensed": 28111, "facial": 21795, "unutilized": 17917, "stipulation": 9732, "diploma": 26545, "uncompleted": 14408, "##all": 1127, "##udg": 2225, "rapid": 3983, "##clp": 16661, "##inal": 2239, "introducing": 10258, "paula": 27758, "arthr": 23450, "bus": 898, "1300": 25419, "relocating": 18464, "intrusions": 25086, "##fundable": 14158, "fabrics": 11174, "accumulates": 27238, "trust": 1593, "##estit": 5831, "676": 12645, "##ximab": 23109, "##rog": 16282, "##adena": 19600, "##eller": 9866, "words": 7575, "registrant": 1802, "outcomes": 6487, "insol": 6736, "efficiencies": 6155, "million": 749, "establishing": 4353, "grady": 27561, "culmin": 21708, "stamp": 13960, "hsni": 28287, "per": 738, "z": 168, "overstatement": 24436, "passed": 6417, "wines": 17564, "mineral": 4012, "ppas": 13514, "purchas": 4045, "unfavorable": 4895, "ord": 1575, "kaz": 16401, "vivendi": 20228, "railroad": 8021, "twice": 10911, "attributable": 2586, "exceeding": 6727, "occupy": 11667, "flag": 11864, "race": 11335, "hc": 10105, "norwest": 19737, "arm": 4976, "pharmac": 6724, "drinks": 15653, "##ally": 2627, "##ferred": 1100, "reversing": 16762, "249": 9573, "retrieval": 16822, "progn": 23600, "conseco": 19398, "careful": 7202, "antig": 11207, "clinic": 12592, "##n": 458, "mouth": 17845, "seas": 19408, "posting": 12104, "fenner": 20192, "ammonium": 26560, "formulated": 14334, "##pl": 2185, "##roy": 17255, "gulfport": 23971, "##avision": 18042, "##iter": 2585, "251": 9906, "omi": 27020, "microt": 19623, "##kase": 24428, "railcars": 11497, "ruble": 29335, "considered": 2379, "enrollment": 7466, "allin": 26338, "accessible": 9958, "statewide": 17305, "divestit": 5848, "encapsulation": 28604, "materialize": 13243, "princeton": 14866, "doubt": 3647, "##inity": 8153, "pjm": 9471, "purchasers": 5390, "dedicate": 14162, "mee": 2630, "momentum": 15885, "invis": 22598, "jiangsu": 21615, "scottish": 22679, "plays": 13976, "672": 12208, "establishes": 4565, "dpsc": 26191, "going": 3689, "exerc": 1630, "##\u043e": 601, "tele": 2755, "gyr": 25644, "aligned": 12276, "##unt": 4317, "hosts": 21196, "online": 4097, "lion": 12738, "boats": 13758, "dess": 19567, "flavor": 13714, "reactor": 14183, "##aler": 25881, "1989": 4715, "take": 2939, "glac": 23878, "247": 9651, "technique": 9486, "assume": 6184, "nest": 18087, "sham": 22656, "cecil": 29931, "developing": 3524, "venezuela": 11129, "finished": 5485, "flour": 22072, "busch": 22480, "dia": 20183, "festiv": 21900, "esc": 19299, "linking": 17181, "408": 10582, "their": 1136, "onvia": 25565, "waiver": 5851, "whole": 3893, "acet": 15955, "##lion": 10442, "##tish": 22027, "stoppages": 11305, "##opt": 4846, "payouts": 12223, "cymer": 23523, "appropriate": 2614, "exercisable": 3373, "exchanging": 19262, "##sp": 1924, "encr": 11568, "##loads": 19992, "indic": 1895, "domiciled": 11820, "pace": 7758, "##echnology": 6190, "borders": 18594, "constrained": 13354, "sp": 994, "orig": 2120, "##monary": 14168, "##hawk": 12118, "extrusion": 18514, "##con": 1542, "suther": 26373, "truc": 6851, "advises": 21807, "##own": 1572, "today": 8022, "realty": 5129, "adding": 7293, "irreversible": 29700, "components": 2502, "##mission": 2521, "aerial": 17594, "jvs": 29489, "old": 4679, "bornhoft": 26570, "##ishment": 10845, "battle": 19284, "dendritic": 29238, "computations": 10653, "licensees": 6604, "suz": 24104, "bryan": 17032, "ldc": 25825, "listing": 5166, "scar": 19357, "syndicate": 10201, "##ient": 4569, "overfunded": 20598, "oci": 9808, "desp": 5829, "lymphoma": 18808, "therapeutics": 6867, "alere": 29197, "##ozan": 25155, "freeport": 19618, "carlyle": 11640, "infringing": 8117, "mhc": 13632, "residual": 5141, "bugs": 20804, "affirmative": 7851, "tradename": 16224, "banner": 15751, "actuaries": 12774, "##rell": 6558, "fram": 29285, "undesirable": 16323, "himself": 18115, "breakdowns": 14740, "incurred": 1879, "[unused65]": 66, "oz": 9694, "agc": 15858, "denault": 23437, "progression": 14246, "burden": 10299, "dmr": 26269, "820": 5951, "\u207b": 321, "determines": 4666, "##sets": 920, "026": 13760, "cwcapital": 28331, "mohave": 29696, "aps": 10351, "sungard": 20915, "del": 1909, "##lair": 20530, "amoco": 20166, "ctp": 29431, "mines": 8171, "985": 11057, "biomarker": 22054, "infor": 25030, "pre": 981, "dryers": 28349, "ffb": 25368, "atlas": 9284, "overseeing": 10938, "tampa": 9649, "##istries": 21625, "ports": 11654, "category": 4150, "##idad": 18537, "website": 3827, "nondeduc": 14739, "buyers": 7131, "##tibles": 8989, "##rogen": 19766, "disgorgement": 14732, "cv": 6802, "super": 2700, "##ni": 12336, "isi": 23212, "argued": 24599, "offsite": 20531, "actuate": 28584, "unattr": 23602, "bowling": 14963, "863": 12997, "usi": 29418, "insurer": 6828, "orthopedic": 14571, "latent": 25705, "outpatient": 9513, "##ec": 629, "dayr": 17738, "aaa": 10410, "1973": 12388, "dispos": 2103, "reschedule": 29552, "##eptic": 27559, "hamburg": 20564, "ranged": 8968, "1100": 24099, "##olves": 20066, "irrad": 26577, "patr": 12492, "tlr": 25974, "apb": 5283, "occurs": 4657, "##yx": 15136, "\u2465": 374, "patch": 14243, "mand": 4204, "##ops": 9826, "lynn": 18231, "milp": 28279, "cio": 23263, "front": 6994, "837": 12929, "philipp": 10635, "fhl": 4114, "analys": 2013, "controls": 2023, "taiwanese": 26073, "566": 11922, "##adia": 16045, "[unused47]": 48, "egy": 20404, "ipr": 9903, "damages": 3273, "charges": 2252, "dilig": 6500, "allege": 8852, "runs": 11621, "789": 13047, "brother": 13616, "##erc": 1117, "##fus": 29728, "inc": 660, "equityholders": 29623, "commercialized": 11438, "dictated": 20364, "sally": 18356, "##ed": 613, "church": 12800, "cmc": 16530, "constellation": 12924, "schizophrenia": 25090, "inflam": 9775, "discount": 2774, "quasi": 20083, "cyber": 7123, "durect": 28746, "med": 1643, "countercl": 8374, "unasserted": 18013, "lotus": 20547, "rates": 1317, "televisions": 18909, "##around": 27526, "sandwiches": 24930, "##ale": 2524, "mep": 24108, "monitors": 6581, "inclusion": 6358, "##anger": 11546, "378": 10977, "##prod": 19430, "agi": 23527, "spouses": 19196, "mars": 23119, "lyc": 29276, "infection": 11344, "engineers": 6598, "##lier": 12725, "lower": 1929, "\u25b2": 383, "lebanon": 23021, "##son": 3798, "management": 966, "##eris": 27818, "fitzgeralds": 23541, "gables": 22533, "isc": 28116, "netted": 11888, "lipos": 20666, "##oods": 15368, "##edes": 20602, "declined": 4919, "swaption": 29765, "turkish": 28781, "quartz": 16119, "##ancial": 9433, "event": 2165, "complied": 7892, "densities": 26603, "flextronics": 22928, "obama": 16738, "subc": 14304, "votes": 8213, "##ellschaft": 25914, "kap": 12670, "mog": 15120, "wy": 6991, "##ican": 7395, "eligible": 3140, "##imo": 18574, "tables": 4755, "##entr": 15741, "devote": 7238, "abandoned": 9241, "cum": 3078, "feels": 21717, "collaborate": 14581, "##menting": 28151, "reservations": 14905, "welch": 23424, "dilute": 9628, "##leen": 18946, "austrian": 29408, "##prac": 9736, "libo": 22411, "colgate": 24353, "additive": 16721, "##enstein": 24072, "##places": 14608, "pound": 7288, "reports": 2349, "indef": 4371, "tum": 6875, "consultants": 4229, "##ementioned": 7103, "multin": 12083, "libel": 25976, "defendant": 6575, "saturns": 28112, "stored": 9218, "husband": 22032, "1968": 14133, "eci": 26397, "bureau": 7704, "cured": 11427, "domicile": 16172, "nbsp": 10810, "installations": 10831, "cellul": 15420, "##arel": 28626, "##adi": 19321, "wests": 24892, "grip": 27760, "fuj": 12885, "9062": 24483, "qing": 22139, "mirage": 23222, "unlicensed": 22402, "##eon": 16481, "##works": 9830, "kentucky": 6756, "##83": 17609, "cafes": 19561, "prospective": 4576, "grades": 10932, "millburn": 26575, "\u0131": 211, "usa": 4912, "sick": 17680, "renegotiated": 12681, "##oci": 1366, "syracuse": 20277, "desulf": 29286, "##ating": 866, "adhesive": 19377, "indian": 7820, "arden": 18538, "boost": 18161, "affiliations": 13498, "lake": 6261, "intercept": 17261, "pt": 9653, "wholesalers": 9797, "catch": 14112, "##iro": 14338, "dosing": 11904, "claimants": 11440, "gained": 10906, "##qa": 27877, "strati": 15866, "moder": 7549, "insureds": 14092, "##pak": 24034, "visiting": 18796, "afford": 5478, "continual": 14007, "brings": 11954, "##houn": 21060, "##hem": 20143, "remeas": 7862, "agonist": 23460, "rib": 15478, "degrees": 8101, "fsg": 28421, "sacr": 24398, "amr": 14089, "##krodt": 21277, "recipients": 10782, "vt": 24440, "mainten": 2516, "vote": 3627, "morbid": 14976, "aftermarket": 8896, "imagery": 20078, "##tieth": 25246, "endoc": 27064, "prefer": 4018, "##data": 28161, "furnish": 6018, "proforma": 14880, "atrium": 21515, "consummating": 15502, "864": 12768, "007": 12312, "investing": 3595, "curtailed": 14287, "horizons": 16260, "cannabis": 11942, "variations": 6574, "refriger": 11514, "metering": 15693, "drydocking": 24183, "sons": 17389, "##tial": 972, "macular": 27443, "barclays": 14803, "dain": 29377, "##vaco": 25546, "kim": 10482, "costless": 26499, "armour": 28169, "requisition": 26427, "##tier": 7212, "lifest": 10149, "cboe": 28011, "leasable": 18364, "exposes": 11085, "researching": 19878, "regeneron": 24381, "deuts": 7453, "suggested": 13606, "088": 13268, "an": 620, "magna": 18951, "tent": 14859, "##litz": 29175, "variants": 27089, "deliber": 15362, "screening": 8628, "millenn": 10925, "allev": 27986, "engineering": 3477, "covenants": 2922, "pad": 10022, "yarn": 19282, "545": 11226, "showroom": 20647, "fifteen": 8800, "##alth": 1800, "advisors": 4499, "redemption": 3337, "allot": 10559, "unpredictability": 19975, "incision": 27182, "tight": 8848, "##urgery": 18878, "upc": 10314, "amerco": 17637, "hep": 9535, "cog": 23229, "albu": 17450, "sie": 16991, "tompkins": 24348, "##rep": 14657, "68": 3657, "0001": 11371, "##45": 11183, "elevated": 13120, "reviewing": 6494, "coated": 12423, "air": 2309, "epc": 15706, "ib": 5988, "gain": 1703, "distinguished": 16553, "shipping": 4987, "coaching": 25591, "theodore": 18549, "speeds": 9618, "2009": 1321, "intercompany": 4588, "##ults": 11114, "ops": 24603, "nhp": 17110, "bidders": 21677, "governmental": 3571, "gans": 27495, "##verage": 1295, "ees": 26314, "bowes": 24079, "car": 2520, "contran": 23017, "bps": 16428, "lati": 18742, "nia": 21275, "##ocon": 11836, "manufactured": 4571, "##yside": 26890, "malt": 19363, "broadening": 18607, "morator": 15688, "pick": 10143, "##ogo": 29610, "reprocessing": 26342, "encompassing": 16894, "needing": 24218, "administrator": 6539, "jess": 26891, "oxy": 8681, "gh": 6963, "vineyards": 22738, "doz": 27827, "pn": 5385, "cyberatt": 28023, "##change": 8243, "ibj": 29844, "840": 9666, "1981": 8194, "skip": 25527, "\u25cf": 389, "sumit": 16951, "tornadoes": 19577, "turbines": 12759, "##illy": 9762, "dca": 19113, "aetna": 16430, "polychlor": 26589, "box": 6504, "destroy": 13143, "everyday": 18389, "75": 2347, "nig": 19846, "adcetris": 26916, "##\u215e": 573, "bulle": 5617, "terms": 1524, "emergency": 7194, "monoc": 14341, "califor": 2686, "##probe": 28339, "arms": 10250, "noted": 4485, "enforces": 22270, "##edge": 3692, "targets": 4970, "dhc": 25965, "olig": 19926, "bribery": 13751, "fungal": 26170, "essence": 25396, "nonaccruing": 21859, "repairing": 20249, "conceptual": 23922, "##erver": 20008, "ped": 14975, "jewelers": 25497, "consultant": 5509, "perce": 5337, "harsh": 19485, "##tricted": 8450, "baton": 18493, "mut": 4092, "##tinguished": 10855, "##se": 710, "confusion": 22936, "byproduct": 25898, "froz": 8351, "grap": 4742, "owning": 6842, "cronos": 22694, "468": 11219, "persistency": 15714, "mcguire": 25291, "##pcs": 29156, "##idy": 18526, "though": 6017, "ftr": 23680, "anhydr": 22496, "rosen": 13166, "accent": 26250, "affirming": 24343, "\u25a1": 380, "ndas": 17262, "##king": 2182, "ref": 1373, "fahren": 27902, "drugs": 4667, "certificates": 4157, "warsaw": 28723, "appraisal": 7233, "##2004": 27885, "aros": 14301, "subscriptions": 7775, "tourna": 21131, "characterized": 6331, "##ickson": 21555, "##\u02c9": 585, "certior": 21616, "##activeness": 14799, "##kinson": 22597, "gaming": 4033, "was": 852, "speak": 11916, "xii": 10714, "##che": 6935, "liquidated": 7876, "##velo": 1020, "alfred": 18746, "insight": 8950, "##whel": 28490, "alferon": 27916, "186": 8723, "709": 13005, "usaa": 28987, "chris": 9338, "acne": 23514, "precluded": 14293, "nik": 20650, "nonin": 24734, "shoppers": 17887, "repriced": 16066, "bacterial": 16631, "wolfc": 29820, "463": 11403, "mississippi": 5484, "nsos": 26681, "managed": 3427, "edible": 26563, "285": 9003, "##\u00e6": 510, "relaxed": 26576, "##ahon": 28186, "homebuilding": 10090, "hawaiian": 13140, "quarters": 4226, "acres": 5202, "awarded": 4741, "cpr": 20035, "between": 1500, "includes": 1713, "otc": 5306, "caterpillar": 18077, "ling": 18732, "factual": 11566, "mys": 29210, "t3": 28027, "terror": 5159, "functionalities": 28084, "unexerc": 8865, "prosecut": 28230, "aid": 7179, "against": 1898, "cont": 2351, "unsec": 3480, "journals": 17650, "hotel": 4112, "enhancing": 8049, "##opar": 19735, "##books": 14346, "aftermath": 28608, "2030": 13014, "what": 4316, "extinguish": 5405, "permeability": 27458, "opa": 15612, "cosmetics": 13799, "[unused37]": 38, "franchising": 10643, "compare": 8689, "priv": 2147, "599": 12233, "geoff": 22075, "aspect": 10950, "implicitly": 29313, "##ements": 748, "description": 3845, "structures": 6351, "##des": 10483, "diabetes": 9408, "##reen": 3688, "nep": 13426, "blvd": 16720, "bott": 7541, "craf": 28716, "draw": 4986, "##witch": 21107, "indices": 7451, "mirr": 12146, "mastec": 29896, "optimistic": 21721, "##western": 8168, "alcatel": 19564, "\u2777": 408, "displays": 8521, "investigative": 14373, "underestim": 29136, "rr": 14566, "applicant": 8593, "immunex": 28251, "opti": 18626, "noninterest": 6060, "166": 7759, "flown": 23660, "citigroup": 9639, "nervous": 18002, "hoffmann": 20428, "769": 12750, "methane": 13171, "else": 4451, "mmb": 22547, "converg": 15254, "repealed": 16198, "##lements": 4724, "writer": 22564, "cement": 10881, "bids": 10663, "film": 5870, "steiner": 22135, "reddy": 21485, "abuse": 8549, "##key": 7273, "landowner": 28168, "walth": 26634, "intell": 2895, "prevention": 5779, "stomach": 29822, "undertakings": 18650, "accommodation": 18040, "pickup": 22797, "bridger": 22904, "##sour": 5731, "microdis": 27240, "delayed": 5894, "behaviors": 17549, "outdoors": 27371, "lawn": 15480, "consequential": 19783, "rfp": 21096, "widening": 18792, "fss": 23418, "reacquisition": 23283, "salesperson": 18495, "janus": 20866, "kess": 22168, "##emak": 25274, "mcdonald": 14427, "##planned": 15029, "eag": 7410, "##aka": 22877, "substance": 7828, "##soft": 15290, "##insured": 8747, "commands": 29406, "hedg": 1996, "gsa": 18099, "##ge": 2860, "liang": 28543, "deter": 4159, "conducted": 3013, "##heet": 24554, "timeframes": 21314, "##user": 16448, "shortage": 10933, "##lux": 22566, "##linc": 29968, "##ique": 5287, "spam": 20119, "##onders": 19829, "markwest": 20132, "production": 1855, "fpga": 29460, "hoechst": 27022, "highligh": 18874, "##41": 17789, "renovated": 19514, "##ligence": 6879, "except": 2255, "kearny": 27236, "fry": 29827, "tbs": 26111, "amenities": 11705, "cere": 15734, "##opic": 10411, "housed": 20363, "intermediates": 19275, "microprocessor": 17633, "tba": 17712, "##ursion": 26641, "explicit": 13622, "295": 9768, "exclus": 3046, "gind": 23706, "fabless": 26779, "638": 12354, "commod": 2884, "##ady": 29199, "##wait": 28320, "transforming": 24849, "##gram": 14623, "##quir": 7282, "##knife": 28172, "noel": 29702, "therapy": 5188, "debits": 26532, "servier": 26115, "##ance": 737, "dillard": 28616, "seals": 22559, "ingot": 26109, "kemp": 28284, "airc": 26825, "starz": 18696, "7000": 25385, "requirement": 4004, "suitable": 5425, "muff": 28363, "privatization": 19910, "##54": 18718, "recovery": 3104, "emc": 10464, "personal": 3376, "scarcity": 26604, "avocados": 27382, "##otek": 21045, "yarns": 23167, "goodman": 14655, "valencia": 22497, "winton": 14250, "tat": 21186, "premise": 13267, "##urne": 20817, "plaz": 28082, "contaminated": 9819, "huntsville": 24159, "dubai": 22017, "neural": 21760, "349": 10447, "##\u00b1": 474, "##baum": 16103, "public": 1476, "##dm": 19862, "chairperson": 18075, "considering": 5318, "##oen": 6553, "hauling": 20735, "occurrence": 4759, "realizable": 5500, "denom": 17745, "smt": 26372, "marked": 8678, "unse": 19643, "algorith": 12292, "prepared": 3872, "divestiture": 7599, "ascent": 18358, "room": 4946, "nisource": 15204, "payroll": 5061, "97": 3742, "benton": 21185, "norton": 18988, "##uez": 20409, "legg": 16737, "gradual": 17525, "839": 13263, "professor": 12129, "mp3": 24339, "716": 12150, "sif": 24855, "provide": 1399, "reserve": 2450, "anonymous": 24815, "depot": 13468, "diligent": 23103, "##ney": 5974, "adoption": 2531, "wellesley": 28152, "nonperformance": 9155, "contract": 1463, "allergan": 14494, "joh": 3745, "distract": 16847, "listed": 3315, "dak": 8036, "pollution": 6349, "cms": 6400, "magic": 15350, "sending": 16416, "playstation": 24234, "9th": 25407, "undertak": 6903, "unreimbur": 21769, "contractholder": 16981, "gasoline": 7066, "compressed": 18442, "##ersion": 14310, "pitts": 9722, "encounter": 6215, "viet": 16881, "regain": 16769, "morgan": 5325, "hos": 6735, "tsun": 28375, "expedia": 18279, "cmbs": 10244, "nstar": 10513, "hemod": 19647, "antidil": 9287, "submissions": 13654, "detail": 3241, "whirlp": 23670, "bb": 8985, "##idine": 22050, "taylor": 10337, "jasper": 26199, "uncertainties": 3412, "issuing": 5380, "iden": 1974, "##yc": 5433, "[unused40]": 41, "cyclical": 8128, "ilecs": 16123, "nonacc": 17145, "[unused87]": 88, "teledyne": 22760, "cdo": 11502, "sysco": 19605, "diluting": 22252, "reformulation": 29126, "mixing": 20669, "reducing": 4399, "dillon": 24790, "nhc": 19143, "langston": 28840, "genentech": 12720, "##phere": 14993, "diarr": 22286, "mpeg": 23667, "constructs": 22064, "quarter": 1265, "[unused52]": 53, "[unused19]": 20, "austral": 4735, "belt": 16992, "contingencies": 3785, "executory": 16810, "dataw": 25904, "##veda": 25721, "interactions": 13881, "sul": 9283, "haw": 6342, "booked": 14845, "2026": 10304, "visual": 9139, "ns": 7927, "atwood": 29768, "cache": 27151, "regionally": 18376, "sak": 20571, "chr": 5660, "coas": 10317, "episodes": 19823, "delinquent": 6813, "##irc": 2079, "##ocom": 24851, "##fully": 25294, "groupings": 21055, "issuable": 5409, "sunbelt": 23638, "uranium": 9647, "pollutant": 19119, "##hi": 8011, "pos": 1455, "eme": 10837, "obj": 3004, "##aha": 12279, "metast": 13256, "osm": 20766, "mined": 13460, "substitutes": 11886, "##orption": 29274, "disrupting": 23770, "celebrity": 21588, "forfeitable": 16641, "infarction": 28561, "##tin": 665, "pfg": 26028, "banana": 25146, "kmr": 25646, "##ix": 1448, "diagnos": 4696, "stockholders": 1775, "##ags": 8573, "##ystems": 8660, "continuously": 7673, "civilian": 22673, "cyclicality": 19068, "tubing": 12773, "wexpro": 22315, "##free": 23654, "##gement": 14683, "iurc": 18217, "honol": 22297, "repurchase": 2732, "dixon": 21512, "scen": 7177, "seneff": 28109, "lionbridge": 18906, "manipulate": 26922, "ker": 14290, "typho": 29831, "##wright": 21474, "soci": 8423, "ogden": 24488, "string": 6409, "dependence": 7806, "interru": 4795, "gmac": 10929, "adop": 1771, "dobson": 26053, "rollout": 19791, "787": 11450, "caith": 26428, "outline": 21366, "fittings": 19453, "grid": 8597, "os": 8329, "legislative": 5795, "frees": 21667, "annapolis": 20468, "deliver": 2012, "##ances": 1346, "561": 11782, "transfusion": 21495, "horsham": 28901, "hirsch": 20715, "sill": 27771, "##obe": 14159, "##pts": 8971, "telcom": 23830, "disciplines": 17116, "##age": 877, "ethan": 24045, "461": 11764, "conoco": 25388, "##criptions": 6426, "scw": 26177, "vegetables": 18278, "blackstone": 9748, "zo": 15825, "inv": 844, "\u2461": 370, "architect": 6871, "##urt": 14855, "match": 4096, "meal": 14022, "monotherapy": 21197, "camelot": 29606, "mony": 21761, "99": 3037, "cube": 25346, "cellulose": 21203, "##phone": 11889, "##roads": 19404, "re": 635, "liberal": 22505, "analogs": 25016, "##ectives": 3857, "payables": 7130, "specifications": 6408, "discharge": 6435, "scho": 4603, "east": 4548, "appendix": 10359, "instance": 8501, "est": 1252, "dayrate": 26166, "insp": 4745, "proppant": 23543, "045": 12628, "tara": 24658, "accruing": 7947, "310": 7684, "subjected": 9892, "sanctioned": 19740, "legalized": 23601, "sue": 16076, "wings": 22556, "hmca": 29850, "handled": 12579, "kpsc": 26813, "cta": 16998, "sold": 1863, "creditors": 5741, "trays": 25595, "depends": 3917, "##utili": 14388, "sections": 5414, "[": 137, "notebook": 19517, "latency": 26116, "jackson": 8515, "ending": 3442, "##pd": 19545, "rot": 8614, "redundancies": 22213, "fairpoint": 28978, "prosecution": 10050, "1875": 25127, "relationships": 2476, "park": 4452, "strive": 11210, "sonic": 13273, "pakistan": 23200, "##hiba": 16268, "profiling": 23120, "686": 12735, "##ren": 12904, "hpt": 21121, "[CLS]": 102, "dix": 18617, "alarm": 13223, "719": 12641, "##okes": 23079, "##81": 17588, "timber": 6757, "merely": 20694, "leban": 22728, "vans": 21179, "mmbtu": 10579, "incentiv": 18758, "##ectile": 29110, "dipl": 18373, "ec": 5881, "faster": 8352, "23a": 16531, "##electronic": 21112, "montau": 25716, "adjust": 1548, "10q": 22973, "individual": 2156, "fluctuates": 12783, "anticipating": 16795, "\u2e38": 416, "bearing": 3950, "##asts": 14387, "plant": 2577, "dade": 20965, "regression": 23345, "yeast": 22283, "gamble": 17908, "coking": 28214, "sabot": 19444, "maxy": 29605, "sequence": 15525, "interior": 10476, "##ivision": 9992, "insweb": 22544, "702": 11810, "posture": 28521, "west": 3539, "incurrence": 8080, "mom": 13499, "settle": 5969, "revis": 29407, "t": 162, "setbacks": 22643, "locate": 9869, "purchaser": 5363, "hydrocarbons": 11466, "517": 11433, "broadcaster": 25287, "neal": 14826, "warnings": 16487, "centennial": 15504, "##wan": 29264, "propp": 19421, "interexchange": 19400, "quotation": 9953, "commentary": 21374, "thought": 17356, "thermal": 8241, "camp": 4883, "gol": 16689, "prene": 17600, "doi": 24137, "##crs": 24889, "##inger": 9574, "cycle": 5420, "imposed": 4711, "rollforward": 17734, "individuals": 3907, "restructure": 8419, "klein": 13957, "##osine": 23270, "blending": 14969, "waterford": 21097, "part": 883, "watts": 17830, "outr": 18979, "##lud": 793, "##building": 17832, "##iel": 7492, "acnb": 24532, "flying": 18943, "dealers": 4230, "##erse": 1228, "caithness": 26435, "primestar": 26265, "491": 11964, "cnp": 24951, "330": 8596, "secre": 5956, "elast": 21640, "farmer": 9398, "\u0434": 257, "cemetery": 13940, "neither": 5807, "character": 3582, "difficulty": 5915, "coors": 21201, "cia": 23678, "symm": 27444, "regulating": 9606, "##fr": 7247, "##urb": 5398, "microspheres": 27985, "##anas": 21180, "\u02da": 229, "012": 12702, "automated": 6466, "##tox": 21353, "pleas": 11522, "assimilate": 21802, "##str": 1874, "nashua": 28405, "trauma": 17419, "auction": 5804, "drc": 23783, "##yu": 24581, "##for": 802, "2012": 1433, "teens": 25304, "otti": 9068, "era": 19560, "rer": 25231, "transformers": 18897, "filings": 4773, "##invest": 28196, "\u215c": 341, "carbon": 6206, "accred": 6336, "applebee": 22600, "610": 10691, "sib": 18215, "credentialing": 29253, "##reat": 1653, "##ceva": 28796, "lig": 14838, "trg": 26168, "gree": 18249, "##ly": 652, "pfi": 21531, "clc": 23631, "femin": 28935, "diffusion": 27929, "misappropriation": 10075, "##arb": 3410, "asserts": 13069, "elevation": 24499, "attorney": 5161, "clinical": 2213, "bargaining": 6009, "ischemic": 25512, "payday": 19125, "compucom": 26777, "upreit": 28074, "terrorist": 7036, "charitable": 11170, "##omac": 12272, "marina": 13877, "abstr": 19580, "equaling": 25689, "qep": 20362, "malign": 15976, "expectations": 4100, "decreased": 2244, "molyb": 18857, "reserves": 2224, "afores": 25357, "indoor": 14785, "payee": 24905, "b": 144, "968": 13139, "team": 3737, "if": 1003, "227": 9423, "rule": 2912, "opt": 8688, "sophistic": 7310, "plaintiff": 3555, "##idata": 28319, "diamonds": 19062, "flowing": 24578, "geographical": 8580, "athena": 28852, "##efr": 12384, "approving": 7873, "disord": 8622, "finishing": 11636, "##break": 14649, "prioritiz": 9779, "anesthesia": 19478, "downgrade": 9692, "##idex": 23453, "telesc": 27548, "ages": 9172, "##ronics": 13246, "raven": 23253, "malf": 13480, "needles": 22016, "##reg": 1696, "ecc": 18702, "moff": 27275, "career": 7832, "proposal": 6150, "##comb": 24794, "airframe": 20254, "kron": 11717, "neurotr": 25859, "integrations": 22217, "ev": 1055, "elabor": 24138, "##iao": 20550, "signatory": 17645, "buzz": 23018, "sunglass": 26268, "earthlink": 21478, "destr": 8590, "aramark": 26834, "joinder": 23421, "ying": 25586, "##isphere": 18587, "form": 1036, "self": 4360, "##oglobin": 20698, "832": 12691, "##page": 17448, "[unused71]": 72, "stopping": 22606, "strengthened": 12214, "##ender": 2568, "ener": 19340, "842": 9443, "consolid": 938, "##livery": 27741, "biovest": 24113, "\u3001": 417, "mains": 19794, "infineon": 27057, "future": 1073, "floating": 4822, "mlm": 28218, "##read": 3464, "distraction": 18301, "fsp": 5749, "bab": 10827, "158": 6517, "baldwin": 16884, "forfeit": 17987, "tender": 5355, "adverti": 2507, "##far": 14005, "portfolio": 1926, "amtrust": 23750, "hun": 7255, "mexican": 8258, "chronic": 8779, "specialize": 16030, "##bore": 22806, "subcontracting": 23991, "skyline": 29031, "berry": 8988, "lamar": 16014, "tablet": 13857, "pairs": 23476, "466": 11259, "misc": 6131, "hydrogen": 12873, "composites": 17397, "##hyth": 17101, "tnp": 19518, "http": 8588, "##llc": 16107, "246": 9621, "transistors": 24244, "dbtca": 17375, "bmp": 26640, "roof": 10257, "coils": 20514, "chp": 21684, "dub": 10859, "kinds": 15130, "collectability": 6908, "brocade": 20328, "##irk": 20338, "##eme": 4575, "trident": 20585, "vibr": 23127, "662": 11851, "acquire": 2766, "meredith": 22209, "tion": 21735, "ideally": 28801, "refiled": 28067, "colombian": 22690, "finco": 23491, "neiman": 27200, "outweigh": 16423, "unconventional": 19082, "##liers": 29022, "diesel": 7246, "unann": 22545, "##d": 471, "suff": 2274, "bish": 22230, "ahp": 17485, "lockheed": 15856, "##tun": 28595, "##uts": 1149, "##ophage": 26836, "##plan": 11009, "##yon": 11652, "sandwich": 19532, "148": 6341, "records": 3714, "wilson": 10756, "wood": 5529, "odyssey": 17835, "silgan": 28396, "cbm": 20074, "##utilized": 15411, "\u2027": 307, "disaster": 8692, "receive": 2264, "##lp": 6939, "sand": 6381, "valorem": 17476, "disinf": 18776, "##affili": 5883, "escalation": 9312, "enhance": 4359, "##hf": 16109, "multinational": 12177, "##flex": 15118, "hillman": 22208, "aquifer": 29050, "##life": 9410, "null": 23861, "##iproc": 12071, "mandatory": 5730, "##acing": 14940, "dwr": 20859, "162": 6734, "##illian": 21581, "pam": 16743, "attit": 19679, "##ows": 6182, "synchronous": 27975, "initiating": 14034, "##au": 1342, "gloves": 22137, "alterations": 19440, "herewith": 5599, "##anine": 8448, "preferred": 1758, "billings": 7480, "##iant": 16698, "chc": 24482, "referendum": 21154, "##oi": 28048, "pledged": 5624, "parking": 7983, "pretrial": 22337, "anniversaries": 13065, "##trust": 7025, "success": 1882, "loe": 26989, "cardio": 9964, "fourteen": 14009, "attains": 26327, "increase": 1164, "signatures": 4904, "phosphate": 14716, "paid": 1555, "underlying": 2756, "overcoll": 22482, "consulting": 3184, "549": 11814, "intravenous": 15972, "##nski": 26083, "xcel": 12352, "##tec": 10108, "-": 117, "twelve": 3439, "##ga": 6175, "nbc": 10465, "##ris": 8869, "undertook": 15876, "caa": 13589, "wpc": 17713, "step": 3466, "##ipp": 8007, "##lift": 21609, "##ously": 4330, "conway": 17964, "ati": 16640, "orle": 9757, "prevalence": 16912, "cpcn": 26082, "improve": 3658, "unith": 4886, "geometries": 29699, "##onents": 26513, "search": 5720, "outlays": 15048, "receivable": 2187, "mississ": 5423, "##gue": 20891, "villages": 29717, "hyp": 6415, "refurb": 10824, "transports": 15516, "compuls": 18740, "ds": 6749, "descent": 23513, "slip": 22540, "##en": 614, "##riad": 20827, "prin": 5049, "tej": 21526, "worthless": 16623, "fpsc": 15117, "##ecraft": 27001, "proteins": 9843, "upgrades": 7139, "hcfa": 21856, "##bles": 17223, "locomo": 17497, "##ole": 3505, "##awei": 25677, "231": 9493, "##annett": 22150, "##olo": 18045, "##core": 15724, "shareholders": 2070, "##attan": 9078, "##rw": 27821, "donnelley": 19888, "ven": 7600, "2017": 1624, "hewlett": 13432, "cels": 29060, "949": 13067, "jamex": 27621, "trustco": 23330, "atlanta": 7197, "140": 5757, "emory": 25793, "##ecker": 26721, "swepco": 15404, "hawaii": 8974, "renegotiation": 14834, "##omputer": 24556, "rej": 8081, "tech": 7132, "occurred": 3432, "83": 3765, "closely": 5924, "chung": 27833, "petrod": 29716, "affiliate": 3710, "copyright": 7536, "petersburg": 20912, "crack": 17265, "##rs": 4289, "##ple": 23295, "kahn": 29037, "lad": 11199, "turf": 16883, "hain": 22022, "defect": 13724, "secret": 3932, "infrequently": 16870, "contrary": 11790, "kaplan": 16335, "annu": 4825, "cosme": 8854, "##44": 15721, "##sboro": 25724, "require": 1812, "parfums": 26601, "imports": 9598, "edelman": 27797, "##rals": 7519, "misappropri": 15822, "##urious": 24837, "##ike": 7163, "##icare": 14916, "firstar": 28855, "raid": 26018, "811": 13089, "annuity": 5623, "floaters": 29911, "zep": 27067, "steering": 15795, "pump": 6853, "lor": 9256, "ppa": 11139, "asynchronous": 28516, "robo": 12585, "daniel": 8425, "casino": 4881, "cfc": 11268, "##lin": 5392, "products": 997, "tucson": 15952, "varied": 10295, "marker": 21714, "972": 12284, "aocl": 23367, "clearwire": 21398, "assort": 12206, "10019": 29518, "suits": 8405, "nicarag": 24340, "##ipe": 25580, "firstenergy": 9716, "averages": 13428, "clip": 22153, "seach": 26815, "acknowledged": 16586, "prohibitive": 16699, "phh": 18505, "inflated": 20146, "courtyard": 20974, "relocation": 7635, "##central": 29815, "\u03b9": 241, "daimlerchr": 23395, "collagen": 17208, "notify": 11242, "upgraded": 11243, "rsl": 25235, "##iting": 2467, "##axial": 14640, "olympic": 19813, "hls": 24655, "mewbourne": 26102, "instances": 5222, "nonrecourse": 13422, "recouped": 24082, "##dle": 5361, "##quisites": 11263, "hawk": 13437, "pem": 19162, "ester": 25027, "gift": 8404, "constit": 3982, "compos": 4113, "wec": 23753, "natural": 2060, "##aden": 23059, "##hood": 4798, "sequences": 19387, "batteries": 10301, "giga": 23868, "deputy": 16046, "unitary": 16325, "carol": 4535, "cus": 21687, "##apeake": 11767, "automating": 24387, "prevented": 7894, "enforceability": 12992, "pscw": 14526, "already": 5535, "tripadvisor": 22175, "cylinder": 20451, "##aired": 12273, "pacificorp": 11822, "snap": 14028, "compressor": 13128, "nonp": 15108, "mlc": 28329, "\u201e": 301, "question": 8346, "shre": 15928, "announcement": 9137, "argos": 25221, "degener": 28797, "##ourse": 5193, "compound": 6512, "defiance": 21321, "sixteen": 16049, "bennett": 16251, "exposures": 5080, "desist": 12562, "bip": 14726, "mediterranean": 28637, "scul": 29368, "sls": 27843, "height": 9650, "providing": 2883, "firearms": 19175, "[unused5]": 6, "bma": 17311, "corru": 12490, "909": 12543, "unrecovered": 20039, "migr": 10530, "carlo": 11701, "##funding": 23482, "incident": 5801, "fertilizer": 9952, "##blo": 22762, "hms": 24426, "##atel": 13194, "daily": 4155, "miracle": 22115, "epi": 18527, "coronary": 14402, "bpu": 16995, "van": 8375, "council": 7980, "host": 6236, "procedures": 2005, "cnc": 23731, "lerner": 27429, "abbvie": 16644, "regency": 12639, "deutsche": 7689, "fly": 13234, "wolf": 12502, "##ultural": 29153, "netscape": 22410, "people": 5038, "gilti": 18021, "##thold": 13042, "bioavailability": 23844, "inquiry": 11930, "satisfying": 12314, "signaling": 15219, "baxter": 12834, "244": 9528, "governments": 6092, "orbc": 19568, "conventional": 6725, "obligate": 14687, "sonat": 27174, "bno": 25808, "akron": 27279, "undrilled": 25507, "obsoles": 8202, "inf": 1892, "##otec": 18210, "competing": 5551, "##odynamic": 21938, "wah": 29905, "hen": 8393, "disasters": 7189, "bs": 9927, "specialty": 3957, "atr": 11370, "amusement": 21553, "##uls": 14885, "epilepsy": 23191, "neph": 14983, "riv": 17156, "complic": 9497, "habitat": 22245, "company": 683, "fleets": 14832, "3446": 22529, "patri": 9451, "allete": 23929, "responsiveness": 15573, "hic": 28404, "uncontrollable": 22802, "outc": 3360, "teletech": 26918, "easement": 18709, "corporate": 1880, "##ecogn": 3750, "trilogy": 28364, "headend": 21610, "adequate": 2983, "fgco": 28964, "polycom": 25524, "##icam": 25960, "##ul": 685, "aerojet": 23907, "bulletin": 5627, "doc": 2759, "684": 12546, "##eptive": 13388, "##uscular": 28183, "##ogate": 22391, "##atorily": 10038, "co2": 9611, "refill": 27762, "vald": 29601, "##md": 11563, "correct": 7180, "interstate": 5595, "tennis": 19394, "zcsia": 25348, "ike": 22553, "reduc": 1274, "##zumab": 26928, "crises": 20818, "reagents": 14067, "horsepower": 16490, "794": 12677, "goldendale": 26736, "merit": 7027, "dti": 23775, "h": 150, "lact": 25906, "nbs": 28191, "progen": 19124, "antioxidant": 29530, "##nc": 8650, "metrocall": 26480, "fnf": 23515, "##inson": 9379, "startup": 16280, "orderly": 7825, "inclement": 17702, "sanctions": 6563, "nephr": 22896, "qualitative": 4163, "##esville": 18843, "layered": 29041, "accepts": 15269, "dilutive": 4265, "swaptions": 20802, "bae": 29098, "hta": 29734, "connell": 26965, "electronics": 5262, "warning": 10876, "218": 9140, "muc": 18478, "alliant": 9133, "bse": 22625, "athletic": 16000, "##seed": 25256, "grantors": 24943, "tentatively": 27687, "##vale": 15057, "refocused": 29924, "pulitzer": 25307, "inputs": 3101, "jans": 15013, "crystals": 22941, "##from": 14501, "swap": 2747, "tivo": 16872, "diligently": 19998, "peaking": 15172, "refuse": 12294, "boomtown": 26310, "mcdonnell": 20004, "##ati": 1427, "hart": 7931, "siebert": 25076, "honored": 23747, "fl": 1893, "peck": 27846, "transitioning": 15051, "harder": 23739, "vist": 16301, "##re": 642, "transtexas": 26623, "uhn": 24485, "##ondo": 27497, "712": 12000, "globalization": 23036, "jesse": 29299, "impur": 22899, "##vedere": 24496, "recogn": 1200, "stakeholders": 15705, "henderson": 15030, "\u2612": 395, "intrusion": 17285, "436": 11115, "capping": 17981, "movement": 8451, "\u00a5": 177, "your": 5235, "\u0644": 282, "##anco": 12780, "krat": 23624, "542": 11485, "technologies": 2445, "acknowledgement": 27124, "##wb": 15007, "bravo": 24168, "dag": 29584, "exempted": 14052, "articles": 5180, "defibrill": 22768, "shafts": 21905, "##ude": 3778, "##ilon": 22924, "doctr": 17980, "technologically": 13819, "clubhouse": 27298, "specialties": 13743, "opc": 21507, "acf": 25328, "dams": 28018, "nonat": 21780, "ada": 13517, "##ogn": 1165, "caesars": 18311, "subtit": 22775, "tarceva": 29744, "delays": 3931, "282": 10024, "schu": 27394, "revlon": 13004, "metabol": 14342, "078": 13374, "piedmont": 13689, "walter": 12381, "uphol": 17550, "nordisk": 24299, "anticipated": 2824, "##ystic": 19244, "dash": 20496, "allocates": 10564, "397": 10923, "silver": 6231, "hazardous": 4477, "empty": 25128, "landmark": 17281, "parties": 2076, "inasmuch": 25440, "restraints": 26408, "i": 151, "##asi": 17381, "key": 2407, "denny": 21230, "344": 9725, "##acles": 19212, "understatement": 27767, "\u2215": 357, "advertises": 29907, "encountering": 29976, "automakers": 29254, "traditional": 4137, "cpm": 22596, "##anged": 8372, "subtop": 10041, "elastic": 22882, "error": 5794, "equipping": 24650, "indication": 6527, "comparator": 24853, "657": 12448, "softs": 24957, "##52": 21227, "##ean": 15804, "mounted": 15995, "collaborations": 7904, "treaty": 9629, "##arex": 18398, "anniversary": 5350, "sinai": 25438, "recharacterized": 29571, "activations": 29798, "exceptions": 5260, "640": 10237, "graduation": 23859, "compet": 2728, "obligates": 19536, "\u03b3": 236, "renting": 21608, "1st": 9600, "burger": 16332, "insurable": 16494, "content": 3937, "inacc": 8306, "lube": 28087, "sustained": 5291, "repossessions": 26915, "polyone": 24520, "bcfe": 15171, "gyn": 18648, "073": 13927, "vp": 13244, "eco": 13721, "penney": 24212, "##yi": 24641, "##urna": 19376, "pathway": 12898, "attributed": 6232, "calling": 8361, "##ician": 17319, "##uay": 21388, "##asa": 23070, "##arie": 17661, "##91": 19412, "##uum": 13968, "##tini": 27642, "citizen": 15274, "obliged": 27250, "motivated": 18900, "prepar": 2398, "apic": 21075, "crypt": 17876, "inverters": 29129, "demeter": 14792, "cortez": 28657, "moon": 25889, "##orr": 1367, "cubic": 10207, "responsibilities": 5506, "nj": 7839, "eng": 1849, "##tit": 2717, "783": 12824, "wetlands": 19276, "ounces": 12086, "perfum": 24229, "467": 11424, "##lined": 7038, "finra": 10326, "handpi": 27764, "anomalies": 20140, "province": 9575, "grouping": 19551, "##erated": 12537, "senti": 18307, "interdigital": 22826, "riversource": 20782, "courseware": 25136, "clauses": 8030, "phoenix": 7946, "student": 6526, "ante": 25130, "reclass": 3328, "death": 4872, "protection": 2828, "interpretations": 5541, "instrumentation": 11779, "apartments": 7276, "fitting": 28348, "##opausal": 29113, "fiber": 5400, "links": 12258, "thinly": 16594, "sugges": 23769, "ddr": 23737, "embodies": 29227, "wal": 5525, "##retirement": 3973, "eea": 19168, "##lay": 13871, "urs": 23880, "resolute": 22715, "edmonton": 28275, "##aked": 22202, "observer": 28021, "##etting": 18202, "servicing": 2671, "##\u0142": 497, "##stra": 26877, "become": 2523, "novel": 7800, "rejected": 11725, "ticket": 9955, "integration": 4263, "##pring": 19431, "norcraft": 25336, "dyco": 17548, "##ervices": 15634, "term": 917, "incorporation": 3919, "meantime": 29532, "remediated": 15251, "ckd": 20746, "longer": 3132, "crown": 8951, "reacqu": 12460, "propco": 29106, "skid": 28209, "primary": 2526, "tyco": 12107, "schwe": 25122, "recording": 5888, "##liffe": 26304, "##entin": 28717, "##lement": 1450, "##major": 23655, "mediaone": 29075, "depleted": 12937, "installers": 23862, "transmitting": 17605, "uk": 6216, "farr": 22917, "foster": 11099, "once": 4630, "violence": 21070, "clinicians": 15957, "poorly": 19981, "\u277a": 411, "visitors": 13361, "wa": 3336, "##na": 4674, "proprietary": 2988, "trad": 1528, "##aste": 28473, "harbinger": 25267, "ethane": 21854, "touche": 6967, "1956": 14372, "mortal": 7726, "red": 1124, "actuary": 15176, "models": 4520, "sotheby": 19033, "##\u2079": 567, "finalization": 15964, "##inn": 6401, "spread": 4418, "defici": 4259, "minutes": 10177, "camping": 20748, "metrology": 19350, "fhlbny": 15385, "##fm": 15217, "thru": 19034, "##itiz": 3486, "##mic": 17667, "derive": 7442, "##ocene": 29292, "tierra": 29958, "adelphia": 16764, "##uctu": 2540, "cons": 770, "##ourt": 20284, "nontransfer": 25222, "135": 5492, "jurisdictions": 3883, "##pin": 18233, "relating": 2150, "585": 11526, "##iverton": 24771, "fti": 27539, "##yards": 16975, "lowe": 19116, "##hydr": 13238, "combination": 2713, "engineered": 8109, "cgmps": 22696, "##ervable": 3553, "making": 3195, "reconstit": 27814, "literature": 10004, "titles": 8962, "rom": 10416, "weap": 15978, "monoline": 27041, "9": 129, "interoperability": 16433, "##tan": 18468, "apis": 21560, "##ste": 10777, "pepper": 20171, "csfb": 12823, "##activ": 16529, "imputation": 22607, "move": 6789, "unmet": 14282, "overlaps": 29051, "dressing": 28346, "##agon": 10623, "clearwater": 21467, "qtr": 20542, "media": 3614, "timeline": 17890, "emb": 4698, "junction": 21243, "shanxi": 25121, "leslie": 18578, "##omed": 11936, "##trak": 24345, "buc": 11303, "mot": 4690, "ameriprise": 25472, "##del": 27268, "renews": 17021, "battery": 8486, "aml": 17264, "##esign": 9279, "bloodstream": 24388, "designee": 16512, "\u2122": 337, "asia": 4607, "disadvantage": 9255, "initially": 4567, "##iza": 25417, "breat": 16533, "270": 7957, "telecommun": 3974, "junior": 5566, "including": 1035, "##rimp": 27214, "garb": 27085, "308": 9856, "bundle": 16798, "merr": 29049, "134": 7586, "##ib": 781, "\u0251": 219, "auth": 9294, "crimes": 21149, "##ynam": 22571, "houses": 10702, "martha": 20956, "twa": 21592, "ehr": 17193, "guad": 28117, "placed": 4396, "prodigy": 28211, "expensive": 5375, "grossman": 27692, "##iam": 21466, "arbitron": 19977, "utah": 7531, "usc": 18559, "35": 2337, "illumin": 21329, "tesla": 28707, "##ron": 3754, "fe": 1068, "quotient": 24927, "perfumania": 28219, "circumst": 2390, "resum": 9868, "krona": 24684, "kore": 7360, "pleadings": 23094, "##portun": 2498, "gasification": 18784, "weekly": 7969, "##\u207b": 527, "##ador": 11358, "##ibly": 7418, "##ideo": 24267, "tacoma": 23429, "reconciliations": 10987, "expense": 1216, "neurogen": 29795, "rmp": 27216, "fron": 6932, "formed": 4256, "santee": 29879, "wellhead": 15133, "excavation": 23621, "images": 10273, "releases": 6702, "artists": 14184, "fca": 16560, "751": 12673, "optionees": 22357, "tend": 7266, "stabilization": 11101, "failed": 6210, "##tive": 717, "down": 2386, "cmb": 29297, "asps": 28552, "refcorp": 26885, "pappas": 28983, "travelzoo": 26647, "phi": 7906, "dhs": 23623, "exclusions": 13846, "##ancies": 9597, "drip": 14017, "##bin": 14135, "debilitating": 25055, "query": 25720, "annex": 13605, "pef": 14411, "info": 21064, "confirmed": 8881, "totaling": 3460, "##cester": 20716, "obligors": 15271, "ipalco": 25736, "talented": 15388, "satell": 4580, "voyage": 16898, "ht": 19573, "fleet": 5140, "erbitux": 27358, "transporters": 21279, "leaks": 18357, "##avit": 26674, "yearly": 12580, "[unused36]": 37, "##tra": 12514, "canton": 20367, "tourists": 29828, "daniels": 21656, "979": 13745, "##atos": 27567, "obs": 3204, "railroads": 14038, "##phy": 12031, "revenues": 1331, "taste": 16461, "roebuck": 29452, "mogul": 16437, "insignificant": 8369, "fired": 7405, "stronger": 9616, "melt": 22358, "j": 152, "consolidations": 9209, "##bler": 25981, "effectively": 3515, "trenwick": 21508, "hungary": 16318, "##oft": 6697, "##preciated": 26530, "taubman": 23968, "recons": 10805, "willful": 9396, "sek": 29974, "##over": 1638, "expected": 1522, "safes": 29632, "hou": 6308, "##evine": 29706, "unrecoverable": 20080, "unbundling": 20845, "layer": 10700, "liquid": 1769, "nextel": 11547, "blockchain": 25573, "##tinguish": 4992, "reservoir": 7670, "refractive": 23081, "deliverable": 9136, "hearing": 6895, "scholastic": 25303, "tasks": 12346, "mmi": 24702, "994": 13392, "##imbur": 2664, "genetically": 17582, "313": 9998, "receiving": 5286, "800": 4250, "##utions": 1437, "unins": 22847, "##tein": 25296, "unpreced": 15212, "##acao": 29204, "##spp": 29848, "ideas": 15562, "bomb": 19819, "741": 13201, "mccann": 28455, "cannabino": 25630, "##200": 14559, "overseen": 20590, "acetamin": 29971, "indeterminable": 28665, "centr": 6827, "urinary": 21419, "fisher": 13183, "verisign": 20001, "ass": 826, "wasted": 20794, "inverse": 17196, "estee": 27387, "torn": 22628, "trin": 19018, "##occus": 29779, "toled": 14452, "hcm": 26692, "990": 11733, "454": 11066, "siemens": 13573, "elapsed": 18363, "pbgc": 17895, "dermat": 15394, "gabriel": 25316, "invalidated": 12990, "prologis": 14479, "616": 11875, "##print": 7922, "depreciation": 2323, "solaris": 26772, "posters": 28710, "howell": 20396, "toc": 26585, "\u0440": 265, "refract": 13722, "trusts": 5056, "bill": 4757, "disposals": 10659, "conclud": 3581, "rn": 15031, "quist": 28663, "##ining": 2433, "##olog": 1224, "viro": 28784, "rps": 18058, "compute": 10647, "forms": 4310, "nrc": 8686, "sizes": 9354, "securitized": 8611, "##lonal": 14622, "contr": 838, "sam": 6796, "publishers": 10916, "rti": 21338, "creditor": 9330, "ratify": 21490, "guaranties": 18353, "exempts": 20795, "enj": 7377, "intermediaries": 10891, "wit": 10417, "##array": 22755, "nonconforming": 27017, "diversion": 7921, "mission": 7126, "wee": 3951, "##itr": 6158, "##oughts": 25224, "calculating": 6157, "##vine": 11865, "prelimin": 5574, "aim": 6823, "translation": 4515, "sentry": 26219, "27": 2065, "witt": 28887, "national": 2151, "ceramic": 13718, "franchisors": 22097, "analyzer": 19025, "##going": 2725, "wci": 16946, "vet": 26488, "started": 8868, "lacked": 20901, "cleans": 23095, "whatsoever": 19318, "\uffe5": 446, "##erald": 9833, "curing": 23512, "sunopt": 26222, "slide": 21345, "##establish": 27879, "occupies": 13511, "ana": 15967, "separable": 20299, "biodegr": 24736, "competitiveness": 11343, "blocked": 21148, "##esco": 17700, "##ak": 1995, "fibrosis": 17569, "tyler": 18384, "weak": 3500, "28th": 26636, "##ishable": 18892, "petr": 4312, "##vc": 13358, "798": 13125, "vess": 4958, "##adata": 21692, "testosterone": 20378, "irish": 14840, "interdep": 25371, "##yard": 14447, "\u25bc": 385, "econom": 1753, "wri": 29577, "diagnose": 21600, "lucent": 13395, "gains": 2342, "rebound": 26299, "conjug": 21654, "delic": 26421, "richard": 5891, "##rements": 8491, "involves": 4610, "challenging": 7715, "disinter": 14574, "wireline": 11321, "discharged": 13411, "cov": 15882, "hilf": 23188, "539": 12025, "##elin": 20317, "##ugene": 15380, "petitioners": 28737, "territories": 7663, "drs": 19800, "##wer": 22235, "palisades": 25459, "90th": 29722, "value": 904, "rehearing": 12095, "finalize": 15324, "arbitration": 6542, "forbear": 10339, "frisco": 28534, "##ears": 8908, "ratification": 11926, "##azole": 20406, "shut": 6761, "##owell": 27427, "neuros": 16657, "nintendo": 21209, "prospects": 4457, "nutr": 6525, "##\u03c7": 594, "cbp": 27159, "##ubs": 27795, "lack": 4472, "indemnitee": 19818, "74": 3433, "minera": 21991, "watkins": 27309, "replaced": 5901, "clicks": 23091, "##ame": 1481, "protein": 7720, "regim": 14241, "[unused55]": 56, "extrusions": 25728, "disney": 12412, "breadth": 9018, "frp": 26371, "electrical": 5926, "smelters": 25694, "cet1": 16832, "costing": 17777, "\u20a4": 327, "fhlbb": 21503, "radi": 7977, "##fires": 26839, "smithfield": 28070, "nerve": 16011, "##alc": 14783, "##ante": 14485, "rc": 11149, "whiting": 19154, "leveraging": 9132, "alv": 22872, "fixes": 21375, "[unused79]": 80, "##86": 16952, "ny": 4168, "gsv": 29190, "##ened": 5117, "uncorrected": 26175, "usng": 22557, "##eye": 20813, "##pers": 8571, "mn": 13695, "##dorf": 22100, "ascertain": 11414, "footprint": 10392, "puc": 8754, "transitions": 17358, "jeopard": 11044, "pike": 20246, "##arn": 27927, "eth": 3552, "zhong": 15962, "msv": 24693, "i2": 29437, "ecology": 25514, "allerg": 11957, "##issancere": 22856, "caus": 19810, "religious": 25364, "##verti": 1757, "summers": 28620, "umbrella": 14421, "assurance": 2041, "22": 2040, "chlor": 11087, "sponsorships": 18807, "eliz": 13997, "effectiveness": 2768, "din": 15107, "crc": 18882, "concentra": 21933, "saratoga": 21634, "block": 5655, "deep": 7206, "apex": 17793, "candidates": 3165, "##storms": 22046, "fares": 19380, "edit": 23097, "##eb": 2672, "optionality": 28571, "midd": 14912, "\u25e6": 390, "dissatisfied": 24020, "##anc": 655, "teas": 28175, "633": 11988, "\u2026": 306, "965": 12488, "##aho": 7088, "##tilities": 17010, "092": 13677, "##ani": 13713, "exceptionally": 29397, "insolvency": 8123, "ibew": 22662, "hans": 12582, "distributor": 5160, "powerbu": 27503, "alloys": 14354, "functioning": 13483, "digit": 11300, "ih": 11948, "##aser": 17506, "hvac": 13796, "gulf": 5103, "hosting": 8303, "published": 5331, "##dren": 7192, "bhd": 22842, "ltip": 7235, "at": 746, "##rel": 5223, "reduce": 2232, "smart": 6610, "transferors": 25510, "##porter": 17075, "##aze": 28575, "polys": 20399, "pilgrim": 21411, "pollut": 9586, "##ixa": 29531, "inconsist": 19187, "prudhoe": 29873, "dialogue": 23744, "fannie": 8531, "interloc": 9386, "dimin": 7309, "##inta": 16839, "955": 12818, "envelope": 25870, "leu": 26063, "##olec": 26539, "topic": 3840, "023": 13549, "cytogen": 26353, "##aman": 17290, "buying": 7456, "commissioners": 15926, "58": 3470, "registrable": 19264, "maver": 26921, "lakeshore": 28793, "teamsters": 21951, "##bert": 4314, "genon": 12019, "subscrib": 5354, "acrylic": 23643, "bioavail": 22413, "pean": 22212, "colony": 16231, "##ight": 1351, "1950": 19959, "whitney": 16564, "cumbers": 28740, "expedients": 16353, "iss": 19928, "weis": 19420, "kidney": 14584, "pemb": 28931, "14th": 26526, "collects": 14410, "cable": 3482, "grading": 13879, "472": 11486, "##cil": 3794, "recalc": 16794, "buff": 8310, "1946": 28700, "helped": 12103, "gart": 21627, "jeopardize": 13127, "winston": 17993, "terminations": 9290, "ours": 6617, "renovate": 20420, "encumbrances": 14613, "##ilin": 18692, "promoting": 10802, "hypert": 18272, "supporting": 4286, "citic": 15431, "waive": 10625, "evidences": 29009, "conviction": 17685, "teams": 7573, "introduc": 3881, "regulator": 9375, "worldcom": 15472, "formulating": 20022, "zh": 9492, "pag": 16825, "patriot": 9482, "freshness": 29205, "kirby": 21576, "nfl": 23518, "harmful": 13474, "##osure": 24761, "globalstar": 14049, "##adex": 25462, "unsuitable": 15226, "stockholder": 2867, "eighth": 13231, "##inion": 2046, "remains": 4961, "##ata": 1468, "colomb": 22244, "##po": 16906, "crestwood": 19924, "ordered": 8100, "##atica": 29954, "641": 12615, "nexavar": 28686, "misrepresentation": 13548, "lai": 29261, "anton": 11552, "663": 12564, "oi": 23649, "bk": 14605, "009": 12791, "\u1d5e": 293, "tcpa": 28615, "bullet": 22990, "1972": 12657, "##plex": 23715, "courier": 18275, "monaco": 26796, "cord": 10641, "oconee": 28433, "predominantly": 8670, "enterprise": 3669, "rulemak": 26243, "staffed": 16611, "##ere": 782, "##aughlin": 17728, "gathers": 26290, "dodd": 5932, "garmin": 19463, "##icana": 29994, "hoch": 27184, "plug": 9619, "greens": 15567, "##transfer": 22457, "median": 10703, "##aterial": 5750, "itin": 26059, "osb": 18985, "intervals": 10434, "##atic": 6565, "eliminating": 8392, "barc": 20402, "enforce": 5037, "mccall": 28532, "beams": 26423, "geophys": 11348, "lub": 10297, "422": 9689, "volc": 17318, "##omach": 25655, "##\u0437": 586, "domiciliary": 26278, "depress": 8803, "maker": 8743, "alameda": 23866, "##\u2154": 579, "shopper": 24755, "hector": 29258, "expatri": 29497, "encum": 12658, "monday": 24627, "bacter": 10995, "munich": 21021, "##illips": 19205, "cranes": 16509, "capitalizations": 28310, "singly": 27947, "timberlands": 13756, "exelon": 6649, "peak": 6350, "surfaces": 16321, "10004": 29772, "harness": 16497, "thai": 26381, "enter": 1361, "shooting": 28316, "pamela": 27361, "expiring": 5645, "counseling": 17719, "##ucci": 20091, "##eastern": 8812, "relying": 11839, "guyana": 25289, "unmarketable": 19515, "translations": 19130, "restar": 28159, "dietary": 11194, "papp": 26934, "potter": 28559, "pend": 16654, "valor": 16102, "forfe": 4127, "torchmark": 17864, "##yph": 21333, "ascend": 27048, "##za": 7286, "redeploy": 18427, "ebi": 27246, "uncontroll": 18208, "native": 11446, "##df": 29913, "circumstances": 2406, "948": 13408, "adjusts": 9934, "rating": 3035, "\u2666": 401, "##agn": 3918, "##unctions": 3861, "##istan": 16600, "consens": 26814, "syn": 4526, "\u0459": 277, "261": 9956, "avoided": 15188, "shenz": 13577, "fi": 12227, "dame": 28108, "businesses": 2382, "shortcom": 22081, "true": 7433, "484": 11328, "clot": 23289, "westinghouse": 16330, "##tm": 8111, "bbx": 22330, "##rees": 6348, "axle": 25824, "bundled": 10914, "bag": 12551, "adopt": 4952, "greenbr": 20842, "##aby": 20122, "osteoporosis": 19666, "035": 12389, "macy": 20043, "probation": 28745, "defendants": 4277, "ether": 26716, "778": 12366,
[...]
